{"<s>":0,"<pad>":1,"</s>":2,"<unk>":3,"<mask>":4,"!":5,"\"":6,"#":7,"$":8,"%":9,"&":10,"'":11,"(":12,")":13,"*":14,"+":15,",":16,"-":17,".":18,"/":19,"0":20,"1":21,"2":22,"3":23,"4":24,"5":25,"6":26,"7":27,"8":28,"9":29,":":30,";":31,"<":32,"=":33,">":34,"?":35,"@":36,"A":37,"B":38,"C":39,"D":40,"E":41,"F":42,"G":43,"H":44,"I":45,"J":46,"K":47,"L":48,"M":49,"N":50,"O":51,"P":52,"Q":53,"R":54,"S":55,"T":56,"U":57,"V":58,"W":59,"X":60,"Y":61,"Z":62,"[":63,"\\":64,"]":65,"^":66,"_":67,"`":68,"a":69,"b":70,"c":71,"d":72,"e":73,"f":74,"g":75,"h":76,"i":77,"j":78,"k":79,"l":80,"m":81,"n":82,"o":83,"p":84,"q":85,"r":86,"s":87,"t":88,"u":89,"v":90,"w":91,"x":92,"y":93,"z":94,"{":95,"|":96,"}":97,"~":98,"¡":99,"¢":100,"£":101,"¤":102,"¥":103,"¦":104,"§":105,"¨":106,"©":107,"ª":108,"«":109,"¬":110,"®":111,"¯":112,"°":113,"±":114,"²":115,"³":116,"´":117,"µ":118,"¶":119,"·":120,"¸":121,"¹":122,"º":123,"»":124,"¼":125,"½":126,"¾":127,"¿":128,"À":129,"Á":130,"Â":131,"Ã":132,"Ä":133,"Å":134,"Æ":135,"Ç":136,"È":137,"É":138,"Ê":139,"Ë":140,"Ì":141,"Í":142,"Î":143,"Ï":144,"Ð":145,"Ñ":146,"Ò":147,"Ó":148,"Ô":149,"Õ":150,"Ö":151,"×":152,"Ø":153,"Ù":154,"Ú":155,"Û":156,"Ü":157,"Ý":158,"Þ":159,"ß":160,"à":161,"á":162,"â":163,"ã":164,"ä":165,"å":166,"æ":167,"ç":168,"è":169,"é":170,"ê":171,"ë":172,"ì":173,"í":174,"î":175,"ï":176,"ð":177,"ñ":178,"ò":179,"ó":180,"ô":181,"õ":182,"ö":183,"÷":184,"ø":185,"ù":186,"ú":187,"û":188,"ü":189,"ý":190,"þ":191,"ÿ":192,"Ā":193,"ā":194,"Ă":195,"ă":196,"Ą":197,"ą":198,"Ć":199,"ć":200,"Ĉ":201,"ĉ":202,"Ċ":203,"ċ":204,"Č":205,"č":206,"Ď":207,"ď":208,"Đ":209,"đ":210,"Ē":211,"ē":212,"Ĕ":213,"ĕ":214,"Ė":215,"ė":216,"Ę":217,"ę":218,"Ě":219,"ě":220,"Ĝ":221,"ĝ":222,"Ğ":223,"ğ":224,"Ġ":225,"ġ":226,"Ģ":227,"ģ":228,"Ĥ":229,"ĥ":230,"Ħ":231,"ħ":232,"Ĩ":233,"ĩ":234,"Ī":235,"ī":236,"Ĭ":237,"ĭ":238,"Į":239,"į":240,"İ":241,"ı":242,"Ĳ":243,"ĳ":244,"Ĵ":245,"ĵ":246,"Ķ":247,"ķ":248,"ĸ":249,"Ĺ":250,"ĺ":251,"Ļ":252,"ļ":253,"Ľ":254,"ľ":255,"Ŀ":256,"ŀ":257,"Ł":258,"ł":259,"Ń":260,"in":261,"ĉĉ":262,"int":263,"de":264,"Ġ=":265,"st":266,"Ġ<":267,");":268,"re":269,"Ġi":270,"def":271,"or":272,"Ġ(":273,"on":274,"ine":275,"define":276,"ĉĉĉ":277,"Ġl":278,"se":279,"Ġm":280,"Ġa":281,"Ġn":282,"++":283,"Ġ1":284,"cl":285,"00":286,"Ġ{":287,"Ġp":288,"Ġ0":289,"if":290,"ou":291,"Ġc":292,"for":293,"ll":294,"ur":295,"en":296,"()":297,"clu":298,"inclu":299,"include":300,"ret":301,"**":302,"ĉĉĉĉ":303,"Ġ<<":304,"urn":305,"return":306,"std":307,"--":308,"Ġs":309,"Ġ+":310,"Ġ>":311,"ong":312,"//":313,"Ġv":314,"..":315,"out":316,"it":317,"Ġ-":318,"ac":319,"Ġ\"":320,"am":321,"Ġint":322,"<<":323,"an":324,"];":325,"Ġt":326,"Ġb":327,"con":328,"at":329,"Ġlong":330,"][":331,"er":332,"ing":333,"yp":334,"ir":335,"us":336,"le":337,"++)":338,"ct":339,"Ġx":340,"Ġ&":341,"Ġd":342,"end":343,"Ġf":344,"typ":345,"\",":346,"Ġma":347,"(\"":348,"id":349,"al":350,"ar":351,"KK":352,"Ġ*":353,"ame":354,"ect":355,"si":356,"){":357,"mp":358,"ector":359,"****":360,"__":361,"ze":362,"type":363,"Ġ>>":364,"::":365,"Ġstd":366,"cout":367,"const":368,"cin":369,"0000":370,"].":371,"op":372,"==":373,"str":374,"Ġj":375,"ue":376,"os":377,"ĠT":378,"ĠĠ":379,"Ġr":380,"typedef":381,"ma":382,"Ġ==":383,"air":384,"WW":385,"();":386,"nt":387,"ol":388,"el":389,"EE":390,"Ġll":391,"size":392,"using":393,"hi":394,"ace":395,"ack":396,"ti":397,"Ġ}":398,"ans":399,"Ġ'":400,"sp":401,"else":402,">>":403,"emp":404,"Ġname":405,"od":406,"ut":407,"io":408,"Ġfor":409,"Ġ2":410,"Ġan":411,"space":412,"Ġy":413,"##":414,"----":415,"ate":416,"string":417,"eg":418,"Ġnamespace":419,"],":420,"))":421,"(\"%":422,"oid":423,"back":424,"vector":425,"Ġre":426,"Ġreturn":427,"endl":428,"ush":429,"um":430,"Ġ;":431,"....":432,"Ġk":433,"set":434,"Ġans":435,"Ġmain":436,"as":437,"Ġu":438,"pr":439,"âĸ":440,"])":441,"egin":442,"ĠM":443,"whi":444,"Ġ%":445,"irst":446,"while":447,"bit":448,"begin":449,"Ġg":450,"Ġ<=":451,"ĉĠ":452,"temp":453,"LL":454,"ble":455,"ow":456,"ch":457,"can":458,"stre":459,"Ġ,":460,"stream":461,"cond":462,"!=":463,"********":464,"late":465,"second":466,"ith":467,"DD":468,"Ġif":469,"ii":470,"Ġin":471,"ouble":472,"Ġ++":473,"template":474,"ĠĊ":475,"void":476,"]=":477,"xt":478,"Ġvector":479,"ed":480,"bits":481,"<<\"":482,"stdio":483,"Ġpair":484,"++.":485,"Ġ+=":486,"stdc":487,"canf":488,"ĉĉĉĉĉ":489,"]);":490,"Ġ)":491,"Ġcout":492,"Ġ&&":493,"ase":494,"tie":495,"KKKK":496,"<=":497,"),":498,"(),":499,"pair":500,"\";":501,"ve":502,"++;":503,"ool":504,"intf":505,"88":506,"ename":507,"Ġendl":508,"Ġ:":509,"et":510,"ass":511,"ĠN":512,"ad":513,"nc":514,"Ġcon":515,"));":516,"Ġpr":517,"Ġ|":518,"me":519,"push":520,"alse":521,"with":522,"IN":523,"¿½":524,"ï¿½":525,"Ġmod":526,"ator":527,"sy":528,"Ġ/":529,"line":530,"erator":531,"Ġe":532,"class":533,"Ġ!=":534,"long":535,"sync":536,"ĠF":537,"ĠA":538,"open":539,"put":540,"Ġcin":541,"Ġmax":542,"max":543,"Ġdouble":544,").":545,"first":546,"10":547,"ode":548,"reopen":549,"--------":550,"ke":551,"Ġq":552,"of":553,"ĉĊ":554,"bool":555,"rt":556,"Ġres":557,"dp":558,"is":559,"EEEE":560,"...":561,"â£":562,"cnt":563,"////":564,"pb":565,"scanf":566,"WWWW":567,"ree":568,"ĠS":569,"ĠP":570,"++){":571,"ï¿½ï¿½":572,"####":573,"gn":574,"base":575,"MM":576,"Ġop":577,";}":578,"uto":579,"ize":580,"ot":581,"Ġtr":582,"Ġfirst":583,"())":584,"res":585,"char":586,"OD":587,"=(":588,"un":589,"Ġ__":590,"ag":591,"typename":592,"que":593,"Ġ>=":594,"Ġpush":595,"Ġit":596,"AX":597,"Ġ3":598,"Ġ_":599,"Ġconst":600,"Ġar":601,"Ġmin":602,"........":603,"map":604,"ic":605,"};":606,"printf":607,"he":608,"Ġw":609,"ul":610,"ist":611,"ĉĉĉĉĉĉĉĉ":612,"nd":613,"____":614,"((":615,"auto":616,"Ġsecond":617,"00000000":618,";;":619,"cur":620,"ios":621,"mod":622,"';":623,"Ġpb":624,"tin":625,"sert":626,"ast":627,"ort":628,"txt":629,"Ġmake":630,"freopen":631,"64":632,"bu":633,"inline":634,"ĠR":635,"****************":636,"Ġdp":637,"err":638,"Ġ//":639,"false":640,",,":641,"ge":642,"val":643,"Ġval":644,"+=":645,"--)":646,"min":647,"fs":648,"ĠL":649,"â£¿":650,"')":651,"Ġcnt":652,"ck":653,"Ġo":654,"olve":655,"Ġst":656,"(){":657,"GG":658,"âĸĳ":659,"Ġmp":660,"Ġ\"<<":661,"Ġch":662,"ig":663,"om":664,"sum":665,"tr":666,"ak":667,"Ġh":668,"ĠMOD":669,"arr":670,"pos":671,"Ġ||":672,"Ġ((":673,"sign":674,"000":675,"Ġsz":676,"====":677,">=":678,"pp":679,"DDDD":680,"\",&":681,"ime":682,"());":683,"il":684,"Ġoperator":685,"\");":686,"node":687,"Ġget":688,"ind":689,"ap":690,"orde":691,"ĠC":692,"ĠG":693,"INF":694,"Ġall":695,"cd":696,"11":697,"OR":698,"]==":699,"ount":700,"Ġscanf":701,"ĠD":702,"--;":703,"ĉĉĠ":704,",-":705,"Ġde":706,"ext":707,"queue":708,"mat":709,"double":710,"endif":711,"\")":712,"signed":713,"up":714,"tinue":715,"Ġtrue":716,"Ġvoid":717,"reak":718,"iostream":719,"Ġelse":720,"lld":721,"ĉĉĉĉĉĉ":722,"Ġld":723,"8888":724,"Ġtyp":725,"ss":726,"MAX":727,"tree":728,"->":729,"]]":730,"Ġpii":731,"Ġun":732,"em":733,"Ġmid":734,"ĠI":735,"âĸĳâĸĳ":736,"EP":737,"gor":738,"â£¿â£¿":739,"ds":740,"Ġto":741,"ĠB":742,"ithm":743,"gorithm":744,"Ġ\";":745,"âĸĪ":746,"Ġcur":747,"Ġsize":748,"Ġ?":749,"99":750,"len":751,"num":752,"all":753,"Ġfalse":754,"algorithm":755,"Ġprintf":756,"ĉĠĠ":757,"Ġsum":758,"ver":759,"pre":760,"fi":761,"ion":762,"lo":763,"Ġ#":764,"sort":765,"get":766,"]-":767,"gs":768,"fr":769,"bs":770,"Ġz":771,"Ġ'\\":772,"ent":773,"ĠINF":774,"th":775,"li":776,"ower":777,"////////":778,"mx":779,"agma":780,"pragma":781,"pop":782,"KKKKKKKK":783,"sz":784,"ES":785,"NO":786,"&&":787,"math":788,"/*":789,"Ġstdin":790,"est":791,"Ġ100000000":792,"Ġ10":793,"Ġse":794,"Ġtypename":795,"AR":796,"to":797,"Ġ5":798,"ex":799,"*(":800,"ostream":801,"Ġmem":802,"red":803,"Ġfi":804,"Ġ7":805,"++--":806,"]+":807,"vi":808,"(!":809,"----------------":810,"ub":811,"co":812,"Ġios":813,"Ġ-=":814,"Ġunsigned":815,"count":816,"Ġ(!":817,"Ġinf":818,")%":819,"++--++--":820,"ay":821,"Ġarr":822,"ound":823,"ft":824,"Ġad":825,"ULL":826,"Ġsolve":827,"Ġis":828,"input":829,"rep":830,"oint":831,"MMMM":832,"Ġ);":833,"ld":834,"ĠGC":835,"ull":836,"sk":837,"ce":838,"32":839,"\",\"":840,"date":841,")(":842,"ht":843,"ifdef":844,"break":845,"########":846,"ff":847,");}":848,"ĉĉĠĠ":849,"ĠGCC":850,"Ġpos":851,"insert":852,"ps":853,"Ġvi":854,"Ġret":855,"',":856,"Ġgcd":857,"ordered":858,"ta":859,"Ġ4":860,"ĠV":861,"mid":862,"ĠO":863,"âĸĪâĸĪ":864,"idx":865,"*/":866,"ĠLL":867,"cmath":868,"Ġ\\":869,"Ġ\"\\":870,"Ġout":871,"âĸĴ":872,"ĠMAX":873,"53":874,"vis":875,"ï¿½ï¿½ï¿½ï¿½":876,"ro":877,"Ġinline":878,"18":879,"Ġchar":880,")/":881,"\"<<":882,"ight":883,"Ġid":884,"15":885,"Ġfreopen":886,"GS":887,"Ġle":888,"stack":889,"cstdio":890,"Ġset":891,"now":892,"im":893,"and":894,"100":895,"dfs":896,"Ġ\",":897,"Ġstring":898,"Ġrep":899,"pii":900,",&":901,"Ġos":902,"Ġtree":903,"Ġstdout":904,"bug":905,"cerr":906,"art":907,"Ġclass":908,"26":909,"Ġwhile":910,"fl":911,"NULL":912,"tim":913,"YES":914,"Ġ1000000007":915,"10000":916,"________":917,"Ġstr":918,"uct":919,"es":920,"clo":921,"ĉĉĉĠ":922,"ip":923,"assert":924,"sizeof":925,"continue":926,"mem":927,"Ġcerr":928,"................":929,"ax":930,"bound":931,"EEEEEEEE":932,"Ġbool":933,"[]":934,"ĠPI":935,"Ġlen":936,"sed":937,"========":938,"ty":939,"//#":940,"(-":941,"Ġ]":942,"ĠFOR":943,"Ġmemset":944,"Ġ--":945,"Ġmx":946,">&":947,"output":948,"Ġnum":949,"'.":950,"ity":951,"Ġpll":952,"hpp":953,"ri":954,"14":955,"Ġpre":956,"ĠU":957,"Ġread":958,"...)":959,"ĠAr":960,"12":961,"@@":962,"ARGS":963,"]++;":964,"uer":965,"Ġco":966,"SE":967,"ĉĉĊ":968,"buil":969,"Ġcontinue":970,"sse":971,"tmp":972,"ment":973,"Ġpi":974,"MAXN":975,"Ġoptim":976,"Ġdfs":977,"update":978,";;;;":979,"are":980,"clock":981,"ci":982,"solve":983,"({":984,"VA":985,"cstring":986,"his":987,"order":988,"ite":989,"uery":990,"Ġ!":991,"âĸĴâĸĴ":992,"iterator":993,"Ġull":994,"OC":995,"oc":996,"ĠX":997,"edge":998,";++":999,"Ġoptimize":1000,"wap":1001,"act":1002,"///":1003,"********************************":1004,"20":1005,",,,,":1006,"stat":1007,"erase":1008,"FOR":1009,"Ġof":1010,"});":1011,"ĠĠĊ":1012,"ction":1013,"Ġ[":1014,"Ġac":1015,"empty":1016,"Ġfr":1017,"().":1018,"stdin":1019,"ĠE":1020,"Ġsq":1021,"ok":1022,"struct":1023,"verse":1024,">(":1025,"Ġsizeof":1026,"::::":1027,"abs":1028,"]){":1029,"');":1030,"Ġadd":1031,"Ġ10000":1032,"MOD":1033,"add":1034,"INE":1035,"WWWWWWWW":1036,"Ġtemp":1037,"33":1038,"mn":1039,"cle":1040,"lib":1041,">,":1042,"Ġii":1043,"ont":1044,"ult":1045,"97":1046,"ep":1047,"sion":1048,"Ġdebug":1049,"LINE":1050,"Ġss":1051,"unordered":1052,"Ġ*/":1053,"time":1054,"Ġne":1055,"GGGG":1056,"Ġthe":1057,"man":1058,"Ġ.":1059,"stdlib":1060,"Ġtmp":1061,"maxn":1062,"vec":1063,"DG":1064,"]=='":1065,"ata":1066,"âķ":1067,"Ġvalue":1068,"Ġeps":1069,"DDDDDDDD":1070,"front":1071,"dist":1072,"','.":1073,"cision":1074,"Ġand":1075,"Ġ*=":1076,"1000":1077,"bitset":1078,"find":1079,"Ġarg":1080,"<<'":1081,"Ġ%=":1082,"Int":1083,")-":1084,"<<(":1085,"precision":1086,"gcd":1087,"24":1088,")+":1089,"WWW":1090,"Ġnode":1091,"Ġmul":1092,"////////////////":1093,"ioman":1094,"iomanip":1095,"88888888":1096,"comp":1097,"]={":1098,"Ġ(\"":1099,">;":1100,"adj":1101,"az":1102,"Ġup":1103,"REP":1104,"(...)":1105,"Ġend":1106,"fast":1107,"âĸĢ":1108,"âł":1109,"Ġ^":1110,"(__":1111,"Ġabs":1112,"++--++--++--++--":1113,"this":1114,"58":1115,"par":1116,"ange":1117,"gth":1118,"Ġbreak":1119,"Ġacos":1120,"ab":1121,"stdout":1122,"Ġ1000":1123,"ec":1124,"top":1125,"(_":1126,"â£¿â£¿â£¿â£¿":1127,"Ġmap":1128,"In":1129,"Ġ\"<<#":1130,"unction":1131,"resize":1132,"Ġinclude":1133,"Ġsort":1134,"EEE":1135,"JU":1136,")*":1137,"one":1138,"memset":1139,"ER":1140,"<<\"\\":1141,"ĉĉĉĠĠ":1142,"rix":1143,"name":1144,"AL":1145,"DGE":1146,"JUDGE":1147,"mask":1148,"xx":1149,"NLINE":1150,"<(":1151,"pper":1152,"ptr":1153,"builtin":1154,"ne":1155,"EB":1156,"159":1157,"rand":1158,"Ġ6":1159,"Ġ';":1160,"cstdlib":1161,"its":1162,"Ġdefine":1163,")*(":1164,"arent":1165,"14159":1166,"||":1167,"1415926":1168,"rr":1169,"Ġdb":1170,")<<":1171,"Ġ/=":1172,"--){":1173,"clear":1174,"dex":1175,"list":1176,"Ġostream":1177,"ndef":1178,"lace":1179,"Ġdist":1180,"last":1181,"KKK":1182,"Max":1183,"Ġlo":1184,"col":1185,"â¢":1186,"heck":1187,"','.','.":1188,"ST":1189,"deque":1190,"IO":1191,"rite":1192,"gnu":1193,"Ġcom":1194,"43":1195,"args":1196,"ĠONLINE":1197,"âĸĦ":1198,"Ġbu":1199,"à¦":1200,"ifndef":1201,"âĸĳâĸĳâĸĳâĸĳ":1202,"tag":1203,"ash":1204,"rbegin":1205,"di":1206,"iner":1207,"Ġbase":1208,"true":1209,"ĠH":1210,"]!=":1211,"used":1212,"EPS":1213,"tainer":1214,"Ġmn":1215,"22":1216,"141592653":1217,"swap":1218,"puts":1219,"cc":1220,"ĠMAXN":1221,"ore":1222,">::":1223,"('":1224,"Ġdx":1225,"37":1226,"xed":1227,"Ġĉ":1228,"length":1229,"sstream":1230,"Ġdy":1231,"},":1232,"30":1233,"MMMMMMMM":1234,"Ġcheck":1235,"ior":1236,"tot":1237,"Ġput":1238,"Ġlast":1239,"50":1240,"atrix":1241,"]*":1242,"ha":1243,"ctime":1244,"azy":1245,"lex":1246,"lli":1247,"dd":1248,"hs":1249,"ĠREP":1250,"Ġhe":1251,"value":1252,"OCAL":1253,"SEC":1254,"iority":1255,"UG":1256,"istream":1257,"Ġfind":1258,"tt":1259,"function":1260,"pow":1261,"Ġok":1262,"Ġvv":1263,"make":1264,"Ġex":1265,"Ġquery":1266,"Ġ){":1267,"<<\":":1268,"pbds":1269,"Ġsc":1270,"Ġlc":1271,"-=":1272,"Ġvec":1273,"aa":1274,"55":1275,"################":1276,"pll":1277,"AC":1278,"null":1279,"(),(":1280,"Ġvis":1281,"read":1282,"Ġff":1283,"container":1284,"Ġcomp":1285,"ĠY":1286,"Ġidx":1287,"low":1288,"/=":1289,"ink":1290,"root":1291,"00005":1292,"Ġpar":1293,"Ġdi":1294,"alc":1295,"ics":1296,"left":1297,"pl":1298,"uti":1299,"chr":1300,"ĠK":1301,"Ġhi":1302,"Ġ100":1303,"ĉĉĉĉĉĉĉ":1304,"seg":1305,"LE":1306,"istics":1307,"EBUG":1308,"ber":1309,"av":1310,"pol":1311,"sub":1312,"operator":1313,"arget":1314,"statistics":1315,"Ġ++)":1316,"assoc":1317,"prime":1318,"ĠLOCAL":1319,"Ġbit":1320,"Ġadj":1321,"cassert":1322,"ono":1323,"row":1324,"ĠEPS":1325,"Ġsi":1326,":.":1327,"Ġgo":1328,"Ġen":1329,"Ġ9":1330,"go":1331,"ation":1332,"...);":1333,"â¡":1334,"ĠArgs":1335,"pt":1336,"<<\"=":1337,"ead":1338,"16":1339,"next":1340,"]-'":1341,"KKKKK":1342,"Ġfast":1343,"__)":1344,"Ġauto":1345,"38":1346,"inf":1347,"Ġ{}":1348,"emplace":1349,"gh":1350,"popcount":1351,"Ġargs":1352,"oo":1353,"Ġï¿½ï¿½ï¿½ï¿½":1354,"mul":1355,"<<#":1356,"998":1357,"=-":1358,"Ġmaxn":1359,"ĠIn":1360,"ĠArg":1361,"14159265358":1362,"It":1363,"Ġ\":":1364,"Ġnow":1365,"rend":1366,"polic":1367,"=='":1368,"mt":1369,"46":1370,"Ġtarget":1371,"<<\"=\"<<":1372,"Ġtot":1373,"flag":1374,"che":1375,"Ġprint":1376,"lim":1377,"ME":1378,"Ġ()":1379,"Ġgetchar":1380,"inv":1381,"Ġpower":1382,"]+=":1383,"ng":1384,"Ġvll":1385,"Ġsh":1386,"eric":1387,"]));":1388,"ive":1389,"Ġstart":1390,"Ġsqr":1391,"1415926535897":1392,"99824":1393,"31":1394,"Size":1395,"56":1396,"functional":1397,"lic":1398,"nxt":1399,"================":1400,"9982443":1401,"RE":1402,"point":1403,"ary":1404,"14159265358979":1405,"998244353":1406,"ype":1407,"()-":1408,")))":1409,"policy":1410,"wer":1411,"Ġnxt":1412,"reverse":1413,"1111":1414,"iff":1415,"Ġcount":1416,"Ġright":1417,"Ġbe":1418,"34":1419,"@@@@":1420,"ĉĉĉĉĠ":1421,"]];":1422,"<<\"=\"<<(":1423,"expr":1424,"Ġleft":1425,"lf":1426,"Ġless":1427,"fact":1428,"typeof":1429,"Ġpoint":1430,"hild":1431,"Ġprime":1432,"Ġ->":1433,"check":1434,"Ġnext":1435,"ero":1436,"Ġnull":1437,"right":1438,"Ġlower":1439,"start":1440,"Ġcol":1441,"Ġscan":1442,"Ġtype":1443,"]].":1444,"ĉĉĉĉĉĉĉĉĉĉĉĉĉĉĉĉ":1445,"Ġ};":1446,"Ġfl":1447,"Ġvii":1448,"ĠSZ":1449,"--------------------------------":1450,"Matrix":1451,"UT":1452,"Ġpow":1453,"Ġnew":1454,"ublic":1455,"gr":1456,"oot":1457,"Ġyou":1458,"sc":1459,"ĠĠĠĊ":1460,"INT":1461,"chrono":1462,"qu":1463,"Ġrb":1464,"ique":1465,"[]={":1466,"Ġ>>=":1467,"data":1468,"ĠW":1469,"dis":1470,"pi":1471,"com":1472,"no":1473,"numeric":1474,"-'":1475,"100000000":1476,"ath":1477,"(\"-":1478,"]>":1479,"77":1480,"KKKKKKKKKKKKKKKK":1481,"199":1482,"Ġfrom":1483,"fstream":1484,"Ġpop":1485,"RT":1486,"FF":1487,"II":1488,"Node":1489,"Ġth":1490,"âĸĪâĸĪâĸĪâĸĪ":1491,"ĉĉĉĊ":1492,"]<<\"":1493,"1415926535897932":1494,"link":1495,"ater":1496,"Ġsp":1497,"+(":1498,"ĠQ":1499,"Ġtest":1500,",;":1501,"]--;":1502,"public":1503,"]))":1504,"ob":1505,"Ġfixed":1506,"(*":1507,"Ġind":1508,"Mod":1509,"Ġpf":1510,"sq":1511,"init":1512,"Ġor":1513,"Ġmy":1514,"aph":1515,"test":1516,"su":1517,"nullptr":1518,"bb":1519,"mi":1520,"uple":1521,"lement":1522,"%=":1523,"orm":1524,"ark":1525,"ove":1526,"main":1527,"ular":1528,"Ġgr":1529,"loop":1530,"reater":1531,"Ġas":1532,"ns":1533,"static":1534,"Ġinit":1535,"01":1536,"Ġcl":1537,"lazy":1538,"uint":1539,")){":1540,"rem":1541,"ĉĉĉĉĉĉĉĉĉĉĉĉ":1542,"ail":1543,"Point":1544,"Ġon":1545,"Ġseg":1546,"Ġtrace":1547,"Ġmask":1548,"141592653589793238":1549,"Ġparent":1550,"Ġfact":1551,"Ġroot":1552,"200":1553,"exp":1554,"]<":1555,"edges":1556,"PER":1557,"Ġpriority":1558,"MP":1559,"vv":1560,"ros":1561,"Ġsqrt":1562,"Ġlcm":1563,"Ġusing":1564,"Ġsub":1565,"forn":1566,"+=(":1567,"dge":1568,",(":1569,"RO":1570,"dig":1571,"19937":1572,"oth":1573,"write":1574,",+":1575,"Ġinv":1576,"build":1577,"-(":1578,"(\"\\":1579,"Ġĉĉ":1580,"pth":1581,"per":1582,"IT":1583,"curr":1584,"OCK":1585,"LOCK":1586,"cost":1587,"Ġresult":1588,"()){":1589,"*=":1590,"14159265358979323846":1591,"No":1592,"Ġ998244353":1593,"Ġ::":1594,"pa":1595,"yy":1596,"Ġvvi":1597,"Ġat":1598,"]][":1599,"sin":1600,"unique":1601,"Ġsetprecision":1602,"Ġ31":1603,"________________":1604,"ĠMod":1605,"Ġmd":1606,"mark":1607,"Ġ8":1608,"Ġswap":1609,"âĸĴâĸĴâĸĴâĸĴ":1610,"ho":1611,"query":1612,"'){":1613,"ILE":1614,"getchar":1615,"lock":1616,"100005":1617,"ah":1618,"++--++--++--++--++--++--++--++--":1619,"MX":1620,"ON":1621,"âĸĢâĸĢ":1622,"Ġ20":1623,"LOCKS":1624,"[(":1625,"79":1626,"48":1627,"Ġupper":1628,"sol":1629,"able":1630,"00000":1631,"lower":1632,"iii":1633,"~~":1634,"Ġordered":1635,"]=(":1636,"fix":1637,"Ġ...":1638,"ĠALL":1639,"Ġrem":1640,"index":1641,"Ġupdate":1642,"sh":1643,"******":1644,"Ġpa":1645,"]]++;":1646,"&(":1647,"Ġcan":1648,"from":1649,"19":1650,"Ġbegin":1651,"Ġclock":1652,"eger":1653,"ĠIO":1654,"vl":1655,"Val":1656,"ited":1657,"Ġms":1658,"ĠDEBUG":1659,"ie":1660,"Ġ'<<":1661,"hash":1662,"tion":1663,"Ġcomment":1664,"Ġputs":1665,"500":1666,"jj":1667,"lc":1668,"Ġ),":1669,"complex":1670,"avx":1671,"Ġsol":1672,"constexpr":1673,"odd":1674,"Ġcost":1675,"DE":1676,"17":1677,"lity":1678,"WK":1679,"Ġsy":1680,",_":1681,"har":1682,")<<\",":1683,"Ġvs":1684,")));":1685,"req":1686,"be":1687,"ev":1688,"do":1689,"stringstream":1690,"ang":1691,"och":1692,"random":1693,"new":1694,"/**":1695,"ory":1696,"Ġlow":1697,"Ofast":1698,"linker":1699,"Ġforn":1700,"ĉĉĉĉĉĉĉĉĉĉĉĉĉ":1701,");++":1702,"Ġxx":1703,"tiset":1704,"):":1705,"ative":1706,"epoch":1707,"since":1708,"Ġ\"/":1709,"Ġdis":1710,"]),":1711,"db":1712,"////////////////////////////////":1713,"23":1714,"-')":1715,"GGGGGGGG":1716,"ms":1717,"parent":1718,"array":1719,"pq":1720,"arg":1721,"wo":1722,"Time":1723,"Ġ(((":1724,"ach":1725,"ost":1726,"ild":1727,"heap":1728,"100000":1729,"++]":1730,"Ġpt":1731,"Ġbin":1732,"Ġused":1733,"MatrixSize":1734,"vs":1735,"utility":1736,"Ġuint":1737,"buf":1738,"Ġsu":1739,">>(":1740,"]])":1741,"acro":1742,"Ġ100000":1743,"unsigned":1744,"our":1745,"ill":1746,"substr":1747,"),(":1748,"Ġ^=":1749,"59":1750,"28":1751,"Ġrall":1752,"Iterator":1753,"te":1754,"stead":1755,"own":1756,"MaxMatrixSize":1757,"âĸĮ":1758,"Pos":1759,"best":1760,"Ġiter":1761,"file":1762,"AS":1763,"Ġ++;":1764,"Ġpq":1765,"atch":1766,"ave":1767,"vel":1768,"Ġerr":1769,"print":1770,".....":1771,"27":1772,"Ġpp":1773,"Ġcmp":1774,"Ġdbg":1775,"Ġflag":1776,"Ġ\")":1777,"Ġoo":1778,"result":1779,"sim":1780,"Ġ30":1781,"calc":1782,"60":1783,"___":1784,"Ġtime":1785,"Ġlb":1786,"names":1787,"Ġrhs":1788,"++,":1789,"TES":1790,"Ġpw":1791,"Ġno":1792,"Ġwrite":1793,"exit":1794,"less":1795,"ross":1796,"AT":1797,"Char":1798,"Ġ26":1799,"','.','.','.','.":1800,"Ġtm":1801,"9999":1802,"__,":1803,"ly":1804,"ance":1805,"power":1806,"âķĲ":1807,"steady":1808,"Ġ\"]":1809,"Count":1810,"Ġrng":1811,"................................":1812,")==":1813,"Ġcalc":1814,"Tree":1815,"erge":1816,"Ġneed":1817,"29":1818,"Ġvl":1819,"ord":1820,"Ġ'.":1821,"key":1822,"memory":1823,"Ġyy":1824,"------":1825,"Ġsf":1826,"Ġbuild":1827,"Case":1828,"CRT":1829,"Ġver":1830,"Edge":1831,"Ġemplace":1832,"URE":1833,"ĠInt":1834,"hor":1835,"###":1836,"13":1837,"KKKKKKK":1838,"Yes":1839,"Ġtl":1840,"Ġ(*":1841,"','":1842,"ays":1843,"omp":1844,"SECURE":1845,"tex":1846,"Ġaa":1847,"ĠMP":1848,"\".":1849,";.":1850,"ĠPB":1851,"Ġdo":1852,"iv":1853,"200005":1854,"ust":1855,"high":1856,"br":1857,"ĠPII":1858,"tuple":1859,"ĠMax":1860,"Ġke":1861,"sqrt":1862,"nx":1863,"Type":1864,"md":1865,"rime":1866,"prev":1867,"AN":1868,"Ġistream":1869,"ALL":1870,"element":1871,"ice":1872,"Out":1873,"]]=":1874,"iiii":1875,"<=(":1876,">>=":1877,"tf":1878,"loat":1879,"loops":1880,"(;":1881,"ĠDB":1882,"Ġprev":1883,"Ġtemplate":1884,"Ġnorm":1885,"Ġinput":1886,"################################":1887,"))%":1888,"1000000007":1889,"âĸĦâĸĦ":1890,"DEBUG":1891,"Ġindex":1892,"Ġgc":1893,"},{":1894,"%%":1895,"diff":1896,"Ġ\"[":1897,"Ġby":1898,"Min":1899,"digit":1900,"Ġtt":1901,"debug":1902,"popcnt":1903,"upd":1904,"ard":1905,"SZ":1906,"tl":1907,"âĶ":1908,"();}":1909,"Ġmt":1910,"ter":1911,"OF":1912,"ĉĉĉĉĉĠ":1913,"roll":1914,"Ġ',":1915,"Ġdata":1916,"/********************************":1917,"FILE":1918,"Ġthis":1919,"Ġmk":1920,"flow":1921,"use":1922,")),":1923,"1010":1924,"Ġreverse":1925,"Ġ|=":1926,"DDD":1927,"cr":1928,"mmx":1929,"ĠMX":1930,"deg":1931,"Ġbest":1932,"ssse":1933,"Ġinsert":1934,";;;;;;;;":1935,"Arr":1936,"unroll":1937,"ĉĉĉĉĠĠ":1938,"Ġ(;":1939,"FS":1940,"Ġli":1941,"Ġrange":1942,"abm":1943,"IZ":1944,"ift":1945,"GGG":1946,"âĶĢ":1947,"mm":1948,"KE":1949,"40":1950,"\\\\":1951,"ank":1952,",,,,,,,,":1953,"arch":1954,"mall":1955,"Ġbig":1956,"âķ¬":1957,"pref":1958,"8888888888888888":1959,"ls":1960,"])%":1961,"DDDDDDDDDDDD":1962,"57":1963,"]%":1964,"NIN":1965,"WAR":1966,"St":1967,"Ġfin":1968,"po":1969,"rk":1970,"Ġdel":1971,"WARNIN":1972,"Integer":1973,"other":1974,"Ġarray":1975,"WARNINGS":1976,"]<<":1977,"TT":1978,"clim":1979,"answer":1980,"une":1981,"Ġbuf":1982,"priority":1983,"ĠPoint":1984,"big":1985,"der":1986,"ution":1987,"WWWWWWW":1988,"climits":1989,"Line":1990,">=(":1991,"Ġrev":1992,"Ġpref":1993,"Ġrr":1994,")?":1995,"]>=":1996,"Ġcc":1997,"Ġrand":1998,"=\"":1999,"upper":2000,"uthor":2001,"OUT":2002,"sible":2003,"Ġub":2004,"limits":2005,"ra":2006,"Ġnot":2007,"ĠFI":2008,"fixed":2009,"dx":2010,"fa":2011,"by":2012,"maxN":2013,"setprecision":2014,"AST":2015,"3456":2016,"MMMMMMMMMMMMMMMM":2017,"IZE":2018,"!!":2019,"Ġputchar":2020,"à§":2021,"Ġmi":2022,"fac":2023,"Ġ');":2024,"WWWWWW":2025,"EEEEEEEEEEEE":2026,"**************":2027,"fill":2028,"Ġline":2029,"throw":2030,"maxi":2031,"â£¿â£¿â£¿â£¿â£¿â£¿â£¿â£¿":2032,"Ġnames":2033,"For":2034,"visited":2035,"native":2036,"Ġ\"\";":2037,"'\\":2038,"â£¿â£":2039,"tune":2040,":::":2041,"EC":2042,"Ġnumber":2043,"://":2044,"onent":2045,"rc":2046,"rb":2047,"21":2048,"]<=":2049,"Ġps":2050,"Ġfile":2051,"NN":2052,"ĉĠĊ":2053,"Ġiterator":2054,"\"\"":2055,"KKKKKK":2056,"Ġ.,;":2057,"Ġ{-":2058,"âĸĲ":2059,"00010":2060,"ln":2061,"cy":2062,"*-":2063,"NU":2064,"Ġ32":2065,"<<'\\":2066,"Ġ(__":2067,"Ġfore":2068,"head":2069,"fj":2070,"ctype":2071,"Ġ(\"%":2072,"ĠIOS":2073,"âķ¬âķ¬":2074,"Ġque":2075,"iter":2076,"ĠCLOCKS":2077,"Ġ100005":2078,"Ġbs":2079,"ĠĠĠĉ":2080,"ION":2081,"Ġev":2082,"ET":2083,"Ġĉĉĉ":2084,"ACK":2085,"ik":2086,"25":2087,"rev":2088,"namespace":2089,"child":2090,"264":2091,"Ġ-*-":2092,"obj":2093,",\"":2094,"â¢Ģ":2095,"101":2096,"111":2097,"89":2098,"Ġrow":2099,"Ġcomma":2100,"ONG":2101,"()))":2102,"Ġone":2103,"ĠINT":2104,"rs":2105,"Ġare":2106,"Ġpc":2107,"Ġdeb":2108,"pw":2109,"Ġdiff":2110,"kk":2111,"']":2112,"ask":2113,";--":2114,"OG":2115,"rint":2116,"iz":2117,"Ġ\"%":2118,"47":2119,"Ġï¿½ï¿½ï¿½ï¿½ï¿½ï¿½":2120,"onoid":2121,"sm":2122,"(\"\");":2123,",.":2124,"Ġneg":2125,"pro":2126,"STACK":2127,"ry":2128,"Ġedge":2129,"flush":2130,"PB":2131,"Ġ/*":2132,"Ġcurr":2133,"my":2134,"<<-":2135,"105":2136,"Ġ\"(\"":2137,"Ġ1000000000":2138,"Long":2139,"000000":2140,"Ġanswer":2141,"!=(":2142,"Ġzero":2143,"Ġ'-')":2144,"enter":2145,"'s":2146,"Ġrt":2147,"Ġgreater":2148,"Ġwith":2149,"Ġper":2150,"));}":2151,"log":2152,"14159265358979323846264":2153,"WKK":2154,"Ġta":2155,"Ġbb":2156,"color":2157,"Ġmark":2158,"Ġdepth":2159,"Ġsync":2160,"Ġal":2161,"multiset":2162,"dep":2163,"âĸĵ":2164,"49":2165,"Range":2166,"ĠVI":2167,"AME":2168,"acos":2169,"neg":2170,"'||":2171,"PII":2172,"putchar":2173,"Value":2174,"ud":2175,"ĠInput":2176,"Vector":2177,"@@@@@@@@":2178,"fin":2179,"Ġrd":2180,"--,":2181,"Ġsign":2182,"uff":2183,"Ġel":2184,"Ġhash":2185,"Input":2186,"['":2187,"}}":2188,"Ġexp":2189,"popcountll":2190,"DEEEE":2191,"(#":2192,"ara":2193,"ux":2194,"Ġnormal":2195,"Ġprimes":2196,"del":2197,"Ġwh":2198,"rg":2199,"(\"%.":2200,"action":2201,"Ġhell":2202,"67":2203,")]":2204,"ĠZ":2205,"[](":2206,"_|":2207,"oost":2208,"#####":2209,"Ġexit":2210,"we":2211,"Ġscani":2212,")&":2213,")<<\"":2214,"Ġlim":2215,"Ġlli":2216,",:":2217,"ND":2218,"Ġhigh":2219,"bad":2220,"Ans":2221,"]='":2222,"]],":2223,"greater":2224,"here":2225,"Ġstruct":2226,"ain":2227,"bl":2228,"1415926535897932384626433":2229,"depth":2230,"ded":2231,"Ġ\"-":2232,"WWWWWWWWW":2233,"itr":2234,"Ġgen":2235,"af":2236,"case":2237,"old":2238,"Ġà¦":2239,"Ġwe":2240,"Ġ///":2241,"Ġcomplex":2242,"_(":2243,"cp":2244,"Ġtotal":2245,"tc":2246,"ire":2247,"total":2248,"need":2249,"ĠĠĉ":2250,"ĉĉĉĉĉĉĉĉĉ":2251,"ope":2252,"ĠPR":2253,"Str":2254,"Ġlazy":2255,"Ġmacro":2256,"ai":2257,"......":2258,"Ġeb":2259,"fri":2260,"**/":2261,"âłĢ":2262,"âĶĢâĶĢ":2263,"OW":2264,"tm":2265,"umber":2266,"aken":2267,"80":2268,"Ġoutput":2269,"Ġupd":2270,"Ġfill":2271,"friend":2272,"NAME":2273,"was":2274,"blem":2275,"ces":2276,"PI":2277,"ĉĉĉĉĉĉĉĠĠ":2278,"ant":2279,"__;":2280,"ition":2281,"ED":2282,"ĉĉĉĉĉĉĉĉĉĉĉĉĉĉĉĉĉĉĉĉĉĉĉĉĉĉĉĉĉĉĉĉ":2283,"De":2284,"âĸĳâĸĳâĸĳ":2285,"****************************************************************":2286,"derr":2287,"Ġvpii":2288,"123":2289,"path":2290,"Ġmodular":2291,"ĉĉĉĉĊ":2292,"000000000":2293,"();++":2294,"Ġï¿½ï¿½ï¿½ï¿½ï¿½ï¿½ï¿½ï¿½":2295,"Ġstat":2296,")((":2297,"LI":2298,"Ġedges":2299,"/(":2300,"Ġ~":2301,"rent":2302,"ĠJ":2303,"()),":2304,"NOTES":2305,"Ġmat":2306,"qual":2307,"cept":2308,"Ġmulti":2309,"CT":2310,"54":2311,"âķĲâķ":2312,"&...":2313,"()==":2314,"ump":2315,"Ġ11":2316,"::::::::":2317,"VI":2318,"Ġme":2319,"}\";":2320,")<<\"\\":2321,"Le":2322,"arry":2323,"mag":2324,"dy":2325,"isdigit":2326,"34567":2327,"ial":2328,"]]);":2329,"cctype":2330,"Ġ')":2331,"Ġgraph":2332,"dbg":2333,"ies":2334,"ACRO":2335,"Iter":2336,"freq":2337,",,,":2338,"Ġ\"]\";":2339,"UN":2340,"float":2341,"888":2342,"cum":2343,"ĉĉĉĉĉĉĠĠ":2344,"Ġhtt":2345,"66":2346,"14159265358979323846264338":2347,"rest":2348,"ors":2349,"ny":2350,"Ġother":2351,"tail":2352,"texs":2353,"ĠÐ":2354,"ĠSQ":2355,"hite":2356,"Ġ][":2357,"Ġpdd":2358,"TS":2359,"fore":2360,"â¢¿":2361,"Ġ>::":2362,")>>":2363,"ĠPT":2364,"Ġsec":2365,"nod":2366,"Ġclr":2367,"Ġ\"[\";":2368,"ĠPrint":2369,"1005":2370,"wt":2371,"ute":2372,"Ġrnd":2373,"state":2374,";;;":2375,"ĠLINF":2376,"ks":2377,"Ġnl":2378,"Ġcross":2379,"disp":2380,"ww":2381,"Ġ];":2382,"mon":2383,"srand":2384,"bj":2385,"clz":2386,"........................":2387,"nn":2388,"Ġshift":2389,"Ġext":2390,"search":2391,"Ġmodul":2392,")<":2393,"unc":2394,"ear":2395,"39":2396,"vll":2397,"[++":2398,"Ġ12":2399,"lst":2400,"suf":2401,"Child":2402,"Ġpro":2403,"--------------":2404,"cap":2405,"df":2406,"EK":2407,"Ġorder":2408,"Ġodd":2409,"WWWWW":2410,"cmp":2411,"Ġ&_":2412,"Ġunordered":2413,"EM":2414,"Ġassert":2415,"Ġbinary":2416,"son":2417,"level":2418,"Ġhead":2419,"Ġkey":2420,"Ġvc":2421,"Ġfabs":2422,"68":2423,"cpp":2424,"ĉĉĉĉĉĉĠ":2425,"Ġsm":2426,"61":2427,"Prime":2428,"Ġ\")\";":2429,"XX":2430,"Ġbound":2431,"ivate":2432,"0000000000":2433,"âĸĳâĸĳâĸĳâĸĳâĸĳâĸĳâĸĳâĸĳ":2434,"raction":2435,"1000000":2436,"Sum":2437,"mini":2438,"Ġfn":2439,"100010":2440,"ĉĉĉĉĉĉĉĉĉĉĉ":2441,"1415926535897932384626433832":2442,"Ġ.:":2443,")+(":2444,"Ġstatic":2445,"==-":2446,"================================":2447,"jk":2448,"imer":2449,"atcher":2450,"range":2451,"Ġmaxi":2452,"ĉĉĉĉĉĉĉĉĉĉ":2453,"primes":2454,"dispatcher":2455,"Ġcont":2456,"Ġmerge":2457,"graph":2458,"ASE":2459,"Ġpl":2460,"tp":2461,"cs":2462,"zero":2463,"ĉĉĉĉĉĉĉĠ":2464,"&]":2465,"Ġvar":2466,"(#__":2467,"Ġthat":2468,"Ġ`":2469,"eld":2470,"Ġ<<\"":2471,"iple":2472,"EEEEEEEEEEEEEEEE":2473,"20000":2474,"Ġtop":2475,"Ġdig":2476,"ASK":2477,"ĠFor":2478,"Ġ(_":2479,"Ġchk":2480,"Ġ\"{":2481,"side":2482,"assign":2483,"ource":2484,"eve":2485,"cess":2486,"CLOCKS":2487,"dq":2488,"ĠLD":2489,"ĠComp":2490,"Ġ].":2491,"Ġ--------------------------------":2492,"Ġcase":2493,"ulate":2494,"Ġct":2495,"good":2496,"tu":2497,"pha":2498,"Ġtc":2499,"erse":2500,"private":2501,"ĠNULL":2502,";}}":2503,"Ġri":2504,"ĠMin":2505,"1001":2506,"sec":2507,"Ġ1000000":2508,"++--++--++--++--++--++--++--++--++--++--++--++--++--++--++--++--":2509,"ĠDBN":2510,"Ġtypedef":2511,"IME":2512,"Ġloc":2513,"ba":2514,"down":2515,"Ġbr":2516,"Ġ200":2517,"*****":2518,"Con":2519,"ðŁ":2520,"()+":2521,"Ġdep":2522,"GGGDDDDDDDDDDDD":2523,"141592653589793238462643383279":2524,";:":2525,"Ġnx":2526,"Ġtuple":2527,"Ġdeg":2528,"comma":2529,"************************":2530,"Ġ50":2531,"Ġstrlen":2532,"LG":2533,"Ðµ":2534,");(":2535,"core":2536,"stdinPos":2537,"300":2538,"69":2539,"Ġ15":2540,"Ġobj":2541,"âłĢâłĢ":2542,"ĠOO":2543,"Array":2544,"ĠNode":2545,"Ġoff":2546,"]:":2547,"Ġmodint":2548,"ĠLOG":2549,"[],":2550,"Ġitr":2551,"Ġvb":2552,"cltype":2553,"Ġargc":2554,"'t":2555,"eps":2556,"opy":2557,"),&(":2558,"'&&":2559,"anc":2560,"Ġcode":2561,"stem":2562,"IL":2563,"Ġpath":2564,"ĠPLL":2565,"Ġlog":2566,"ish":2567,"CH":2568,"scan":2569,"Ġtp":2570,"ĠDI":2571,"stderr":2572,"NUM":2573,")++)":2574,"Ð¾":2575,"Ġnd":2576,"Ġsd":2577,"\",(":2578,"&&(":2579,"bo":2580,"Ġ[&]":2581,"AA":2582,"AD":2583,"Ġvpll":2584,"irection":2585,"Imp":2586,"ĠMEM":2587,"ser":2588,"IOS":2589,"egment":2590,"ew":2591,"++++":2592,"Ġtwo":2593,"Ġfac":2594,"Ġloop":2595,"$$":2596,"KKKKKKKKKK":2597,"EEEEEEEEEEE":2598,"dir":2599,"ĠGet":2600,"07":2601,"cast":2602,"number":2603,"ĠTR":2604,"41":2605,"reg":2606,"Ġhave":2607,"3333":2608,"[{":2609,"rd":2610,")[":2611,"msk":2612,"09":2613,"63":2614,"ĠĠĠĉĉ":2615,"macro":2616,"ork":2617,"ui":2618,"]>>":2619,"dif":2620,"Ġmult":2621,"Ġerror":2622,"MIN":2623,"Ġed":2624,"ä¸":2625,"inp":2626,"fo":2627,"Ġhere":2628,"Ġsuf":2629,"Ġeven":2630,"real":2631,"Ġbfs":2632,"]=-":2633,"ĉĠĠĊ":2634,"ĠEOF":2635,"â¡¿":2636,"lint":2637,"Ġlst":2638,"EED":2639,"Ġ----------------":2640,"llah":2641,"Ġtriple":2642,"Ġwas":2643,"Ġlevel":2644,"Ġï¿½ï¿½ï¿½ï¿½ï¿½":2645,"44":2646,"block":2647,"128":2648,"fst":2649,"two":2650,"Ġ\".":2651,"KW":2652,"LGG":2653,".:":2654,"sa":2655,"Ġ\"<<(":2656,"'+":2657,"ĠTail":2658,"87":2659,"Set":2660,"even":2661,"<='":2662,"ĠmaxN":2663,"Ġlg":2664,".......":2665,"Ġmultiset":2666,"small":2667,"Ex":2668,"Power":2669,"Ġiii":2670,"matrix":2671,"CTION":2672,"Ġfst":2673,"Ġ!(":2674,"[])":2675,"Ġlength":2676,"Ġ200005":2677,"11111111":2678,"51":2679,"Ġ19":2680,"Ġgood":2681,"Ġcy":2682,"â£¯":2683,"sl":2684,"Ġ++){":2685,"ere":2686,"Ġ});":2687,"ĠMIN":2688,"ister":2689,"âĸĪâĸĪâķ":2690,"[\"":2691,"ij":2692,"Ġfa":2693,"Ġbounds":2694,"ated":2695,"Ġdelta":2696,"ĠFAST":2697,"cross":2698,"done":2699,"Ġdd":2700,"Ġ___":2701,"qr":2702,"buff":2703,"Ġhttps":2704,"bin":2705,"Ġ'.')":2706,"'},{":2707,"]-=":2708,"-=(":2709,"_,":2710,"}};":2711,"))/":2712,"Ġ500":2713,"ĠULL":2714,"...);}":2715,"â£·":2716,"â£Ł":2717,"lush":2718,"Ġĉĉĉĉ":2719,"Ġwill":2720,"ĠLong":2721,"ĠVA":2722,"EEK":2723,"fjt":2724,"ization":2725,"Comp":2726,"Ġab":2727,"SIZE":2728,"eed":2729,"&&...":2730,"Ġyour":2731,"()(":2732,"\",&(":2733,"hitespace":2734,"mo":2735,"ï¿½ï¿½ï¿½":2736,"close":2737,"Ġsin":2738,"MN":2739,"^=":2740,"200000000":2741,"ply":2742,"Monoid":2743,"nb":2744,"Ġso":2745,"\";}":2746,"Ġqr":2747,">());":2748,"Ġ(-":2749,"+'":2750,"qq":2751,"step":2752,"()->":2753,"DEF":2754,"Mul":2755,"Ġnodes":2756,"Ġpd":2757,"lb":2758,"Ġ17":2759,"Ġchild":2760,"Ġ\");":2761,"elper":2762,"Ġ60":2763,"]/":2764,"Ġ{{":2765,"uf":2766,"Ġ123":2767,"Ġppb":2768,"Ġmini":2769,"]=='.":2770,"have":2771,"ĠDirection":2772,"perm":2773,"Ġdec":2774,"à§ĩ":2775,"Ġ16":2776,"ify":2777,"ĠMACRO":2778,"valc":2779,"ãĢ":2780,"rec":2781,")>":2782,"[*":2783,"()<<":2784,"Ġara":2785,"ĠRE":2786,"____________":2787,"()>":2788,"Ġrank":2789,"Ġrest":2790,"Ġargv":2791,"Ġ',');":2792,")=(":2793,"110":2794,"Ġny":2795,"va":2796,"Ġptr":2797,"Ġrec":2798,"////////////////////////////////////////////////////////////////":2799,"trie":2800,"Ġtake":2801,"rit":2802,"uck":2803,"}*/":2804,"inc":2805,"register":2806,"WKKKKK":2807,"Ġqu":2808,"jji":2809,"ï¼":2810,"ĠRA":2811,"100100":2812,"Ġnargs":2813,"sent":2814,"Ġvp":2815,"Scan":2816,")];":2817,"ile":2818,"ĠIN":2819,"Ġelement":2820,"Ġsep":2821,"VEC":2822,"kol":2823,"Ġuse":2824,"PP":2825,"âĸĪâĸĪâĸĪ":2826,"locked":2827,"Ġmemo":2828,"table":2829,"nk":2830,"ostringstream":2831,"Ġfunction":2832,"ĠAuthor":2833,"Ġqueue":2834,"2000":2835,"lvl":2836,"Ġfx":2837,"Re":2838,"orary":2839,"Ġsk":2840,"vert":2841,"Cnt":2842,"OL":2843,"FFFF":2844,"UNCTION":2845,")=":2846,"!=-":2847,"Ġvisited":2848,">();":2849,"Ġ>(":2850,"nce":2851,"vals":2852,"Ġpo":2853,"=((":2854,"exponent":2855,"IM":2856,"ossible":2857,"ĠTT":2858,"Ġreset":2859,"Ġlca":2860,"merge":2861,"<<*":2862,"5555":2863,"Ġ--)":2864,"Ġ--;":2865,"Ġ*(":2866,"ĠFILE":2867,"ĠUn":2868,"Ġspl":2869,"bfs":2870,"Number":2871,"DB":2872,"]&&":2873,"lg":2874,"---":2875,"Ġfo":2876,"loc":2877,"End":2878,"form":2879,"Test":2880,"Ġ[&](":2881,"USE":2882,"olution":2883,"Ġost":2884,"Ġcolor":2885,"Ġce":2886,"ĉĠĉ":2887,"Ġstep":2888,"Ġvalues":2889,"SS":2890,"Ġdif":2891,":\"":2892,"var":2893,"}//":2894,"Ġinc":2895,"Start":2896,"Bit":2897,"Ġris":2898,"Ġ'?":2899,"â£¿â¡":2900,"Pow":2901,"Ġhas":2902,"]==-":2903,"Ġ&=":2904,"String":2905,"ĉĠĠĠĊ":2906,"raph":2907,"store":2908,"Ġvd":2909,"altu":2910,"Ð°":2911,"Ġsgn":2912,"ick":2913,"ĠgetChar":2914,"fflush":2915,"ĠModular":2916,"']++;":2917,"]!=-":2918,"ward":2919,"Ġln":2920,"0000000":2921,"Ġforr":2922,"oi":2923,"Ġbigmod":2924,"_;":2925,"ure":2926,"tri":2927,"Ġstringstream":2928,"1234567":2929,"âĸĢâĸĦ":2930,"lca":2931,"Ġboost":2932,"Ġ\"}\";":2933,"Ġfy":2934,"imum":2935,"Ġmove":2936,"stri":2937,")/(":2938,"ĠreadInt":2939,"Add":2940,"Ġdir":2941,"valid":2942,"tint":2943,"Ġ(~":2944,"100001":2945,"SERT":2946,"ircle":2947,"Ġstrchr":2948,"Ġshort":2949,"IMP":2950,"Ġ{};":2951,"Ġins":2952,"tests":2953,"Ġmm":2954,"ACE":2955,"Ġbad":2956,"Ġback":2957,"ĠFraction":2958,"Ġ;}":2959,"Ġpowmod":2960,"âĸĵâĸĵ":2961,"PT":2962,"Pro":2963,"Th":2964,"``":2965,"ucl":2966,"Ġmatrix":2967,"##~~":2968,"Ġui":2969,"Ġscl":2970,"tain":2971,"Ġxxx":2972,"%%%%":2973,"ĠMA":2974,"nodes":2975,"âĢ":2976,"ref":2977,"ingle":2978,"Ġ'*":2979,"Ġref":2980,"AB":2981,"To":2982,"Ġve":2983,"distance":2984,"'},{'.":2985,"rng":2986,"Ġmodulus":2987,"ifstream":2988,"entr":2989,"ctz":2990,"mk":2991,"ya":2992,"Ġna":2993,"div":2994,"]<<'":2995,"lol":2996,"vii":2997,"Ġsl":2998,"unlocked":2999,"ĠDFS":3000,"]]--;":3001,"jti":3002,"WWK":3003,"WWKK":3004,"KKKKW":3005,"ĠInf":3006,"LR":3007,"move":3008,"Ġcap":3009,"Ġfprintf":3010,"##_":3011,"Ġkol":3012,"Ġlist":3013,"++]=":3014,"âĸĳâĸĳâĸĳâĸĳâĸĳ":3015,"]!='":3016,"ðŁĴ":3017,"cxx":3018,"nl":3019,"Ġcand":3020,"ðŁĴ©":3021,"='":3022,"Whitespace":3023,"uk":3024,"FUNCTION":3025,"ĠSolve":3026,"Inverse":3027,"Ùİ":3028,"dec":3029,";(":3030,"Ġte":3031,"Ġfd":3032,"''":3033,",...)":3034,"Ġjj":3035,"Helper":3036,"ID":3037,"gt":3038,"ĠAns":3039,"ĠST":3040,"Ġflow":3041,"nr":3042,"which":3043,"________________________________":3044,"la":3045,"pf":3046,"owel":3047,"200000":3048,"SU":3049,"]?":3050,"vc":3051,"ĉĉĉĉĉĠĠ":3052,"ĠLLONG":3053,"dot":3054,"ways":3055,"ãģ":3056,"Ġerase":3057,"<<\"[":3058,"gg":3059,"tic":3060,"erence":3061,"ÑĤ":3062,"++];":3063,"ef":3064,"ĠĠĉĉ":3065,"Ġkk":3066,"Ġpat":3067,"ĠSIZE":3068,"error":3069,"PC":3070,"Ġford":3071,"imag":3072,"pc":3073,"dsu":3074,"Ġforeach":3075,"-----":3076,"Ġbits":3077,"Ġxy":3078,"Data":3079,"Ġck":3080,"Ġ'#":3081,"228":3082,"uu":3083,"Ġover":3084,"=\"\";":3085,"ðŁĴ©ðŁĴ©":3086,"<_":3087,"DL":3088,"modular":3089,"ĠFORE":3090,"]*(":3091,"â£»":3092,"â£½":3093,";;;;;;":3094,"Ġthan":3095,"Ġimp":3096,"Ġ'\"":3097,">='":3098,"(++":3099,"ts":3100,"Ġdr":3101,"apsed":3102,"vertexs":3103,"UL":3104,"pdate":3105,"()));":3106,"Ġchr":3107,"Ġdiv":3108,"DFS":3109,"Ġrs":3110,"otate":3111,"multi":3112,"oraryNode":3113,"has":3114,"Ġblock":3115,"vers":3116,"<<\"-":3117,"Ġdistance":3118,"lp":3119,"Ġdot":3120,"))*":3121,",__":3122,"^(":3123,"defor":3124,"Ġcr":3125,"Ġdown":3126,"GGGGGGGGGGGGGGGG":3127,"cpy":3128,"deforces":3129,")<(":3130,"Ġchange":3131,"KKKKKKKKKKKKKKK":3132,"WWWWWWWWWWW":3133,"DDDDDDDDDDD":3134,"EEEK":3135,"ASSERT":3136,"Solve":3137,"Ġsplit":3138,"EMP":3139,"lft":3140,"Ġmii":3141,"Ġ10000000":3142,"];}":3143,"Ġnn":3144,"Ġ>,":3145,"Ġfreq":3146,"prefix":3147,"Ġwhat":3148,"Ġrc":3149,")-(":3150,"EN":3151,"Ġsa":3152,"cx":3153,"mint":3154,"Ġsmall":3155,">>;":3156,"prv":3157,"]]==":3158,"Ġstream":3159,"Ġ>;":3160,"Ġwin":3161,"eing":3162,"arge":3163,"à¦¾":3164,"ĠTRACE":3165,"ARY":3166,"angle":3167,"/************************************************":3168,"Ġcenter":3169,"Se":3170,"%(":3171,"cb":3172,"onth":3173,"Ġalloc":3174,"MAT":3175,"FL":3176,"nw":3177,"Ġfaltu":3178,"ey":3179,"sx":3180,"oup":3181,"<<\",":3182,"Left":3183,"nect":3184,"***":3185,"prod":3186,"IntegerRange":3187,"âķ¬âķ¬âķ¬âķ¬":3188,"Ġiiii":3189,"ROW":3190,"argv":3191,"98":3192,"siz":3193,"Ġpiii":3194,"Ġtests":3195,"ide":3196,"Ġ();":3197,"Ġls":3198,"Ġ(!(":3199,"ĠEX":3200,"Ġgrid":3201,"âĸĢâĸĢâĸĢâĸĢ":3202,"\"[":3203,"utation":3204,"maxx":3205,"ĠUN":3206,"****************************************":3207,"99999999":3208,"Ġrun":3209,"undef":3210,"Dist":3211,"PUT":3212,"Ġpli":3213,"Impossible":3214,"Ġask":3215,"ĠTime":3216,"hell":3217,"ffff":3218,"Ġmultiply":3219,"gc":3220,"Ġbeg":3221,"chk":3222,"tti":3223,"acti":3224,"Ġtail":3225,"alpha":3226,"ĠThe":3227,"ĠMonoid":3228,"Ġsieve":3229,"Ġwhich":3230,"ĠGCD":3231,"FT":3232,"Ġfori":3233,"Ġtrans":3234,"\"]":3235,"LD":3236,"seeing":3237,"TASK":3238,"eb":3239,"Ġdivi":3240,"nax":3241,"Ġcs":3242,"][(":3243,"Ġ2000000000":3244,"]]]]":3245,"plus":3246,"bal":3247,"change":3248,"EEEEEE":3249,"oose":3250,"**************/":3251,"cumulate":3252,"EEEEE":3253,"mit":3254,"inter":3255,"==(":3256,"=*":3257,"OME":3258,"505":3259,"ersect":3260,"400":3261,">'":3262,"nm":3263,"run":3264,"Ġlp":3265,"Ġfir":3266,"ĠRe":3267,"DEB":3268,"ner":3269,"lev":3270,"<'":3271,"Ġlol":3272,"Ġdor":3273,"MMM":3274,"256":3275,"boost":3276,"::.":3277,"kek":3278,"ĠSQR":3279,"=_":3280,"Ġbl":3281,"Ġï¿½ï¿½ï¿½ï¿½ï¿½ï¿½ï¿½":3282,">(),":3283,"zi":3284,"fter":3285,"Hash":3286,"ofstream":3287,"Ġrandom":3288,"\"),":3289,"src":3290,"Ġlhs":3291,"Ġfloat":3292,":::::":3293,"('\\":3294,"Ar":3295,"sprime":3296,"ĠIt":3297,"5005":3298,"):(":3299,"DP":3300,"ru":3301,"','.','.','.','.','.','.','.','.":3302,"Read":3303,"VER":3304,"day":3305,"Ġcarry":3306,"getline":3307,"Len":3308,"eks":3309,"war":3310,"Ġprefix":3311,"Ġsiz":3312,"Ġus":3313,"rect":3314,"opt":3315,"ĠName":3316,"ĠisPrime":3317,"pause":3318,"45":3319,"stra":3320,">>>":3321,"(&":3322,"Id":3323,");++(":3324,"(')":3325,"One":3326,"[_":3327,"lt":3328,"win":3329,"Ġprv":3330,"system":3331,"ĠFi":3332,",,,,,,":3333,"ader":3334,"prot":3335,"invd":3336,"Ġchrono":3337,"CA":3338,"Segment":3339,"carry":3340,"fir":3341,"Ġones":3342,"RI":3343,"|(":3344,"Ñģ":3345,");--":3346,"Ġaux":3347,"])+":3348,"ĠFORD":3349,">()":3350,"ql":3351,"(((":3352,"bution":3353,"â£¿â£¿â£¿â£¿â£¿â£¿":3354,"/**************":3355,"EG":3356,"fabs":3357,"ger":3358,"xy":3359,"olower":3360,"1000005":3361,"center":3362,"ee":3363,"Ġ**************/":3364,"decltype":3365,"Ġ<<(":3366,"=='-')":3367,"found":3368,"wa":3369,"Ġlvl":3370,"ĉĉĉĉĉĉĉĉĉĉĉĉĉĉ":3371,"uffer":3372,"Ġ~(":3373,"ia":3374,"ign":3375,"//*":3376,"Ġtin":3377,"Ġfs":3378,"INES":3379,"######":3380,"MATH":3381,"yes":3382,"Ġ\"!":3383,"~~~~":3384,"ov":3385,"Ġ@":3386,"Ġwork":3387,"DEFINES":3388,"[__":3389,"eci":3390,"fn":3391,"the":3392,"Ġ\"#":3393,"off":3394,"(){}":3395,"00001":3396,"Ġcomb":3397,"@@@@@@@@@@@@@@@@":3398,"Ġ\"{\";":3399,"author":3400,"mult":3401,"haust":3402,"problem":3403,"sf":3404,"ĠBig":3405,"ueries":3406,"ould":3407,"take":3408,"Double":3409,"ceil":3410,"Ġpoints":3411,"bbbb":3412,"DK":3413,"Ġsha":3414,"ĠDP":3415,"hausted":3416,"(\"/":3417,"templ":3418,"...:.":3419,"WWWWWK":3420,"Ġwhere":3421,"Ġprecalc":3422,",,,,,,,":3423,"WWWKK":3424,"WWWKKK":3425,"Ġfactor":3426,"âĸĴâĸĴâĸĴâĸĴâĸĴâĸĴ":3427,"ORT":3428,"ĠIter":3429,"IntegerIterator":3430,"stribution":3431,"BS":3432,"__);":3433,"*=(":3434,"OO":3435,"Res":3436,"Ġdone":3437,"++;}":3438,"Ġsolution":3439,"na":3440,"Ġer":3441,"imize":3442,"1234":3443,"grid":3444,"seq":3445,"),_":3446,"ĠFast":3447,"(!(":3448,"protector":3449,"&-":3450,"FAST":3451,"cm":3452,"og":3453,"ended":3454,"Ġql":3455,"Ġinfo":3456,"ĠEnd":3457,"ecial":3458,"Ġ\"[\"":3459,"72":3460,"Rep":3461,"np":3462,"lete":3463,"Ġinp":3464,"Ġvalid":3465,"ĠHead":3466,"'},{'.','.','.','.','.','.','.','.','.":3467,"Ġfoo":3468,"alf":3469,"Ġkek":3470,"And":3471,"ale":3472,"wr":3473,"Ð½":3474,"akh":3475,"||(":3476,"vvi":3477,"Ġ18":3478,"ĠSt":3479,"riend":3480,"[--":3481,"çļ":3482,"lect":3483,"Ġ29":3484,"ĠRFOR":3485,"çļĦ":3486,")!=":3487,"snd":3488,"Ġsnd":3489,"IMPL":3490,"BC":3491,"fun":3492,"ĠmodMul":3493,"ress":3494,"SET":3495,"Ġfiles":3496,"Ġmonth":3497,"setf":3498,"age":3499,"::::::":3500,":::::::":3501,"Ġ----------------------------------------------":3502,"stk":3503,"org":3504,"iform":3505,"647":3506,"geeks":3507,"Ġ1000000009":3508,"distribution":3509,"plic":3510,"Ġshow":3511,"bigmod":3512,"Ġstate":3513,"âłĽ":3514,"(*(":3515,"90":3516,"Ġ25":3517,"Buffer":3518,"Ġpld":3519,"ĠAllah":3520,"â£¾":3521,"very":3522,"azu":3523,"2005":3524,"})":3525,"//}":3526,"==\"":3527,"Ġeprintf":3528,"\",\"<<":3529,"ĠEND":3530,"Ġgener":3531,"Ġceil":3532,"oin":3533,"Args":3534,":\\":3535,"beg":3536,"gen":3537,"ĠSH":3538,"65":3539,"FN":3540,"/__":3541,"Ġï¿½":3542,"Ġopen":3543,"Ġyes":3544,"Ġreal":3545,"ument":3546,"ĠFirst":3547,"ĠOUT":3548,"factor":3549,",,,,,,,,,,,,,,,,":3550,")?(":3551,"eq":3552,"Ġsim":3553,"35":3554,"Ġng":3555,"<<\"]":3556,"Ġmodnum":3557,"current":3558,"Ġ-->":3559,"Ġ{+":3560,"Ġwho":3561,"70":3562,"}});":3563,"ĠCode":3564,"Ġbinpow":3565,"':":3566,"EL":3567,"istringstream":3568,"Ġ++__":3569,"ĠCon":3570,"ions":3571,"memo":3572,"Ġaccumulate":3573,"score":3574,"Ġfunc":3575,"ĠGET":3576,"ĉĉĠĠĊ":3577,"âĸĦâĸĦâĸĦâĸĦ":3578,"DI":3579,"KEE":3580,"MS":3581,"ĠMatrix":3582,"codeforces":3583,"ukazu":3584,"Oper":3585,"iw":3586,"Ġbo":3587,"app":3588,"Ġdef":3589,"sic":3590,">{":3591,"Di":3592,"px":3593,"vp":3594,"1024":3595,"âłĺ":3596,"By":3597,"Ġlink":3598,"Ġbp":3599,"ĠĠĠĉĉĉ":3600,"ĠNIL":3601,"Ġnullptr":3602,"entroid":3603,"DEE":3604,"DEEE":3605,"FI":3606,"WKKKK":3607,"()]":3608,"ĠTargs":3609,"WWWWWWWWWWWW":3610,"âĸĦâĸĢ":3611,"93":3612,"rhs":3613,"CHAR":3614,"Ġ--------------------":3615,"tx":3616,"Init":3617,"ĠModInt":3618,"Ġvertexs":3619,"]});":3620,"mq":3621,"Ġ[](":3622,"enti":3623,"Ġty":3624,"Ġvvll":3625,")&&":3626,"jt":3627,"//~":3628,"Ġ#__":3629,"337":3630,"readType":3631,"âĸĪâĸĪâĸĪâĸĪâĸĪâĸĪâĸĪâĸĪ":3632,"300005":3633,"Ġnr":3634,"__(":3635,"Ġdia":3636,"TESTS":3637,")][":3638,"lit":3639,"Ġ|_|":3640,"Ġelapsed":3641,"##~~##~~":3642,"Ġ('":3643,"Ġvals":3644,"ĠGod":3645,"ĠreadChar":3646,"Ġarea":3647,"buffer":3648,"Right":3649,"TIME":3650,"Ġcp":3651,"Ġuni":3652,"â¢¸":3653,"FILENAME":3654,"1415926535897932384626433832795":3655,"62":3656,"mode":3657,"ple":3658,"Ġra":3659,"Ġ48":3660,"ĠVector":3661,"argc":3662,"delta":3663,"da":3664,"Ġgot":3665,"ĠSP":3666,"Ġatan":3667,"ĉĉĉĉĉĉĉĉĉĉĉĉĉĉĉĉĉĉĉĉĉĉĉĉĉĉĉĉĉĉĉĉĉĉĉĉĉĉĉĉĉĉĉĉĉĉĉĉĉĉĉĉĉĉĉĉĉĉĉĉĉĉĉĉ":3668,":..":3669,";//":3670,"rank":3671,"Ġcurrent":3672,"zz":3673,"ĠØ":3674,"ĠNumber":3675,"ĠmodInverse":3676,"Ġbug":3677,"ÐĲ":3678,"fori":3679,"Ġsame":3680,"(\".":3681,"match":3682,"]=='.')":3683,"';}":3684,"Ġdq":3685,"8888888":3686,"Ġ1000000000000000000":3687,"counter":3688,"mas":3689,"Ġmaxx":3690,"hoge":3691,"\":\"":3692,"Al":3693,"Idx":3694,"cn":3695,"ml":3696,"Ġcn":3697,"Ġinverse":3698,"Ġ300":3699,"âķĲâķ¦":3700,"âķĲâķ©":3701,"who":3702,"ren":3703,">>>>":3704,"ĠIT":3705,"versed":3706,"Ġ62":3707,"âķĲâķĲ":3708,"Ġlocal":3709,"ins":3710,";};":3711,"AND":3712,"permutation":3713,"Ġlf":3714,"Ġfound":3715,"Ġmas":3716,"ĠFF":3717,"ĠPQ":3718,"Ġtri":3719,"147":3720,"Ej":3721,"Graph":3722,"aux":3723,"hod":3724,"Ġdsu":3725,"Ġ2000":3726,"Ġqq":3727,"997":3728,"ĠreadType":3729,"MMMMMMMMMMMMMMMMMMMMMMMMMMMMMMMM":3730,";\\":3731,"Ġio":3732,"uffle":3733,",;;":3734,"Ġmsk":3735,"Ġni":3736,"(_)":3737,")<=":3738,"same":3739,"Ġsout":3740,"ĠNO":3741,"abc":3742,"limit":3743,"510":3744,"Num":3745,"ĠÃ":3746,"Ġtaken":3747,"ĠdPower":3748,"loor":3749,"2222":3750,"################################################################":3751,"Use":3752,"strlen":3753,"height":3754,"'];":3755,"got":3756,"hh":3757,"not":3758,"pat":3759,"tj":3760,"ĠTES":3761,"prim":3762,"])-":3763,"88888":3764,")//":3765,"Ġ<<=":3766,"arn":3767,"nom":3768,"Ġpri":3769,"ĠCLR":3770,"sqr":3771,"active":3772,"Ġcall":3773,"ĠROF":3774,"10000000":3775,"onenti":3776,"Ġ++_":3777,"Ġwr":3778,"ĠCom":3779,"888888":3780,"AM":3781,"UE":3782,"night":3783,"Ġam":3784,"Ġdim":3785,"modify":3786,"+=\"":3787,"ORARY":3788,"EMPORARY":3789,"Ġpil":3790,"'))":3791,"ys":3792,"Ġero":3793,"poss":3794,"Dice":3795,"Ð¸":3796,"ÑĢ":3797,"Ġgoa":3798,"IG":3799,"Of":3800,"PLL":3801,"taken":3802,"Ġ\"\"":3803,"resolution":3804,"visit":3805,"Contain":3806,"call":3807,"ei":3808,"Ġvpi":3809,"Ġts":3810,"EEEEEEE":3811,"segment":3812,"Ġremove":3813,")>=":3814,"288":3815,"WKKKKKKKK":3816,"vb":3817,"++);":3818,"WWKKK":3819,"EEEEEEEEEE":3820,"WWWWWWWWWW":3821,"DDDDDDDDDD":3822,"divi":3823,"KKKKKKKKKKKKKKKKKKKKKKKK":3824,"tfLGG":3825,"403":3826,"â¢Ģâ¢Ģ":3827,"serve":3828,"//*//*":3829,"Ġdiagn":3830,"IE":3831,"optim":3832,"ĠRep":3833,"Ġenable":3834,"ostic":3835,"Ġdiagnostic":3836,"cepted":3837,"++++++++":3838,"clr":3839,"conj":3840,"Ġrg":3841,"Ġ200000":3842,"ĠMS":3843,"ĠSet":3844,"ĠLine":3845,"Ġ100100":3846,"Ġcounter":3847,"Ġonly":3848,"200010":3849,"Last":3850,"Mode":3851,"lhs":3852,"Ġpresent":3853,"14159265359":3854,"subtree":3855,"Ġlimit":3856,"Ġmint":3857,"Ġday":3858,"idul":3859,"ĠprContain":3860,"area":3861,"Ġncr":3862,"(\"<<":3863,"Ġang":3864,"Index":3865,"Ġflush":3866,"suff":3867,"âķĲâķ¦âķĲâķ©":3868,"ca":3869,"Ġlld":3870,"Ġtransform":3871,"warukazu":3872,"'},{'.','.','.','.','.','.','.','.','.'},{'.','.','.','.','.','.','.','.','.":3873,"cu":3874,"Ġaaa":3875,"ĠTree":3876,"ithub":3877,"ERO":3878,"*)":3879,"CC":3880,"fto":3881,"Ġfflush":3882,"Ġ'-'":3883,"Ġstack":3884,"AH":3885,"ONLINE":3886,"ni":3887,"Ġempty":3888,"Ġdc":3889,")].":3890,"){}":3891,"elp":3892,"Ġord":3893,"ĠPRINT":3894,"âĸĪâĸĪâķĳ":3895,"Ġtable":3896,"ations":3897,"func":3898,"xs":3899,"Ġdud":3900,"Ġargument":3901,"MXN":3902,"Exp":3903,"Ġxs":3904,"+='":3905,"ĠCO":3906,"âł¹":3907,"483":3908,"CM":3909,"LOG":3910,"eap":3911,"Ġ14":3912,"ĠDEB":3913,"ĠREV":3914,"Ġ'?')":3915,"(~":3916,"Ġum":3917,"inverse":3918,"visors":3919,"Ġvvl":3920,"Ġsegment":3921,"ĠFILL":3922,"lz":3923,"py":3924,"sw":3925,"Ġexponent":3926,"14159265358979323846264338327950":3927,"PR":3928,"Sub":3929,"seen":3930,"Ġrge":3931,"#######":3932,"maining":3933,"Arrays":3934,"Ð»":3935,"rease":3936,";;;;;;;":3937,"Ġ100010":3938,"github":3939,"ĠCON":3940,"reate":3941,"Ġlint":3942,"Ġlnum":3943,"ers":3944,"let":3945,"))))":3946,"modint":3947,"ModInt":3948,"Ġ'('":3949,"Ġ1000005":3950,"BIT":3951,"]->":3952,"_.":3953,"Ġ\"\")":3954,"((*":3955,"ĠDBG":3956,"-');":3957,"Head":3958,"Ġeach":3959,"Ġwt":3960,"=%":3961,"]%=":3962,"Ġlet":3963,"Ġmll":3964,"<<__":3965,"ĠTs":3966,"alloc":3967,"Ġdbl":3968,"Single":3969,"Ġ&(":3970,"Maxn":3971,"################################################":3972,"ersection":3973,"versedIntegerRange":3974,"Arg":3975,"Equal":3976,"Find":3977,"imp":3978,"Ġ**":3979,"Ġsb":3980,"1828":3981,"Ġnumbers":3982,"Pair":3983,"copy":3984,"Ġlft":3985,"Ġba":3986,"Ġfriend":3987,"Ġini":3988,"ĠBU":3989,"Ġ40":3990,"solver":3991,"ATE":3992,"Ġvertex":3993,"over":3994,"sd":3995,"source":3996,"wh":3997,"Ġdecltype":3998,"shift":3999,"The":4000,"VAR":4001,"dr":4002,"nu":4003,"Ġpol":4004,"Ġva":4005,"ĠSORT":4006,"ele":4007,"tolower":4008,"ĠAdd":4009,"Ġscn":4010,"Ġ(#":4011,"ĠTH":4012,")).":4013,"Ġequal":4014,"Ġ\\|":4015,"â¢»":4016,"=='\\":4017,"othing":4018,"onentiation":4019,"'][":4020,"defined":4021,"Ġnod":4022,"Ġchoose":4023,"86":4024,"ÙĦ":4025,"Ġ64":4026,"Ġcopy":4027,"Ġreplace":4028,"888888888888888888888888":4029,"Col":4030,"Ġ...)":4031,"Ġcor":4032,"Ġsx":4033,"Ġti":4034,"ĠBASE":4035,"Path":4036,"Ġtimer":4037,"Ġ):":4038,"â£Ĩ":4039,"ĠPi":4040,"Ġtrie":4041,"Ġnever":4042,"Ġbuff":4043,"remove":4044,"writeChar":4045,"home":4046,"ĠInteger":4047,"â£¿â£¿â£¿â£¿â£¿â£¿â£¿â£¿â£¿â£¿â£¿â£¿â£¿â£¿â£¿â£¿":4048,"[]=":4049,"norm":4050,"Ġay":4051,"1000000000":4052,";........":4053,"EDD":4054,"WEEEEEEEEEEEE":4055,"Ġnw":4056,"KKE":4057,"KKW":4058,"WWKKKKK":4059,"<<\")":4060,"load":4061,"WWWK":4062,"info":4063,"tfGGGDDDDDDDDDDDD":4064,"cut":4065,"ini":4066,"Ġ23":4067,"Ġ256":4068,"Ġge":4069,",`":4070,"code":4071,"tar":4072,"arp":4073,"Ġllong":4074,"....:":4075,"Ġ%.":4076,"ĉĉĉĉĉĊ":4077,"ĠFIN":4078,"minus":4079,"ally":4080,"field":4081,"Ġshould":4082,"âĶĢâĶĢâĶĢâĶĢ":4083,"GL":4084,"bi":4085,"fp":4086,"svalc":4087,"ĠDe":4088,"Ġrepd":4089,"203":4090,"aaaa":4091,"rightChild":4092,"Ġsolver":4093,".:.":4094,"78":4095,"TN":4096,"]^":4097,"fft":4098,"ose":4099,"Ġcum":4100,"llint":4101,"enw":4102,"Ġ*__":4103,"ĠSL":4104,"addEdge":4105,"Ġchkmax":4106,"5000":4107,"CD":4108,"way":4109,"Ġï¿½ï¿½":4110,"Ġmset":4111,"Ġpy":4112,"1000001":4113,"digits":4114,"Ġsystem":4115,"14159265358979323846264338327950288":4116,"Flow":4117,"ka":4118,"Ġist":4119,"Ġact":4120,"Ġns":4121,"------------------------":4122,"NNNN":4123,"200001":4124,"147483":4125,"Ġmodinv":4126,"36":4127,"fail":4128,"ved":4129,"ise":4130,"ĠII":4131,"Ġnumeric":4132,"leftChild":4133,"OU":4134,"Ġinter":4135,"InputIterator":4136,"Sh":4137,"Sz":4138,"bx":4139,"td":4140,"Ġany":4141,"!='":4142,"]);}":4143,"ents":4144,"ĠUpdate":4145,"Ġrtn":4146,"Ġcases":4147,"'));":4148,"IR":4149,"ja":4150,"reserve":4151,"ĠAl":4152,"ĠCH":4153,"Ġcols":4154,"Ġ....":4155,"Ġclear":4156,"Ġ(&":4157,"Ġ-(":4158,"__<<\":":4159,"ĠSegment":4160,"Ġlbnd":4161,"uclide":4162,"ĠField":4163,"qry":4164,"Ġisprime":4165,"forr":4166,"Ġfout":4167,"*****/":4168,"Ġuid":4169,"Ġubnd":4170,"42":4171,";)":4172,"]&":4173,"Ġ')';":4174,"+\"":4175,"rx":4176,"Ġpob":4177,"Ġcx":4178,"Ġchmin":4179,"trans":4180,"à¦¿":4181,"Ġsfll":4182,"ĠRAIter":4183,"?-":4184,"Div":4185,"Op":4186,"ĠnValue":4187,"Ġcal":4188,"<<\",\"<<":4189,"Ġtag":4190,"<<\"(\"<<":4191,"Ġchmax":4192,"500005":4193,"?\"":4194,"Vs":4195,"Ġresp":4196,"Ġprim":4197,"_______":4198,"ĠLB":4199,"âłī":4200,"14159265":4201,"Ġmodulo":4202,"Ġskip":4203,"147483647":4204,",'":4205,"ki":4206,"Ġmo":4207,"Ġpx":4208,"Ġbet":4209,"Ġprod":4210,"Ġ/\\":4211,"view":4212,"visor":4213,"Ġ',',":4214,"Ġchkmin":4215,",:.":4216,"Pr":4217,"Ġap":4218,"â£¤":4219,"============":4220,"ahman":4221,"ÐĲÐ":4222,":/":4223,"IC":4224,"_)":4225,"so":4226,"ones":4227,"Ġpal":4228,"Ġsll":4229,"ĠTimer":4230,"Ġuti":4231,"Ġsorted":4232,"Ġdefined":4233,"[]={-":4234,"âĸĴâĸĴâĸĴâĸĴâĸĴâĸĴâĸĴâĸĴ":4235,")++":4236,"fd":4237,"Ġ[]":4238,"ert":4239,"ĠFind":4240,"â£¶":4241,")+'":4242,"\"\"\"\"":4243,"cycle":4244,"plicit":4245,"ĠTESTS":4246,"52":4247,"hidul":4248,"ĠfastIO":4249,"GE":4250,"ix":4251,"rnd":4252,"reated":4253,"Ġman":4254,"sieve":4255,"Ġwor":4256,"upid":4257,"Ġ42":4258,"Ġmsg":4259,"afe":4260,"Ġproblem":4261,"ĠxyPoint":4262,"âķĲâķ¦âķĲâķ©âķĲâķ¦âķĲâķ©":4263,"ject":4264,"Ġsource":4265,"Ġdt":4266,"ĠTN":4267,"Ġldb":4268,"compos":4269,"Ġsuff":4270,".\\":4271,"Tr":4272,"equal":4273,"ĠRest":4274,"ĠBIT":4275,"Ġ\";__":4276,"ĠOf":4277,"Ġoptimization":4278,"â¡ĩ":4279,"www":4280,"DBG":4281,"\">":4282,"First":4283,"()<":4284,"##########":4285,"MaxN":4286,")|":4287,"Fraction":4288,"Table":4289,"Un":4290,"nValue":4291,"ÙĲ":4292,"Ġtim":4293,"Ġrepr":4294,"DDDDD":4295,"]]){":4296,"ï¿½ï¿½ï¿½ï¿½ï¿½ï¿½ï¿½ï¿½":4297,"__________":4298,"Ġacc":4299,"Ġends":4300,"MACRO":4301,"Query":4302,"TO":4303,"Ġ------":4304,"//.":4305,"])){":4306,"Ġeq":4307,"103":4308,"({{":4309,"gram":4310,"123456789":4311,":\",":4312,"atr":4313,"())-":4314,"ĠIs":4315,"999":4316,"sktop":4317,"cccc":4318,"short":4319,"Ġsigned":4320,"Desktop":4321,"Get":4322,"Ġsrt":4323,"itch":4324,"Ġbind":4325,"Ġ20000":4326,"prop":4327,"ĠSS":4328,"ï¼ģ":4329,"GNU":4330,"Ġjud":4331,"000000000000000000":4332,"Debug":4333,"Ġemp":4334,"Ġds":4335,"Ġrrep":4336,"maxl":4337,"divs":4338,"Output":4339,"Gi":4340,"eded":4341,"fh":4342,"turn":4343,"ug":4344,"sive":4345,"Ġostr":4346,"andard":4347,"rows":4348,"Ġdigit":4349,"rope":4350,"],&":4351,"ĠNL":4352,"ĠRREP":4353,"pped":4354,"ĠEdge":4355,"ACH":4356,"Ġ'.'":4357,"dg":4358,"lx":4359,"|=":4360,"Ġmode":4361,"Ġ22":4362,"ĠPro":4363,"âł»":4364,"ĠHOME":4365,"7772":4366,"Ġ(~(":4367,"RR":4368,"foo":4369,"uv":4370,"Ġafter":4371,"ence":4372,"itf":4373,"Ġtb":4374,"Ġ&...":4375,"alk":4376,"])*":4377,"indx":4378,"Ġzi":4379,")&&(":4380,"dj":4381,"target":4382,"ÙĴ":4383,"Ġï¿½ï¿½ï¿½":4384,"Ġvld":4385,"KKWWWW":4386,"zet":4387,"Ġllinf":4388,"GGDDDDDDDDDDD":4389,"0001":4390,"Ġlev":4391,"WWWWWWWWWWWWWWWW":4392,"âł¿":4393,"Ġspecial":4394,"Ġ.:,:":4395,"71":4396,"aze":4397,"wik":4398,"ache":4399,"Ġtout":4400,"Ġro":4401,"Ġforit":4402,"cand":4403,"modul":4404,"ĠGcd":4405,"]+(":4406,"Ġ100001":4407,"à¦°":4408,"Ð¾Ð":4409,"Ġ..":4410,"Ġmatch":4411,"Ġsci":4412,"Ġep":4413,"Ġ'.';":4414,"3456789":4415,"Ġimi":4416,"Ġ\\\\":4417,"978":4418,"Users":4419,"save":4420,"Ġ13":4421,"ĠTIME":4422,"ĠDist":4423,"Ġfix":4424,"Ġmkp":4425,"âłĢâłĢâłĢâłĢ":4426,"']=":4427,"lax":4428,"rp":4429,"year":4430,"Ġendif":4431,"oupper":4432,"Ġda":4433,"Ġele":4434,"trace":4435,"lip":4436,"ANS":4437,"jkstra":4438,"dle":4439,"pd":4440,"vx":4441,"Ġsfl":4442,"tices":4443,"Ġwrit":4444,"Ġhow":4445,"ĠVs":4446,"<<\"[\";":4447,"ĠCONT":4448,"777216":4449,":%":4450,"PRO":4451,"()&&":4452,"ĠMD":4453,"Ġevery":4454,"('-');":4455,"quare":4456,"tern":4457,"ãĢĲ":4458,"ãĢĳ":4459,"GNUC":4460,"=__":4461,"ky":4462,"tk":4463,"Ġimag":4464,"itive":4465,">>{":4466,"Ġho":4467,"compute":4468,"Ġimie":4469,"Fast":4470,"]<<\"\\":4471,"ius":4472,"Ġcd":4473,"Ġ21":4474,"Ġyear":4475,"Ġstupid":4476,"111000":4477,"ï¼Į":4478,"82":4479,"bot":4480,"ham":4481,"xb":4482,"eros":4483,"Ġresize":4484,"Ġpossible":4485,"'].":4486,"HT":4487,"ao":4488,"tv":4489,"Ġ<>":4490,"Ġfail":4491,"Ġremaining":4492,"ĠCP":4493,"Ġdeque":4494,"]]+":4495,"timer":4496,"ĠtemporaryNode":4497,"values":4498,"Ġbigint":4499,"Ġwhen":4500,"word":4501,"Ġax":4502,"Ġnp":4503,"Ġbel":4504,"Ġreq":4505,"uniform":4506,"ĠRD":4507,"ĠDice":4508,"â£¿â£·":4509,"arning":4510,"Ġ));":4511,"igh":4512,"]=='*":4513,"binary":4514,"Ġzipper":4515,"uc":4516,"xa":4517,"æķ":4518,"Ġfto":4519,"ĠPower":4520,"ĠBS":4521,"Ġ\":\"":4522,"Ġoverflow":4523,"ĠSHOW":4524,"(--":4525,",*":4526,"133":4527,"LOCAL":4528,"bc":4529,"iable":4530,"qs":4531,"vt":4532,"ven":4533,"Ġft":4534,"Ġfft":4535,"pply":4536,"Ġ105":4537,"5001":4538,"pnt":4539,"»¿":4540,"ï»¿":4541,"ĉĉĠĊ":4542,"leaf":4543,"TEST":4544,"product":4545,"QUE":4546,"bg":4547,"oun":4548,"urs":4549,"Ġanc":4550,"ĠVVI":4551,"Ġexhausted":4552,"Ġelements":4553,"Stop":4554,"Ġ111":4555,"Ġbal":4556,"Ġfloor":4557,"ĉĠĉĉ":4558,"ĠAc":4559,"ĠAll":4560,"]<='":4561,"Ġï¿½ï¿½ï¿½ï¿½ï¿½ï¿½ï¿½ï¿½ï¿½":4562,"vy":4563,"{{":4564,"Ġ****************************************************************":4565,"ough":4566,"Ġdon":4567,"ĠOF":4568,"Ġpointer":4569,"initial":4570,"cyc":4571,"Ġ'*')":4572,"Ġgenerated":4573,"bte":4574,"toupper":4575,"den":4576,"Ġfb":4577,"ĠTo":4578,"Ġ'+":4579,"agate":4580,"Ġcompare":4581,"Ġrows":4582,"ĠCompare":4583,"uclid":4584,"OM":4585,"bakh":4586,"tK":4587,"standard":4588,"ĠMore":4589,"temporaryNode":4590,"cket":4591,"Ġunique":4592,"present":4593,"à¦¨":4594,"æķ°":4595,"94":4596,"Te":4597,"Ãł":4598,"Ġlead":4599,"5477":4600,")>::":4601,"81":4602,"Alex":4603,"cat":4604,"fre":4605,"Ġla":4606,"Ġml":4607,"ĠPOW":4608,"};//":4609,"Ġwarning":4610,"Ġstm":4611,"expo":4612,"ĠAccepted":4613,".\"":4614,"73":4615,"DEP":4616,"Seg":4617,"hull":4618,"rom":4619,"sv":4620,"Ġ////":4621,"eni":4622,"Ġprob":4623,"..........":4624,"fff":4625,"5807":4626,"âĸĪâĸĪâĸĪâĸĪâĸĪ":4627,"ucky":4628,"Exponentiation":4629,"499":4630,"BLE":4631,"PRE":4632,"fb":4633,"nv":4634,"æľ":4635,"Ġcb":4636,"Ġ'_":4637,"unused":4638,"omet":4639,"âĸĴâĸĦ":4640,"22337":4641,"141592653589793":4642,"Ġpwr":4643,"685477":4644,"203685477":4645,"22337203685477":4646,"Dmit":4647,"JHelper":4648,"bt":4649,"jd":4650,"pv":4651,"tii":4652,"Ġ24":4653,"riev":4654,"Ġclk":4655,"ĠJHelper":4656,"eyDmit":4657,"ĠDebug":4658,"AlexeyDmit":4659,"AlexeyDmitriev":4660,"Mat":4661,"TH":4662,"ĠJUDGE":4663,"Ġscc":4664,"Ġ'(')":4665,"])/":4666,";;;;;":4667,"Ġ63":4668,"disable":4669,"]>='":4670,"Than":4671,"lon":4672,"Ġlinf":4673,"Ġfe":4674,"tient":4675,"Ġansw":4676,"Ġwa":4677,"Ġheight":4678,"Ġ1005":4679,"ĠInputIterator":4680,"4197":4681,"Word":4682,"half":4683,"vowel":4684,"Ġ************************":4685,"Ġys":4686,"ĠFR":4687,"minn":4688,"Ġgetint":4689,"aaa":4690,"!!!":4691,"SH":4692,"dst":4693,"hen":4694,"Ġ))":4695,"chain":4696,"isWhitespace":4697,"Ġitn":4698,"enwick":4699,"141592653589793238462643383279502884197":4700,"223372036854775807":4701,")^":4702,"ken":4703,"Ġmsi":4704,"Ġpart":4705,"Ġdj":4706,"Ġ28":4707,"Ġminn":4708,"Ġstk":4709,"points":4710,"FFER":4711,"ITE":4712,")<=(":4713,"Root":4714,"sha":4715,"Ġlps":4716,"ous":4717,"acc":4718,"Ġ|\\":4719,"uler":4720,"ĉĠĠĉ":4721,"ĠINFLL":4722,"explicit":4723,"MMMMM":4724,"pts":4725,"slope":4726,"DataEnd":4727,"cstd":4728,"fc":4729,"Ġold":4730,"Ġlarge":4731,"forward":4732,"Ġsw":4733,"connect":4734,"------------------------------":4735,"ĠOp":4736,"occ":4737,"Ġheap":4738,"MEM":4739,"iiiiiiii":4740,"LONG":4741,"SA":4742,"jump":4743,"vertex":4744,"brur":4745,"Ġhello":4746,"ĠCommon":4747,"&(-":4748,"All":4749,"Ġ<(":4750,"atan":4751,"ĠmodPow":4752,"Ġconstexpr":4753,"ĠCheck":4754,"180":4755,"Ġ1000001":4756,"Ġlook":4757,"ants":4758,"Circle":4759,"OK":4760,"POW":4761,"nex":4762,"Ġnb":4763,"Ġways":4764,"âĸĳâĸĳâĸĮ":4765,"gets":4766,"ayer":4767,"Impl":4768,"numbers":4769,"ðŁĴ©ðŁĴ©ðŁĴ©ðŁĴ©":4770,"è¿":4771,"reader":4772,"Ġsrc":4773,"sorted":4774,"Ġ100000000000000000":4775,"Ġpoww":4776,"ather":4777,"..................................":4778,"Ġdoes":4779,"ï»¿#":4780,",........":4781,":.....":4782,"GEE":4783,"KWWWWWW":4784,"LGGGDDDDDDDDDDDD":4785,"xr":4786,"Ġnc":4787,"()%":4788,"Ġ\"?":4789,"ane":4790,"WWKKKK":4791,"LLGGDDDDDDDDDDD":4792,"EEEED":4793,"ĠSET":4794,"0000000000000000":4795,"DDDDDD":4796,"KKKKKKKKKKK":4797,"ĠreadArray":4798,"2010":4799,"Ġ.::.":4800,"Ġ...,.":4801,";;;;;;;;;;;;;;;;":4802,"WWWWWWWKKKKK":4803,"Ġhttp":4804,"GCD":4805,"ĠUB":4806,"Inv":4807,"lcp":4808,"..........................":4809,"Ġsuffix":4810,"versity":4811,":...":4812,":........":4813,"===":4814,"Ġumap":4815,"Ġtrav":4816,"**********************":4817,"Ġextended":4818,"\"+":4819,"eight":4820,"fprintf":4821,"mr":4822,"llong":4823,"****/":4824,"Ġjt":4825,"Ġyn":4826,"thing":4827,"LIB":4828,"PPL":4829,"PCPPL":4830,"Team":4831,"sdbg":4832,"wy":4833,"iful":4834,"Ġscore":4835,"amp":4836,"Ġ#\"":4837,"////////////":4838,"----------------------------------------------------------------":4839,"dat":4840,"work":4841,"dev":4842,"ĠnC":4843,"Ġnothing":4844,"Ġrit":4845,"Ġ200010":4846,"pri":4847,"Ġgi":4848,"times":4849,"ERE":4850,"Ġpowm":4851,"oll":4852,"ored":4853,"Ġlin":4854,"tiTest":4855,"_____":4856,"(_,":4857,"shuffle":4858,"raw":4859,"ings":4860,"ids":4861,"split":4862,"ĠAR":4863,"Ġ5000":4864,"Ġvvii":4865,"lcm":4866,"$$$$":4867,"ĠEndl":4868,";_":4869,"AK":4870,"DS":4871,"EOF":4872,"PF":4873,"each":4874,"hat":4875,"sb":4876,"sgn":4877,"}]":4878,"ĠtStart":4879,"idth":4880,"ĠSize":4881,"\"<<__":4882,"Ġfactd":4883,"Ġperm":4884,"bel":4885,"lin":4886,"task":4887,"Ġlt":4888,"Ġcos":4889,"ita":4890,"Ġ201":4891,"ĠDL":4892,"nums":4893,"ĠXXX":4894,"Ġfastio":4895,"ĠMXN":4896,"à§į":4897,"Timer":4898,"cont":4899,"Ġfp":4900,"align":4901,"Ġmodify":4902,"ĠRead":4903,"valarray":4904,"123456":4905,"poly":4906,"33333333":4907,"Search":4908,"ĠCOMP":4909,")]);":4910,"Bits":4911,"sout":4912,"tw":4913,"Ġ**/":4914,"++]);":4915,"Ġ{\"":4916,"Ġdump":4917,"Ġllu":4918,"Ġ33":4919,"ĠLcm":4920,"Ġbitmaxl":4921,"ĠprintSingle":4922,"Ġtimes":4923,"83":4924,"={":4925,"At":4926,"fup":4927,"Â¦":4928,"self":4929,"Ġ&);":4930,"silon":4931,"buw":4932,"ĠLS":4933,"â£¿â£¿â£¿":4934,"Ġseq":4935,"MMMMMM":4936,"FORN":4937,"ĠUni":4938,"%%%%%%%%":4939,"Map":4940,"fvalc":4941,"sCount":4942,"ream":4943,"him":4944,"])*(":4945,"tra":4946,">=_":4947,"getnum":4948,"flg":4949,"Ġ(\".":4950,"Ġinitial":4951,"dbl":4952,"decay":4953,"Ġepsilon":4954,"gon":4955,"rection":4956,"Ġbi":4957,"answ":4958,"sets":4959,"ĠAN":4960,"Ġdivs":4961,"ieve":4962,"Ġumin":4963,"\"){":4964,")>(":4965,"Lazy":4966,"Ġlz":4967,"Ġphi":4968,"Ġputi":4969,"Ġfil":4970,"000001":4971,"Ġwatch":4972,"OS":4973,"cal":4974,"large":4975,"npos":4976,"ä»":4977,"Ġ*****":4978,"detail":4979,"Ġsrand":4980,"Ġ'||":4981,"ĠPRO":4982,"unite":4983,"âĸĪâĸĪâĸĪâĸĪâĸĪâĸĪâĸĪ":4984,"wb":4985,"Ø±":4986,"Ġpublic":4987,"Ġca":4988,"Ġturn":4989,"idge":4990,"Ġumax":4991,"ĉĉĉĉĉĉĉĉĉĉĉĊ":4992,"ĠtoInt":4993,"ĠLLD":4994,"ĠFORR":4995,"ĠUniversity":4996,"Ki":4997,"Or":4998,"kv":4999,"Ġson":5000,"item":5001,"Ġ2147483647":5002,"condition":5003,"102":5004,"Ġway":5005,"Ġspace":5006,"ikaze":5007,"ĠPrints":5008,"ä¸Ģ":5009,"Ġsmallest":5010,"writer":5011,"95":5012,":;":5013,"bute":5014,"kikaze":5015,"ray":5016,"tsc":5017,"Ġign":5018,"Ġinfll":5019,"321":5020,"ANG":5021,"ï¼ģï¼ģ":5022,"');}":5023,")--)":5024,":\\\\":5025,"Author":5026,"Part":5027,"ko":5028,"Ġpe":5029,"Ġpfl":5030,"Ġ\"+":5031,"Ġqry":5032,"ismi":5033,"ĠSeg":5034,"REC":5035,"ĠscanI":5036,"ĠscanL":5037,"Ġspeed":5038,"......:":5039,"jkl":5040,"Ġ{{{":5041,"ismillah":5042,"'re":5043,"GD":5044,"cas":5045,"queries":5046,"sr":5047,"scc":5048,"å°":5049,"ses":5050,"Ġav":5051,"Ġ\"=":5052,"erc":5053,"ĠĠĉĉĉ":5054,"Ġrv":5055,"ĠFA":5056,"---------":5057,"...(":5058,"Ġtry":5059,"ĠDA":5060,"ĠVL":5061,"#.":5062,"/************************":5063,"300000":5064,"Ġort":5065,"<<\"{":5066,"Ġprop":5067,"ĠLG":5068,"âłĻ":5069,"policies":5070,"\"))":5071,"3000":5072,"Update":5073,"ell":5074,"fen":5075,"fwrite":5076,"åĪ":5077,"Ġsit":5078,"ats":5079,"ĠCh":5080,"ĠGraph":5081,"team":5082,"Ġcycle":5083,"SegmentTree":5084,"'ll":5085,")>>(":5086,".,":5087,"TY":5088,"Vowel":5089,"ding":5090,"ired":5091,"ï¹":5092,"Ġpu":5093,"Ġcontainer":5094,"Ġstderr":5095,"Ġmulmod":5096,"ngine":5097,"overflow":5098,"Ext":5099,"ords":5100,"asdf":5101,"ĠPER":5102,"ODE":5103,"uni":5104,"\"<<#":5105,"oney":5106,"Ġclz":5107,"Ġfinish":5108,"1111111111111111":5109,"/=(":5110,"Taken":5111,"Ð¡":5112,"åĲ":5113,"Ġmore":5114,"Ġapp":5115,"cles":5116,"Ġpss":5117,"eractive":5118,"edg":5119,"quest":5120,"150":5121,"Ġvisit":5122,"â¡Ħ":5123,"âĸĮâĸĮ":5124,"___(":5125,"Ġweight":5126,"On":5127,"]++,":5128,"_[":5129,"nTime":5130,"vo":5131,"where":5132,"}),":5133,"forgeeks":5134,"Ġvt":5135,"Ġtx":5136,"Ġ*_":5137,"1011":5138,"ĠStr":5139,"ĠPA":5140,"Ġtoo":5141,"estor":5142,"Ġsee":5143,"#########":5144,"ĠVV":5145,"Ġlowbit":5146,"Ġextgcd":5147,"ĠMAIN":5148,"Gcd":5149,"WIN":5150,"ox":5151,"tle":5152,"zip":5153,"()];":5154,"Ġinteger":5155,"Ġ'{":5156,"ĠMDL":5157,"Ġconnect":5158,"ĠApply":5159,"Ġqueries":5160,"ĠLCM":5161,"ĠDi":5162,"++--++":5163,"pointer":5164,"OUTC":5165,"weight":5166,"++--++--++--++--++--++--++--++--++--++--++--++--++--++--++--++--++--++--++--++--++--++--++--++--++--++--++--++--++--++--++--++--":5167,"geeksforgeeks":5168,")||(":5169,"Be":5170,"Par":5171,"001":5172,"uration":5173,"Ġbot":5174,"Ġdf":5175,"])==":5176,"ĠFT":5177,"Ġunion":5178,"/*!":5179,"Ġviii":5180,"aves":5181,"___/":5182,"LIM":5183,"Ġ'\"'":5184,"Ġpoly":5185,"erciful":5186,"Gen":5187,"Sort":5188,"sn":5189,"tb":5190,"Ġ##":5191,"Ġprep":5192,"Ġrx":5193,"Ġyyy":5194,"))-":5195,"<=_":5196,"eratorMonoid":5197,"ĠLONG":5198,"\"<<(":5199,"âĸĳâĸĳâĸĳâĸĳâĸĳâĸĳâĸĳ":5200,"Ġside":5201,"â¡Ī":5202,"tribute":5203,"Ġreflect":5204,"DEPREC":5205,"ting":5206,"ĠĉĊ":5207,"Ġldouble":5208,"seed":5209,"attribute":5210,"Ġ300005":5211,"ĠRI":5212,"Ġorig":5213,"process":5214,"ĠUnique":5215,"allocate":5216,"FR":5217,"With":5218,"dump":5219,"nep":5220,"ule":5221,"inic":5222,"Ġmrand":5223,"Ġpnt":5224,"Ġxr":5225,"Ġfun":5226,"ĠTEMPORARY":5227,"Ġrn":5228,"ĠFJ":5229,"ĠABC":5230,"ĠLe":5231,"ĉĉĠĠĠĊ":5232,"100500":5233,"....................":5234,"111111":5235,";;;;;;;;;":5236,"rgt":5237,"Project":5238,"255":5239,"lag":5240,"pot":5241,"Ġmust":5242,"ĠTC":5243,"edi":5244,"Ġ|__":5245,"Ġmaximum":5246,"iss":5247,"ĠPL":5248,"ĠstdinBuffer":5249,"Ġcoef":5250,"205":5251,"stdinBuffer":5252,"Ġthere":5253,"UTION":5254,"ĠFIX":5255,"Ġnegative":5256,"END":5257,"nmax":5258,"rv":5259,"tem":5260,"Ùĳ":5261,"ĠMove":5262,"mapa":5263,"possible":5264,"ĉĉĠĉ":5265,"counts":5266,"Ġ.,":5267,"âłĪ":5268,"ĉĉĉĠĠĠĊ":5269,"scn":5270,"Ġsome":5271,"Cost":5272,"Fact":5273,"MA":5274,"Two":5275,"ib":5276,"rotate":5277,"inary":5278,"Ġpairs":5279,"Square":5280,"full":5281,"lr":5282,"inside":5283,"Ġpv":5284,"Ġvit":5285,"Ġbx":5286,"ends":5287,"Ġjoin":5288,"ntime":5289,"ĠMul":5290,"ĠNN":5291,"Ġconvert":5292,"ĠSum":5293,"ODO":5294,"union":5295,"ĠOut":5296,"Ġ\\/":5297,"ĠEx":5298,"yyo":5299,"WEE":5300,"ZERO":5301,"ten":5302,"Ùħ":5303,"dent":5304,"delim":5305,"__<<\"":5306,"))&":5307,"Ġdeep":5308,"ĠOI":5309,"Ġangle":5310,",.....":5311,"Ei":5312,"EKE":5313,"KD":5314,"WKKKKKKKKKKKKKKKK":5315,"Ġintersection":5316,"KKWWW":5317,"emplate":5318,"DDf":5319,"ING":5320,"WWWWWKK":5321,"Ġitem":5322,"minator":5323,"Ġocc":5324,"Ġunite":5325,"KKKKKKKKKKKK":5326,"EEEEEEEEE":5327,"WWWWWWWWKKKKK":5328,"DDDDDDDDDDDDDDDD":5329,"âłģ":5330,"KKKKKWWKKKKK":5331,"jjt":5332,".....:::":5333,"KKKKKKKWKK":5334,"Ġlike":5335,"WWWWWWWKKKKKK":5336,"EEEEEEEEEEEEEEE":5337,"DEEEEE":5338,"ween":5339,"black":5340,"Ġï¿½ï¿½ï¿½ï¿½ï¿½ï¿½ï¿½ï¿½ï¿½ï¿½":5341,"WWWWWKKKKK":5342,"LGGDDDDDDDDDDDD":5343,",,,,,,,;;;;":5344,"tjLLGGDDDDDDDDDDD":5345,"qrt":5346,"xi":5347,");//":5348,"Ġlson":5349,"Ġph":5350,"Ġcub":5351,"--(":5352,"Ġvr":5353,"Ġfen":5354,"Ġrson":5355,"Ġgg":5356,"ĠDF":5357,"Ġbitset":5358,"<<\")\";":5359,"Li":5360,"_##":5361,"ph":5362,"rmq":5363,"cluding":5364,"eration":5365,"Ġpairt":5366,"ĠFord":5367,"ĠINFL":5368,"âķĲâķĿ":5369,"ĠLOGN":5370,"+\".":5371,"Buf":5372,"bas":5373,"ĠMN":5374,"----------":5375,"Ġqpow":5376,"ART":5377,"Ġposition":5378,"ĠVP":5379,"...................":5380,"rie":5381,"avy":5382,"ostm":5383,"Ġdigits":5384,",{":5385,".::":5386,"EX":5387,"jud":5388,"Ġmu":5389,"Ġrepi":5390,"]={};":5391,"ĠIncluding":5392,"200100":5393,"Ġalpha":5394,"Ġ'#')":5395,")],":5396,"CL":5397,"Heap":5398,"ault":5399,"centroid":5400,"wd":5401,"§ÙĦ":5402,"Ã¥":5403,"Ġtab":5404,"Ġdl":5405,"ĠTODO":5406,"Ġrelax":5407,"2020":5408,"finish":5409,"basic":5410,"ĠØ§ÙĦ":5411,"Code":5412,"IS":5413,"List":5414,"[-":5415,"eprintf":5416,"steps":5417,"Ġnax":5418,"Ġsmax":5419,"ird":5420,"ĠĠĠĉĉĉĉ":5421,"utu":5422,"))==":5423,"Ġopt":5424,"Ġwant":5425,"]=='#":5426,"zipper":5427,"zipped":5428,"ĠENDL":5429,"'])":5430,"<>":5431,"gl":5432,"rig":5433,"vpii":5434,"Ġot":5435,"stdex":5436,"lef":5437,"__),":5438,"opcr":5439,"Ġword":5440,"prep":5441,"ccc":5442,"******/":5443,"ĠMEMS":5444,"ĠUNI":5445,"Ġshahidul":5446,"stdexcept":5447,"opcrof":5448,"577":5449,"Name":5450,"aei":5451,"fmt":5452,"oice":5453,"Ġnu":5454,"Ġpot":5455,"Ġintersect":5456,"Ġmag":5457,"Ġgive":5458,"Ġprin":5459,"Ġallr":5460,"âķļ":5461,"âĸĢâĸĴ":5462,"Ġ'\"';":5463,"multiprecision":5464,"-';":5465,"yk":5466,"~(":5467,"Ġato":5468,"oups":5469,"Ġ27":5470,"Ġprln":5471,"ĉĉĉĉĉĉĊ":5472,"andom":5473,"à¦Ł":5474,"ĠQuery":5475,"tical":5476,"Operation":5477,"ĉĉĉĉĉĉĉĉĉĉĉĉĉĉĉĉĉĉĉĉĉĉĉĉĉĉĉĉĉĉĉĉĉĉĉĉĉĉĉĉĉĉĉĉĉĉĉĉĉĉĉĉĉĉĉĉĉĉĉĉĉĉĉĉĉĉĉĉĉĉĉĉĉĉĉĉĉĉĉĉĉĉĉĉĉĉĉĉĉĉĉĉĉĉĉĉĉĉĉĉĉĉĉĉĉĉĉĉĉĉĉĉĉĉĉĉĉĉĉĉĉĉĉĉĉĉĉĉ":5478,";*/":5479,"NC":5480,"Pre":5481,"SP":5482,"]};":5483,"cos":5484,"ful":5485,"tut":5486,"xD":5487,"Ġ],":5488,"Ġuli":5489,"(),::":5490,"â¡·":5491,"READ":5492,"/****************************************":5493,"floatfield":5494,"ĠcrossOper":5495,"ByOne":5496,"reaseByOne":5497,"traits":5498,"#.#.":5499,"\"};":5500,"500000":5501,"??":5502,"lab":5503,"Ðº":5504,"Ġmf":5505,"Ġrotate":5506,"Ġ}}}":5507,"Ġuset":5508,"ĠNU":5509,"ĠFL":5510,"ĠData":5511,"Ġldbl":5512,"ESS":5513,"Ġprec":5514,"bigint":5515,"AAAA":5516,"Ġignored":5517,"Lower":5518,"lv":5519,"rary":5520,"delete":5521,"Ġiss":5522,"Ġcu":5523,"Ġ&,":5524,"Ġdays":5525,"ncr":5526,"};///":5527,"aki":5528,"Ġseen":5529,"]=='?":5530,"('-'":5531,"Ġpopcnt":5532,"Replace":5533,"75":5534,"Dig":5535,"ban":5536,"join":5537,"ĠDD":5538,"--.":5539,"(),\"":5540,"adius":5541,"uli":5542,"ĠgcdExt":5543,"Ġneeded":5544,"ĠIterator":5545,"ĠStart":5546,"('-'),":5547,"459":5548,"ause":5549,"Ġsay":5550,"Ġrf":5551,"Ġrfile":5552,"Ġprnt":5553,"Ġwfile":5554,"ĠRes":5555,"âĸĳâĸĲ":5556,"_________,":5557,"â¡Ģ":5558,"ĠcountBits":5559,"Ġshortest":5560,"ahmanir":5561,"ĠOperatorMonoid":5562,")||":5563,"btempl":5564,"fLL":5565,"part":5566,"Ġent":5567,"Ġmems":5568,"ĠLLINF":5569,"ĠreadDouble":5570,"FORE":5571,"Ġlcp":5572,"Ġcompute":5573,"Ġpts":5574,"....................................":5575,"clzll":5576,"âĸĳâĸĳâĸĳâĸĳâĸĳâĸĳâĸĳâĸĳâĸĳâĸĳâĸĳâĸĳâĸĳâĸĳâĸĳâĸĳ":5577,"4996":5578,"sCounter":5579,"96":5580,"Ch":5581,"Red":5582,"ake":5583,"jan":5584,"vd":5585,"__|":5586,"ĠmodInt":5587,"extra":5588,"ĠIF":5589,"501":5590,"readInt":5591,"ASH":5592,"DBN":5593,"ĠOutput":5594,"AY":5595,"Sp":5596,"_\\":5597,"uy":5598,"Ġfread":5599,"__,_":5600,"Ġknow":5601,"Ġprl":5602,"skip":5603,"5010":5604,"roots":5605,"198":5606,"iiiiii":5607,"âĸĲâĸĳâĸĳâĸĳ":5608,"256000000":5609,"Ġhoge":5610,")<<(":5611,"yb":5612,"007":5613,"Ġbut":5614,"ched":5615,"eta":5616,"INPUT":5617,"ĠFargs":5618,"Ġgetline":5619,"Ġrepe":5620,"TTY":5621,"ThxD":5622,"@@@@@@@@@@@@@@@@@@@@@@@@@@@@@@@@":5623,"################################################################################################################":5624,"PRETTY":5625,"ThxDem":5626,"033":5627,"BG":5628,"CO":5629,"udge":5630,"intersect":5631,"Ġ<<'\\":5632,"//++--++--++--++--++--++--++--++--++--++--++--++--++--++--++--++--++--++--++--++--++--++--++--++--++--++--++--++--++--++--++--++--":5633,"Ġmaximize":5634,"ĠLCA":5635,"++--++--++--++":5636,"Ġ\",\"":5637,"++--++--++--++--++--++--++--++":5638,"Ġthr":5639,"++--++--++--++--++--++--++--++--++--++--++--++--++--++--++--++":5640,"msg":5641,"âĸĪâĸĪâķĹ":5642,"ismillahir":5643,"ĠFIXED":5644,"Ġmagic":5645,"//++--++--++--++--++--++--++--++--++--++--++--++--++--++--++--++--++--++--++--++--++--++--++--++--++--++--++--++--++--++--++--++--++--++--++--++--++--++--++--++--++--++--++--++--++--++--++--++":5646,"'),":5647,"91":5648,"ÐĶ":5649,"Ġsr":5650,"Ġvx":5651,"Ġbc":5652,"ĠAbs":5653,"...:":5654,"â£§":5655,"Ġstore":5656,"1000010":5657,"cloc":5658,"Ġdivisor":5659,"group":5660,"ĠskipWhitespace":5661,")])":5662,"71828":5663,"hing":5664,"xor":5665,"Ġten":5666,"ĠNot":5667,"Ġpbds":5668,"Ġgetbit":5669,"Ġisdigit":5670,"2001":5671,"***************":5672,"Ġelif":5673,"Ã¥Ã":5674,"duration":5675,"rl":5676,"rat":5677,"xc":5678,"Ġfpow":5679,"ĠTASK":5680,"ĠAkikaze":5681,"Ġmpow":5682,"ĠOM":5683,"ĠArray":5684,"Ġdbgs":5685,"Ġvvvi":5686,"IIII":5687,"<<\"]\";":5688,"ANDOM":5689,"ĠBUFFER":5690,"'-'":5691,"AP":5692,"Cy":5693,"_^":5694,"rall":5695,"rnk":5696,"ual":5697,"Ġil":5698,"orig":5699,"ife":5700,"lease":5701,"mail":5702,"Ġ|/":5703,"()):":5704,"Ġits":5705,"Ġnums":5706,"Ġstarts":5707,"nominator":5708,"+=((":5709,"âĸĴâĸĴâĸĴâĸĴâĸĴ":5710,"izations":5711,"Ġreference":5712,")>=(":5713,"SF":5714,"ãĤ":5715,"Ġstre":5716,"rege":5717,"Ġmost":5718,"Ġsmin":5719,"ely":5720,"vex":5721,"â£¦":5722,"ĠPow":5723,"ĠCL":5724,"ĠBit":5725,"___________":5726,"127":5727,"Ġ1000010":5728,"dddd":5729,"Ġdirection":5730,"Ġindexed":5731,"______________":5732,"problemset":5733,"MSC":5734,"modulo":5735,"regex":5736,")]=":5737,"pn":5738,"uild":5739,"()!=":5740,"Ġqs":5741,"position":5742,"555":5743,"Ġprints":5744,"Ġprintarray":5745,"Ġsubmit":5746,"__,__":5747,"degree":5748,"izer":5749,"final":5750,"totalCount":5751,"FIN":5752,"UR":5753,"Upper":5754,"bur":5755,"dt":5756,"Ġvy":5757,"Ġjust":5758,"ĠIS":5759,"imie":5760,"memcpy":5761,"1415926536":5762,":.:.":5763,"Ġgoal":5764,"Ġvertices":5765,"âĸĳâĸĳâĸĳâĸĳâĸĳâĸĲ":5766,"'-":5767,"GET":5768,"LANG":5769,"Ġ////////":5770,"ĠYES":5771,"__((":5772,"Ġ},":5773,"Ġifndef":5774,"Ġ_.":5775,"Ġhelp":5776,"]-(":5777,"Ġbitnum":5778,"Ġbitcount":5779,"FFFFFFFF":5780,"wardIterator":5781,"abcdef":5782,"DEPRECATE":5783,"Row":5784,"RITE":5785,"`,,":5786,"qx":5787,"Ġiend":5788,"Ġ110":5789,"()/":5790,"Ġsfi":5791,"ctr":5792,"Ġgl":5793,"]]]":5794,"Ġ1010":5795,"ĠsetIn":5796,"ĠsetOut":5797,"â¢¾":5798,"negative":5799,"ĠInputIter":5800,"ä¸ª":5801,"âĸĪâĸĪâķĶ":5802,"//*//*//*//*":5803,"__,_|":5804,"'m":5805,"AZ":5806,"BB":5807,"]||":5808,"lat":5809,"mb":5810,"è¡":5811,"Ġpsi":5812,"Ġ\";}":5813,"Ġtd":5814,"Ġboth":5815,"ĠAND":5816,"cntr":5817,"ĠCount":5818,"Ġmemcpy":5819,"tab":5820,"ĠreadN":5821,"////////////////////":5822,"Ġbefore":5823,"-'){":5824,"Ġonbit":5825,"children":5826,"Less":5827,"xyz":5828,"Next":5829,"free":5830,"ghi":5831,"Ð£":5832,"åı":5833,"Ġpqueue":5834,"Ġrll":5835,"Ġrmq":5836,"Ġinside":5837,"pairs":5838,"modfast":5839,"Ġhh":5840,"201":5841,"Ġcommon":5842,"functions":5843,"program":5844,"1024000000":5845,"device":5846,"Ġ'{';":5847,")->":5848,"LES":5849,"SN":5850,"lop":5851,"Ã®":5852,"å¤":5853,"Ġ227":5854,"Ġreturns":5855,"Ġmodpow":5856,"ĠRa":5857,"Ġhs":5858,"Ġ101":5859,"fastio":5860,"werty":5861,"Ġscll":5862,"plusplus":5863,"Debugger":5864,"Mask":5865,"Rest":5866,"brr":5867,"srt":5868,"Ġ(_|":5869,"Ġpass":5870,"()).":5871,"Ġindist":5872,"Ġminimize":5873,"Ġzip":5874,"Ġsearch":5875,"except":5876,"ĠVEC":5877,"onostate":5878,"ĠÐ¿":5879,"Ġ\"{\"":5880,"qrst":5881,"ReversedIntegerRange":5882,"ĠReversedIntegerRange":5883,"ĠIntegerRange":5884,"Union":5885,"uvw":5886,"Ġ'+')":5887,"\":":5888,"Down":5889,"Greater":5890,"Nmax":5891,"ji":5892,"tout":5893,"äº":5894,"åĩ":5895,"dedge":5896,"Ġiceil":5897,"ĉĉĉĠĠĊ":5898,"Ġai":5899,"opqrst":5900,"Ġrecur":5901,"]=++":5902,"eturn":5903,"Ġes":5904,"isPrime":5905,"...>":5906,"Ġ_`":5907,"Ġ((*":5908,"ĠGNU":5909,"ĠtoString":5910,"mnopqrst":5911,"Ġroots":5912,"Ġsubtree":5913,"Ġnoexcept":5914,"âĸĦâĸĢâĸĴâĸĴ":5915,"ĠANS":5916,"jklmnopqrst":5917,"Ð¡Ð":5918,"abcdefghi":5919,"uvwxyz":5920,"abcdefghijklmnopqrst":5921,"76":5922,"85":5923,"My":5924,"coun":5925,"help":5926,"iG":5927,"pe":5928,"---'":5929,"<<((":5930,"Ġfio":5931,"))+":5932,")),(":5933,"Ġuf":5934,"Ġeuclide":5935,"â£ł":5936,"ĠDS":5937,"ĠIf":5938,"ĠstdinPos":5939,"ĠstdinDataEnd":5940,"ĠOK":5941,"ĠInit":5942,"invfact":5943,")){}};":5944,"Complex":5945,"Ġmoves":5946,"ÙİÙĳ":5947,"IGHT":5948,"ĠTimerStart":5949,"abcdefghijklmnopqrstuvwxyz":5950,"!(":5951,"BU":5952,"Diff":5953,"fout":5954,"det":5955,"ines":5956,"Ġcpp":5957,"llow":5958,"Ġxb":5959,"Ġ':":5960,"ates":5961,"ĠNum":5962,"ĠFW":5963,"sums":5964,"allah":5965,"leftCount":5966,"Stack":5967,"============================================":5968,"Ġ<<\"\\":5969,"tKarp":5970,"opcroftKarp":5971,"#################################################################################################################":5972,")};":5973,"215":5974,"If":5975,"NT":5976,"Print":5977,"fe":5978,"isprime":5979,"white":5980,"dem":5981,"Ġlr":5982,"acity":5983,"irl":5984,"elist":5985,"Ġgt":5986,"------------":5987,"Ġ____;":5988,"______":5989,"Ġ77":5990,"({-":5991,"Ġmapa":5992,"bbb":5993,"poz":5994,"Ġalgorithm":5995,"Ġalways":5996,"blocks":5997,"ignore":5998,"Ġcombine":5999,"pleTest":6000,"!\\":6001,".;":6002,"File":6003,"tGG":6004,"xf":6005,"åĽ":6006,"Ġrsz":6007,"DDi":6008,"ĠBR":6009,"ĠreadLong":6010,"mix":6011,"200200":6012,"Force":6013,"Ġdivide":6014,"[_]":6015,"':'":6016,"ĠSegmentTree":6017,"initializer":6018,",..":6019,"DEEEEEEEEEEEE":6020,"GWWWKK":6021,"KWW":6022,"KEEEEEEEE":6023,"LGGGG":6024,"Not":6025,"PE":6026,"TEMPORARY":6027,"WEEEEEEEE":6028,"WEEE":6029,"WKKK":6030,"WKKKKKKK":6031,"You":6032,"fDEEEE":6033,"tor":6034,"infile":6035,"Ġ180":6036,"outfile":6037,"KKG":6038,"KKi":6039,"ĠTr":6040,"WWEEEEEEEEEEE":6041,"EEL":6042,"EEf":6043,"odo":6044,"asd":6045,"blems":6046,"DDWWKK":6047,"EEEEED":6048,"...*/":6049,"WWWWK":6050,"Ġww":6051,"trol":6052,"/*...":6053,"EEEEEEEEEK":6054,"Ġmxs":6055,",,,,,;":6056,"::::..":6057,"Ġ.:.":6058,"DGf":6059,"EEEWEEEEEEEEEEEE":6060,"KKKWWW":6061,"goal":6062,"KKKKKWWWWWWWWW":6063,"KKKKKWKKKKK":6064,"[]={+":6065,"KKKKKKKKKKKKKKKKKKKKKKKKKK":6066,"KKKKKKKKKKKKKKKKKKKKKKKKKKKKKKK":6067,"beki":6068,"DDDDDDDDDDDDDDD":6069,"WWWWWWWKKKK":6070,"WWWWWWKKKKK":6071,":::;:":6072,"DEEEEKKKKKKKKKK":6073,",,,:.":6074,"suffix":6075,"Ġ.:;":6076,"EEEEEEEEEEEEEEEEE":6077,"rdv":6078,".:;":6079,"ijLGGGDDDDDDDDDDDD":6080,"GGGGGGGGGGGGGGGGGGGGGGGG":6081,"EEEEEEDDf":6082,"DEEEKKKKKKKK":6083,"itfGGGDDDDDDDDDDDD":6084,"ĠMultiTest":6085,"ĠOImode":6086,".....:::..":6087,"PFL":6088,"SFL":6089,"ade":6090,"vf":6091,"za":6092,"Ġmis":6093,"Ġ==>":6094,"els":6095,"setfill":6096,"Ġitos":6097,"Ġ10000000000000000":6098,"Ġexpo":6099,"Ġ987":6100,"1693":6101,"......................................":6102,"Ġoffset":6103,".::.":6104,"300010":6105,"MI":6106,"SOL":6107,"VE":6108,"cst":6109,"ek":6110,"fll":6111,"ftree":6112,"Ġbar":6113,"Ġfre":6114,"Ġ'/":6115,">>&":6116,"ĠSOL":6117,"modnum":6118,"Ġ#%":6119,"(-(":6120,"Ġ1001":6121,"comb":6122,"Ġabc":6123,"NumberIterator":6124,"Short":6125,"composition":6126,"pleTestMode":6127,"after":6128,"dul":6129,"pull":6130,"xpo":6131,"Ġinclu":6132,"ĠâĢ":6133,"Ġvout":6134,"oss":6135,"anss":6136,"speed":6137,"ulation":6138,"ĉĉĉĉĉĉĉĉĠ":6139,"]]-":6140,"Ġgroup":6141,"host":6142,"Ġdisc":6143,"illah":6144,"Ġfunctions":6145,"switch":6146,"Ġbetween":6147,"hamdul":6148,"1415926535897932384626433832795028841971693":6149,"hamdulillah":6150,"141592653589793238462643383279502884197169399":6151,"84":6152,"BR":6153,"Up":6154,"falign":6155,"sDEB":6156,"Ã²":6157,"Ùı":6158,"rea":6159,"Ġsafe":6160,"ali":6161,"Ġya":6162,"ĠABS":6163,"â£Ģ":6164,"Ġ36":6165,"fsched":6166,"());}":6167,"]]>":6168,")(__":6169,"ĠON":6170,"Ġleaf":6171,"Ġsetbit":6172,"==========":6173,"Ġinvfact":6174,"board":6175,"PowerOf":6176,"Second":6177,"Ġshared":6178,"optimize":6179,"PowerOfTwo":6180,"As":6181,"mv":6182,"merciful":6183,"yo":6184,"Ġ****************************************":6185,"Ġ997":6186,"resp":6187,"reach":6188,"()*":6189,"ople":6190,"eln":6191,"ĠCASE":6192,"Ġuniform":6193,"mxN":6194,"Ġpowermat":6195,"ModMatrix":6196,"Ġmyrand":6197,"âĸĵâĸĵâĸĵâĸĵ":6198,"âķ¬âķ¬âķ¬âķ¬âķ¬âķ¬âķ¬âķ¬":6199,"divider":6200,"\").":6201,"'==":6202,"2000000":6203,"gi":6204,"las":6205,"lucky":6206,"ood":6207,"Ġnex":6208,"Ġbt":6209,"(\"{":6210,"Ġjump":6211,"Ġminus":6212,"Ġhor":6213,"ĠCreated":6214,"ĠDOU":6215,"âĸĳâĸĳâĸĪ":6216,"Ġfib":6217,"]+=(":6218,"ï¿½ï¿½ï¿½ï¿½ï¿½ï¿½ï¿½":6219,"Ġfrr":6220,"ĠMaxn":6221,"55555555":6222,"TASKNAME":6223,"ĠDOUBLE":6224,"]--,":6225,"mstream":6226,"oy":6227,"text":6228,"Ġplace":6229,"spf":6230,"Ġred":6231,"Ġrepp":6232,"isalpha":6233,"thr":6234,".................":6235,"Ġ(\"-":6236,"factors":6237,"ĠnextInt":6238,"/********************************************************":6239,"Ġthrough":6240,",``":6241,"Tt":6242,"fma":6243,"sfl":6244,"Ġod":6245,"sta":6246,"stop":6247,"Ġsff":6248,"LLL":6249,"ices":6250,"Ġsteps":6251,"uper":6252,"â£¿â£¿â£·":6253,"ĠBy":6254,"&&!":6255,"ĠisSquare":6256,"Ġ47":6257,"Ġ400":6258,"Ġfraction":6259,"â¢¯":6260,"MMMMMMMMM":6261,"Ġindx":6262,"Ġ\"]:\",":6263,"â£¿â£½":6264,"â£¿â£Ĩ":6265,"ECT":6266,"(\"\");}":6267,"âĸĳâĸĳâĸĳâĸĢ":6268,"locale":6269,"]]]]]]]]":6270,"â£Ĩâł¹":6271,"âłīâłī":6272,"wiki":6273,"LowerCase":6274,"vir":6275,"wise":6276,"Ġlife":6277,"eral":6278,"arth":6279,"etch":6280,"ĠADD":6281,"333":6282,"InOut":6283,"])));":6284,"ĠMaxN":6285,"ĠZERO":6286,"moves":6287,"Ġimplement":6288,"ĠrandomInteger":6289,"718281828":6290,"._":6291,"74":6292,"TR":6293,"Vec":6294,"YNC":6295,"cplusplus":6296,"fopen":6297,"sg":6298,"single":6299,"retty":6300,"ĠMp":6301,"ĠMat":6302,"Ġhull":6303,"Ġlef":6304,"Ġmxn":6305,"STR":6306,"hsh":6307,"Ġdivisors":6308,"Ġ9223372036854775807":6309,"1000000000000000000":6310,"Ġassum":6311,"Ġ'#';":6312,"ĠBigmod":6313,"ĠPowerMod":6314,"UpperCase":6315,"Fi":6316,"}\");":6317,"ano":6318,"Ġrot":6319,"Ġyb":6320,"pairt":6321,"...));":6322,"ĠSp":6323,"resh":6324,"âĸĴâĸĲ":6325,"ĠreadInteger":6326,"ĠEQ":6327,"37510":6328,"aryanc":6329,"OUTPUT":6330,"Ġnormalize":6331,"ĠREAD":6332,"ĠmultiplyMod":6333,"12345":6334,"questions":6335,"14159265358979323846264338327950288419716939937510":6336,"Ahead":6337,"dim":6338,"mu":6339,"tnm":6340,"Ñĩ":6341,"çĤ":6342,");*/":6343,"Ġvli":6344,"Ġtar":6345,"Ġrequ":6346,"109":6347,"than":6348,"cell":6349,"Ġfru":6350,"parator":6351,"ĠHash":6352,"Ġ123456789":6353,"ĠFAIL":6354,"çĤ¹":6355,".)":6356,"GLI":6357,"Que":6358,"ua":6359,"ÑĮ":6360,"intt":6361,"Ġnj":6362,"***/":6363,"mple":6364,"ofile":6365,"Ġwalk":6366,"ĠLE":6367,"Ġhalf":6368,"888888888":6369,"Ġprintv":6370,"==================================":6371,"Ġoffbit":6372,"ĠFOREACH":6373,"ÑģÑĤ":6374,"ĠBigMod":6375,"Ġ|_|\\":6376,"]=='*')":6377,")]++;":6378,"aut":6379,"lps":6380,"round":6381,"vect":6382,"xl":6383,"|=(":6384,"Ñĥ":6385,"deep":6386,"stants":6387,"Ġtv":6388,"][__":6389,"Ġ*)":6390,"lines":6391,"â£Ħ":6392,"ĠPF":6393,"ĉĉĉĉĉĉĉĉĉĉĠĠĊ":6394,"Ġhale":6395,")%(":6396,"',');":6397,"ĠMAXK":6398,"imal":6399,"10005":6400,"âĸĳâĸĳâĸĳâĸĳâĸĲ":6401,"Ġexist":6402,"14159265358979323":6403,"2353":6404,"Ġctz":6405,"eedForce":6406,"Ġchildren":6407,"propagate":6408,"TYPE":6409,"Ġhaleyk":6410,"03":6411,"0123456789":6412,"210":6413,"Bl":6414,"PS":6415,"_);":6416,"eff":6417,"pal":6418,"Ø¨":6419,"Ġ97":6420,"rement":6421,"Ġ(){":6422,"only":6423,"Ġvpl":6424,"acent":6425,"Ġdst":6426,"Ġfort":6427,"ethod":6428,"ĠBinary":6429,"Ġcome":6430,"Ġfastpower":6431,"@@@@@@":6432,"Ġprocess":6433,"BCXX":6434,"omething":6435,"GLIBCXX":6436,"664":6437,"Big":6438,"Yn":6439,"]}":6440,"bX":6441,"land":6442,"rin":6443,"vr":6444,"ķÐ":6445,"Ġioi":6446,"Ġafor":6447,"Ġsg":6448,"///*":6449,"Ġremin":6450,"ĠSort":6451,"Ġseive":6452,"-------":6453,"},{-":6454,"Ġzeroes":6455,"ÐµÐ½":6456,"Ġtakemod":6457,"âłĽâłĽ":6458,"ĠSPEED":6459,"Ġlocalhost":6460,"++++++++++++++++":6461,"iables":6462,"eturns":6463,"420":6464,"654":6465,"Function":6466,"Zero":6467,"chi":6468,"fil":6469,"place":6470,"Ġ********************************":6471,"inity":6472,"()<=":6473,"ample":6474,"Ġ'[":6475,"],-":6476,"))!=":6477,"Ġ&&...":6478,"Ġekv":6479,"ĠAIM":6480,"107":6481,"ĠDC":6482,"Ġdelete":6483,"âĸĢâĸĢâĸĢ":6484,"before":6485,"Ġstructure":6486,"_______________":6487,"Ġ'#'":6488,"Ġstackoverflow":6489,"Ġeverything":6490,"LCA":6491,"MQ":6492,"gain":6493,"vpll":6494,"//{":6495,"Ġ\"=\"":6496,"constant":6497,"ĠType":6498,"();(":6499,"Ġko":6500,"Ġmiddle":6501,"ĠisPowerOfTwo":6502,"<<(#":6503,"âłĩ":6504,"1415926535":6505,"Ġthen":6506,"dfn":6507,"box":6508,"reference":6509,"/*************************************************/":6510,"ĠEXIT":6511,"Ġinclusive":6512,"Eof":6513,"ELE":6514,"Lf":6515,"Task":6516,"pas":6517,"Ðĵ":6518,"ØŃ":6519,"Ġ**********************":6520,"ido":6521,"Ġrl":6522,"Ġremax":6523,"Ġul":6524,"000000001":6525,"fib":6526,"Ġzz":6527,"]=='(')":6528,"xxx":6529,"////////////////////////////////////////////////////////////////////////////////////////////////":6530,"Ġ'*'":6531,"Ġblack":6532,"ĠTHE":6533,"__<<\":\"<<__":6534,"ĠProblem":6535,"360":6536,"EQ":6537,"En":6538,"Mx":6539,"Parent":6540,"bst":6541,"blog":6542,"cf":6543,"fnd":6544,"nik":6545,"phi":6546,"pli":6547,"vot":6548,"reset":6549,"Ġ());":6550,"onal":6551,"Ġnil":6552,"Ġsomething":6553,"ani":6554,"Ġtint":6555,"Ġfree":6556,"Ġrp":6557,"setw":6558,"asg":6559,"ĠMMM":6560,"Ġga":6561,"choose":6562,"Ġifstream":6563,"______,":6564,"bucket":6565,",,;":6566,"ĠCC":6567,"divisors":6568,"1415926535898":6569,"events":6570,"6666":6571,"...............................":6572,"00000001":6573,",,,,,,,,,,,,,,,,,,,,,,,,":6574,"Ġamount":6575,"<<\"{\";":6576,"thrust":6577,"30000":6578,":-":6579,">)":6580,"CK":6581,"Cur":6582,"CON":6583,"jir":6584,"oa":6585,"Ġly":6586,"Ġplld":6587,"Ġpull":6588,"Ġinfi":6589,"ĠNX":6590,"')*":6591,"Ġchain":6592,"@@@":6593,"dict":6594,"<<\":\"":6595,"Ġcountbit":6596,"quence":6597,"Possible":6598,"Ġ1000000021":6599,"Ġdefinit":6600,"PRS":6601,"åĽŀ":6602,"Dis":6603,"JK":6604,"]^=":6605,"_/":6606,"jf":6607,"kl":6608,"}\"<<":6609,"Ġlx":6610,"Ġamax":6611,"Ġcreate":6612,"Ġsink":6613,"ĠĠĠ":6614,"Ġgp":6615,"ĠAL":6616,"-------------":6617,"ĠPre":6618,"Ġ____":6619,"Ġminimum":6620,"trav":6621,"ĠDSU":6622,"]]!=":6623,"ĠINFINT":6624,"ĠVAR":6625,"ĠFORd":6626,"â¢¹":6627,"rightCount":6628,"Ġextra":6629,"ĠdecreaseByOne":6630,"âĢĻ":6631,"divide":6632,",',');":6633,"/|":6634,"214":6635,"MDL":6636,"^^":6637,"circle":6638,"isp":6639,"oz":6640,"pdd":6641,"Ġpsum":6642,"()>=":6643,"Ġvil":6644,"Ġtw":6645,"Ġbf":6646,"Ġkb":6647,"prob":6648,"Ġ_____":6649,"ARE":6650,"totient":6651,"10010":6652,"Ġplll":6653,"2097":6654,"readN":6655,"16777216":6656,"Ġnormmod":6657,"Ġlines":6658,"cases":6659,"ĠUnion":6660,"ĠFastRead":6661,"&)":6662,"<>,":6663,"Is":6664,"VL":6665,"cv":6666,"dh":6667,"gap":6668,"åħ":6669,"Ġ9999":6670,"deq":6671,"Ġccc":6672,"ĉĉĉĉĠĊ":6673,"-->":6674,"//--------------------------------":6675,"Ġ\"'":6676,"Ġtut":6677,"tial":6678,"Ġ'>":6679,"(\"%\"":6680,"ĠMAT":6681,"ĠMain":6682,"Ġgre":6683,"Ġmakeit":6684,"Ġhare":6685,"ĠgetSum":6686,"exhausted":6687,"viky":6688,"Ġvvb":6689,"1415926535897932384626":6690,"marked":6691,"271":6692,"/******************************************************/":6693,"ĠIntegerIterator":6694,"composite":6695,"è¿Ķ":6696,"]=='?')":6697,"*=-":6698,"600":6699,"GR":6700,"car":6701,"nj":6702,"shi":6703,"tom":6704,"Ø³":6705,"ĉĉĉĠĊ":6706,"Ġali":6707,"Ġcm":6708,"Ġslld":6709,"ypot":6710,"Ġry":6711,"olog":6712,"DDE":6713,"Ġcontain":6714,"ĠSPCPPL":6715,"unk":6716,"Ġstop":6717,"Ġvvpii":6718,"Ġfaster":6719,"vvl":6720,"Ġproblems":6721,"Ġckmin":6722,"Ġfactorize":6723,"dau":6724,"'},{'.','.','.','.','.','.','.','.','.'},{'.','.','.','.','.','.','.','.','.'},{'.','.','.','.','.','.','.','.','.'},{'.','.','.','.','.','.','.','.','.":6725,"elem":6726,"Ġmany":6727,"Ã®Ã":6728,"fname":6729,"gmail":6730,"jl":6731,"ran":6732,"Ġci":6733,"endido":6734,"]=\"":6735,"ĠLIE":6736,"Ġ55":6737,"ĠreadString":6738,"â¢·":6739,"START":6740,"powmod":6741,"Ġcomponent":6742,"2002":6743,"ĠFASTIO":6744,"Ġckmax":6745,"â£»â£¿â£¿":6746,"ENT":6747,"eighted":6748,"â¡Īâ¢¿":6749,"ĠgcdExtendido":6750,")!=(":6751,"08":6752,">\"":6753,"GIC":6754,"So":6755,"When":6756,"YY":6757,"cor":6758,"ea":6759,"hy":6760,"iq":6761,"ption":6762,"rht":6763,"xff":6764,"}));":6765,"Ġ=>":6766,"reap":6767,"Ġisp":6768,"()<<\"\\":6769,"--'":6770,"Ġsave":6771,"access":6772,"Ġfather":6773,"Ġrnk":6774,"))){":6775,"pril":6776,"])//":6777,"ĠMY":6778,"Ġmaxim":6779,"Ġhand":6780,"Ġzeros":6781,"ception":6782,"ĠaddEdge":6783,"à¦®":6784,"à¦²":6785,"Ġscf":6786,"ĠInteractive":6787,":::::::::":6788,"Ġbuffer":6789,"ĠARY":6790,"aeiou":6791,"han":6792,"mst":6793,"rsz":6794,"xp":6795,"ĠâĸĪâĸĪâķĳ":6796,"Ġamin":6797,"Ġcps":6798,"--->":6799,"era":6800,"ĠyLast":6801,"umn":6802,"seconds":6803,"Ġ_|":6804,"64000000":6805,"minx":6806,"1100":6807,"Ġtoken":6808,"ĠBang":6809,"viz":6810,"haha":6811,"Ġ9000000000000000000":6812,"files":6813,"ĠPRId":6814,"â¡¿âł":6815,"ULO":6816,"ĠnCr":6817,"(==":6818,"?(":6819,"AV":6820,"Check":6821,"TOR":6822,"Trie":6823,"flip":6824,"seive":6825,"Ġamt":6826,"Ġaug":6827,"Ġcpresent":6828,"Ġsii":6829,"ering":6830,"Ġdv":6831,"__))":6832,"Ġround":6833,"))<":6834,"Ġuu":6835,"ĉĠĉĉĉ":6836,"Ġ)\\":6837,"...,":6838,"based":6839,"*********************":6840,"ĠLast":6841,"ĠDE":6842,"ĠHERE":6843,"------------------------------------":6844,"ĠtotalCount":6845,"ĠForwardIterator":6846,"Digit":6847,"Cycle":6848,"(==)":6849,"&=":6850,"New":6851,"OP":6852,"Rd":6853,"Write":6854,"bp":6855,"denominator":6856,"Ġmay":6857,"Ġrgt":6858,"spar":6859,"Ġformat":6860,"Ġgll":6861,"edia":6862,"ĠRALL":6863,"summ":6864,"Ġham":6865,"ipedia":6866,"977":6867,"fastIO":6868,"aba":6869,"Ġdisp":6870,"ĠWRITE":6871,"Ġclone":6872,"Ġ((((":6873,"Ġtajir":6874,"3005":6875,"Ġ5005":6876,"interval":6877,"!='-')":6878,"Ġ-------":6879,"Field":6880,"è¿ĶåĽŀ":6881,"']--;":6882,"May":6883,"_-":6884,"king":6885,"rn":6886,"zx":6887,"inal":6888,"Ġmst":6889,"Ġnm":6890,"Ġnv":6891,"Ġ\"}":6892,"Ġtask":6893,"ĠTask":6894,"Ġrw":6895,"asing":6896,"ithme":6897,"Ġey":6898,"ĠPll":6899,"ĠBUG":6900,"ĠBFS":6901,"Ġpositive":6902,"ĠOFF":6903,"Ġ1000111000":6904,"âĸĳâĸĳâĸĳâĸĳâĸĮ":6905,"Ġvvpll":6906,"ready":6907,"389":6908,"Ġppf":6909,"Ġmarked":6910,"Ġ`\"":6911,"Ġ'?'":6912,"Ġteam":6913,"optimizations":6914,"wikipedia":6915,"shared":6916,"asdfasdf":6917,"ithmetic":6918,"\"\\":6919,"(!=":6920,"500010":6921,"TC":6922,"Tp":6923,"])))":6924,"fig":6925,"knight":6926,"lh":6927,"money":6928,"pass":6929,"rim":6930,"¦Ĭ":6931,"Ġlv":6932,"Ġmb":6933,"()<<\"":6934,"Ġtolower":6935,"Ġfnd":6936,"__\\\\":6937,"iota":6938,"ĠMap":6939,"Ġ).":6940,"agonal":6941,"hes":6942,"hest":6943,";;..":6944,"ĠBe":6945,"Ġleast":6946,"Ġsetw":6947,"1003":6948,"','.','":6949,"Ġsorta":6950,"lice":6951,"suma":6952,"........................................":6953,"posed":6954,"ðŁ¦Ĭ":6955,"xyLine":6956,"Ġboard":6957,"uclidean":6958,"Ġelem":6959,"(!=)":6960,")\\":6961,"Var":6962,"ZZ":6963,"bk":6964,"bar":6965,"cW":6966,"fG":6967,"tI":6968,"Ġzet":6969,"Ġxl":6970,"sis":6971,"Ġllint":6972,"Ġkill":6973,"ĠSC":6974,"ĠSI":6975,"Ġ300000":6976,"ĉĉĉĉĉĉĉĉĉĉĠĠ":6977,"ĠMAXM":6978,"Ġ.'":6979,"305":6980,"293":6981,"<<\",\";":6982,"Ġlsb":6983,"fffffff":6984,"OOP":6985,"##~~##~~##~~##~~":6986,"Ð£Ð¡Ð":6987,"Break":6988,"GT":6989,"QQ":6990,"_<":6991,"qe":6992,"æĹ":6993,"Ġnt":6994,"Ġmaxt":6995,"ops":6996,"Ġrk":6997,"asu":6998,"]).":6999,"ĠSA":7000,"ĠRES":7001,"Ġstar":7002,"Ġhar":7003,"ĠCODE":7004,"extended":7005,"âĸĪâĸĮ":7006,"love":7007,"Ġisin":7008,"ĠVPII":7009,"88888888888":7010,"à§ĭ":7011,"book":7012,"~~~~~~~~":7013,"jumps":7014,"//////////////////////":7015,"045":7016,"Df":7017,"Gf":7018,"cen":7019,"ted":7020,"æĺ":7021,"Ġour":7022,"deb":7023,"Ġcnk":7024,"Ġdad":7025,"(\"?":7026,"Ġ']":7027,"Ġconv":7028,"Ġmaxc":7029,"âĸĳâĸĦâĸĢ":7030,"ĠgetMax":7031,"ĠCac":7032,"ĠBG":7033,"vertical":7034,"Ġ409":7035,"âĸĴâĸĴâĸĴâĸĦ":7036,"ĠEngine":7037,"library":7038,"Ġsortd":7039,"222":7040,"Modular":7041,"&(~(":7042,"calculate":7043,"Ġfinal":7044,"!!!!":7045,"Result":7046,"ĠTimerStop":7047,"trolIO":7048,"ĠEngineering":7049,"&>::":7050,"Adj":7051,"Even":7052,"GB":7053,"Inc":7054,"UU":7055,"_];":7056,"fio":7057,"her":7058,"Ð¼":7059,"Ġ88":7060,"Ġ=================":7061,"Ġcas":7062,"Ġsig":7063,"Ġrch":7064,"Ġrig":7065,"WWEE":7066,"Ġreg":7067,"LLAH":7068,"â£¼":7069,";}};":7070,"Ġcntbit":7071,"Ġht":7072,"Ġden":7073,"vious":7074,"Ġ\\_|":7075,"582097":7076,"â¢ł":7077,"segtree":7078,"ĠWA":7079,"Ġorg":7080,"show":7081,"Ġï¿½ï¿½ï¿½ï¿½ï¿½ï¿½ï¿½ï¿½ï¿½ï¿½ï¿½ï¿½":7082,"â£¿â¡ĩ":7083,"Ġimpl":7084,"BufSize":7085,"ĠNUM":7086,"Ġcppstr":7087,"14159265358979323846264338327950288419716939937510582097":7088,"'ve":7089,"(...);":7090,"+--":7091,"Base":7092,"tam":7093,"whitespace":7094,"dest":7095,"stan":7096,"Ġtk":7097,"Ġ'<":7098,"Ġ'-';":7099,"Ġ200001":7100,"...;":7101,"Ġ30000":7102,"Ġstuff":7103,"ĠCU":7104,"ĠDef":7105,")('":7106,"=========":7107,"Ġsorting":7108,"goa":7109,"ATCH":7110,"KEK":7111,"4944":7112,"ĠbinarySearch":7113,"reflect":7114,"Ġwinner":7115,"Ġcorrect":7116,"Ġpolygon":7117,"141592653589793238462643383279502884197169399375105820974944":7118,"*((":7119,",....":7120,",;;;;":7121,"50000":7122,":................................":7123,";,.":7124,"CP":7125,"DKK":7126,"DEEEEEEEEEEE":7127,"GDDD":7128,"KG":7129,"KEEE":7130,"KDEEE":7131,"MY":7132,"NAN":7133,"WKKKKKK":7134,"dn":7135,"dv":7136,"fD":7137,"fu":7138,"fx":7139,"how":7140,"iDD":7141,"iDEEEE":7142,"zeros":7143,"Ðŀ":7144,"çĽ":7145,"Ġ.....:::..":7146,"star":7147,"Ġctr":7148,"forl":7149,"itt":7150,"ĠfRead":7151,"ĠfWrite":7152,"KKEK":7153,"::,":7154,":::.":7155,"::,,,,,,,;;;;":7156,"ĠTL":7157,"WWKKKKKKKKKKKKKKKK":7158,"WWKE":7159,"WWEEEEEEE":7160,"EEKK":7161,"EEDDDD":7162,"EEKKWWWW":7163,"DDL":7164,"DDDG":7165,"Ġ++(":7166,"adr":7167,"Ġequ":7168,"EEEEEED":7169,"...,.":7170,"WWWWKKKKKKKWKK":7171,"ĠPos":7172,"=(__":7173,"Ġstay":7174,"DDDDDDD":7175,"Ġgetnum":7176,"ĠCTr":7177,"Ġisvowel":7178,"ĠVal":7179,"Ġ\",++":7180,"WWWWWWWWWWWWWW":7181,"WWWWWWWWWWK":7182,"GGGGDDDDDDDDDDD":7183,"GGGGGL":7184,"Ġ.;":7185,"Ġ.:::;:":7186,"DDDDDDDDD":7187,"WWWKKKKKKKKKK":7188,"WWWKKKKKKKKKKKKKKK":7189,"compress":7190,"KKKWWWWWWWW":7191,"KKKWWK":7192,":.::::::::":7193,"KKKKKKKKKKKKKKKKW":7194,"KKKKKKKKKKKKKKKKWKKKKKKKK":7195,"DEi":7196,"WKE":7197,"tfGGGGDDDDDDDDDDD":7198,"Stamp":7199,"WWWWWWKKKKKK":7200,"EEEEEEEEEEEEE":7201,"Ġevents":7202,",\"/":7203,"WKKWK":7204,"WWWWWWWWWGWWWKK":7205,"EDi":7206,"Ġ.:,;":7207,"KWEK":7208,"ijLG":7209,"'},{'":7210,"WKKKKKi":7211,"Ġgenerate":7212,"DEEKKK":7213,"Pairs":7214,"sdk":7215,"111000111":7216,"æľī":7217,"GEEKKKKKWKKKKK":7218,":.............":7219,"SortComp":7220,"edian":7221,"WWWWWWWWKKKKKi":7222,"WWWWWKKKKKWWWWWWWWWWWW":7223,"è¡¨":7224,"Ġ.:.,:":7225,"GGGGGGGGGGGGGGGGGGGGGGGGGG":7226,"Shortest":7227,":.................................":7228,"02":7229,"CASE":7230,"Returns":7231,"Ġ(&...":7232,"Ġcar":7233,"Ġ'}":7234,"asy":7235,"Ġever":7236,"Ġminheap":7237,"Ġgets":7238,"ĠCont":7239,"Ġview":7240,"ĠOP":7241,"ecution":7242,"Ġ1000003":7243,"VECTOR":7244,"'},{'.','":7245,"âĸĳâĸĳâĸĳâĸĳâĸĳâĸĮ":7246,"goto":7247,"allocator":7248,"Ġcorner":7249,"459045":7250,"718281828459045":7251,"ship":7252,"Ġ1000111000111000111":7253,"7182818284590452353":7254,",--":7255,";,,":7256,"BO":7257,"Ok":7258,"dl":7259,"euclid":7260,"Ġscd":7261,"Ġvull":7262,"Ġforup":7263,"Ġ,&":7264,"Ġ|_":7265,"Ġtra":7266,"pport":7267,"ĠCan":7268,"exist":7269,"Ġpie":7270,"VAL":7271,"100011":7272,"âĸĢâĸĪâĸĪâĸĪâĸĪâĸĪ":7273,")*((":7274,"à¦ķ":7275,"âĸĪâĸĪâĸĪâĸĪâĸĮ":7276,"âĸĢâĸĢâĸĳâĸĳâĸĮ":7277,"âĸĦâĸĦâĸĳâĸĳâĸĮ":7278,",\"%":7279,"Leap":7280,".............................":7281,"Ġ200100":7282,"Ġsdk":7283,"âĸĪâĸĪâĸĪâĸĮ":7284,"Ġbacks":7285,"ticulation":7286,"âĸĢâĸĢâĸĢâĸĢâĸĢâĸĦ":7287,"âķĲâķ¦âķĲâķ©âķĲâķ¦âķĲâķ©âķĲâķ¦âķĲâķ©âķĲâķ¦âķĲâķ©":7288,"Ġwriteln":7289,"jdflg":7290,"577215":7291,"âĸĲâĸĳâĸĳâĸĳâĸĦâĸĦâĸĳâĸĳâĸĮ":7292,"ÐĶÐ":7293,"Queue":7294,"âĸĢâĸĢâĸĢâĸĴâĸĴâĸĴâĸĴâĸĴâĸĴ":7295,"Ġ4096":7296,"577215664":7297,"pur":7298,"tms":7299,"vent":7300,"Ġ####":7301,"Ġ(--":7302,"Ġagain":7303,"Ġnmax":7304,"clk":7305,"//_":7306,"//*/":7307,"Ġblo":7308,"Ġbrr":7309,"Ġlongest":7310,"erm":7311,"Ġfup":7312,"Ġkhod":7313,"ĠMM":7314,"addedge":7315,"Ġ37":7316,"Ġostringstream":7317,"Ġsetfill":7318,"ĠreadImpl":7319,"120":7320,"1000100":7321,"ecause":7322,"307":7323,"readImpl":7324,"infuck":7325,"initArrays":7326,"ĠinitArrays":7327,"1000006":7328,"bridge":7329,"MinVal":7330,"Ġbsr":7331,"Ġ')')":7332,"served":7333,"rdtsc":7334,"ĠEXP":7335,"==================================+":7336,">())":7337,"CE":7338,"[\";":7339,"cz":7340,"cid":7341,"cope":7342,"kth":7343,"sat":7344,"åº":7345,"Ĳ¹":7346,"Ġlab":7347,"Ġmil":7348,"Ġcentroid":7349,"Ġcache":7350,"//'":7351,"Ġ200000000":7352,"backs":7353,"<<\"?":7354,"ĠPO":7355,"')';":7356,"Ġmpii":7357,"Ġ\",\";":7358,"Ġboolalpha":7359,"abb":7360,"xxxx":7361,")<<\",\"<<":7362,"Ġcounts":7363,"ITY":7364,"lcmp":7365,"ðŁĲ¹":7366,"Ġfdto":7367,"ĠFix":7368,"<<\"]\\":7369,"Ġbox":7370,"Ġutility":7371,"ðŁ¦ĬðŁ¦Ĭ":7372,"æĺ¯":7373,"GN":7374,"Move":7375,"`.":7376,"bes":7377,"je":7378,"lm":7379,"lis":7380,"witch":7381,"Ġ****":7382,"ĉĠĉĠ":7383,"iiiii":7384,"ĠSLL":7385,"Ġseconds":7386,"Ġinfl":7387,"229":7388,"11111":7389,"âĸĪâĸĪâĸĪâĸĪâĸĪâĸĪ":7390,"Ġasd":7391,"ancestor":7392,"Execution":7393,"strict":7394,"ABC":7395,"Ġtell":7396,"Ġpattern":7397,"lzy":7398,"Ġutils":7399,"131":7400,"Cout":7401,"Hi":7402,"Main":7403,"[!":7404,"]/=":7405,"`..":7406,"cbegin":7407,"iN":7408,"nYES":7409,"âĺ":7410,"å®":7411,"Ġâķļ":7412,"Ġistr":7413,"Ġao":7414,"Ġtu":7415,"les":7416,"Ġflip":7417,"ameter":7418,"Ġrai":7419,"Ġyo":7420,"Ġreps":7421,"Ġinstead":7422,"Ġee":7423,"â£ŀ":7424,"ĠSwitch":7425,"Ġwon":7426,"â£¿â¢Ģ":7427,"ĠDO":7428,"MAXL":7429,"alla":7430,"version":7431,"ocal":7432,"â¡Ĩ":7433,"349":7434,"Ġasdf":7435,".:..":7436,"â£¯â¢¿":7437,"â£½â£»":7438,"MMMMMMMMMMMMMMMMMMMMMMMMMMMMMMMMMMMMMMMMMMMMMMMM":7439,"â¢Ģâ¢Ģâ¢Ģâ¢Ģ":7440,"â£¶â£¶":7441,"ĠPAIR":7442,"SPEED":7443,"â£§âłĺ":7444,"Ġsubmitting":7445,"Ġ227420":7446,"copeTimer":7447,"Ġ227420978":7448,"CR":7449,"PQ":7450,"Suf":7451,"mis":7452,"nNO":7453,"Ġvint":7454,"types":7455,"ĠrFOR":7456,"])!=":7457,"),-":7458,"())*":7459,"Ġ_=":7460,"Ġminim":7461,")%=":7462,"///--------------------------------":7463,"*************************************":7464,"Ġfront":7465,"Ġaddmod":7466,"STL":7467,"Ġscs":7468,"Ġassign":7469,"Ġpause":7470,"287":7471,"}}}":7472,"ĠMAGIC":7473,"âĢĶ":7474,"æľĢ":7475,"belong":7476,"ethods":7477,"']);":7478,"179":7479,"526":7480,"Pref":7481,"XY":7482,"_=":7483,"kh":7484,"sink":7485,"æŀ":7486,"Ġoth":7487,"Ġpn":7488,"<<=":7489,"chu":7490,"ĠFRE":7491,"ĠCost":7492,"Ġdes":7493,"ĠIL":7494,"ĠOL":7495,"Ġmxm":7496,"Ġ[\"":7497,"component":7498,"MaxVal":7499,"ĠHeap":7500,"ĠKnight":7501,"Ġwhite":7502,"ĠmodularExponentiation":7503,"XXXX":7504,"Ġslope":7505,"/****************":7506,"497":7507,":\";":7508,"XZ":7509,"pretty":7510,"rm":7511,"Ġ(),":7512,"Ġpof":7513,"Ġ0123456789":7514,"Ġdust":7515,"ĠmodAdd":7516,"Ġeuler":7517,"maxv":7518,"Ġqe":7519,"ico":7520,"Ġwl":7521,"frq":7522,"Ġ72":7523,"Ġcoll":7524,"à¦¤":7525,"Ġeni":7526,"ONE":7527,"ATION":7528,"elements":7529,"Ġdifference":7530,"Ġ\"{}\";":7531,"Ġdegree":7532,"ĠNOT":7533,"cuoi":7534,"å°ı":7535,"ĠBinaryOperation":7536,"dividend":7537,"Del":7538,"Let":7539,"Solution":7540,"lay":7541,"rge":7542,"Ġtxt":7543,"contest":7544,"__)(__":7545,"special":7546,"<<\"}\";":7547,"Ġmaxheap":7548,"sss":7549,"coord":7550,"100002":7551,"parity":7552,"Ġmnm":7553,"Ġvvv":7554,"Ġrights":7555,"ĠWH":7556,"1999":7557,"Ġsegtree":7558,"Ġdoing":7559,"ters":7560,"Ġ2005":7561,"âĸĢâĸĦâĸĳâĸĳâĸĳâĸĳ":7562,"PROG":7563,"ĠPROGR":7564,"/***************************":7565,"]=='#')":7566,"âĸĳâĸĳâĸĳâĸĳâĸĳâĸĲâĸĳâĸĳâĸĳâĸĳâĸĳâĸĳâĸĳ":7567,"Cont":7568,"OI":7569,"WI":7570,"face":7571,"ient":7572,"rate":7573,"Ðł":7574,"Ġim":7575,"sep":7576,"ĉĉĉĉĠĠĊ":7577,"--;}":7578,"acb":7579,"Ġbte":7580,"ĠTemplate":7581,"Ġreserved":7582,"cant":7583,"keep":7584,"ĠPDD":7585,"Ġoi":7586,"Ġha":7587,"ĠDFOR":7588,"Ġdet":7589,"mxm":7590,"rivo":7591,"ĠELE":7592,"STD":7593,"-='":7594,"mula":7595,"Ġsubmod":7596,"ATOR":7597,"ECK":7598,"ĠmultipleTestMode":7599,"ĠRAH":7600,"FFFFFF":7601,"Ġprimos":7602,"Ġbetter":7603,"Free":7604,"IF":7605,"WE":7606,"radius":7607,"width":7608,"¦ģ":7609,"Ð´":7610,"æĦ":7611,"Ħï¹":7612,"Ġ={":7613,"Ġisz":7614,"Ġmom":7615,"aca":7616,"Ġban":7617,"ating":7618,"Ġxa":7619,"Ġxor":7620,"Ġmodinverse":7621,"ĠFo":7622,"geti":7623,"frac":7624,"Ġ555":7625,"Ġ--){":7626,"Inside":7627,"Ġ61":7628,"ĠcheckMod":7629,"Ġfactors":7630,"2907":7631,"1010101":7632,"lso":7633,"Ġdebpr":7634,"Ġdebarr":7635,"Ġgenerator":7636,"Ġplus":7637,"ĠDirections":7638,"FASTIO":7639,"8888888888888888888888888":7640,"â£¤â£¤":7641,"{{{":7642,"Ġfilename":7643,"ï¹Ħï¹":7644,"Ġcube":7645,"YnB":7646,"æĦı":7647,"ï¹Ħï¹ĥ":7648,"*>":7649,"230":7650,"400000":7651,"Bi":7652,"Build":7653,"Rand":7654,"SQ":7655,"Watch":7656,"_((":7657,"cent":7658,"pu":7659,"qwe":7660,"safe":7661,"|!":7662,"Ã¨":7663,"Ġninf":7664,"sider":7665,"oly":7666,"Ġforward":7667,"Ġren":7668,"stread":7669,"ĠSy":7670,"âĸĳâĸĪ":7671,"ĠCopy":7672,"Ġ798":7673,"cover":7674,"ĠisLeap":7675,"Ġsetbase":7676,"nown":7677,"Ġcoords":7678,"Ġheart":7679,"LEN":7680,"avg":7681,"Ġ\"]\"":7682,"Ġà¦ķ":7683,"200002":7684,"anced":7685,"Problem":7686,"intercept":7687,"RIX":7688,"/:/":7689,"Cor":7690,"Wall":7691,"haz":7692,"rahman":7693,"uary":7694,"watch":7695,"xcross":7696,"Ġol":7697,"Ġmish":7698,"Ġnpq":7699,"Ġ{},":7700,"stdint":7701,"stdata":7702,"Ġbg":7703,"Ġfpi":7704,"Ġrad":7705,"();*":7706,"Ġfordo":7707,"Ġkth":7708,"\";}}":7709,"ĠmodDiv":7710,"Ġem":7711,"ĠFunction":7712,"ĠFFT":7713,"ĠFlag":7714,"putnb":7715,"10198":7716,"isspace":7717,"ĠSolution":7718,"Ġ360":7719,"Ġary":7720,"sertsCounter":7721,"try":7722,"ĠCase":7723,"ĠGen":7724,"]==')":7725,"ĠIR":7726,"Ġsizes":7727,"Ġ???":7728,"Ġ1000000000000":7729,"Ġ1011111111":7730,"Ġ\\:\\":7731,"///////////////////":7732,"431":7733,"player":7734,"Ġbiton":7735,"Ġbitoff":7736,"ĠfastInOut":7737,"grade":7738,"solution":7739,"testdata":7740,"Stream":7741,"à§ģ":7742,"lnb":7743,"pwr":7744,"iza":7745,"delrahman":7746,")((((*":7747,"Ġ~/":7748,"cslnb":7749,"Ġquit":7750,"SSI":7751,"actice":7752,"ĠContainer":7753,"little":7754,"normfac":7755,"atron":7756,"Ġempb":7757,"Faster":7758,"ĠSHOWVECTOR":7759,"ĠSegTree":7760,"SOLUTION":7761,"Ġaugment":7762,"14159265358979323846264338327950288419716939937510582097494459":7763,"hazfast":7764,"Ġmishatron":7765,"250":7766,"?'\\":7767,"From":7768,"HI":7769,"HERE":7770,"kt":7771,"ral":7772,"tre":7773,"{'":7774,"ster":7775,"Ġnep":7776,"Ġ\"[]":7777,"Ġinto":7778,"__\\":7779,"nton":7780,">>,":7781,"price":7782,"ĠmodSub":7783,"iswhitespace":7784,"ized":7785,"00000000000":7786,"ĠCircle":7787,"ĠGr":7788,"Ġtostr":7789,"Ġ1000000005":7790,"MMMMMMM":7791,"'.';":7792,"ĠXOR":7793,"10001":7794,"STAN":7795,"Ġvvld":7796,"Ġonline":7797,"dblcmp":7798,"Ġsure":7799,"888888888888888888":7800,"Ġfinp":7801,"ĠÐ·":7802,"foreach":7803,"Ġ505":7804,"Ġedg":7805,"vari":7806,"oved":7807,"çļĦå":7808,"Ġgeti":7809,"!!!\"":7810,"ðŁĲ¹ðŁĲ¹":7811,"+\",":7812,"2000000000":7813,">((":7814,"Area":7815,"DSU":7816,"SPCPPL":7817,"Targs":7818,"ae":7819,"qt":7820,"Ġet":7821,"segn":7822,"Ġaut":7823,"itor":7824,"Ġbra":7825,"Ġdat":7826,"Ġfc":7827,"::_":7828,"))][":7829,"setbase":7830,"Ġanss":7831,"])]":7832,"Ġ|.":7833,"Ġqy":7834,"aget":7835,"ĠLIM":7836,"ĠCo":7837,"precalc":7838,"Ġ500000":7839,"ĠinfLL":7840,"clog":7841,"Ġlena":7842,"Ġ!!":7843,"status":7844,"Ġvvd":7845,"ĠtimeStamp":7846,"/**************************************":7847,"Ġrdtsc":7848,"Ġobject":7849,"Ġcyc":7850,"Ġpdqueue":7851,"Ġallocator":7852,"Distance":7853,"balance":7854,"botl":7855,"Ġ///////////":7856,"CONSTAN":7857,"512":7858,"Crt":7859,"CLR":7860,"Dbg":7861,"Knight":7862,"Year":7863,"dc":7864,"lans":7865,"most":7866,"monostate":7867,"qwerty":7868,"unt":7869,"ä¼":7870,"ĠÂ":7871,"Ġclose":7872,"Ġia":7873,"default":7874,"ency":7875,"():":7876,"Ġfopen":7877,"til":7878,"spot":7879,"ĠMASK":7880,"Ġqi":7881,"ĠSW":7882,"ĠSh":7883,"ĠCalc":7884,"third":7885,"Ġ78":7886,"8888888888":7887,"readAhead":7888,"Ġbef":7889,"III":7890,"printLine":7891,"Ġ'.');":7892,"Ġà¦Ĩ":7893,"Ġ------------------------------------------------":7894,"11111111111":7895,"******************************************":7896,"999999999999":7897,"runtime":7898,"Ġgeomet":7899,"Ġ'||*":7900,"Black":7901,"CrtDbg":7902,"CrtDbgBreak":7903,"+((":7904,"709":7905,"IK":7906,"NMAX":7907,"Ptr":7908,"Ra":7909,"UONG":7910,"euclidean":7911,"fy":7912,"mf":7913,"vol":7914,"ÙĨ":7915,"stt":7916,"Ġ114":7917,"Ġpred":7918,"Ġsv":7919,"arithmetic":7920,"typecast":7921,"Ġran":7922,"Ġrect":7923,"ĠPair":7924,"orth":7925,"ĠRANDOM":7926,"Ġov":7927,"Ġhrs":7928,"ĉĉĉĉĉĉĠĊ":7929,"ĠINFF":7930,"1002":7931,"Ġ--++--":7932,"Ġaccepted":7933,"Ġtmpv":7934,"ĠwriteWord":7935,"Ġsfd":7936,"Ġmultimap":7937,"ewel":7938,"Ġallocate":7939,"000000000000000000000000000":7940,"111111111111111111111111111":7941,"ĠØ§ÙĦØ±":7942,"ĠIteratorType":7943,"ĠSOLUONG":7944,"sparse":7945,"ĠCopyright":7946,"Euclid":7947,"Jun":7948,"SYNC":7949,"^_^":7950,"both":7951,"rot":7952,"want":7953,"}]=":7954,"};}":7955,"Ñĭ":7956,"ÙĬ":7957,"ĠEE":7958,"sel":7959,"Ġcut":7960,"Ġcare":7961,"Ġvect":7962,"Ġ\"\");":7963,"lear":7964,"simple":7965,"__);}":7966,"ĠThis":7967,"Ġ239":7968,"881":7969,"ĠNAME":7970,"ĠFX":7971,"ĠPDE":7972,"ĠPPII":7973,"Ġ3000":7974,"Ġwidth":7975,";;)":7976,"ĠCF":7977,"ĠCMP":7978,"mation":7979,"/*#":7980,"cev":7981,"Ġprecision":7982,"ĠreadLine":7983,"Ġulli":7984,"////////////////////////////":7985,"à¦Ľ":7986,"limN":7987,"Ġthrow":7988,"ĠModInverse":7989,"ĠALLAH":7990,"Ġ',')":7991,"********************************************************************************************************************************":7992,"ĠÐ½":7993,"________________________________________________":7994,"VERS":7995,"/__/":7996,"<<\")\";}":7997,"Ġ*****************************************************************************************************":7998,"fcse":7999,"ĠSpeedForce":8000,"Ġ'[';":8001,"æĹ¶":8002,"ĠPROGRAM":8003,"137":8004,"9223372036854775807":8005,":......:":8006,";:.":8007,"LS":8008,"Sol":8009,"We":8010,"cache":8011,"ä½":8012,"Ġ])":8013,"ĳÐŀ":8014,"Ġ1123456":8015,"Ġplease":8016,"lll":8017,"algo":8018,"ĠTh":8019,"Ġ228":8020,"Ġreunique":8021,"asm":8022,"Ġ)%":8023,"Ġef":8024,"ĠFOUT":8025,"â£´":8026,"Ġtrail":8027,"Ġ320":8028,"Ġarticulation":8029,"Ġmpp":8030,"Ġgetv":8031,"ĠID":8032,"Ġ777":8033,"ĠVS":8034,"100009":8035,"Ġstri":8036,"ĠFORIT":8037,",,,,;":8038,"âł¸":8039,"ĠHASH":8040,"('<<":8041,"ĉĉĉĉĉĉĉĉĉĉĉĉĉĊ":8042,"ĠwriteInt":8043,"...................................":8044,"à§Ł":8045,"Answer":8046,"ĉĉĉĉĉĉĉĉĉĊ":8047,"ĠPrintV":8048,"bbbbbbbb":8049,"bbbbbbb":8050,"cstdint":8051,"dentity":8052,"Ġ|_|\\__,_|":8053,"blogspot":8054,"ĠSync":8055,"\"(":8056,"#';":8057,"400005":8058,"Block":8059,"TION":8060,"dm":8061,"tour":8062,"Ġids":8063,"Ġmex":8064,"Ġatr":8065,"Ġnok":8066,"Ġ>&":8067,"Ġbst":8068,"ypow":8069,"ĠxLast":8070,"Ġrloop":8071,"elif":8072,"ĠMB":8073,"owed":8074,"=(*":8075,"agic":8076,"Ġoc":8077,"Ġhsh":8078,"ĠgetMin":8079,"mxx":8080,"rome":8081,"ĠsetBit":8082,"ĠreadTable":8083,"<<'('<<":8084,"adjlist":8085,"ALT":8086,"bef":8087,"anged":8088,"âĸĵâĸĪ":8089,"Def":8090,"Ġtopolog":8091,"ĠComput":8092,"smaller":8093,"ãĢĤ":8094,"FTB":8095,"Ġngy":8096,"Ġraand":8097,"Order":8098,"âĸĮâĸĮâĸĳâĸĳâĸĳâĸĳâĸĳ":8099,"Ġbottom":8100,"Ġatoi":8101,"intersected":8102,"'};":8103,"*)&":8104,"06":8105,"HOME":8106,"Il":8107,"Odd":8108,"]<<(":8109,"bd":8110,"ndp":8111,"qy":8112,"vpi":8113,"Ñı":8114,"Ġ=================================":8115,"Ġlop":8116,"Ġnth":8117,"Ġcop":8118,"ĉĉĉĉĉĉĉĉĉĠ":8119,"Ġbid":8120,"ected":8121,"ĠMO":8122,"ĠDate":8123,"three":8124,"Ġseed":8125,"Ġ---":8126,"ĠUS":8127,"Intersect":8128,"]={-":8129,"divisor":8130,"Ġputnum":8131,"readth":8132,"avail":8133,":.:":8134,"ĠtestCase":8135,"evel":8136,"difference":8137,"\\\\\\\\":8138,"ĠbufSize":8139,"ÐµÑĤ":8140,"DEFINE":8141,"offset":8142,"Algo":8143,"primelist":8144,"ÑĢÐ¾":8145,"tarun":8146,"ðŁĴ©ðŁĴ©ðŁĴ©ðŁĴ©ðŁĴ©ðŁĴ©ðŁĴ©ðŁĴ©":8147,"Ġpropagate":8148,"Projects":8149,"etcher":8150,"Ġimplementation":8151,"654321":8152,"Ġaryanc":8153,"#$":8154,"'],":8155,"(';":8156,")[(":8157,"9000":8158,"NL":8159,"Off":8160,"Ver":8161,"floor":8162,"ght":8163,"hp":8164,"hour":8165,"psum":8166,"Ø§":8167,"ĠOR":8168,");;":8169,"Ġ{//":8170,"Ġpfs":8171,"Ġcat":8172,"../":8173,"usk":8174,"Ġxi":8175,"strchr":8176,"uess":8177,"Ġrm":8178,"Ġ:)":8179,"Ġoperation":8180,"modinv":8181,"ĠLet":8182,"arri":8183,"Ġallrev":8184,"ĠDX":8185,"ĉĠĠĠĉ":8186,"prec":8187,"_________":8188,"Ġprecompute":8189,"ocol":8190,"Ġofstream":8191,"8888888888888":8192,"âĸĦâĸĴâĸĴâĸĴâĸĴ":8193,"Ġsuch":8194,"Ġ\")\\":8195,"colors":8196,"Ġextr":8197,"DIA":8198,"aaaaaaaa":8199,"Ġbelieve":8200,"ĠUNIVERS":8201,"Ġstree":8202,"SSIBLE":8203,"Ġaugmenting":8204,"ĠUNIVERSITY":8205,".`":8206,"BASE":8207,"DC":8208,"Fargs":8209,"Now":8210,"TOC":8211,"\\:\\":8212,"]<<'\\":8213,"dad":8214,"nC":8215,"ook":8216,"ron":8217,"~!":8218,"ÐĹ":8219,"ļÐĲÐ":8220,"denom":8221,"Ġlw":8222,"Ġmit":8223,"++/":8224,"foru":8225,"Ġ\"<":8226,"any":8227,"::...":8228,"ĠTA":8229,"ĠTry":8230,"Ġreach":8231,"Ġgu":8232,"vecin":8233,"Ġmaxv":8234,"â£Į":8235,"ĠSU":8236,"unsetf":8237,"Ġcntr":8238,"indrome":8239,"MAXM":8240,"Ġ1024":8241,"ski":8242,"Ġstra":8243,"Ġreadin":8244,"MMMMMMMMMM":8245,"Ġputsi":8246,"ĉĉĉĉĉĉĉĊ":8247,"â¡Į":8248,"doReplace":8249,"/**/":8250,"Ġ(*__":8251,"â£¿â£§":8252,"â£¿â£¾":8253,"â£¿â£Ł":8254,"irect":8255,"Ġorderset":8256,"â£¯â£Ł":8257,"â£Łâ£¾":8258,"â£¿â¡½":8259,"SUCC":8260,"EMPL":8261,"/************************************************/":8262,">>>>>>":8263,"222222":8264,"!='-'":8265,"transform":8266,"â¡ĩâ¢¸":8267,"connections":8268,"Ġ1000000000000000007":8269,"Ġputii":8270,"ĠPROTOC":8271,"ofileIdx":8272,"ï¹Ħï¹ĥï¹Ħï¹ĥ":8273,"SUCCESS":8274,"ĠPROTOCOL":8275,"CN":8276,"OSSIBLE":8277,"ning":8278,"Ð²":8279,"éĩ":8280,"Ġ(::":8281,"Ġae":8282,"Ġpuu":8283,"//(":8284,"anya":8285,"Ġbip":8286,"();)":8287,"Ġ250":8288,"chool":8289,"choice":8290,"887":8291,"Ġesp":8292,"())!=":8293,"Ġwind":8294,"ĠLog":8295,"\");}":8296,"ORY":8297,"'.')":8298,"ĠUL":8299,"336":8300,"Ġthey":8301,"ĠHopcroftKarp":8302,"Ġgraf":8303,"()))))":8304,"ĠDIS":8305,"slam":8306,"ctzll":8307,"factorial":8308,"osen":8309,"cccccccc":8310,"Ġlargest":8311,"ĠARG":8312,"Ġ2019":8313,"ķÐľ":8314,"filename":8315,"Ġstrict":8316,"401":8317,"AMP":8318,"Emr":8319,"Fenwick":8320,"NQ":8321,"faltu":8322,"lw":8323,"tps":8324,"å¯":8325,"Ġĉĉĉĉĉ":8326,"ŁÐ£Ð¡Ð":8327,"inct":8328,"ific":8329,"()].":8330,"Ġsze":8331,"<<_":8332,"Ġbecause":8333,"__<<":8334,"Ġgod":8335,"stress":8336,"ĠFile":8337,"ĠPH":8338,"heavy":8339,"Ġdeq":8340,"ĠBL":8341,"Ġ50000":8342,"https":8343,"151":8344,"ĠcheckBit":8345,"disc":8346,"791":8347,"Ġsuma":8348,"myCout":8349,"cessed":8350,"month":8351,"Ġ(_)":8352,"Ð¾Ðµ":8353,"Ġdecimal":8354,"ĠresetBit":8355,"Ġcell":8356,"EGIN":8357,"ĠFastIO":8358,"ĠConstants":8359,"Ġdefault":8360,"reatest":8361,"ÐĲÐŁÐ£Ð¡Ð":8362,"Ġworld":8363,"ĠDefines":8364,"ļÐĲÐķÐľ":8365,"Emrul":8366,"ÐĲÐŁÐ£Ð¡ÐļÐĲÐķÐľ":8367,"\"));":8368,"/\\":8369,"Engine":8370,"Rev":8371,"Template":8372,"VEN":8373,"border":8374,"csc":8375,"eof":8376,"hr":8377,"kan":8378,"ris":8379,"yi":8380,"{\\":8381,"Ġ99":8382,"Ġ---------":8383,"rez":8384,"Ġiq":8385,"Ġpff":8386,"Ġsn":8387,"Ġ\">":8388,"Ġfull":8389,"))*(":8390,"chmax":8391,"INIT":8392,"')+":8393,"Ġchunk":8394,"Ġhope":8395,"ems":8396,"emz":8397,"ĠBINF":8398,"ĠBIG":8399,"ionProjects":8400,"lobal":8401,"327":8402,"ĠOn":8403,"187":8404,"âķĹ":8405,"Ġlogn":8406,"ava":8407,"Ġshuffle":8408,"Ġthree":8409,"*******/":8410,"horse":8411,"ALLOC":8412,"8888888888888888888":8413,"=\"\",":8414,"Ġ1900":8415,"]=='.'){":8416,"âĸĪâĸĪâĸĪâĸĢ":8417,"Ġsplay":8418,"Ġfollow":8419,"IMPOSSIBLE":8420,"Ġsmaller":8421,"Ġ'-'){":8422,"ĉĉĉĉĉĉĉĉĉĉĉĉĉĉĉĉĉĉĉĉĉĉĉĉĉĉĉĉĉĉĉĉĉĉĉĉĉĉĉĉĉĉĉĉĉĉĉĉĉĉĉĉĉĉĉĉĉĉĉĉĉĉĉĉĉĉĉĉĉĉĉĉĉĉĉĉĉĉĉĉĉĉĉĉĉĉĉĉĉĉĉĉĉĉĉĉĉĉĉĉĉĉĉĉĉĉĉĉĉĉĉĉĉĉĉĉĉĉĉĉĉĉĉĉĉĉĉĉĉĉĉĉĉĉĉĉĉĉĉĉĉĉĉĉĉĉĉĉĉĉĉĉĉĉĉĉĉĉĉĉĉĉĉĉĉĉĉĉĉĉĉĉĉĉĉĉĉĉĉĉĉĉĉĉĉĉĉĉĉĉĉĉĉĉĉĉĉĉĉĉĉĉĉĉĉĉĉĉĉĉĉĉĉĉĉĉĉĉĉĉĉĉĉĉĉĉĉĉĉĉĉĉĉĉĉĉĉĉĉĉĉĉĉĉĉĉĉĉĉĉĉĉĉĉĉĉ":8423,"ĠRahim":8424,"ĠRESET":8425,"ÐĹÐĲÐŁÐ£Ð¡ÐļÐĲÐķÐľ":8426,")});":8427,"04":8428,"443":8429,"CEP":8430,"Des":8431,"Ind":8432,"Weighted":8433,"cse":8434,"fas":8435,"decl":8436,"Ġpm":8437,"ĠpDD":8438,"ifi":8439,"Ġcircle":8440,"amb":8441,"Ġbsh":8442,"Ġdw":8443,"Ġfvalc":8444,"(\"!":8445,"ala":8446,"Ġform":8447,"],(":8448,"Ġreally":8449,"ĠmaxL":8450,"ĠPRE":8451,"otal":8452,"Ġoset":8453,"ĠChi":8454,"emory":8455,"dsh":8456,"vertices":8457,"NOT":8458,"ĠisArr":8459,"ĠisInside":8460,"Ġmxx":8461,"149":8462,"comps":8463,"Ġlove":8464,"Ġbucket":8465,"227":8466,"ĠYou":8467,"Ġprinta":8468,"1000000009":8469,"Ġgcdex":8470,"ĠDIC":8471,"]=='.'":8472,"ĠMAJK":8473,"2000005":8474,"Length":8475,"plicative":8476,"ICPC":8477,"1331":8478,"General":8479,")<<'\\":8480,"05":8481,"211":8482,"Me":8483,"MAST":8484,"US":8485,"[%":8486,"bW":8487,"father":8488,"gy":8489,"pil":8490,"writ":8491,"{}":8492,"Ġass":8493,"()%(":8494,"--;}}":8495,"ĠtMod":8496,"Ġtour":8497,"attern":8498,"ingh":8499,"ĠMx":8500,"ĠNo":8501,"ĠNext":8502,"Ġ/:/":8503,"Ġ350":8504,"ĠDR":8505,"Ġdecl":8506,"ĠBEGIN":8507,"Ġsums":8508,"Ġposs":8509,"537":8510,"189":8511,"Ġnumerator":8512,"ccw":8513,"Ġvvc":8514,"Ġcompress":8515,"ngy":8516,"groups":8517,"ĠWor":8518,"ROLS":8519,"powers":8520,"673":8521,"oldans":8522,"<<\"[\"<<":8523,"Ġoverload":8524,"ĠCONTROLS":8525,"ĠâĢĵ":8526,"/*********************************************************/":8527,"Ġdefinitely":8528,"Ġtokens":8529,"cWEj":8530,"ĠÂ©":8531,"ĠPHASE":8532,"MASTER":8533,"*()":8534,">-":8535,"BE":8536,"Dp":8537,"GK":8538,"GW":8539,"Pi":8540,"]|=":8541,"eu":8542,"gjdflg":8543,"jo":8544,"lapsed":8545,"ãĥ":8546,"æī":8547,"Ġ######":8548,"integ":8549,"Ġix":8550,"Ġ179":8551,"Ġpas":8552,"ifac":8553,"Ġsarth":8554,"//----------------------------------------------------------------":8555,"Ġtic":8556,"led":8557,"Ġfld":8558,"ĠfMin":8559,"ega":8560,"Ġupp":8561,"Ġinq":8562,"ĠNE":8563,"cnta":8564,"ĠRIGHT":8565,"Ġgetsum":8566,"upgrade":8567,"Ġ1000000000000000":8568,"Ġseparator":8569,"Ġisn":8570,"181":8571,"imit":8572,"abbr":8573,"cols":8574,"âĸĳâĸĳâĸĳâĸĳâĸĳâĸĳ":8575,"hah":8576,"hai":8577,"Ġvvs":8578,"Ġexgcd":8579,"Ġmyland":8580,"***************/":8581,"671":8582,"ĉĉĉĉĉĉĉĉĉĠĠ":8583,"âĸĳâĸĳâĸĳâĸĳâĸĳâĸĳâĸĳâĸĳâĸĳâĸĳâĸĳ":8584,"Ġpoz":8585,"CAKE":8586,"Ġgoto":8587,"wyn":8588,"//------------------------------------------------":8589,"âĺģ":8590,"agetree":8591,"ĠComputer":8592,"EMPLATE":8593,"Ġsarthak":8594,"&!":8595,"234":8596,"4000":8597,"?\"\"":8598,"HEL":8599,"Mid":8600,"è¯":8601,"éĹ":8602,"Ġimax":8603,"Ġmv":8604,"Ġmpr":8605,"Ġant":8606,"Ġvir":8607,"ues":8608,"spec":8609,"Ġ2000000000000000000":8610,"ĠMr":8611,"Ġgs":8612,"ĠALI":8613,"cnts":8614,"ĠSe":8615,"((__":8616,"ĠRed":8617,"ĠLi":8618,"Ġoor":8619,"Ġsti":8620,"trim":8621,"EST":8622,"-------------------":8623,"Ġdebuga":8624,"needed":8625,"Ġbases":8626,"Ġgoing":8627,"3482":8628,"ĠlessThan":8629,"ĠWe":8630,"paint":8631,"Ġ1000006":8632,"139":8633,"Ġnega":8634,"Decomposition":8635,"Ġtakes":8636,"triangle":8637,"```":8638,"appy":8639,"impossible":8640,"ĠAlhamdulillah":8641,"connected":8642,"-------------------------------":8643,"Ġinitialize":8644,"largest":8645,"ĠExit":8646,"CONSTANTS":8647,"\"^":8648,"(%":8649,")^(":8650,"300001":8651,"411":8652,"?),":8653,"IAB":8654,"RST":8655,"WN":8656,"lad":8657,"pm":8658,"Ġ99999999":8659,"++(":8660,"Ġcent":8661,"<<')';":8662,"till":8663,"ansx":8664,"Ġforab":8665,"Ġ++]":8666,"<<\"!":8667,"Ġprsp":8668,"ĠFr":8669,"maxm":8670,"ĠLang":8671,"ĠMODULO":8672,"numerator":8673,"Ġ500005":8674,"ĠisVowel":8675,"ĠVII":8676,"157":8677,"Ġsetmax":8678,"121":8679,"mnm":8680,"973":8681,"Ġpowerk":8682,"ĠWIN":8683,"Ġverdict":8684,"iven":8685,";;;;;;;;;;":8686,";;;;;;;;;;;":8687,"Ġà¦¸":8688,"Ġà¦ı":8689,"()),((":8690,"ĠEXCEP":8691,"DIRE":8692,"PRINT":8693,"Color":8694,"ĠUNIQUE":8695,"ĠCLown":8696,"IABLES":8697,"ĠEXCEPTION":8698,"*\";":8699,"-()":8700,"697":8701,":\"<<":8702,"DIM":8703,"LOOP":8704,"aw":8705,"aint":8706,"bid":8707,"sit":8708,"ye":8709,"æĪ":8710,"Ġoup":8711,"recalc":8712,"Ġmypow":8713,"Ġppl":8714,"Ġtext":8715,"sian":8716,"==///":8717,"strcpy":8718,"Ġforget":8719,"setbit":8720,"ads":8721,"Ġ35":8722,"Ġcnts":8723,"Ġ52":8724,"coef":8725,"ĠsetIO":8726,"///================================":8727,"Infin":8728,"ĠHere":8729,"ĠfindSet":8730,"ĠKAZ":8731,"Ġfastpow":8732,"infinity":8733,"------------------------------------------":8734,"RTIME":8735,"017":8736,"ITNO":8737,"OWN":8738,"eek":8739,"cuts":8740,"SegTree":8741,"âĸĪâĸĪâķĶâķĲâķĲ":8742,"ĠFixPoint":8743,"ĠFunctions":8744,"ĠCodeforces":8745,"HELPER":8746,"DIRECTION":8747,"424":8748,"CAT":8749,"Centroid":8750,"UP":8751,"bet":8752,"fw":8753,"judge":8754,"ĠÑģ":8755,"Ġ(%":8756,"Ġnon":8757,"Ġ128":8758,"Ġcst":8759,"Ġfuck":8760,"alize":8761,"::..":8762,"ĠTTT":8763,"))^":8764,"Ġuc":8765,"ĠFac":8766,"ĠSE":8767,"ĠPb":8768,"Ġstod":8769,"Ġstable":8770,"Ġchocol":8771,"ĠDfs":8772,"âĸĪâĸĢ":8773,"ĠisLeft":8774,"###########":8775,"Ġ41":8776,"ĠEps":8777,"ĠEACH":8778,"à¦¶":8779,"pows":8780,"ACM":8781,"9983":8782,"Ġprintln":8783,"Ġpows":8784,"ĠinvGeneral":8785,"101010":8786,"ĠÐ´":8787,"Const":8788,"ÐµÑĢ":8789,"irectional":8790,"Ġyourself":8791,"ĠINPUT":8792,"Tests":8793,"DataIn":8794,"Ġactive":8795,"Ġwait":8796,"ä»£":8797,"ĠPERF":8798,"FFFFFFFFFFFFFF":8799,"irling":8800,"ĠLEFT":8801,"ĠContest":8802,"Ġchocolate":8803,".);":8804,"253":8805,":(":8806,"=\"<<":8807,"NTS":8808,"OT":8809,"Rotate":8810,"Walk":8811,"]|":8812,"asi":8813,"bm":8814,"days":8815,"otient":8816,"pOut":8817,"tG":8818,"Ġ***":8819,"Ġsong":8820,"least":8821,"(\"\")":8822,"ĠTemp":8823,"Ġ;.":8824,"Ġerep":8825,"Ġoper":8826,"sumi":8827,"track":8828,"Ġhai":8829,"extgcd":8830,"Ġpiiii":8831,"token":8832,"Ġisspace":8833,"ĠisEof":8834,"Ġ]++;":8835,"ĠEB":8836,"ĠHH":8837,"Ġmnx":8838,"777":8839,"ĠtestNum":8840,"event":8841,"............................":8842,"**************************":8843,"binpow":8844,"Ġsince":8845,"ritten":8846,"---\\":8847,"Dijkstra":8848,"modulus":8849,"ï¼ģï¼ģï¼ģï¼ģ":8850,"Ġpeople":8851,"åĪĨ":8852,"Ġ'}';":8853,"ĠisLeapYear":8854,",++":8855,"358":8856,"92":8857,"HASH":8858,"Just":8859,"PH":8860,"XR":8861,"]++":8862,"don":8863,"miss":8864,"Ã¡":8865,"è¾":8866,"reb":8867,"Ġidentity":8868,"Ġppp":8869,"Ġpls":8870,"Ġcz":8871,"Ġchi":8872,"()][":8873,"iti":8874,"ĠtG":8875,"Ġball":8876,"Ġdm":8877,"strcmp":8878,"uel":8879,"ĠTp":8880,"hik":8881,"Ġ'!":8882,"Ġyr":8883,"Ġuax":8884,"edy":8885,"...){":8886,"âĸĳâĸĦ":8887,"omial":8888,"]==...":8889,"thread":8890,"ĠreadVector":8891,"stdinDataEnd":8892,"Ġneigh":8893,"GGGGGG":8894,"Ġpary":8895,"Ġgroups":8896,"193":8897,"ĠwriteChar":8898,"Ġindexing":8899,"ForE":8900,"cycles":8901,"findp":8902,"]='#';":8903,"MINGW":8904,"ĠTimeEnd":8905,"ĠTimeStart":8906,"ĠControlIO":8907,"22222":8908,"transposed":8909,"Ġmodexpo":8910,"ANSI":8911,"FastIO":8912,"Ġleading":8913,"cstddef":8914,"TimerStop":8915,"Ġconnected":8916,"ratio":8917,"ĠVARIABLES":8918,"Ġ===========================":8919,"ĠCURTIME":8920,"besme":8921,"mission":8922,"STDIO":8923,"lapsedTime":8924,"ä»£è¡¨":8925,"'?":8926,",%":8927,"<!":8928,"Fin":8929,"Mp":8930,"baki":8931,"gk":8932,"oSet":8933,"tn":8934,"todo":8935,"untime":8936,"vm":8937,"ÑĪ":8938,"âĬ":8939,"è¦ģ":8940,"desh":8941,"Ġ=(":8942,"Ġlas":8943,"ande":8944,"anized":8945,"Ġtie":8946,"Ġbk":8947,"leaves":8948,"ending":8949,"Ġfw":8950,"oper":8951,"osite":8952,"Ġkmp":8953,"Ġuin":8954,"Ġ:;":8955,"ada":8956,"Ġ|\";":8957,"Ġ_##":8958,"curL":8959,"gest":8960,"ĠDEG":8961,"]]].":8962,"ĠIslam":8963,"ĠBY":8964,"ESH":8965,"toR":8966,"repi":8967,"piii":8968,"__________,":8969,"Interactive":8970,"azakh":8971,"parse":8972,"partial":8973,"à¦ĩ":8974,"ĠpowerWith":8975,"ĉĉĉĉĉĉĉĉĉĉĉĉĊ":8976,".....,":8977,"2767":8978,"607":8979,"âķĲâķĲâķĿ":8980,"Ġccw":8981,"Ġmix":8982,"InputIter":8983,"magic":8984,"Ġ'*';":8985,"ladesh":8986,"GGGGGGGGGGGGGGGGGGGG":8987,"ĠReset":8988,"Shift":8989,"Ġproduct":8990,"34567891":8991,"ĠBangladesh":8992,"Ġorganized":8993,"57721566490":8994,"âĬĻ":8995,"ĠpowerWithMod":8996,"'}":8997,".,;":8998,"2147483647":8999,":,":9000,":................":9001,":,;;":9002,";,.....":9003,"?\",":9004,"DW":9005,"DGG":9006,"DGGGG":9007,"DEEK":9008,"Eti":9009,"Eii":9010,"Eiii":9011,"EDDD":9012,"GEEE":9013,"GEEEEEEEEEEEEEEEE":9014,"IP":9015,"Kii":9016,"KWWWWWWWW":9017,"KWKK":9018,"KEEEK":9019,"Lj":9020,"Link":9021,"Liii":9022,"LGGG":9023,"Need":9024,"Pal":9025,"Slow":9026,"WEEEEEEEEEEEEEEEE":9027,"WKKKKKKKKKK":9028,"WEEEEEEEEEEE":9029,"WEEEEE":9030,"WEEEED":9031,"bf":9032,"fK":9033,"fDD":9034,"fEEE":9035,"fWK":9036,"fLGGDDDDDDDDDDDD":9037,"iD":9038,"iWWWWWK":9039,"iKDEEE":9040,"jD":9041,"jLGGGDDDDDDDDDDDD":9042,"kid":9043,"men":9044,"tWK":9045,"tEL":9046,"vw":9047,"yn":9048,"Ø¹":9049,"relax":9050,"Ġ{(":9051,"ĠpLL":9052,"llf":9053,"..;........":9054,"atri":9055,"Ġfan":9056,"ĠfDEEEKKKKKKKK":9057,"KKEEEEEEEE":9058,"KKWWWWWWW":9059,"KKEEEEEEE":9060,"){//":9061,"::,,":9062,"::,,,,":9063,"::..........................":9064,"WWD":9065,"WWEEE":9066,"WWEEEEEEEEEEEE":9067,"WWEEEEEEEEEEEEEEEE":9068,"WWKW":9069,"WWKKKKW":9070,"EEDD":9071,"EEKKKK":9072,"EEKKKKKKKK":9073,"EEKKKKKKKKKKKKKKKK":9074,"EEGEEEEEEEEEEEEEEEE":9075,"Ġ}*/":9076,"ansa":9077,"ego":9078,"....::::..":9079,"LLGGGG":9080,"LLGGG":9081,"Ġ,::,,,,,,,;;;;":9082,"DDGG":9083,"DDDE":9084,"DDEEEWEEEEEEEEEEEE":9085,"KKKKWWWWWWWW":9086,"KKKKEEE":9087,"Ġ:,":9088,"Ġ:,:.":9089,"ets":9090,"ĠFill":9091,"EEEEDDDD":9092,"EEEEEK":9093,"EEEEWEEEEEEEEEEEE":9094,"...,:":9095,"WWWWKK":9096,"WWWWEEEEE":9097,"WWWWKKW":9098,"...........":9099,"Ġwar":9100,"ĉĉĉĉĉĉĉĉĠĠĠĉĉĉĉ":9101,";;...":9102,",,,:":9103,"minv":9104,"ĠLDEEEE":9105,"Ġstoi":9106,"ĠgetFaster":9107,"ĠCPP":9108,"ĠGDEEEKKKKKKKK":9109,"ĠDig":9110,"Ġtypes":9111,"KKKKKKKKKKKKK":9112,"Ġfive":9113,"269":9114,"....................:":9115,"Ġprevious":9116,",,,,,:.":9117,"::::.":9118,"WWWWWWWWKKKK":9119,"WWWWWWWWWWWWWWW":9120,"DDDDDDDDEEE":9121,"DDDDDDDDDDDDDDDDDDDD":9122,"DDDDDDDDDEEEE":9123,"DDDDDDDDEEEEEE":9124,"WWWKKKKKKKK":9125,"WWWEEEEEEEEEEEE":9126,"]={{":9127,"abab":9128,"EEEWW":9129,"EEEKE":9130,"EEEKKWWWW":9131,"EEEKKWWW":9132,"EEEKKKWWW":9133,"neigh":9134,"KKKEK":9135,"KKKWWWWW":9136,"KKKWWKK":9137,"â¡Ł":9138,"KKKKKWWWWWWWWWWW":9139,"KKKKKWKKKKKK":9140,"MENT":9141,"Ġbeep":9142,"KKKKKKKKKKKKKKKKKKKKKKK":9143,"Ġasche":9144,"Ġ:::.":9145,"paired":9146,"Ġ...,:":9147,"DEK":9148,"WKEEEEEEEEEE":9149,"WKWKKWK":9150,"bear":9151,"239":9152,"................................................................":9153,"KKKKKKKWKKKKK":9154,"KKKKKKKEL":9155,"tfLG":9156,"tfLGGGG":9157,"tfLGGG":9158,"/****************************************************************":9159,"DDDK":9160,"GGGK":9161,"âĶĢâĸĪ":9162,"KEKKK":9163,"KEKKKKKKKKKKKKKKKKKKKKKKKK":9164,"KEKKW":9165,"EEEEEEEEEEEEKKKKKKKKKKKKKKKKKKKKKKKK":9166,"KKKKKKWWWWWWWWW":9167,"fji":9168,"fjti":9169,"Ġdebmat":9170,"Ġelm":9171,"DEEEEKKKKKKKKKKKKKKKK":9172,"WWWWWWWWWE":9173,"WWWWWWWWWKKKWWK":9174,"......,":9175,"......;":9176,"CTy":9177,"::::::::::::::::":9178,":::::::::..":9179,"EKEEEEE":9180,"Ġ.:,":9181,"Ġ.:,;;":9182,"ĠFora":9183,";:..":9184,"EEDf":9185,"KWKKK":9186,"EEKWWWWWWWW":9187,"WKKKKKEE":9188,"WWKKWWWW":9189,"KKKKWKKKKKKKKKKKKKKKK":9190,"''''":9191,"ĠSTR":9192,"ĠxyCircle":9193,"GGGGGGGGGGGGGGGGGGG":9194,"KKKKKKKKKKKKKKKWKKKKKKKK":9195,"EEEKWWWWW":9196,"EEEKWWWWWWKKKKKK":9197,"EEEEEEDEi":9198,",,,,,,;":9199,",,,,,,,;":9200,"DKWWWWWWKKKKK":9201,"DKiWWWWWK":9202,"WWWWWKWKKKK":9203,",,,,,,,;;":9204,",,,,,,,;;;":9205,"cmf":9206,"::::::,":9207,"::::::,,,,,,,;;":9208,":::::::,,,,,;":9209,":::::::,,,,,,,;":9210,"tfLGGDDDDDDDD":9211,"tfLGGDDDDDDDDDD":9212,"tfLGGDDDDDD":9213,".:.;:":9214,"ĠCHECK":9215,"Ġ....::::":9216,"itfLGGDDDDDDDDDDDD":9217,"KKWWWWKEEEEEEEE":9218,"WWWWWWWWWWWWWWWWWWWWWW":9219,"Ġbelow":9220,"WWKKKKWWWWWWWWWWW":9221,";;;;;;;;;;;;;;;;;;;;;;;;;":9222,"WWWWWWWKKKKKi":9223,"WWWWWWWKKKKKt":9224,"unistd":9225,"KKKKKWWKKKKKWWWWWWWWW":9226,"EEEEEEEEEEEEEEEKKKKKKKKKKKKKKKK":9227,".::;:":9228,",..;":9229,"WKKKWK":9230,"WKKKKKKKWWWWWWW":9231,"fDEEEEEE":9232,"WWEEEEEEEEEEEWWWWEEEEE":9233,"DDWWKKDDDDD":9234,"EEEEEEEEEKEEEEEEEEEEEEEEEEE":9235,"...............................:":9236,",,,,,,,,,,,,,,,,,,,,,,,,,":9237,",;;;;,":9238,"iDDEEEEWEEEEEEEEEEEE":9239,"WWKKKKKKKKKKKKKKKKK":9240,"WWEEEEEEEDD":9241,"DDDGL":9242,"WWWKKKKKKKKKKW":9243,"WWWKKKKKKKKKKKKKKKWKK":9244,"WWWWWWWWWGWWWKKGGGG":9245,"ijLGDDDDDDDDEEEEEE":9246,"integral":9247,"EEKKKKKKKKKKKKKKKKKKKKKKKKKKKKKKKKW":9248,"LLGGGGL":9249,"LLGGGDDDDDDDDDD":9250,"WWWWKKWKKKEK":9251,"tfLGGGGDDDDDDDDDD":9252,"tfLGGGDDDDDDDDDDD":9253,"='\\":9254,"Com":9255,"Mint":9256,"RAND":9257,"XOR":9258,"inate":9259,"Ġimap":9260,"Ġ(++":9261,"segs":9262,"formula":9263,"++))":9264,"Ġdcmp":9265,"alt":9266,"Ġrat":9267,"Ġradius":9268,"ntt":9269,"sizes":9270,"ansy":9271,"Ġkase":9272,"setIO":9273,"ado":9274,"Ġprs":9275,"Ġprice":9276,"ĠFrom":9277,"ĠAs":9278,"Ġminx":9279,"ical":9280,"ĠRO":9281,"Ġ1000000001":9282,"Ġ109":9283,"Ġsegs":9284,"Ġ50000000":9285,"replace":9286,"Ġleaves":9287,"assertsCounter":9288,"2018":9289,"2048":9290,"Ġdebugv":9291,"Ġ(\"\\":9292,"509":9293,"Ġadjlist":9294,"MENTS":9295,"ĉĉĉĉĉĉĉĉĉĉĉĉĉĉĉĉĉĉĉĉĉĉĊ":9296,"Ġinvd":9297,"kkkk":9298,"flusher":9299,"Ġweak":9300,"ĠComplex":9301,"636":9302,"Ġ----------------------":9303,"Real":9304,"PTIM":9305,"Ġdistances":9306,"Optim":9307,"âĸĴâĸĴâĸĴâĸĴâĸĴâĸĴâĸĴâĸĴâĸĴâĸĴâĸĴâĸĴâĸĴâĸĴâĸĴâĸĴ":9308,"PROJ":9309,"THE":9310,"MEMORY":9311,"Ġavail":9312,"skipWhitespace":9313,"ĠNote":9314,"Ġ1000000000000000001":9315,"AssertsCounter":9316,"Ġbrainfuck":9317,"ALLOCATOR":9318,"azakhstan":9319,"\"!":9320,".\";":9321,"/********":9322,"216":9323,"579":9324,"ELL":9325,"Go":9326,"GHT":9327,"NG":9328,"Pll":9329,"TE":9330,"TIE":9331,"fans":9332,"fgc":9333,"fstrict":9334,"ga":9335,"hero":9336,"jh":9337,"ped":9338,"inlin":9339,");};":9340,"Ġaf":9341,"Ġnom":9342,"Ġ{'":9343,"Ġpin":9344,"//-":9345,"Ġvpp":9346,"Ġvcd":9347,"itDEB":9348,"ĠdX":9349,"Ġdid":9350,"Ġdream":9351,"(\"#":9352,"alive":9353,"WWE":9354,"Ġgreatest":9355,"Ġ|___/":9356,"maxa":9357,"maxim":9358,"ĠPLI":9359,"Ġ34":9360,"ĉĉĉĉĉĉĉĉĉĉĉĠ":9361,"ĉĉĉĉĉĉĉĉĉĉĉĉĉĉĉ":9362,"ĠRand":9363,"Ġ//................................................................":9364,"ĠLin":9365,"ĠLEN":9366,"ĠCnt":9367,"116":9368,"ĠDin":9369,"ssDEB":9370,"]]];":9371,"Ġ53":9372,"counting":9373,"Ġ44":9374,"Ġ46":9375,"2019":9376,"Ġ.'.":9377,"]=='-'){":9378,"topr":9379,"poww":9380,"Ġadjacent":9381,"317":9382,"IICT":9383,"/***":9384,"Ġyyo":9385,"Ġfileio":9386,"Ġforever":9387,"********************************************************************":9388,"541":9389,"XXX":9390,"cbrt":9391,"âĸĦâĸĦâĸĦâĸĦâĸĦâĸĦâĸĦâĸĦ":9392,"insns":9393,"ĠUpdateMax":9394,"freorder":9395,"fully":9396,"fschedule":9397,"ĠMATRIX":9398,"fgcse":9399,"inlining":9400,"/*****":9401,"Bound":9402,"LINF":9403,"What":9404,"[&]":9405,"cw":9406,"cou":9407,"fwd":9408,"lds":9409,"med":9410,"more":9411,"nq":9412,"vance":9413,"orn":9414,"Ġaft":9415,"Ġ146":9416,"Ġpcl":9417,"llu":9418,"Ġ\"...":9419,"Ġtos":9420,"Ġyalla":9421,"]=((":9422,"Ġmaxa":9423,"under":9424,"Ġ300010":9425,"ulik":9426,"ĠRound":9427,"minim":9428,"Ġhv":9429,"Ġszz":9430,"MAXK":9431,"getc":9432,"155":9433,"Ġ100009":9434,"Ġ1000100":9435,"301":9436,"Ġvvpi":9437,"383":9438,"ĠIndex":9439,"ĠpowerMod":9440,"Ġrbe":9441,"]<<\",":9442,"ĠFILES":9443,"mymap":9444,"ĠFILENAME":9445,"Ġsplitmix":9446,"ĠOUTPUT":9447,"whole":9448,"paths":9449,"ĠUpdateMin":9450,"ĠFTB":9451,"ĠTASKNAME":9452,"UnionFind":9453,"âĸĳâĸĳâĸĳâĸĳâĸĲâĸĳâĸĳâĸĳâĸĳâĸĳâĸĲâĸĳâĸĳâĸĳâĸĳâĸĳâĸĳâĸĳ":9454,"ĠPrefix":9455,"Ġhandle":9456,"Ġbloom":9457,"Ġbidirectional":9458,"336777216":9459,"ulikov":9460,")>&":9461,"*)(":9462,";`":9463,"=!":9464,"Dec":9465,"Ele":9466,"Mar":9467,"NMM":9468,"RANDOM":9469,"Small":9470,"Wr":9471,"ball":9472,"ffs":9473,"gre":9474,"uish":9475,"uage":9476,"æį":9477,"çº":9478,"é¢":9479,"Ġlis":9480,"Ġmed":9481,"Ġmoney":9482,"ĠpSz":9483,"Ġcv":9484,"Ġche":9485,"itb":9486,"Ġ\"->":9487,"inguish":9488,"(\"}\");":9489,"cini":9490,"Ġrang":9491,"Ġ'---'":9492,"Ġ222222":9493,"))));":9494,"profileIdx":9495,"Ġ&&_":9496,"Ġconsider":9497,"106":9498,"isVowel":9499,"â£³":9500,"ĠPUU":9501,"ĠREPS":9502,",,`":9503,"â£¿â¢¿":9504,"â£¿â¢¾":9505,"')%":9506,"Ġook":9507,"Ġstirling":9508,"Ġhelper":9509,"Ġhypot":9510,"Ġ||__|":9511,"ĠDo":9512,"treemax":9513,"logn":9514,"/*}}":9515,"exagonal":9516,");}};":9517,"Ġfrac":9518,"Ġtemporary":9519,"Ġdistinguish":9520,"439":9521,"MMMMMMMMMMMMMM":9522,"Ġexpr":9523,"â¡½":9524,"â¡Ļ":9525,"Ġpopb":9526,"Nodes":9527,"]))%":9528,"â£¿â£¿â£¿â£¿â£¿â£¿â£¿â£¿â£¿â£¿":9529,"â£¿â£»":9530,"Ġevent":9531,"251":9532,"476":9533,"ĠgreaterThan":9534,"ĉĉĉĉĉĉĉĉĉĠĠĠĊ":9535,"20000000":9536,"Ġlogg":9537,"â£¯â£¿â£¿":9538,"â£Łâ¡¿":9539,"â£Łâ£¯":9540,"â£Łâ£·":9541,"â£¿â¡Ħ":9542,"â£¿â¡Ĩ":9543,"multiply":9544,"__);\\":9545,"ĠØ£":9546,"\">\"":9547,"PROFILE":9548,"ä¸Ģä¸Ģ":9549,"#.#.#.#.":9550,"ÐºÐ¾Ð":9551,"'-.":9552,"//*//*//*//*//*//*//*//*":9553,"giatri":9554,"(\"{\");":9555,"]]]]]]]]]]]]":9556,"_-_-":9557,"â£¿â¡ĩâ¢¸":9558,"â£ŀâ¡¿":9559,"Ġ|.--.":9560,"'}},{":9561,"Ġ500000004":9562,"ĠREPSZ":9563,"/*}}}*/":9564,",\",":9565,"049":9566,"@%":9567,"Dep":9568,"Eight":9569,"HAV":9570,"Phi":9571,"Random":9572,"SALT":9573,"Us":9574,"White":9575,"aid":9576,"cans":9577,"csum":9578,"euler":9579,"hn":9580,"sof":9581,"Ð¹":9582,"Ġ****************":9583,"indeg":9584,"remain":9585,"reasing":9586,"Ġpln":9587,"Ġtst":9588,"Ġtre":9589,"operation":9590,"umns":9591,"ĠME":9592,"ĠMAD":9593,"mex":9594,"ĠPr":9595,"orta":9596,"641":9597,"ĠLINE":9598,"ĠLET":9599,"ĠLOO":9600,"Ġstill":9601,"Ġchance":9602,"tract":9603,"ĠCUT":9604,"ĠDep":9605,"toU":9606,"Ġ57":9607,"Ġ70":9608,"immint":9609,"many":9610,"ĠHoss":9611,"5050":9612,"Ġdirect":9613,"ĠInv":9614,"567":9615,"ĉĉĉĉĉĉĉĉĉĉĉĉĉĉĉĉĉĉĉĉ":9616,"Ġparents":9617,"593":9618,"ustom":9619,"capacity":9620,"Ġbridge":9621,"ranks":9622,"ĠTEST":9623,"ÑĢÐ°":9624,"fdn":9625,"Ġwords":9626,"ĠCPY":9627,"$$$$$$$$":9628,"Ġitems":9629,"Ġsayed":9630,"ĠIFD":9631,"Ġassumed":9632,"Current":9633,"Ġgeometry":9634,"éĹ´":9635,"ĠMADHAV":9636,"immintrin":9637,"311":9638,">*":9639,"Jia":9640,"OPTIM":9641,"dod":9642,"gp":9643,"hack":9644,"kbear":9645,"nag":9646,"nothing":9647,"rf":9648,"sI":9649,"tst":9650,"vst":9651,"words":9652,"yr":9653,"zn":9654,"Ġide":9655,"ĠiOS":9656,"Ġndp":9657,"Ġ1997":9658,"Ġplc":9659,"Ġcac":9660,"Ġscin":9661,"Ġsdbg":9662,"Ġsingle":9663,"ĠvLL":9664,"accumulate":9665,"Ġ\"***":9666,"sig":9667,"typeinfo":9668,"))<<":9669,"prio":9670,"LLONG":9671,"Ġinfile":9672,"ĠNA":9673,"ĠNs":9674,"ĠFD":9675,"ĠFcd":9676,"104":9677,"cntb":9678,"ĠSG":9679,"ressed":9680,"curR":9681,"ĠRAND":9682,"pping":9683,"Ġ?!":9684,"ĠVPLL":9685,"Ġoutfile":9686,"âĸĴâĸĢ":9687,"ĠFORN":9688,"orderset":9689,"masks":9690,"Ġdefines":9691,"à¦¬":9692,"Ġcheckmax":9693,"mulmod":9694,"ĠWrite":9695,"aild":9696,"angJia":9697,"8888888888888888888888":9698,"Ġà¦ª":9699,"Ġprogram":9700,"basis":9701,"MultiTest":9702,"Ġranks":9703,"Ġscln":9704,"ÑģÐ»":9705,"âł¿âł¿":9706,"uccess":9707,"Ġancestor":9708,"Ġcbrt":9709,"taskname":9710,"ĠLeft":9711,"ĠLiangJia":9712,"ä»£è¡¨è¿ĶåĽŀ":9713,"Ġ199711":9714,"ĠFcdkbear":9715,"ĠLiangJiaJun":9716,"727":9717,"Band":9718,"Dfs":9719,"Element":9720,"Four":9721,"Oct":9722,"breadth":9723,"dup":9724,"eep":9725,"nf":9726,"uce":9727,"åľ":9728,"ining":9729,"Ġcsum":9730,"()),(":9731,"Ġvowel":9732,"Ġ\"\",":9733,"(\"\",\"":9734,"idates":9735,"amed":9736,"Ġ'+'":9737,"ĠforI":9738,"Ġ255":9739,"Ġconj":9740,"ĠART":9741,"ĠPattern":9742,"Ġite":9743,"ulty":9744,"Ġunzipper":9745,"getMin":9746,"Ġzx":9747,"toL":9748,"Ġfield":9749,"http":9750,"ĠOr":9751,"ĠUse":9752,"areru":9753,"202":9754,"ĠEd":9755,"absv":9756,"faster":9757,"14159265356":9758,"ĠREPE":9759,"plane":9760,"167":9761,"569":9762,"started":9763,"quotient":9764,"Valid":9765,"jjj":9766,"1000003":9767,"bufRead":9768,"Ġcalculate":9769,"mday":9770,"/************************************************************************":9771,"ĠbufAt":9772,",\"}\");":9773,"âĸĳâĸĳâĸĳâĸĲ":9774,"Ġï¿½ï¿½ï¿½ï¿½ï¿½ï¿½ï¿½ï¿½ï¿½ï¿½ï¿½":9775,"UNT":9776,"Ġcycles":9777,"102400000":9778,"Ġtriangle":9779,"#####################################################":9780,"ĠAlpha":9781,"978978":9782,"Ġ\":\"\",":9783,"THING":9784,"===///":9785,"Ġconnections":9786,"ĠLess":9787,"EXAMP":9788,"(\"{\",":9789,"Ã¨Ã":9790,"PROJECT":9791,"Bandme":9792,"EXAMPLE":9793,"#~~":9794,")--":9795,"257":9796,"511":9797,"APP":9798,"BA":9799,"Do":9800,"Jw":9801,"MW":9802,"Sqr":9803,"Ym":9804,"YSN":9805,"_],":9806,"bind":9807,"bSN":9808,"nam":9809,"ifact":9810,"//================================":9811,"ĠvI":9812,"Ġter":9813,"Ġbag":9814,"ĠdY":9815,"Ġrbegin":9816,"Ġ}};":9817,"ĠuLL":9818,"ĠMagic":9819,"Ġgap":9820,"chay":9821,"Ġprf":9822,"ĠACM":9823,"isin":9824,"ques":9825,"Ġ32767":9826,".............":9827,"Ġstl":9828,"triple":9829,"ĠCy":9830,"Ġdelim":9831,"Ġpiipi":9832,"come":9833,"'.');":9834,"ĠreadArrays":9835,"Ġdebugger":9836,"Ġacosl":9837,"Ġstarting":9838,"ĉĉĉĉĉĉĉĉĉĉĉĉĉĉĉĉĉĉĉ":9839,"pie":9840,"ECUTION":9841,"oldr":9842,"UNI":9843,"bject":9844,"Ġpaths":9845,"ĠEXECUTION":9846,"Ġshaft":9847,"Ð¾Ð²":9848,"âłĢâłĢâłĢâłĢâłĢâłĢ":9849,"ĠCOMPARE":9850,"Ġ\"=>\"":9851,"@@@@@@@@@@@@@@@@@@@@@@@@@@@@@@@@@@@@@@@@@@@@@@@@@@@@@@@@@@@@@@@@":9852,"Ġrequire":9853,"XZv":9854,"ĠÐ·Ð°":9855,"Ġtrailing":9856,"ĠFaculty":9857,"164":9858,"197":9859,"353":9860,"653":9861,"Bal":9862,"Good":9863,"SC":9864,"Scanf":9865,"This":9866,"_));":9867,"asic":9868,"fds":9869,"gao":9870,"hare":9871,"hang":9872,"kill":9873,"âĪ":9874,"inde":9875,"remaining":9876,"Ġlit":9877,"sequence":9878,"Ġavoid":9879,"Ġasc":9880,"Ġnbase":9881,"Ġcrivo":9882,"ford":9883,"Ġshe":9884,"Ġvu":9885,"Ġvstr":9886,"Ġvow":9887,"Ġtem":9888,"convex":9889,"Ġdraw":9890,"Ġfbo":9891,"mass":9892,"Ġ'|":9893,"prin":9894,"])>":9895,"ĠAdj":9896,"rtn":9897,"Ġtrick":9898,"unlli":9899,"buy":9900,"ĠRight":9901,"minimum":9902,"Ġhack":9903,"Ġhlp":9904,"apa":9905,"MAXV":9906,"]]+=":9907,"Ġunzip":9908,"ffect":9909,"Ġoutdist":9910,"1532":9911,"Ġsetmin":9912,"Ġcoord":9913,")+((":9914,"direct":9915,"ĠvvI":9916,"557":9917,"Ġcomps":9918,"aved":9919,"347":9920,"graf":9921,"Ġclp":9922,"Ġ2020":9923,"Ġsupport":9924,"ĠbinaryExponentiation":9925,"$$$":9926,"Ġfake":9927,"multiplicative":9928,"Ġblocks":9929,"eeded":9930,"ĠPRINTV":9931,"Ġorta":9932,"BUFFER":9933,"ELEVEN":9934,"priln":9935,"Ġ']';":9936,"ĠPositive":9937,"71828182845904523536":9938,"/*******************************":9939,"Ġetc":9940,"segnum":9941,"ĠCPPELEVEN":9942,"ĠUseful":9943,"*,":9944,"._________,":9945,"233":9946,"310":9947,";){":9948,"CSE":9949,"Friend":9950,"HopcroftKarp":9951,"Low":9952,"Mn":9953,"Rem":9954,"Sqrt":9955,"Success":9956,"Treap":9957,"cate":9958,"created":9959,"easy":9960,"isy":9961,"rw":9962,"tol":9963,"uid":9964,"vld":9965,"yl":9966,"yt":9967,"yan":9968,"²âĬĻ":9969,"½æķ°":9970,"æł":9971,"Ġclog":9972,"intersection":9973,"Ġiy":9974,"Ġnq":9975,"Ġnpair":9976,"Ġnpos":9977,"++()":9978,"Ġcf":9979,"amt":9980,"amount":9981,"Ġtodo":9982,"irag":9983,"leep":9984,"Ġface":9985,"Ġyi":9986,"Ġkh":9987,"âĸ²âĬĻ":9988,"!=\"\"":9989,"]='.';":9990,"<<\"}\"<<":9991,"),\"":9992,"ĠFS":9993,"ĠFUNCTION":9994,"ĠScopeTimer":9995,"ung":9996,"Ġpushed":9997,"Ġ399":9998,"Ġ_(){":9999,"curx":10000,"ĠCSE":10001,"]]]++;":10002,"Ġunpaired":10003,"ĠIoSet":10004,"ĠBLOCK":10005,"Ġ102":10006,"toString":10007,"###############":10008,"ĠOne":10009,"âĸĴâĸĮ":10010,"artite":10011,"143":10012,"SEG":10013,"331":10014,"diag":10015,"ĠHA":10016,"Ġheavy":10017,"<<\":\"<<":10018,"Ġeng":10019,"3829":10020,"common":10021,"____________________":10022,"âĸĮâĸĴ":10023,"/***********************************************":10024,"â¢Ģâ£Ģ":10025,"ĠSQRT":10026,"nodo":10027,"monic":10028,"Ġextend":10029,"entry":10030,"modexpo":10031,"Alhamdulillah":10032,"primos":10033,"import":10034,"FlowEdge":10035,"ĠIsLess":10036,"DebugStream":10037,"%%%%%%%%%%%%%%%%":10038,"åĩ½æķ°":10039,"///////////////////////////////////////////////////////////////////////////////////////////////////":10040,"Variables":10041,"Ġharmonic":10042,"åº¦":10043,"Ġemz":10044,"Ġ--------------------------------------------------":10045,"577215664901532":10046,"[&](":10047,"ĠIoSetup":10048,"57721566490153286":10049,"&);":10050,"+')":10051,"1389":10052,"479":10053,"419":10054,"599":10055,"620":10056,"MB":10057,"MO":10058,"Qry":10059,"`--'":10060,"hur":10061,"hand":10062,"pz":10063,"pid":10064,"wq":10065,"åĮ":10066,"Ġ----":10067,"Ģ¼":10068,"Ġlive":10069,"Ġmen":10070,"Ġads":10071,"Ġppi":10072,"Ġcans":10073,"Ġsat":10074,"outl":10075,"itv":10076,"atMe":10077,"Ġfv":10078,"(\"+":10079,"))&(":10080,"Ġrez":10081,"ume":10082,"Ġking":10083,"Ġansa":10084,"Ġguess":10085,"chan":10086,"ete":10087,"Ġmods":10088,"ĠFact":10089,"ĠmaxValue":10090,"maximum":10091,"Ġaround":10092,"ĠRS":10093,"akt":10094,"Ġadvance":10095,"ĠisConst":10096,"329":10097,");}}":10098,"152":10099,"1009":10100,"Ġpipii":10101,"âķĿ":10102,"about":10103,"223":10104,"507":10105,"<<\":\\":10106,"ĠKMP":10107,"LET":10108,"Ġfastexp":10109,"ĠInpOut":10110,"ĠWATCH":10111,"Noisy":10112,"ILED":10113,"191":10114,"1000007":10115,"Ġ\"]\\":10116,"Ġkeep":10117,"FSIZE":10118,"lson":10119,"rson":10120,"---------------":10121,"ÐµÐ»":10122,"Requ":10123,"ãģ®":10124,"ĠBigInt":10125,"OUR":10126,"ĠIsGreater":10127,"ĠextendedEuclid":10128,"Ġpopcntll":10129,"iqul":10130,"ambda":10131,"é¢ĺ":10132,"ĠFUNCTIONS":10133,"13893829":10134,"!\"":10135,":\"<<__":10136,"Jump":10137,"RPr":10138,"RMQ":10139,"Same":10140,"draw":10141,"ever":10142,"gf":10143,"hv":10144,"jp":10145,"kr":10146,"kind":10147,"laz":10148,"pic":10149,"rad":10150,"æĿ":10151,"Ġì":10152,"Ġ-----":10153,"recur":10154,"ond":10155,"Ġ168":10156,"Ġ{\"<<(":10157,"Ġsset":10158,"Ġsil":10159,"Ġsmain":10160,"Ġsiii":10161,"//__":10162,"Ġdfn":10163,"ĠTO":10164,"Ġrule":10165,"maz":10166,"Ġ}\";":10167,"Ġkx":10168,"])<<":10169,"ĠMy":10170,"ĠMUL":10171,"Ġifac":10172,"<<\"<":10173,"etr":10174,"ĠAA":10175,"...\\":10176,"...))":10177,"ĠPtest":10178,"unj":10179,"Ġminpq":10180,"mapi":10181,"ĉĉĉĉĉĉĉĉĉĉĉĉĠ":10182,"_____|":10183,"Ġdpp":10184,"ĠLazy":10185,"ĠLuck":10186,"Ġstt":10187,"ilar":10188,"119":10189,"ĠBuild":10190,"Ġsummodfast":10191,"precompute":10192,"Ġ'\\''":10193,"Ġsend":10194,"Ġviky":10195,"ĠObject":10196,"1007":10197,"263":10198,"100004":10199,"updateRange":10200,"888888888888888":10201,"Ġ65":10202,"âĸĦâĸĪâĸĪâĸĪâĸĪâĸĪâĸĪâĸĪâĸĪ":10203,"dia":10204,"Ġcheckmin":10205,"Ġpara":10206,"Ġdie":10207,"Ġdijkstra":10208,"Ġshok":10209,"vvvi":10210,"Ġsqrtn":10211,"Ġsubstr":10212,"173":10213,"anguage":10214,"IteratorType":10215,"printSingle":10216,"','.','.','.','.','.','.":10217,"Stud":10218,"nega":10219,")<<\"}\"<<":10220,"Ġvariables":10221,"300300":10222,"Ġloops":10223,"region":10224,"ĠMAP":10225,"ÑĤÐ¸":10226,"Ġdownrange":10227,"âĸĢâĸĢâĸĢâĸĢâĸĢâĸĢ":10228,"4005":10229,"Ġusage":10230,"RIGHT":10231,"what":10232,"----------------------------":10233,"\"\"\"\"\"\"\"\"":10234,"Ġ//////":10235,";_<":10236,"ĠFAILED":10237,"ĠDijkstra":10238,"GETA":10239,"Ġalive":10240,"Ġextract":10241,"éĩı":10242,"Ġstrictly":10243,"APPLE":10244,"asicInteger":10245,"*_":10246,"427":10247,"FA":10248,"GC":10249,"High":10250,"Log":10251,"Prev":10252,"SORT":10253,"UCK":10254,"Util":10255,"Wextra":10256,"Xor":10257,"^=(":10258,"du":10259,"gasg":10260,"ming":10261,"rans":10262,"å¹":10263,"åĨ":10264,"inq":10265,"intrin":10266,"Ġimin":10267,"Ġmtr":10268,"Ġ122":10269,"Ġpj":10270,"Ġpcnt":10271,"Ġsst":10272,"outs":10273,"Ġ\"|":10274,"Ġintt":10275,"Ġttt":10276,"conv":10277,"atal":10278,"Ġfclose":10279,"))/(":10280,"Ġ;)":10281,"])].":10282,"Ġgiven":10283,"ows":10284,"chmin":10285,"ĠFun":10286,"Ġqx":10287,"ĠSqrt":10288,"Ġops":10289,"0005":10290,"indrom":10291,"]]>=":10292,"toread":10293,"coeff":10294,"ĠUs":10295,"âĸĴâĸĴâĸĦ":10296,"ĠXor":10297,"///#":10298,"]={},":10299,"Ġlose":10300,"column":10301,"hsf":10302,"Ġvvvvi":10303,"Ġhibit":10304,"mij":10305,"PERF":10306,"writeWord":10307,"Ġcosts":10308,"Ġ\"/\"":10309,"Ġwritep":10310,"Ġvert":10311,"Ġvertical":10312,"âĸĦâĸĦâĸĦ":10313,"Ġvariable":10314,"AddEdge":10315,"winner":10316,"/__\\":10317,"<<\"]\";}":10318,"called":10319,"_______|":10320,"sole":10321,"Ġtimmax":10322,"ĠDistType":10323,"äºĨ":10324,"Enable":10325,"Ġraise":10326,"ĠALIGN":10327,"è¾¹":10328,"'>":10329,"(+":10330,"629":10331,"Aug":10332,"Br":10333,"DU":10334,"NE":10335,"POS":10336,"Sa":10337,"]\";":10338,"bus":10339,"djk":10340,"fv":10341,"ghest":10342,"hg":10343,"mar":10344,"sor":10345,"scl":10346,"xaaaaaaaa":10347,"xcccccccc":10348,"yf":10349,"ymd":10350,"zub":10351,"Ð¢":10352,"Ġé":10353,"Ġlans":10354,"Ġleg":10355,"Ġaz":10356,"Ġaway":10357,"clone":10358,"()]=":10359,"//________________________________":10360,"anit":10361,"Ġtmin":10362,"Ġbm":10363,"ĠTest":10364,"may":10365,"Ġky":10366,"])<=":10367,"ĠMint":10368,"ĠMid":10369,"chem":10370,"ĠAre":10371,"ĠSieve":10372,"Ġconstants":10373,"Ġws":10374,"Ġwtf":10375,"ĉĉĉĉĉĉĉĉĊ":10376,"Ġ//__\\\\":10377,"â£¿âł":10378,"â£¿âłĩ":10379,"âĸĳâĸĮâĸĮâĸĳâĸĳâĸĳâĸĳâĸĳ":10380,"Ġhang":10381,"ĠgetPow":10382,"indices":10383,"ĠDp":10384,"treemin":10385,"ĠBismillahir":10386,"five":10387,"popc":10388,"inputs":10389,"ĠMAXV":10390,"Ġleave":10391,"[]{":10392,"129":10393,"okhar":10394,"oooo":10395,"487":10396,"soln":10397,"1000002":10398,"Ġ'.'){":10399,"bra":10400,"ĠMaxC":10401,"fjke":10402,"498":10403,"300100":10404,"Ġostm":10405,"mkp":10406,"ULAR":10407,"<<\"-\"<<":10408,"FLOW":10409,"chkmax":10410,"rule":10411,"âĸĴâĸĴâĸĴâĸĴâĸĴâĸĴâĸĢâĸĦ":10412,"ĠState":10413,"Ġsimilar":10414,"âĸĦâĸĢâĸĴâĸĮ":10415,"âķĲâķĲâķĲâķĲ":10416,"1000000097":10417,"######################################################":10418,"OUND":10419,"uced":10420,"Ġ**************************/":10421,"Ġ****************************/":10422,"ĠnCk":10423,"âĸĮâĸĮâĸĳâĸĮâĸĮâĸĳâĸĳâĸĳâĸĳâĸĳ":10424,"âĸĢâĸĴâĸĮ":10425,"tututu":10426,"dddddddd":10427,"å¤§":10428,"Downrange":10429,"people":10430,"ĠinclusiveRange":10431,"ĠinclusiveDownrange":10432,"nikunj":10433,"Ġtututu":10434,"â¡¿âłĭ":10435,"Ġnokol":10436,"âĸĳâĸĳâĸĳâĸĳâĸĳâĸĳâĸĳâĸĳâĸĳâĸĳâĸĳâĸĮâĸĮâĸĳâĸĮâĸĮâĸĳâĸĳâĸĳâĸĳâĸĳ":10437,"Ġvirus":10438,"ĠKAZAR":10439,"âĸĳâĸĳâĸĳâĸĲâĸĳâĸĳâĸĳâĸĳâĸĲ":10440,"okharnikunj":10441,"-((":10442,"/%":10443,"624":10444,"837":10445,"But":10446,"Pe":10447,"Rank":10448,"\\_\\":10449,"bli":10450,"lu":10451,"sci":10452,"wor":10453,"xF":10454,"Ġipair":10455,"ori":10456,"Ġmonostate":10457,"Ġmedian":10458,"Ġnk":10459,"Ġpid":10460,"Ġvoice":10461,"Ġtou":10462,"Ġbus":10463,"Ġbas":10464,"conversion":10465,"Ġxmax":10466,"Ġdum":10467,"Ġflo":10468,"Ġmass":10469,"Ġ})":10470,"ansl":10471,"Ġforsn":10472,"Ġ2000000":10473,"ĠMo":10474,"ĠMerge":10475,"Ġgam":10476,"Ġgol":10477,"Ġinfs":10478,"Ġconfig":10479,"INP":10480,"Ġ/(":10481,"Ġqwerty":10482,"ĠSub":10483,"ĠSource":10484,"ĠSSTR":10485,"ĠPOS":10486,"((!":10487,"ĠRec":10488,"ĠRandom":10489,"ĠRahmanir":10490,"erride":10491,"Ġsto":10492,"ĠgetF":10493,"Ġzer":10494,"thon":10495,"viv":10496,"ldbl":10497,"skill":10498,"Ġ400005":10499,"ĠOper":10500,"ï¿½ï¿½ï¿½ï¿½ï¿½":10501,"587":10502,"503":10503,"=='-'){":10504,"467":10505,"Ġshit":10506,"Ġcolors":10507,"--------------------------------------":10508,"ĠWritten":10509,"Ġthink":10510,"ITH":10511,"283":10512,"vely":10513,"Ġ',';":10514,"ĠÐ±":10515,"ĠÐ²":10516,"Ġplayer":10517,"ä¸į":10518,"_____________":10519,"Ġuseful":10520,"Ġ*(--":10521,"]&&!":10522,"<<\"[\"<<(":10523,"chkmin":10524,"Ġonesll":10525,"Ġfriends":10526,"Ġintercept":10527,"Ġmoder":10528,"Â¦Â¦":10529,"Ġoverride":10530,"277":10531,"547":10532,"An":10533,"BY":10534,"Bismillahir":10535,"CPC":10536,"FW":10537,"Win":10538,"bor":10539,"bag":10540,"cj":10541,"eil":10542,"game":10543,"ious":10544,"kx":10545,"mc":10546,"mii":10547,"pet":10548,"ukk":10549,"æ³":10550,"Ġ]=":10551,"Ġ<__":10552,"Ġcen":10553,"Ġ<<#":10554,"Ġsor":10555,"Ġswe":10556,"Ġ\"_":10557,"Ġbd":10558,"Ġbmm":10559,"irnag":10560,"uss":10561,"Ġdout":10562,"ĠTrie":10563,"Ġ');}":10564,"Ġmaxk":10565,"maxy":10566,"bases":10567,"MMENT":10568,"Ġ__|":10569,"Ġ_;":10570,"Ġwyn":10571,"ĉĉĉĉĉĉĉĉĉĉĠ":10572,"ĠRank":10573,"mina":10574,"Ġstorm":10575,"Ġdest":10576,"ĠICPC":10577,"Ġtogg":10578,"Ġsumm":10579,"Ġ59":10580,"Ġ450":10581,"ights":10582,"artment":10583,"100007":10584,"(-)":10585,"Ġ]\"":10586,"ĠUI":10587,"ĠUSU":10588,"Ġ!(*":10589,"âĸĴâĸĴâĸĲ":10590,"207":10591,"339":10592,"100050":10593,"abba":10594,"379":10595,"lowbit":10596,"Ġdima":10597,"1111111":10598,"Ġflg":10599,"1999999":10600,"obius":10601,"ĉĉĉĉĉĉĉĉĉĉĉĉĉĉĠ":10602,"vvs":10603,"ahang":10604,"Ġ205":10605,"ĉĉĉĉĉĉĉĉĉĉĉĉĉĠ":10606,"Ġpqi":10607,"ĠdoReplace":10608,"57636":10609,"prog":10610,"weh":10611,"809":10612,"0000000007":10613,"Ġ`.":10614,"Ġbrute":10615,"Ġlogf":10616,"________________________________________________________________":10617,"ĠxyLine":10618,"Ġimpro":10619,"factorize":10620,"Ġwrf":10621,"leted":10622,"Ġgetii":10623,"Ġbalanced":10624,"AKH":10625,"LIMIT":10626,"Ġmuch":10627,"ĠNUIP":10628,"COMMENT":10629,"positions":10630,"âĸĪâĸĪâķĶâķĿ":10631,"Ġ98765":10632,"ĠALPH":10633,"Ġ'>')":10634,"âĸĴâĸĴâĸĴâĸĦâĸĴâĸĴâĸĴâĸĴâĸĴâĸĴ":10635,"fuweh":10636,"Ġtravers":10637,"3482791":10638,"]==...==":10639,"ĠDepartment":10640,"irnagar":10641,"ĠUSUAL":10642,"ahangirnagar":10643,"576363482791":10644,"(\",":10645,"('.');":10646,",!":10647,"-.":10648,".-'":10649,"367":10650,"677":10651,"679":10652,"700":10653,"Can":10654,"Draw":10655,"Fe":10656,"Gr":10657,"Kn":10658,"NX":10659,"Pd":10660,"RY":10661,"UV":10662,"]&(":10663,"_]":10664,"asp":10665,"dgs":10666,"eul":10667,"fect":10668,"nbase":10669,"pC":10670,"wow":10671,"xo":10672,"}];":10673,"Ġenter":10674,"ino":10675,"ons":10676,"Ġlucky":10677,"Ġmrg":10678,"Ġ150":10679,"Ġpip":10680,"itcalc":10681,"Ġ>>(":10682,"ĠĠĉĉĉĉ":10683,"ansr":10684,"asdg":10685,"Ġifdef":10686,"Ġ++,":10687,"nces":10688,"Ġepr":10689,"ĠmaxK":10690,"ĠmaxV":10691,"rth":10692,";}}}":10693,"oto":10694,"())->":10695,"ression":10696,"Ġ__/|":10697,"Ġ>='":10698,"Ġhb":10699,"ĠCl":10700,"ember":10701,"lena":10702,"numb":10703,"ĉĠĠĠĉĉ":10704,"pred":10705,"ARS":10706,"Ġ\\.":10707,"iption":10708,"ĠED":10709,"oko":10710,"Ġthem":10711,"Ġdistinct":10712,"Ġload":10713,"Ġbuy":10714,"Ġbuil":10715,"373":10716,"readin":10717,"REV":10718,"ROM":10719,"writeInt":10720,"_____________________":10721,"fixArray":10722,"Ġ\"]:":10723,"Edges":10724,"Ġfindp":10725,")?\"":10726,"NNN":10727,"wei":10728,"bling":10729,"ireInputIter":10730,"âĸĳâĸĳâĸĳâĸĳâĸĳâĸĳâĸĳâĸĳâĸĳ":10731,"Ġ200200":10732,"Ġ5010":10733,"follow":10734,"Expo":10735,"Ġsky":10736,"ToString":10737,"apply":10738,"ĠAlgorithm":10739,"Ġgiua":10740,"uniq":10741,"ISMI":10742,"ĠELEMENTS":10743,"Depth":10744,"sofar":10745,"RequireInputIter":10746,"ukkha":10747,"ISMILLAH":10748,")|(":10749,"433":10750,";*":10751,"Center":10752,"Dinic":10753,"IWI":10754,"Mon":10755,"Mac":10756,"OB":10757,"Pf":10758,"SL":10759,"Source":10760,"bld":10761,"fwhole":10762,"iy":10763,"nmask":10764,"pak":10765,"puti":10766,"yd":10767,"±Ã²":10768,"Ġ(;;)":10769,"Ġlarg":10770,"Ġaasdfasdf":10771,"Ġalso":10772,"++]=(":10773,"--()":10774,"ĠvS":10775,"Ġvm":10776,"acency":10777,"ante":10778,"irVector":10779,"Ġjjj":10780,"olo":10781,"))-(":10782,"vectors":10783,"Ġkr":10784,"asfh":10785,"asses":10786,"bitrary":10787,"Ġgmin":10788,"************":10789,"Ġinvert":10790,"edron":10791,"ĠAlex":10792,"ĠAnton":10793,"Ġcinv":10794,"maxc":10795,"Ġqt":10796,"rty":10797,"ĠSEG":10798,"agak":10799,"643":10800,"ĠRC":10801,"â£¿â¡¿":10802,"Ġmpos":10803,"posit":10804,"ĠGood":10805,"117":10806,"ĠDAR":10807,"ĠBlock":10808,"lose":10809,"gether":10810,"Ġinff":10811,"Ġisqrt":10812,"ldb":10813,"ldk":10814,"ldjk":10815,"ĠVD":10816,"middle":10817,"âĸĪâĸĪâĸĦâĸĦâĸĦâĸĦ":10818,"Ġ\\_______":10819,"Ġ\\__\\\\":10820,"room":10821,"[]){":10822,"riuper":10823,";++_)":10824,"209":10825,"Ġfrq":10826,"]=='('":10827,"]=='-')":10828,")+=(":10829,"topt":10830,"rror":10831,"ĠHexagonal":10832,"3779":10833,"lliseconds":10834,"ĠREPN":10835,"Ġexec":10836,"Ġadjacency":10837,"169":10838,"limite":10839,"Ġbeki":10840,"lfasfh":10841,"Ġasgasg":10842,"200500":10843,"costs":10844,"ahedron":10845,"ahlfasfh":10846,"randomEngine":10847,"term":10848,"lsldk":10849,"â£¿â£¶":10850,"fjahlfasfh":10851,"ikldjk":10852,"rght":10853,"ĠZn":10854,"âĸĳâĸĳâĸĳâĸĦâĸĢâĸĴâĸĴ":10855,"ĠÐµ":10856,"681":10857,"cppstr":10858,"ĠCompress":10859,"scani":10860,"Ġsdfjahlfasfh":10861,"Ġ-------------------\\":10862,"ĠINIT":10863,"âĸĪâĸĪâĸĪâĸĢâĸĢ":10864,"Ġincrease":10865,"Ġcapacity":10866,"ÑĤÐ¾":10867,"Ġchanges":10868,"Ġaskfh":10869,"lected":10870,"funsafe":10871,"Ġ\\|_______|":10872,"âĶĢâĶĢâĶĢâĶĢâĶĢâĶĢâĶĢâĶĢ":10873,"ĠCHR":10874,"ÐĲÐĿ":10875,"dgasg":10876,"âłĻâ¢¿":10877,"åıĺ":10878,"2144":10879,"lhagak":10880,"rimirVector":10881,"Ġ\\_|\\":10882,"Ġsdkfas":10883,"ĠCalculate":10884,"Ġassdgs":10885,"âĺģâĺģ":10886,"ĠLOOK":10887,"namic":10888,"Ġengine":10889,"wqriuper":10890,"Ġaasdfasdfasdf":10891,"Ġasgasgash":10892,"Ġaskfhwqriuper":10893,"dgasghsf":10894,"lhagaklsldk":10895,"Ġsdkfaslhagaklsldk":10896,"Ġassdgsdgasghsf":10897,"Ġaskfhwqriuperikldjk":10898,"&,":10899,"'`":10900,"*\\":10901,"659":10902,"877":10903,"857":10904,"HAM":10905,"Local":10906,"MASK":10907,"PL":10908,"Roll":10909,"](":10910,"afor":10911,"alex":10912,"cary":10913,"dic":10914,"esp":10915,"kp":10916,"qb":10917,"rink":10918,"zer":10919,"{};":10920,"Ñİ":10921,"Ġut":10922,"Ġmethods":10923,"Ġamaz":10924,"Ġpus":10925,"Ġcard":10926,"()])":10927,"Ġshik":10928,"ities":10929,"Ġ\"):":10930,"amir":10931,"Ġtit":10932,"(\";":10933,"(\"*****":10934,"mpp":10935,"Ġrii":10936,"made":10937,"Ġunt":10938,"ĠNoi":10939,"Ġcond":10940,"ĠFlow":10941,"Ġqll":10942,"icks":10943,"hep":10944,"Ġwlen":10945,"ula":10946,"';)":10947,"âĸĳâĸĢâĸĦ":10948,"Ġmpi":10949,"Ġhast":10950,"]==\"":10951,"ĠDon":10952,"treeSize":10953,"]]<":10954,"]+'":10955,"repe":10956,"############":10957,"ĠOVER":10958,"FORD":10959,"Ġaccess":10960,"mns":10961,"Ġ./":10962,"3010":10963,"Ġprintarr":10964,"FFT":10965,"Ġthird":10966,"Ġmymul":10967,"Ġmsl":10968,"âĸĦâĸĦâĸĳâĸĳâĸĳâĸĳâĸĳ":10969,"405":10970,"Ġpsl":10971,"Ġà¦«":10972,"LILLAH":10973,"ĠJan":10974,"ĠJust":10975,"ranges":10976,"Ġplay":10977,"Ġ--------------------------------------------------------":10978,"ÐµÐ¼":10979,"increase":10980,"ĠINIter":10981,"Ġposi":10982,"Ð½Ð°":10983,"Ġuniq":10984,"Ġ1001001001":10985,"LOGN":10986,"---------------------------":10987,"-----------------------------":10988,"Ġworks":10989,"Ġtimmin":10990,"Ġrock":10991,"Ġ*****\\":10992,"âĸĳâĸĳâĸĳâĸĳâĸĳâĸĲâĸĦâĸĦâĸĳâĸĳâĸĳâĸĳâĸĳ":10993,"Ġ9973":10994,"âĸĳâĸĳâĸĳâĸĳâĸĮâĸĳâĸĳâĸĳâĸĳâĸĳâĸĲâĸĦâĸĦâĸĳâĸĳâĸĳâĸĳâĸĳ":10995,"Ġwinners":10996,"çĽ¸":10997,"Delta":10998,"WeightedEdge":10999,"Finite":11000,"çº¿":11001,"UNIQUE":11002,"Enabled":11003,"(+)":11004,"ĠOperations":11005,"Ġ98765431":11006,"OBAL":11007,"Ġamazing":11008,"ĠNoisy":11009,"%_":11010,"449":11011,"514":11012,"800":11013,"853":11014,":.......":11015,":....:":11016,"?-(":11017,"Alice":11018,"Cl":11019,"KM":11020,"LM":11021,"Ro":11022,"dos":11023,"global":11024,"hd":11025,"hot":11026,"jah":11027,"lum":11028,"lnum":11029,"lish":11030,"mut":11031,"pool":11032,"rh":11033,"umax":11034,"¯ÐĶÐ":11035,"ÐĳÐŀ":11036,"Ùĩ":11037,"Ġeg":11038,"invert":11039,"Ġ(-(":11040,"sell":11041,"separator":11042,"Ġntt":11043,"Ġpool":11044,"Ġpci":11045,"--]":11046,"Ġ+(":11047,"];//":11048,"Ġbfor":11049,"conn":11050,"Ġdu":11051,"Ġfinv":11052,"Ġragetree":11053,"maxt":11054,"Ġremain":11055,"Ġuk":11056,"ĠMINF":11057,"***********/":11058,"<<\"-->":11059,"Ġ)(":11060,"Ġconvex":11061,"ĠFIO":11062,"Ġmaxl":11063,"ĠPerm":11064,"Ġ330":11065,".........:":11066,"(){};":11067,"âĸĳâĸĪâĸĪâĸĪâĸĢ":11068,"âĸĳâĸĮâĸĴ":11069,"]]*":11070,"ĠIFN":11071,"allel":11072,"Ġ'\\\"":11073,"ARSH":11074,"Ġ\\________":11075,"âĸĴâĸĢâĸĢâĸĢâĸĢ":11076,"âĸĴâĸĢâĸĴ":11077,"âĸĴâĸĪâĸĪâĸĪâĸĪâĸĮ":11078,"ĠMAXLL":11079,"Ġ\",__":11080,"100003":11081,"................:":11082,"..................":11083,"Ġmxv":11084,"ries":11085,"///---":11086,"///...................................":11087,"971":11088,"adjacent":11089,"Ġ^_^":11090,"Ġdba":11091,"âĸĦâĸĪâĸĪâĸĪâĸĪâĸĪâĸĪâĸĪ":11092,"âĸĳâĸĳâĸĳâĸĳâĸĦâĸĪâĸĪâĸĪâĸĪâĸĪâĸĪâĸĪâĸĪ":11093,"Ġmns":11094,"Ġcheckbit":11095,"Ġvvvl":11096,"ĠstartTime":11097,"10000000000000000":11098,"100000000000":11099,"âĸĪâĸĪâĸĪâĸĪâĸĢâĸĴ":11100,"âĸĪâĸĪâĸĪâĸĪâĸĢâĸĪâĸĪâĸĪâĸĪâĸĪ":11101,"âĸĪâĸĪâĸĪâĸĪâĸĦâĸĴâĸĴâĸĴâĸĴ":11102,"âĸĪâĸĪâĸĪâĸĪâĸĪâĸĪâķĶâķĿ":11103,"______________________":11104,"âĸĴâĸĴâĸĴâĸĴâĸĢâĸĢâĸĢâĸĴâĸĴâĸĴâĸĴâĸĴâĸĴ":11105,"shir":11106,"âĸĮâĸĳâĸĳâĸĳ":11107,"âĸĮâĸĴâĸĦ":11108,"âķĲâĸĪ":11109,".................................................":11110,"Ġvery":11111,"ĠDBGG":11112,",,,,,,,,,,":11113,"âĸĲâĸĪâĸĪâĸĪâĸĮ":11114,"âĸĲâĸĴâĸĢâĸĢâĸĢâĸĢ":11115,"âĸĳâĸĳâĸĳâĸĲâĸĳâĸĳâĸĳâĸĦâĸĦâĸĳâĸĳâĸĮ":11116,"LIE":11117,"Ġ')'":11118,"states":11119,"sons":11120,"Ġ.:--.":11121,"*****.................................................":11122,"Ð¾Ð»":11123,"ĠTRY":11124,"ä¸º":11125,"ĠTails":11126,"ĠMINUS":11127,"_,\\":11128,"Multi":11129,"---///":11130,"âĸĢâĸĦâĸĳâĸĳâĸĳâĸĦâĸĢâĸĴâĸĴ":11131,"''|":11132,"âĸĴâĸĴâĸĴâĸĴâĸĴâĸĴâĸĢâĸĪâĸĪâĸĪâĸĪâĸĪ":11133,"âĸĴâĸĴâĸĴâĸĴâĸĴâĸĴâĸĢâĸĢâĸĢâĸĴâĸĴâĸĴâĸĴâĸĴâĸĴ":11134,"Resource":11135,"Ġceiling":11136,"Ġ\\|__|":11137,"âĸĴâĸĦâĸĢâĸĢâĸĢâĸĢâĸĢâĸĦ":11138,"ĠLSOne":11139,"âĸĪâĸĪâĸĪâĸĪâĸĪâĸĪâĸĪâĸĦ":11140,"teams":11141,"wdIter":11142,"âĸĳâĸĲâĸĪâĸĪ":11143,"âĸĳâĸĲâĸĪâĸĮ":11144,"âĸĳâĸĲâĸĪâĸĪâĸĪâĸĪâĸĢâĸĴ":11145,"âĸĲâĸĳâĸĳâĸĳâĸĢâĸĢâĸĳâĸĳâĸĮ":11146,"ÐĶÐĲÐĿ":11147,"âĸĴâĸĴâĸĴâĸĴâĸĴâĸĪâĸĪâĸĪâĸĪâĸĮ":11148,"âĸĦâĸĢâĸĴâĸĴâĸĢâĸĦâĸĳâĸĳâĸĳâĸĦâĸĢâĸĴâĸĴ":11149,"âĸĳâĸĳâĸĪâĸĴâĸĦâĸĢâĸĢâĸĢâĸĢâĸĢâĸĦ":11150,"âĸĳâĸĳâĸĳâĸĢâĸĪâĸĪâĸĪâĸĢâĸĢ":11151,"âĸĳâĸĳâĸĳâĸĢâĸĮâĸĴâĸĦ":11152,"âĸĴâĸĲâĸĪâĸĪâĸĪâĸĮ":11153,"ÐĵÐĶÐĲÐĿ":11154,"Ġ\"'\"":11155,"Ġ\"}\"":11156,"âĸĳâĸĦâĸĢâĸĮâĸĳâĸĳâĸĳ":11157,"âĸĴâĸĴâĸĴâĸĦâĸĴâĸĴâĸĴâĸĦâĸĴâĸĴâĸĴâĸĴâĸĴâĸĴ":11158,"âĸĳâĸĳâĸĳâĸĳâĸĳâĸĮâĸĴâĸĴâĸĴâĸĴâĸĢâĸĢâĸĢâĸĴâĸĴâĸĴâĸĴâĸĴâĸĴ":11159,"âĸĳâĸĳâĸĳâĸĳâĸĳâĸĮâĸĴâĸĴâĸĴâĸĦâĸĴâĸĴâĸĴâĸĦâĸĴâĸĴâĸĴâĸĴâĸĴâĸĴ":11160,"âĸĢâĸĢâĸĳâĸĳâĸĮâĸĲâĸĳâĸĳâĸĳâĸĢâĸĢâĸĳâĸĳâĸĮ":11161,"âĸĢâĸĢâĸĢâĸĢâĸĢâĸĦâĸĴâĸĲâĸĪâĸĪâĸĪâĸĮ":11162,"âķĲâķ¦âķĲâķ©âķĲâķ¦âķĲâķ©âķĲâķ¦âķĲâķ©âķĲâķ¦âķĲâķ©âķĲâķ¦âķĲâķ©âķĲâķ¦âķĲâķ©":11163,"âĸĲâĸĳâĸĳâĸĳâĸĦâĸĦâĸĳâĸĳâĸĮâĸĲâĸĪâĸĪâĸĪâĸĮ":11164,"ÐĶÐ¯ÐĶÐ":11165,"âĸĪâĸĪâĸĪâĸĪâĸĪâĸĪâĸĦ":11166,"ĠâķļâķĲâķĲâķĲâķĲ":11167,"Letter":11168,"âĸĢâĸĦâĸĳâĸĳâĸĳâĸĳâĸĦâĸĢâĸĴâĸĴâĸĢâĸĦâĸĳâĸĳâĸĳâĸĦâĸĢâĸĴâĸĴ":11169,"Ġfldgjdflg":11170,"ITNOA":11171,"âĸĪâĸĪâķĶâķĲâķĲâĸĪâĸĪâķĹ":11172,"andero":11173,"âĸĴâĸĴâĸĴâĸĴâĸĴâĸĴâĸĴâĸĴâĸĴâĸĴâĸĴâĸĴâĸĴâĸĴâĸĴâĸĴâĸĴâĸĪâĸĪâĸĪâĸĪâĸĮ":11174,"Ġ.'.''|":11175,"âĸĴâĸĢâĸĪâĸĪâĸĪâĸĪâĸĪâĸĪâĸĦ":11176,"ĠObjectType":11177,"âĸĢâĸĢâĸĢâĸĢâĸĢâĸĢâĸĪâĸĪâĸĪâĸĪâĸĪâĸĪâĸĪâĸĦ":11178,"âĸĴâĸĴâĸĦâĸĢâĸĢâĸĢâĸĢâĸĢâĸĦâĸĴâĸĲâĸĪâĸĪâĸĪâĸĮ":11179,"âĸĴâĸĴâĸĲâĸĮ":11180,"Ġimprove":11181,"Ġ\\._,\\":11182,"âĸĪâĸĪâĸĦâĸĦâĸĦâĸĦâĸĪâĸĪâĸĪâĸĪâĸĦâĸĴâĸĴâĸĴâĸĴ":11183,"alexandero":11184,"âĸĳâĸĢâĸĦâĸĲâĸĴâĸĢâĸĢâĸĢâĸĢ":11185,"jahidul":11186,"ÐĳÐŀÐĵÐĶÐĲÐĿ":11187,"<<\"-->\"<<":11188,"âĸĳâĸĪâĸĪâĸĪâĸĢâĸĴâĸĴâĸĴâĸĴâĸĴ":11189,"âĸĳâĸĮâĸĴâĸĢâĸĦâĸĳâĸĳâĸĳâĸĳâĸĦâĸĢâĸĴâĸĴâĸĢâĸĦâĸĳâĸĳâĸĳâĸĦâĸĢâĸĴâĸĴ":11190,"âĸĴâĸĢâĸĴâĸĪâĸĮ":11191,"///...................................*****.................................................":11192,"âĸĦâĸĪâĸĪâĸĪâĸĪâĸĪâĸĪâĸĪâĸĢâĸĢâĸĢâĸĢâĸĢâĸĢâĸĪâĸĪâĸĪâĸĪâĸĪâĸĪâĸĪâĸĦ":11193,"âĸĪâĸĪâĸĪâĸĪâĸĢâĸĪâĸĪâĸĪâĸĪâĸĪâĸĢâĸĴâĸĮ":11194,"âĸĳâĸĳâĸĳâĸĲâĸĳâĸĳâĸĳâĸĦâĸĦâĸĳâĸĳâĸĮâĸĲâĸĳâĸĳâĸĳâĸĦâĸĦâĸĳâĸĳâĸĮâĸĲâĸĪâĸĪâĸĪâĸĮ":11195,"Ġ.:--.'.":11196,"âĸĴâĸĴâĸĴâĸĴâĸĴâĸĴâĸĢâĸĢâĸĢâĸĴâĸĴâĸĴâĸĴâĸĴâĸĴâĸĪ":11197,"âĸĳâĸĲâĸĪâĸĮâĸĴâĸĴâĸĴâĸĴâĸĴâĸĴâĸĴâĸĴâĸĴâĸĴâĸĴâĸĴâĸĴâĸĴâĸĴâĸĴâĸĴâĸĪâĸĪâĸĪâĸĪâĸĮ":11198,"âĸĳâĸĳâĸĪâĸĴâĸĦâĸĢâĸĢâĸĢâĸĢâĸĢâĸĦâĸĴâĸĴâĸĦâĸĢâĸĢâĸĢâĸĢâĸĢâĸĦâĸĴâĸĲâĸĪâĸĪâĸĪâĸĮ":11199,"âĸĳâĸĳâĸĳâĸĢâĸĪâĸĪâĸĪâĸĢâĸĢâĸĪâĸĪâĸĪâĸĪâĸĢâĸĪâĸĪâĸĪâĸĪâĸĪâĸĢâĸĴâĸĮ":11200,"âĸĳâĸĳâĸĳâĸĢâĸĮâĸĴâĸĦâĸĪâĸĪâĸĦâĸĦâĸĦâĸĦâĸĪâĸĪâĸĪâĸĪâĸĦâĸĴâĸĴâĸĴâĸĴ":11201,"âĸĳâĸĦâĸĢâĸĮâĸĳâĸĳâĸĳâĸĢâĸĢâĸĳâĸĳâĸĮâĸĲâĸĳâĸĳâĸĳâĸĢâĸĢâĸĳâĸĳâĸĮ":11202,"âĸĳâĸĳâĸĳâĸĳâĸĳâĸĮâĸĴâĸĴâĸĴâĸĴâĸĢâĸĢâĸĢâĸĴâĸĴâĸĴâĸĴâĸĴâĸĴâĸĴâĸĲ":11203,"âĸĳâĸĳâĸĳâĸĳâĸĳâĸĮâĸĴâĸĴâĸĴâĸĦâĸĴâĸĴâĸĴâĸĦâĸĴâĸĴâĸĴâĸĴâĸĴâĸĴâĸĲ":11204,"ÐĶÐ¯ÐĶÐ®":11205,"âĸĳâĸĢâĸĦâĸĲâĸĴâĸĢâĸĢâĸĢâĸĢâĸĴâĸĴâĸĴâĸĴâĸĴâĸĴâĸĢâĸĢâĸĢâĸĴâĸĴâĸĴâĸĴâĸĴâĸĴâĸĪ":11206,"ÐĳÐŀÐĵÐĶÐĲÐĿÐĲ":11207,"âĸĳâĸĮâĸĴâĸĢâĸĦâĸĳâĸĳâĸĳâĸĳâĸĦâĸĢâĸĴâĸĴâĸĢâĸĦâĸĳâĸĳâĸĳâĸĦâĸĢâĸĴâĸĴâĸĦâĸĢâĸĴâĸĮ":11208,"///...................................*****.................................................///":11209,"âĸĳâĸĳâĸĳâĸĢâĸĮâĸĴâĸĦâĸĪâĸĪâĸĦâĸĦâĸĦâĸĦâĸĪâĸĪâĸĪâĸĪâĸĦâĸĴâĸĴâĸĴâĸĴâĸĪâĸĢ":11210,"âĸĳâĸĦâĸĢâĸĮâĸĳâĸĳâĸĳâĸĢâĸĢâĸĳâĸĳâĸĮâĸĲâĸĳâĸĳâĸĳâĸĢâĸĢâĸĳâĸĳâĸĮâĸĴâĸĢâĸĴâĸĪâĸĮ":11211,")<<'":11212,".________________":11213,"523":11214,"619":11215,"=++":11216,">&&":11217,"Bob":11218,"CODE":11219,"Found":11220,"Jul":11221,"Ts":11222,"_>":11223,"dol":11224,"eval":11225,"erent":11226,"hm":11227,"hld":11228,"hypot":11229,"ially":11230,"post":11231,"qi":11232,"rid":11233,"saved":11234,"tap":11235,"»Ħ":11236,"âĹ":11237,"ç¬":11238,"Ġur":11239,"Ġ888":11240,"Ġicbrt":11241,"Ġlch":11242,"Ġlaz":11243,"Ġmc":11244,"Ġpost":11245,"Ġsab":11246,"ĠvL":11247,"Ġvin":11248,"Ġdn":11249,"Ġfak":11250,"\",++":11251,"Ġmapii":11252,"::\\":11253,"Ġrint":11254,"Ġrsort":11255,"Ġ'['":11256,"Ġ'(';":11257,"Ġyl":11258,"))+\"":11259,"Ġki":11260,"ĠMonth":11261,"cha":11262,"Ġinl":11263,"]=[\";":11264,"<<\"]=[\";":11265,"Ġendln":11266,"Ġpractice":11267,"ĠFenwick":11268,"isok":11269,"ĠPrime":11270,"ulal":11271,"miny":11272,"Ġobuf":11273,"Ġhp":11274,"Ġhold":11275,"ĠgetRoot":11276,"113":11277,"1110":11278,"ĠDGC":11279,"matr":11280,"Ġtoint":11281,"Ġser":11282,"Ġinfint":11283,"Ġ\\/__/":11284,"Ġlea":11285,"arte":11286,"ĠENG":11287,"mnx":11288,"clean":11289,"ontal":11290,"Ġnei":11291,"ERS":11292,"MaxFlow":11293,"ttt":11294,"Ġscans":11295,"ĠYa":11296,"Ġdiam":11297,"LEFT":11298,"<<\"=[\";":11299,"461":11300,"463":11301,"nglish":11302,"313":11303,"Ġtypeof":11304,"ĠWhen":11305,"773":11306,"ĠQry":11307,"Ġasdg":11308,"Ġsqrtl":11309,"Ġsubtract":11310,"hole":11311,"ONENT":11312,"1900":11313,"domin":11314,"tfj":11315,"\"\"\"":11316,"izontal":11317,"PBR":11318,"Ġstatus":11319,"Ġsmth":11320,"200009":11321,"ĠLDB":11322,"Reader":11323,"Process":11324,"Ġblah":11325,"Ġinterval":11326,"Ġhome":11327,"QUEUE":11328,"Ġpartition":11329,"Ġdoesn":11330,"Ġavg":11331,"combine":11332,"Ġ1234567890":11333,"coordinate":11334,"Solved":11335,"nCr":11336,"Ġoverloading":11337,"Middle":11338,"æĪĳ":11339,"âĸ²âĬĻâĸ²âĬĻ":11340,"Ġlarger":11341,"ARSHAD":11342,"$%":11343,"'<<":11344,"*}":11345,"-',":11346,"010":11347,"134":11348,"40000":11349,"457":11350,"900":11351,":`":11352,":,;":11353,";`,,":11354,">!":11355,"BISMILLAH":11356,"FRE":11357,"Sep":11358,"TU":11359,"VV":11360,"YMMMMMMMMMMMMMMMM":11361,"\\/":11362,"fli":11363,"kmp":11364,"layer":11365,"mber":11366,"nano":11367,"tsz":11368,"}@":11369,"}))":11370,"èĬ":11371,"ĠGG":11372,"Ġown":11373,"stp":11374,"Ġistringstream":11375,"online":11376,"Ġlxt":11377,"Ġlmt":11378,"Ġlambda":11379,"Ġmight":11380,"++].":11381,"Ġ120":11382,"Ġpeek":11383,"Ġcarte":11384,"//****************************************************************":11385,"Ġted":11386,"Ġtap":11387,"Ġxn":11388,"mpty":11389,"__<<\"\\":11390,"Ġjudge":11391,"Ġrlong":11392,"Ġrer":11393,"])+(":11394,"ĠMU":11395,"Ġgmax":11396,"<<\">":11397,"ĠNmax":11398,"Ġprie":11399,"ĠmodInv":11400,"â£ĩ":11401,"ĠSGD":11402,"ĠPd":11403,"ĠPRT":11404,"MMMN":11405,"undy":11406,"Ġ333":11407,"ĠLO":11408,"Ġmpsi":11409,"Ġgetans":11410,"ĠCur":11411,"ĠDukkha":11412,"]]))":11413,"emy":11414,"â£¿â£¿â£Ĩ":11415,"991":11416,"Ġ567":11417,"ĠinfValue":11418,"Ġinfinity":11419,"Ġviv":11420,"Ġrepn":11421,"1000000010":11422,"ĠFORSZ":11423,"Ġpreprocess":11424,"ĠreadWord":11425,"cia":11426,"Ġsqu":11427,"<<(*":11428,"Ġupmax":11429,"âłĦ":11430,"âłı":11431,"58476":11432,"STAR":11433,"dijkstra":11434,"ĠHMOD":11435,"MMMMMMMMMMMMM":11436,"Ġscii":11437,"559":11438,"pls":11439,"â¡¾":11440,"â¡ĺ":11441,"Ġpowers":11442,",;`":11443,"ovember":11444,"Ġ2010":11445,"indexed":11446,"Ġpql":11447,"anks":11448,"Ġbigger":11449,"â£¿â£¿â£¿â£¿â£¿â£¿â£¿â£¿â£¿â£¿â£¿â£¿":11450,"â£¿â£¿â£¿â£¿â£¿â£¿â£¿â£¿â£¿â£¿â£¿â£¿â£¿â£¿":11451,"â£¿â£ŀ":11452,"âķ¬âķ¬âķ¬":11453,"Ġwell":11454,"Ġ\"]\";}":11455,"â¢¿â£·":11456,"200003":11457,"Ġ----------------------------------------":11458,"sertion":11459,"servers":11460,"Ġï¿½ï¿½ï¿½ï¿½ï¿½,":11461,"â£¯â¡¿":11462,"general":11463,"Ġbpm":11464,"ĠITR":11465,"_.'":11466,"when":11467,"â¢»â£¿â£¿â£¿â£¿â£¿â£¿â£¿â£¿â£¿â£¿â£¿â£¿â£¿â£¿â£¿â£¿":11468,"888888888888888888888888888":11469,"ĠFIND":11470,"â¡ĩâ¢¹":11471,"ï¿½ï¿½ï¿½ï¿½ï¿½ï¿½ï¿½ï¿½ï¿½ï¿½ï¿½":11472,"âł»â£½":11473,"133111":11474,"Ġproper":11475,"ello":11476,"âłģâ£¾":11477,"prepare":11478,"aeiai":11479,"ĠBitCnt":11480,"stopwatch":11481,"âłīâłīâłīâłī":11482,"ĠUnionFind":11483,"ĠâĸĪâĸĪâķĳâĸĪâĸĪâķĳ":11484,"Ġmaxty":11485,"ĠFREIN":11486,"ificant":11487,"à¦¶à¦¨":11488,"ĠFromStr":11489,"â¡Ļâł":11490,"Ġrequirement":11491,"Friendship":11492,"nanoseconds":11493,"ĠpeekChar":11494,"Ġcartesian":11495,"'<=":11496,"217":11497,"843":11498,"919":11499,"=*(":11500,"Fr":11501,"Key":11502,"MAN":11503,"Over":11504,"PA":11505,"TX":11506,"]\\":11507,"fpo":11508,"hb":11509,"hamed":11510,"kc":11511,"lpos":11512,"median":11513,"non":11514,"¦Ĥ":11515,"¯Ã":11516,"Ð¿":11517,"Ðĺ":11518,"å¦Ĥ":11519,"integer":11520,"stit":11521,"Ġlmax":11522,"Ġlmap":11523,"Ġlscn":11524,"send":11525,"Ġnal":11526,"Ġ134":11527,"Ġ1111":11528,"Ġpub":11529,"Ġptt":11530,"--]);":11531,"Ġsprintf":11532,"outp":11533,"Ġrh":11534,"hill":11535,"Ġkt":11536,"prs":11537,"ĠMC":11538,"883":11539,"Ġ:\";":11540,"added":11541,"Ġei":11542,"ĠFOr":11543,"isLowerCase":11544,"isUpperCase":11545,"ĠSOUT":11546,"ĠSchool":11547,"modpow":11548,"ĠRF":11549,"*******************":11550,"+='\\":11551,"minj":11552,"trick":11553,"Ġgetp":11554,"Ġgetting":11555,"ĠChar":11556,"ĠClear":11557,"Ġdev":11558,"]]<<\"":11559,"Ġunlocked":11560,"996":11561,"mxi":11562,"mxy":11563,"Ġ1000000006":11564,"toa":11565,"Ġ512":11566,"exe":11567,"Ġ);}":11568,"Ġ430":11569,"1004":11570,"ĠFORall":11571,"ĠArbitrary":11572,"SEND":11573,"ĠER":11574,"Intersection":11575,")+\"":11576,"Ġupmin":11577,"Ġdynamic":11578,"ĠREPP":11579,"Ġcomplete":11580,"Ġ100500":11581,"Ġpowr":11582,"Ġ861":11583,"OND":11584,"Ġ2018":11585,"solved":11586,"shit":11587,"bek":11588,"powerMod":11589,"407":11590,"Ġrandoperation":11591,"Ġà¦¬":11592,"444":11593,"]-='":11594,"local":11595,"ĠSHIK":11596,"coder":11597,"Ġmatching":11598,"xbf":11599,"ĠPOWER":11600,"Ġspaces":11601,"label":11602,"plier":11603,"/|_|":11604,"Ġ99990001":11605,"//-----------------------------------------------------------------------------":11606,"ĠROAD":11607,"Writer":11608,"ĠPOSL":11609,"èĬĤ":11610,"¯Ã°":11611,"-*":11612,"2100":11613,"527":11614,"AG":11615,"Binary":11616,"Jan":11617,"Jahangirnagar":11618,"MUL":11619,"RL":11620,"There":11621,"[]);":11622,"^)":11623,"ares":11624,"aft":11625,"cir":11626,"cbase":11627,"dw":11628,"imin":11629,"kir":11630,"kase":11631,"lap":11632,"pNode":11633,"umap":11634,"ws":11635,"éĢ":11636,"ĠĉĠĠ":11637,"Ġ())":11638,"Ġlout":11639,"Ġlii":11640,"seti":11641,"Ġmon":11642,"()||":11643,"Ġvet":11644,"amin":11645,"lead":11646,"Ġdinic":11647,"==')":11648,"Ġrprintf":11649,"Ġrht":11650,"Ġ}\\":11651,"Ġ'^":11652,"Ġ219":11653,"Ġ2101":11654,"Ġyj":11655,"Ġupb":11656,"])];":11657,"stree":11658,"editor":11659,"<<\"----------------":11660,"ĠpairT":11661,"ĠND":11662,"Ġpril":11663,"ĠFROM":11664,"ĠAP":11665,"ĠAcc":11666,"isa":11667,"ĠSu":11668,"())=='":11669,"cursum":11670,"ĠRP":11671,"')){":11672,"ckx":11673,"Ġhm":11674,"ĠgetId":11675,"ĠGOD":11676,"ĠDouble":11677,"ĠDinic":11678,"Ġdenom":11679,"Ġungetc":11680,"Ġ#\"<<":11681,"exception":11682,"ube":11683,"aya":11684,"Ġarri":11685,"539":11686,"Ġrepde":11687,".......................":11688,"Ġreadll":11689,"sser":11690,"///===":11691,"ĠERR":11692,"ĠEGCD":11693,"oken":11694,"Ġaddmodfast":11695,"epega":11696,"Ġendc":11697,"abl":11698,"Ġ660":11699,"]*=":11700,"Ġokay":11701,"Ġscope":11702,"Ġcompile":11703,"ĠprintNew":11704,"invf":11705,"563":11706,"141592653589793238463":11707,"Ġsolv":11708,"parents":11709,"281":11710,"ĠIntMaxVal":11711,"ANGE":11712,"/***********************************************/":11713,"409":11714,"State":11715,"491":11716,"Ġà¦¤":11717,"ĉĉĉĉĉĉĉĉĉĉĉĉĉĉĉĉĉĉĉĉĉĉĉĉĉĉĉĉĉĉĉĉĉĉĉĉĉĉĉĉĉĉĉĉĉĉĉĉĉĉĉĉ":11718,"uncom":11719,"Ġ------------------------------":11720,"blocked":11721,"ĠLongMaxVal":11722,"Processed":11723,"ident":11724,"Ġlpd":11725,"~~~~~~":11726,"Ġ\"#\"":11727,"ĠNumberIterator":11728,"ĠMSI":11729,"Ġbasic":11730,"Ġ404":11731,"minusone":11732,"ĠIsEqual":11733,"Ġprobab":11734,"Ġ10000019":11735,"ä»¬":11736,"Factors":11737,"MAIN":11738,"åı¯":11739,"ĠÐ¿ÑĢÐ¾":11740,"===============================================":11741,"Ġregister":11742,"ĠFREOUT":11743,"ĠRAHMAN":11744,"{{{*/":11745,"Ġ|_|\\__,_|_|":11746,"ĠPREF":11747,"//-------------------------------------------------------":11748,"Infinite":11749,"missing":11750,"ĠComplexity":11751,"]<<\",\";}":11752,"ĠMohamed":11753,"æĪĳä»¬":11754,"ĠprintNewLine":11755,"ĠRAHMANIR":11756,"\"]=":11757,"11010":11758,"1307":11759,"400010":11760,"701":11761,"811":11762,"827":11763,">_":11764,"?'":11765,"Fill":11766,"Jwb":11767,"Ly":11768,"RA":11769,"RD":11770,"USH":11771,"WXY":11772,"YiN":11773,"\\*":11774,"bab":11775,"gar":11776,"imid":11777,"jV":11778,"jYnB":11779,"lmt":11780,"nine":11781,"rang":11782,"yc":11783,"çķ":11784,"Ġ(@":11785,"Ġmr":11786,"Ġcir":11787,"Ġcustom":11788,"eng":11789,"()]);":11790,"Ġvsz":11791,"accc":11792,"Ġ\"-------":11793,"Ġints":11794,"lett":11795,"Ġ&___":11796,"Ġfar":11797,"Ġfname":11798,"Ġfpo":11799,"Ġfresh":11800,"arations":11801,"osz":11802,"ĠTAB":11803,"Ġrst":11804,"Ġrap":11805,")):":11806,"Ġkp":11807,"])]++;":11808,"ĠMult":11809,"ĠMSET":11810,"Ġ%%":11811,"Ġgya":11812,"changed":11813,"eds":11814,"ĉĉĉĉĉĠĠĊ":11815,"Ġ)/":11816,"Ġ)>>":11817,"ĠFB":11818,"Ġresz":11819,"ĠPS":11820,"Ġminv":11821,"curNode":11822,"aste":11823,"ĠRET":11824,"ĠLimit":11825,"Ġob":11826,"ĠCam":11827,"ĠDis":11828,"matic":11829,"allowed":11830,"getMax":11831,"ĠzAlgo":11832,"toInt":11833,"Ġ51":11834,"Ġ597":11835,"Ġ557":11836,"Ġ55555":11837,"ĠVi":11838,"ĠMAXINT":11839,"Ġlearn":11840,"Ġrepv":11841,"eso":11842,"Ġreadi":11843,"Ġ10005":11844,"Ġchecked":11845,"Ġputn":11846,"504":11847,"Ġvvvs":11848,"10000000000000":11849,"Ġpopf":11850,"ITS":11851,"Ġ830":11852,"Ġlowb":11853,"571":11854,"4729":11855,"Ġï¿½ï¿½ï¿½ï¿½ï¿½ï¿½.":11856,"blue":11857,"Ġ~((":11858,"Ġ------------------------------------------------------------------------------------------------":11859,"Ġ[&]()":11860,"ÑĤÑĮ":11861,"))*((":11862,"/*****************************************************/":11863,"Ġsegments":11864,"ĠBUFF":11865,"ĠFINAL":11866,"Ġanything":11867,"ĠCHMAX":11868,"ĠCHMIN":11869,"Ġwriting":11870,"ĠToString":11871,"linux":11872,"#########~~":11873,"Ġprepare":11874,"ĠABCD":11875,"ĠABCDE":11876,"ãĤĴ":11877,"ĠCASET":11878,"+--+--":11879,"ĠCanh":11880,"ĠEXPECT":11881,"ĠRAHIM":11882,"ĠSWAP":11883,"NQcWEj":11884,"Ġlittle":11885,"!=\"\"?":11886,"åĮĸ":11887,"<<\"<\"<<":11888,"UVWXY":11889,"<<\"----------------\"<<":11890,"JwbX":11891,"#__":11892,"/_":11893,"601":11894,"@ï¿½ï¿½":11895,"AJU":11896,"DA":11897,"Im":11898,"IATION":11899,"NW":11900,"Pham":11901,"TA":11902,"UInt":11903,"Upd":11904,"ared":11905,"awa":11906,"cmd":11907,"dop":11908,"equ":11909,"hol":11910,"joint":11911,"korn":11912,"methods":11913,"ober":11914,"puu":11915,"qing":11916,"rbe":11917,"rach":11918,"sir":11919,"sample":11920,"xk":11921,"xmax":11922,"zhang":11923,"ä¹":11924,"æ²":11925,"ĩåĩ":11926,"insertion":11927,"Ġiout":11928,"Ġlpair":11929,"Ġlpri":11930,"Ġlpriln":11931,"Ġmir":11932,"Ġapt":11933,"Ġnz":11934,"Ġnai":11935,"++<<\":":11936,"Ġ143":11937,"Ġpout":11938,"Ġpfr":11939,"Ġ061":11940,"Ġcmax":11941,"Ġcnd":11942,"Ġcoun":11943,"Ġ+-":11944,"ongkorn":11945,"//!":11946,"Ġvdbl":11947,"Ġvaild":11948,"achi":11949,"Ġ\"(":11950,"Ġ\">>":11951,"Ġ\">>>>>>":11952,"Ġtn":11953,"Ġtol":11954,"Ġbac":11955,"Ġbsize":11956,"Ġfprio":11957,"arcia":11958,"ection":11959,"__<<'":11960,"consts":11961,"uez":11962,"osri":11963,"ĠTE":11964,"ĠTaken":11965,"ĠTutu":11966,"Ġrans":11967,"elm":11968,"Ġ}}":11969,"odrig":11970,"Ġye":11971,"Ġrevv":11972,"seta":11973,"Ġund":11974,"Ġgy":11975,"Ġgstr":11976,"Ġgao":11977,"LLA":11978,"canhazfast":11979,"<<\"}":11980,"Ġ/|":11981,"Ġ/*********************":11982,"ĠFG":11983,"ĠFoo":11984,"Ġmaxpq":11985,"Ġtrll":11986,"Ġ300000000":11987,"ĉĉĉĉĉĉĉĉĠĠ":11988,"Ġpbc":11989,"ĠRR":11990,"ĠRodrig":11991,"ĠLen":11992,"Ġoll":11993,"Ġostat":11994,"Ġhero":11995,"ĠMODP":11996,"signal":11997,"ili":11998,"ĠCA":11999,"ĠGA":12000,"ĠGarcia":12001,"ĠDont":12002,"ĠBi":12003,"ĠBATCH":12004,"ĠBosri":12005,"allt":12006,"/*{{{*/":12007,"Ġ107":12008,")({\\":12009,"Ġretif":12010,"ĠVd":12011,"ĠVll":12012,"ĠViii":12013,"ĠVLLL":12014,"ĠLLL":12015,"Ġoutl":12016,"ĠsetDP":12017,"ĠFORX":12018,"ĠmxN":12019,"Ġpllpl":12020,"Ġreadc":12021,"ĠreadUInt":12022,"Ġoptimiza":12023,"({(":12024,"********************************/":12025,"204":12026,"Ġfrd":12027,")-=(":12028,"compare":12029,"abdelrahman":12030,"à¦¸":12031,"ĠHuu":12032,"ĠHachi":12033,"Ġputnb":12034,"hav":12035,"Ġsciii":12036,"ACT":12037,"Ġenl":12038,"Ġentry":12039,"REAJU":12040,"Ġpowmulmod":12041,"])),":12042,"sudo":12043,"Ġsubstring":12044,"Ġcanhazfast":12045,"Ġ1000001000":12046,"Ġppfr":12047,"Ġ\")\"":12048,"Ġwritei":12049,"Ġwritell":12050,"lys":12051,"brary":12052,"Ġttme":12053,"ders":12054,"raja":12055,"ikung":12056,"ĠJewel":12057,"Ġmean":12058,"mond":12059,"14159265358979323846264338327":12060,"Ġ---------------------------------":12061,"Ġctif":12062,"Ġbrif":12063,"Constants":12064,"ĠGetAns":12065,"Ġ-------------------------":12066,"ĠLongMinVal":12067,"Ġabcd":12068,"Ġabdelrahman":12069,"ĠREAY":12070,"Ġvpull":12071,"Ġvpuu":12072,"Ġqueuel":12073,"decreaseByOne":12074,"Ġfdn":12075,"âĸĢâĸĢâĸĢâĸĢâĸĦ":12076,"ĠUNDEF":12077,"ĠUNSYNC":12078,"Ġert":12079,"Ġï¿½@ï¿½ï¿½":12080,"âĸĪâĸĪâĸĪâĸĪâĸĪâĸĪâĸĪâĸĪâĸĪâĸĪâĸĪâĸĪâĸĪâĸĪâĸĪâĸĪ":12081,"Ġcalls":12082,"optimiza":12083,"141592653593":12084,"ĠCOMI":12085,"shortest":12086,"Ġvldbl":12087,"Ġwrites":12088,"Ġ2134567891":12089,"Ġftoa":12090,"Ġftoit":12091,"ĠSHOWQUEUE":12092,"ĠFRW":12093,"Ġinitialise":12094,"ĠChulal":12095,"Ġclzll":12096,"Ġappend":12097,"ĠDiego":12098,"lagbe":12099,"ĠVPd":12100,"ĠVPi":12101,"ĠVPll":12102,"ĠFLUSH":12103,"Ġabcde":12104,"Ġ******************************************/":12105,"Ġctzll":12106,"Increment":12107,"tama":12108,"Ġkhoda":12109,"Ġbsrll":12110,"ĠEXPONENT":12111,"ðŁ¦ĬðŁ¦ĬðŁ¦ĬðŁ¦Ĭ":12112,"å®ĩåĩ":12113,"ĠPAIRLL":12114,"æŀľ":12115,"chuan":12116,"Ġnpqi":12117,"Ġnpql":12118,"99999999999973":12119,"Desmond":12120,"writes":12121,"ĠWorrach":12122,"Ã¡ly":12123,"Ġwarukazu":12124,"/*******************************\\":12125,"ĠHAQUE":12126,"indromic":12127,"Ġé»Ħ":12128,"peted":12129,"1999999973":12130,"Ġpushi":12131,"Ġpriln":12132,"ĠAccpeted":12133,"Ġ\"-------\"":12134,"ĠCampo":12135,"qingchuan":12136,"zhangqingchuan":12137,"ĠRodriguez":12138,"Ġostatok":12139,"ĠHachiikung":12140,"REAJUL":12141,"ĠREAYZ":12142,"Ġï¿½@ï¿½ï¿½:":12143,"ĠCOMILLA":12144,"ĠChulalongkorn":12145,"ĠEXPONENTIATION":12146,"å®ĩåĩ¡":12147,"ĠWorrachate":12148,"Ġé»Ħå®ĩåĩ¡":12149,"/******":12150,"829":12151,"839":12152,":-(":12153,"Dot":12154,"Event":12155,"Norm":12156,"NIL":12157,"Po":12158,"Rahmanir":12159,"WS":12160,"]]));":12161,"bismillahir":12162,"ered":12163,"fg":12164,"fread":12165,"gu":12166,"gui":12167,"hit":12168,"hvf":12169,"jay":12170,"ruffle":12171,"rlimit":12172,"sst":12173,"tans":12174,"udent":12175,"vasu":12176,"wedge":12177,"yaki":12178,"~//":12179,"»å":12180,"Î±":12181,"ÏĢ":12182,"Ġ********":12183,"ĠÏĢ":12184,"inn":12185,"inx":12186,"Ġ=:":12187,"orial":12188,"onment":12189,"clare":12190,"Ġ{_":12191,"Ġcid":12192,"--);":12193,"--];":12194,"Ġsfff":12195,"//--------":12196,"Ġvasu":12197,"Ġtii":12198,"Ġtill":12199,"Ġbend":12200,"Ġbpow":12201,"Ġbakh":12202,"Ġfenwick":12203,"Ġmail":12204,"ĠTIE":12205,"Ġrtr":12206,"Ġrvi":12207,"ĠrREP":12208,"Ġrahmanir":12209,"Ġ'-');":12210,"Ġreserve":12211,"Ġkar":12212,"asya":12213,"ĠMd":12214,"Ġgd":12215,"Ġpairsort":12216,"Ġ)*/":12217,"adox":12218,"ĠFGB":12219,"ĠAux":12220,"putsi":12221,"maxk":12222,"ĠSame":12223,"ĠSha":12224,"ĠSho":12225,"ĠPSET":12226,"Ġwi":12227,"Ġwedge":12228,"curTime":12229,"ĠRang":12230,"ĠRotate":12231,"+=\",":12232,"ĠLN":12233,"ĠLP":12234,"ĠLZ":12235,"Ġcnta":12236,"Ġhvf":12237,"ĠCV":12238,"maton":12239,"Ġtoc":12240,"ĠtoDouble":12241,"ĠBlog":12242,"Ġcury":12243,"algorithms":12244,"ther":12245,"vijay":12246,"ĠisEx":12247,"ĠisDigit":12248,"ffloat":12249,"ï¿½ï¿½ï¿½ï¿½ï¿½ï¿½":12250,"ĠPIL":12251,"ĠUP":12252,"ĠUT":12253,"OCD":12254,"Ġacum":12255,"////////////////////////":12256,"589":12257,"paradox":12258,"ĠmapT":12259,"Ġsortf":12260,"nei":12261,"ness":12262,"à¦¥":12263,"ĠHNO":12264,"ĠHappy":12265,"3794":12266,"309":12267,"Ġpartial":12268,"Ġ1003":12269,"Ġenvir":12270,"163":12271,"ĠfastScan":12272,"ĠprintLine":12273,"Ġpowermod":12274,"Ġshandom":12275,"============================":12276,"100000000000000":12277,"Ġthings":12278,"suc":12279,"ularFunction":12280,"exponentiation":12281,"Ġsubmission":12282,"digu":12283,"Ġinvf":12284,"_________________":12285,"Ġpaired":12286,"msa":12287,"Ġ(((_":12288,"ĠIntMinVal":12289,"Ġubd":12290,";--(":12291,"Ġhashset":12292,"Ġhashmap":12293,"Ġexpressed":12294,"Declare":12295,"Container":12296,"Ġfastread":12297,"Compile":12298,"Ġ\"}\";}":12299,"ĠSTll":12300,"999999999":12301,"changes":12302,"offline":12303,"takemod":12304,"Ġfactorial":12305,"Ġdefining":12306,"1024000":12307,"Ġrahim":12308,"ĠSPACE":12309,"zzzz":12310,"hodox":12311,"Ġ2000006":12312,"Ġonlyunique":12313,"88888888888888888888888888":12314,"Ġ2311":12315,"Ġdau":12316,"shahidul":12317,"è¿Ļ":12318,"Ġ5000321":12319,"Ġ201103":12320,"ä»¥":12321,"Ġorthodox":12322,"Ġcuoi":12323,"ĠStarts":12324,"ĠBRUR":12325,"2000000100":12326,"artha":12327,"Ġfastpowermod":12328,"Ġgreat":12329,"Ġ300009":12330,"satyaki":12331,"Ġeulertotient":12332,"Ġoiint":12333,"Ġquitters":12334,"Rahim":12335,"æĹ¶éĹ´":12336,"Ġoperations":12337,"'}},{{'":12338,"é¢ĺæĦı":12339,"eulers":12340,"åıĺéĩı":12341,"Ġtitose":12342,"ĠJanartha":12343,"Ġsquare":12344,"ĠÏĢÎ±":12345,"ĠShahidul":12346,"ĠRangpur":12347,"Ġenvironment":12348,"Ġorthodoxparadox":12349,"!\";":12350,"-+":12351,"397":12352,"868":12353,"Ask":12354,"FIO":12355,"LN":12356,"Memory":12357,"OON":12358,"Poly":12359,"Sl":12360,"Temp":12361,"TAK":12362,"Wunused":12363,"Wmissing":12364,"]'":12365,"_){":12366,"aj":12367,"affect":12368,"cod":12369,"een":12370,"erest":12371,"msi":12372,"qC":12373,"tos":12374,"tqu":12375,"xFFFFFFFFFFFFFF":12376,"yw":12377,"±Ã":12378,"å¿":12379,"æŃ":12380,"Ġ@@@":12381,"Ġirep":12382,"Ġ112":12383,"Ġpnn":12384,"Ġcgh":12385,"Ġcmd":12386,"Ġ<<'":12387,"Ġ+--":12388,"ansi":12389,"Ġtf":12390,"Ġbpp":12391,"Ġborder":12392,"Ġdar":12393,"mpow":12394,"ĠTLE":12395,"masu":12396,"Ġ==(":12397,"Ġymin":12398,"Ġkv":12399,"ither":12400,"Ġpairl":12401,"ĉĉĉĉĉĠĊ":12402,"<=___":12403,"),__":12404,"ĠNDEBUG":12405,"ĠNCR":12406,"adur":12407,"Ġeof":12408,"Ġeval":12409,"ĠPP":12410,"Ġmind":12411,"ĠminHeap":12412,"649":12413,"ĠRs":12414,"ĠLs":12415,"ĠLow":12416,"sumB":12417,"Ġhate":12418,"ĠColl":12419,"ĠDY":12420,"]]<<":12421,"ĠIII":12422,"ĠBir":12423,"Ġzn":12424,"Ġzwr":12425,"-----------------":12426,"ĠVLL":12427,"ĠMAXI":12428,"ĠrepA":12429,"ĠFORS":12430,"Ġ--+":12431,"Ġmxe":12432,"tmpv":12433,"///********************************":12434,"Ġnemat":12435,"compose":12436,"5863":12437,"abin":12438,"Inf":12439,"ALAM":12440,"Ġ67":12441,"direction":12442,"Ġexplicit":12443,"ĠKings":12444,"ĠKazakhstan":12445,"ĠKALAM":12446,"Ġhighest":12447,"Ġ1007":12448,"387":12449,"Ġprintii":12450,"Ġshl":12451,"Ġbeen":12452,"Ġnextp":12453,"scf":12454,"]>'":12455,"vvb":12456,"hard":12457,"592":12458,"270":12459,"Ġppap":12460,"Ġ(;(":12461,"fastread":12462,"Ġbsl":12463,"ETCH":12464,"4713":12465,"Ġgenrate":12466,"ĠPRIME":12467,"EMESH":12468,"Ġ\")\";}":12469,"691":12470,"Ġlnf":12471,"0000000100":12472,"ĠAnswer":12473,"DataOut":12474,"ĠimprimirVector":12475,"/**************************************************************":12476,"rund":12477,"ĠGETB":12478,"IGMA":12479,"_.__":12480,"Ġletter":12481,"Ġanyway":12482,"_______,":12483,"Ġroom":12484,"1333":12485,"ĠToStr":12486,"Ġ'+';":12487,"nvj":12488,"ĠDebugger":12489,"Ġ1000000000000000005":12490,"Ġpeat":12491,"åĲĮ":12492,"tember":12493,"ĠØ§ÙĦÙĦ":12494,"COUNT":12495,"ĠÐ¿ÐµÑĢ":12496,"Complexity":12497,"DiffPf":12498,"Ġ987654321":12499,"Ġ'>';":12500,"Ġ'<';":12501,"=========////":12502,"BOEB":12503,"Ġlabel":12504,"ĠOLBOEB":12505,"ĠKnights":12506,"]==')')":12507,"Ġ\"[]\"":12508,"ÙĬÙħ":12509,"Ġtopological":12510,"Ġ==========================================////":12511,"declarations":12512,"âłĢâłĢâłĢâłĢâłĢâłĢâłĢ":12513,"atMeScanf":12514,"Ġhastam":12515,"å¦Ĥæŀľ":12516,"ĠPREFETCH":12517,"Ġ555557":12518,"æ²¡":12519,"iliary":12520,"msawy":12521,"eresting":12522,"xFFFFFFFFFFFFFFFL":12523,"Ġcghf":12524,"Ġzwraca":12525,"EMESHOON":12526,"\"},":12527,"']==":12528,")...);":12529,"*--":12530,"477":12531,"863":12532,"April":12533,"Calc":12534,"Error":12535,"HH":12536,"KMP":12537,"LPS":12538,"March":12539,"NIT":12540,"Nah":12541,"Score":12542,"]/(":12543,"dom":12544,"hu":12545,"ively":12546,"pitem":12547,"ufo":12548,"|)":12549,"}]++;":12550,"intd":12551,"Ġip":12552,"Ġlm":12553,"009":12554,"Ġpque":12555,"ury":12556,"amps":12557,"Ġtll":12558,"Ġtip":12559,"Ġtang":12560,"Ġttake":12561,"ately":12562,"Ġmade":12563,"Ġrout":12564,"Ġray":12565,"Ġ'-',":12566,"))>":12567,"))]);":12568,"setup":12569,"ĠMou":12570,"Ġ<=(":12571,"pushdown":12572,"ĠFK":12573,"opencv":12574,"Ġmaxm":12575,"isupper":12576,"ĠSuf":12577,"ĠSYNC":12578,"ĠSingh":12579,"ĠSPBR":12580,"Ġ_______":12581,"ĉĉĉĉĉĉĉĉĠĊ":12582,"minm":12583,"fsum":12584,"ĠLocal":12585,"Ġoh":12586,"(){__":12587,"ĠCT":12588,"Ġldd":12589,"Ġtostring":12590,"ĠBah":12591,"Ġadded":12592,"ĠisWhitespace":12593,"Ġoutarr":12594,"arthest":12595,"Ġstrip":12596,"1228":12597,"2017":12598,"Ġfrab":12599,"ĠEgor":12600,"ĠEnglish":12601,"Ġtempl":12602,"330":12603,"aban":12604,"abbb":12605,"à¦ľ":12606,"ĠKhat":12607,"ĠKulikov":12608,"Ġgoes":12609,"ghjkl":12610,"]+='":12611,"77216":12612,"Ġpopcount":12613,"Ġspf":12614,"1415926535897932385":12615,"141592653589793238510":12616,"Ġ2012":12617,"Ġ'<<__":12618,"Ġdisco":12619,"Ġlbd":12620,"Ġtmd":12621,"bruary":12622,"Ġ','":12623,"/************************************/":12624,"Ġ');\\":12625,"negat":12626,"blk":12627,"Ġà¦¦":12628,"ĠForE":12629,"3001":12630,"ĠMININT":12631,"ĠreadIntArray":12632,"multipleTestMode":12633,"Ġ1000000033":12634,"ffffffff":12635,"intervals":12636,"Ġwhole":12637,"ĠGETM":12638,"Ġraj":12639,"zza":12640,"Algorithm":12641,"ĠPRINTM":12642,"ĠDEBA":12643,"Ġscnll":12644,"Ġwritten":12645,"Ġfeel":12646,"Ġcubic":12647,"ĠFordE":12648,"CLionProjects":12649,"/*****************************************/":12650,"ĠIFDEB":12651,"è¡Į":12652,"ĠRaj":12653,"Ġ********************************************/":12654,"Ġrequired":12655,"ĠBanga":12656,"Ġ'<')":12657,"å°ıçļĦ":12658,"Ġ????":12659,"14159265358979323846264338327950288419716939937510582097494459230":12660,"Ġ\"[]\";":12661,"ä¼ĺ":12662,"Ġrectangle":12663,"ĠPrintVl":12664,"bbbbbbbbbbbbbbb":12665,"irected":12666,"**************************//":12667,"besmellah":12668,"ĠHossain":12669,"ĠInvMod":12670,"åľ¨":12671,"Ġsatis":12672,"Ġtraversal":12673,"February":12674,"TXT":12675,"January":12676,"Ġ**********/":12677,"///**********************************************************//":12678,"Nahid":12679,"ĠBahadur":12680,"ĠKhatri":12681,"bbbbbbbbbbbbbbbll":12682,"\"[]":12683,"&((":12684,")]==":12685,"130":12686,"500001":12687,"628":12688,"Dim":12689,"DtoU":12690,"June":12691,"Jewel":12692,"LtoR":12693,"Language":12694,"November":12695,"Oh":12696,"RtoL":12697,"SI":12698,"User":12699,"WH":12700,"]--)":12701,"aN":12702,"aX":12703,"au":12704,"but":12705,"blo":12706,"dor":12707,"dan":12708,"fetcher":12709,"hel":12710,"iit":12711,"istr":12712,"jat":12713,"mcmf":12714,"pfl":12715,"rj":12716,"sze":12717,"vtr":12718,"wn":12719,"wski":12720,"ych":12721,"¨æĦı":12722,"å½":12723,"çĶ":12724,"Ġcloc":12725,"dered":12726,"inear":12727,"Ġlnd":12728,"Ġmne":12729,"Ġast":12730,"++=":12731,"Ġ1500":12732,"Ġpaa":12733,"oudh":12734,"ought":12735,"()?":12736,"//____":12737,"atsub":12738,"][\"":12739,"Ġxf":12740,"Ġxwb":12741,"Ġdabl":12742,"Ġfetcher":12743,"sist":12744,"zegor":12745,"zewski":12746,"constr":12747,"uev":12748,"Ġyc":12749,"Ġymax":12750,"##=":12751,"Ġreu":12752,"chs":12753,"*************":12754,"Ġindeg":12755,"<<\"#":12756,"Ġconn":12757,"Ġconti":12758,"Ġconstruct":12759,"));++":12760,"Ġprivate":12761,"Ġmodr":12762,"--------//":12763,"ĠStop":12764,"unzipper":12765,"Ġ324":12766,"Ġmina":12767,"aster":12768,"')>(":12769,"Ġsta":12770,"Ġmpdi":12771,"Ġchosen":12772,"1129":12773,"ĠDiv":12774,"\")<<":12775,"âĸĳâĸĳâĸĢ":12776,"Ġtogether":12777,"fraid":12778,"Ġ'\\'":12779,"like":12780,"toD":12781,"Ġ5100000":12782,"Ġaddedge":12783,"ĠisF":12784,"320":12785,"ĠrepD":12786,"ĠAryan":12787,"ocument":12788,"FORR":12789,"okay":12790,"Ġ100007":12791,"Ġdebugp":12792,"findSet":12793,"<<'='":12794,"parareru":12795,"1415926358":12796,"ĠHe":12797,"ĠKey":12798,"ĉĉĉĉĉĉĉĠĊ":12799,"Ġbitcnt":12800,"ĠnewBuf":12801,"ĠnewBufSize":12802,"1992":12803,"sure":12804,"Points":12805,"expect":12806,"shrink":12807,"Ġmsb":12808,"lcs":12809,"newBufSize":12810,"bufSize":12811,"bufAt":12812,"60287":12813,"Ġlibrary":12814,"IZATION":12815,"]<<((":12816,"Ġdifferent":12817,"Ġrdv":12818,"****************************************************************/":12819,")((*":12820,"ĠJHELPER":12821,"661":12822,"ĠÐ¼":12823,"Ġkeymod":12824,"Ġ1548":12825,"ä¸²":12826,"Ġ---------------------":12827,"ĠMINLL":12828,"]=='.'&&":12829,"////////////////////////////////////////////////////////////////////////////////":12830,"200020":12831,"Ġnaame":12832,"cbc":12833,"[_]<<\"":12834,");--(":12835,"ĠceilDiv":12836,"99709":12837,"segments":12838,"ĠRepd":12839,"Ġrght":12840,"NNNNNNNN":12841,"Ġprimelist":12842,"Ġappro":12843,"Ġ200009":12844,"ĠBSBandme":12845,"ĠToNumber":12846,"Ġorth":12847,"ĠChoudh":12848,"åĲİ":12849,"Ġpositions":12850,"ĠStartPoint":12851,"_______________\\":12852,"ELEM":12853,"aniel":12854,"Ġdefinition":12855,"hanad":12856,"718281828459045235360287":12857,"ĠGrzegor":12858,"Optimizations":12859,"December":12860,"October":12861,"FAIL":12862,"August":12863,"Ð¢Ð":12864,"æ³¨æĦı":12865,"ÐµÐ¼ÐµÐ½":12866,"July":12867,"BISMILLAHIR":12868,"September":12869,"//*************************************************************************************":12870,"èĬĤçĤ¹":12871,"sirjan":12872,"ĠAuxiliary":12873,"ĠMouhanad":12874,"\"[]:":12875,"DimDice":12876,"atsuba":12877,"ĠStopWatch":12878,"ĠChoudhary":12879,"7182818284590452353602874713":12880,"ĠGrzegorzewski":12881,",};":12882,",[](":12883,".*":12884,"224":12885,"453":12886,"631":12887,"<-":12888,"=;":12889,"Bach":12890,"BFS":12891,"Cell":12892,"Document":12893,"He":12894,"Hull":12895,"Man":12896,"RARY":12897,"Total":12898,"Vi":12899,"bn":12900,"catch":12901,"erep":12902,"gd":12903,"imax":12904,"kil":12905,"qc":12906,"{\";":12907,"}])":12908,"~((":12909,"¥¤":12910,"à¥¤":12911,"ç±":12912,"ĠWW":12913,"ĠÙĬ":12914,"įæĿ":12915,"stable":12916,"rel":12917,"Ġlwb":12918,"Ġmol":12919,"Ġafraid":12920,"Ġppll":12921,"Ġ04":12922,"()[":12923,"()});":12924,"//**":12925,"aman":12926,"amos":12927,"];++":12928,"atile":12929,"Ġxm":12930,"ĠTer":12931,"ĠTEMPLATE":12932,"Ġruntime":12933,"Ġ'<<#":12934,"spr":12935,"utor":12936,"ĠkStack":12937,"Ġansl":12938,"Ġansx":12939,"ĠMark":12940,"ĠMMS":12941,"Ġgn":12942,"Ġgame":12943,"),(-(":12944,"ĠNMAX":12945,"ĠFit":12946,"ĠAT":12947,"ots":12948,"())){":12949,"=(_":12950,"curans":12951,"ĠRMQ":12952,"Ġhur":12953,"posite":12954,"Ġgetheight":12955,"ĠGPP":12956,"ĠDMAX":12957,"ĠDuy":12958,"Ġdem":12959,"Ġdenominator":12960,"Ġdeleted":12961,"Ġpiip":12962,"ĠBasicInteger":12963,"ĠBeng":12964,"getm":12965,"ceed":12966,"323":12967,"html":12968,"ĠLLMAX":12969,"rock":12970,"Ġstrings":12971,"âĸĢâĸĦâĸĦâĸĦâĸĦ":12972,"ecutor":12973,"Ġ664":12974,"diam":12975,"diameter":12976,"]!='.')":12977,"371":12978,"3759":12979,"Ġparity":12980,"LEGE":12981,"ĠInverse":12982,"ĠpowMM":12983,"Ġclf":12984,"Ġcln":12985,"ĉĉĉĉĉĉĉĉĉĉĉĉĠĠ":12986,"ĠsegTree":12987,"vvv":12988,"pai":12989,"yyy":12990,"marker":12991,"Ġpai":12992,"5002":12993,"doit":12994,"tek":12995,"prints":12996,"__,#__":12997,"Ġindexes":12998,"Ġmts":12999,"/****************************************************************************************************************************************************************":13000,"=\"{\";":13001,"revpro":13002,"ĠZL":13003,"NDS":13004,"Ġ1299709":13005,"Exception":13006,"Ġvpdd":13007,"---.":13008,"FUNCTIONS":13009,"ĠRepr":13010,"Ġcpy":13011,"+=\"}\";":13012,"GLOBAL":13013,"Ġworst":13014,"Ġroad":13015,"]=='*'":13016,"StopWatch":13017,"141592653589793116":13018,"LIBRARY":13019,"ĠVVL":13020,"Before":13021,"ĠExecutor":13022,"Ġatoz":13023,"Space":13024,"~~~~~~~~~~~~~~~~":13025,"ĠValue":13026,"BOY":13027,"bridges":13028,"ABCDEF":13029,"æŀĲ":13030,"ĠFlagship":13031,">((_":13032,"^_^)":13033,"Ġtopology":13034,"ĠChief":13035,"åĪĨæŀĲ":13036,"OPTIMIZATION":13037,"ĠOrdered":13038,"Ġbusy":13039,"STARK":13040,"æ²¡æľī":13041,"ä¼ĺåĮĸ":13042,"Ġ15485863":13043,"Documents":13044,"ĠkStackSize":13045,"ĠBengali":13046,"LEGENDS":13047,"\"<<\"":13048,"ADD":13049,"Bear":13050,"DX":13051,"Deg":13052,"Day":13053,"GH":13054,"GHI":13055,"LDecomposition":13056,"RES":13057,"SCC":13058,"Tour":13059,"create":13060,"finv":13061,"fold":13062,"fenwick":13063,"ju":13064,"jmp":13065,"lk":13066,"npair":13067,"pj":13068,"sgt":13069,"tll":13070,"van":13071,"wz":13072,"wah":13073,"xhalf":13074,"âļ":13075,"å¾":13076,"Ġ)),":13077,"ĠâĪ":13078,"incr":13079,"repp":13080,"Ġivector":13081,"Ġiostream":13082,"defines":13083,"Ġlos":13084,"Ġlvector":13085,"Ġmci":13086,"Ġmms":13087,"Ġmill":13088,"Ġnf":13089,"Ġnor":13090,"Ġcmin":13091,"()<<'\\":13092,"ĉĉĉĉĠĠĠĊ":13093,"Ġssync":13094,"Ġsot":13095,"..;;":13096,"outdist":13097,"Ġ\"!!!\"":13098,"amid":13099,"Ġtmax":13100,"erate":13101,"Ġxhalf":13102,"Ġ&__":13103,"Ġdin":13104,"Ġmad":13105,"Ġ*&":13106,"::......":13107,"ĠTZ":13108,"ĠTe":13109,"ĠTCase":13110,"Ġrforeach":13111,"elapsed":13112,"Ġ210":13113,"],*":13114,")));}":13115,"Ġansr":13116,"ashe":13117,"])&&":13118,"ĠMMMMMMMM":13119,"(),_":13120,"INOUT":13121,"ĠACC":13122,"maxlen":13123,"1010000":13124,"/////":13125,"ĠSY":13126,"ĠPPC":13127,"unzip":13128,"Ġarcy":13129,"Ġwn":13130,"ĉĉĉĉĉĉĉĉĉĉĊ":13131,"____,":13132,"cury":13133,"mins":13134,"Ġhapp":13135,"ĠgetC":13136,"ĠGold":13137,"ĠDeb":13138,"Ġunq":13139,"EPB":13140,"â£¿â£¿â£¿â£·":13141,"Ġsumr":13142,"ESP":13143,"NOPQ":13144,"/*---------------------------":13145,"Ġ1057":13146,"coll":13147,"ĠoutV":13148,"267":13149,"________,":13150,"closed":13151,"Ġ--(":13152,"'.'":13153,"ĠUSET":13154,"');\\":13155,"]=='<":13156,")+\"]":13157,"âłĭ":13158,"Ġbugc":13159,"ĠHamir":13160,"ĠHARSHAD":13161,"223456":13162,"reading":13163,"Ġbitch":13164,"Ġadjust":13165,"Ġsimple":13166,"ngle":13167,"Ġcolumn":13168,"milliseconds":13169,"ĉĉĉĉĉĉĉĉĉĉĉĉĉĉĉĉĉ":13170,"Ġsubmodfast":13171,"5003":13172,"Ġpqll":13173,")==\"":13174,"sml":13175,"myostream":13176,"Ġalone":13177,"Ġexpect":13178,"Ġupdmax":13179,"cumu":13180,"Ġ1234567":13181,"Ġlogceil":13182,"+++++":13183,"Composite":13184,"______________,":13185,"ĠINDIA":13186,"Reverse":13187,"Ġ'*'){":13188,"Ġ100000009":13189,"à¦¾à¦":13190,"*****************************************/":13191,"Ġbegtime":13192,"Ġfactorization":13193,"ĠFastInv":13194,"Ġboy":13195,"Alpha":13196,"Ġ2000005":13197,"Ġsbt":13198,"ĠBUFSIZE":13199,"nuke":13200,"Ġ(#_":13201,"Ġ(#_)":13202,"tariqul":13203,"Ġ(&__":13204,"=============":13205,"__________.":13206,"SHAL":13207,"Ġvtll":13208,"ĠStruct":13209,"å¤įæĿ":13210,"goals":13211,"Ġsetbitc":13212,"Ġ*********************************************/":13213,"ĠNXPOW":13214,"JKLM":13215,"Ġmakeitnumber":13216,"Ġcontains":13217,"------------------------------------*/":13218,"Ġraichu":13219,"///------------------------------------------------------------":13220,"IFD":13221,"ĠCaseT":13222,"ðŁĲ¹ðŁĲ¹ðŁĲ¹ðŁĲ¹":13223,"ĠSWS":13224,"ĠShort":13225,"Ġà¦Ĩà¦Ľ":13226,"Ġ=================================================================":13227,"Ġcoprime":13228,"ĠUSEPB":13229,"?\"\":\"":13230,"RSTUVWXY":13231,"ĠDigvijay":13232,"Ġdreams":13233,"Elem":13234,"ÑģÐ»Ð¸":13235,"Ġgamma":13236,"Ġoverrides":13237,"positif":13238,"ĠÐµÑģÐ»Ð¸":13239,"Ġ23111992":13240,"negatif":13241,"ABCDEFGHI":13242,"âļ¡":13243,"ĠâĪª":13244,"NOPQRSTUVWXY":13245,"ĠUSETR":13246,"ĠHamirpur":13247,"ĠFastInvSqrt":13248,"å¤įæĿĤ":13249,"JKLMNOPQRSTUVWXY":13250,"ABCDEFGHIJKLMNOPQRSTUVWXY":13251,"ABCDEFGHIJKLMNOPQRSTUVWXYZ":13252,"-__":13253,"617":13254,"?')":13255,"FLL":13256,"Hello":13257,"Push":13258,"RAD":13259,"aprime":13260,"bat":13261,"fer":13262,"jb":13263,"kN":13264,"kn":13265,"kas":13266,"nal":13267,"pld":13268,"qa":13269,"rout":13270,"ras":13271,"ually":13272,"vn":13273,"vus":13274,"zai":13275,"{*":13276,"·¦":13277,"Øª":13278,"åŃ":13279,"ĠÑ":13280,"Ġ......":13281,"ĠâĸĪâĸĪâķĹ":13282,"Ġ------------":13283,"Ĳæ":13284,"Ġib":13285,"Ġaka":13286,"Ġnfor":13287,"Ġpfi":13288,"Ġppow":13289,"oul":13290,"Ġcou":13291,"Ġcarr":13292,"Ġvst":13293,"Ġvol":13294,"Ġ\"*\";":13295,"ands":13296,"Ġtans":13297,"att":13298,"erber":13299,"++));":13300,"Ġ&>::":13301,"Ġ*--":13302,"){_":13303,"==_":13304,"Ġrmin":13305,"Ġllf":13306,"Ġ'$":13307,"uture":13308,"Ġforl":13309,"Ġmainstream":13310,"chosen":13311,"ĠAn":13312,"ĠAx":13313,"ĠAli":13314,"ĠAlso":13315,"ressive":13316,"ĠRAD":13317,"Ġcntb":13318,"Ġstp":13319,"Ġstold":13320,"Ġgetm":13321,"Ġgetar":13322,"ĠCpC":13323,"Ġallcomp":13324,"ĠDAS":13325,"ĠDCD":13326,"ĠDCL":13327,"--;)":13328,"Ġunions":13329,"precd":13330,"Ġzxc":13331,"/*#################################################################################################################":13332,"Ġself":13333,"ARR":13334,"Ġmemn":13335,"ayed":13336,"Ġison":13337,"inserter":13338,"Ġviz":13339,"ĠOS":13340,"Ġ\\__":13341,"ĠoutN":13342,"ĠoutAN":13343,"road":13344,"ĠPIPII":13345,"structure":13346,"Ġ100003":13347,"','.'},{'":13348,"88888888888888":13349,"fastInOut":13350,"Ġabso":13351,"Ġdbputs":13352,"âĸĦâĸĪ":13353,"Ġhepic":13354,"Ġdibs":13355,"segTree":13356,"ĠfastP":13357,"__)<<\"\\":13358,"Ġnewnode":13359,"Ġmytype":13360,"Ġsubsize":13361,"ĠALLOC":13362,"DED":13363,"289":13364,"ording":13365,"88888888888888888888":13366,"answers":13367,"0000001":13368,"ĠZI":13369,"ĠZP":13370,"ĠZS":13371,"Ġmatmul":13372,"UNSYNC":13373,"ĠPrintA":13374,"ĠPrintAl":13375,"683":13376,"Ġtopr":13377,"ÐµÑģ":13378,"Ġ15000000":13379,"Ġsoclose":13380,"Ġpdl":13381,"ĠvpDD":13382,"Ġbacking":13383,"ÑĤÐ°":13384,"Ġopenin":13385,"Ġopenout":13386,"matches":13387,"Ġtried":13388,"Ġtisic":13389,"normal":13390,"loads":13391,"141592653589793238462643383279502884":13392,"Ġactual":13393,"soma":13394,"ĠTESTSI":13395,"Unique":13396,"jdk":13397,"Ġ****************************":13398,"ĠDLS":13399,"ĠDLX":13400,"âĸĪâĸĪâĸĪâĸĪâĸĪâĸĪâĸĪâķĹ":13401,"labels":13402,"AAAAAAAA":13403,"SpeedForce":13404,"Ġstress":13405,"ĠDSL":13406,"#################################################################################################################*/":13407,"virus":13408,"///*....":13409,"...............................................":13410,"Ġkhodaa":13411,"ĠELEM":13412,"Corvus":13413,"ĠPPIIPII":13414,"Ġallrevcomp":13415,"Ġcells":13416,"/***********************************************************************/":13417,"Ġkaratsuba":13418,"construct":13419,"Ġ105727":13420,"ĠStructure":13421,"ĠShortcut":13422,"Ġ==========================================================================":13423,"å¤įæĿĤåº¦":13424,"erberus":13425,"ĠCpCm":13426,"\"[++":13427,"+\");":13428,"126":13429,"450":13430,"529":13431,"Bis":13432,"CX":13433,"GITS":13434,"Mind":13435,"Match":13436,"Nd":13437,"OFF":13438,"Pa":13439,"Pri":13440,"ScopeTimer":13441,"\\__,":13442,"]},":13443,"cel":13444,"cLazy":13445,"far":13446,"fii":13447,"fgh":13448,"ging":13449,"hdsh":13450,"kd":13451,"must":13452,"ostr":13453,"obuf":13454,"pse":13455,"ssync":13456,"snk":13457,"vint":13458,"yFree":13459,"Ġë":13460,"ŀĭ":13461,"ŃÃł":13462,"Ġpic":13463,"ouse":13464,"Ġcould":13465,"fort":13466,"()*(":13467,"Ġ<<<<":13468,"returns":13469,"Ġslow":13470,"Ġsark":13471,"Ġsample":13472,"Ġvrit":13473,"acum":13474,"acaba":13475,"Ġ\")<<":13476,"amen":13477,"Ġbro":13478,"convert":13479,"irtu":13480,"Ġfii":13481,"osition":13482,"Ġrval":13483,"Ġrain":13484,"Ġforq":13485,"Ġforrr":13486,"Ġrepb":13487,"....*/":13488,"Ġks":13489,"proc":13490,"ĠMerciful":13491,"Ġ|((":13492,"pushup":13493,"ĠmodIn":13494,"ĠmodExpo":13495,"maxVal":13496,"Ġqtd":13497,"iso":13498,";}///":13499,"Ġ316":13500,"0000000001":13501,"ĠROO":13502,"')&&":13503,"Ġchmod":13504,"Ġchrs":13505,"sumr":13506,"Ġhit":13507,"ĠCor":13508,"ĠCUR":13509,"ĠGY":13510,"Ġunder":13511,"Ġtoadd":13512,"lens":13513,"alll":13514,"getv":13515,"mxn":13516,"Ġseems":13517,"Ġ501":13518,"(!)":13519,"Ġisch":13520,"Ġisalpha":13521,"inputf":13522,"Ġ4996":13523,"imi":13524,"100111":13525,"ĠrepR":13526,">&,":13527,"occur":13528,"///******************************************":13529,"oktama":13530,"MODULO":13531,"5095":13532,"ĠREPI":13533,"Ġoka":13534,"Ġdiag":13535,"chrs":13536,"Ġ10010":13537,"465":13538,"Ġcounting":13539,"Ġbekid":13540,"ĠnewNode":13541,"ĠWill":13542,"combin":13543,"1000000000000":13544,"Ġmylittle":13545,"Ġsqrts":13546,"currL":13547,"Ġsoln":13548,"178":13549,"Ġ1000007":13550,"Ġcalcul":13551,"Ġversion":13552,"ANC":13553,"Ġrevpr":13554,")?-(":13555,"raft":13556,"raand":13557,"myistream":13558,"âĶĢâĶĢâĸĪ":13559,"Ġupdmin":13560,"Dell":13561,"Ġ1234":13562,"ĠDIVI":13563,"Ġloopr":13564,"ä¸ĭ":13565,"Ġabout":13566,"Ġsoma":13567,"Ġquick":13568,"Ġshortcuts":13569,"âĢĿ":13570,"ãģ«":13571,"Ġpatkan":13572,"verso":13573,"Ġtransposed":13574,"ĠReverse":13575,"Ġlolo":13576,"Ġ\"!(!":13577,"DIS":13578,"ĠNumberToString":13579,"ĠÃŃÃł":13580,"Ġbasis":13581,"loadyFree":13582,"Ġutil":13583,"__________\\":13584,"Ġbelong":13585,"cstdarg":13586,"ĠLSB":13587,"gonal":13588,"Ġortho":13589,"ĠChange":13590,"ĠPLPLL":13591,"ĠrelaxMax":13592,"ĠrelaxMin":13593,"Prefix":13594,"Ã¥ÃŃ":13595,"Ġ':'":13596,"feof":13597,"BigInt":13598,"------------------------------------->":13599,"Ġmaybe":13600,"!!!!!!!!":13601,"Ġcards":13602,"ĠGenerator":13603,"æī¾":13604,"Ġratoz":13605,"Multiply":13606,"ĠCAKE":13607,"»åŀĭ":13608,"ĠSameh":13609,"ĠisExhausted":13610,"æĹ¶éĹ´å¤įæĿĤåº¦":13611,"ĠÐ¿ÐµÑĢÐµÐ¼ÐµÐ½":13612,"Ġ'\\'';":13613,"ç±»åŀĭ":13614,"Ġ------------>":13615,"Bisnu":13616,"Ġsarkar":13617,"Ġ\")<<*":13618,"ĠmodInverso":13619,"ĠÐ¿ÐµÑĢÐµÐ¼ÐµÐ½Ð½":13620,"(/":13621,",#":13622,"633":13623,"859":13624,"943":13625,"937":13626,">().":13627,"Akikaze":13628,"Anton":13629,"Best":13630,"Clear":13631,"Done":13632,"Flag":13633,"ISHAL":13634,"KAZ":13635,"MR":13636,"Mur":13637,"Py":13638,"Sign":13639,"Sieve":13640,"Will":13641,"[(*":13642,"city":13643,"nid":13644,"udo":13645,"vid":13646,"}},":13647,"ÐĴ":13648,"Ġ]);":13649,"ĠÑĤÐ¾":13650,"Ġatt":13651,"Ġapply":13652,"++);}":13653,"Ġ01":13654,"oud":13655,"Ġcast":13656,"Ġcour":13657,"Ġsch":13658,"Ġvw":13659,"acy":13660,"acbb":13661,"Ġtle":13662,"Ġbh":13663,"Ġbaki":13664,"Ġfg":13665,"Ġfuel":13666,"sijo":13667,"==*\\":13668,"Ġja":13669,"Ġrj":13670,"typedefs":13671,"hij":13672,"Ġ'=":13673,"Ġ'='":13674,"))+(":13675,"Ġansy":13676,"Ġufo":13677,"ĠMARS":13678,"Ġgold":13679,"Ġ,-":13680,"]=!":13681,"ĠAS":13682,"Ġmaxs":13683,"ĠPal":13684,"ote":13685,"())=='\\":13686,"undefined":13687,"Ġarsijo":13688,"Ġwould":13689,"ĉĉĉĉĉĉĉĉĠĠĠĉĉĉ":13690,"curt":13691,"iosfwd":13692,"Ġdpt":13693,"igger":13694,"ĠCmp":13695,"ĠGO":13696,"ĠDESP":13697,"emies":13698,"ĠBx":13699,"ĠBar":13700,"ĠcurL":13701,"Ġcurx":13702,"Ġza":13703,"that":13704,"Ġvip":13705,"ĠVB":13706,"Ġrepst":13707,"flw":13708,"Ġpreci":13709,"actual":13710,"2015":13711,"Ġ1000000010":13712,"veca":13713,"park":13714,"abcc":13715,"Inline":13716,"Info":13717,"Ġ66666":13718,"à¦¦":13719,"Ġmnn":13720,"ACIT":13721,"-'+":13722,"Ġspan":13723,"testcase":13724,"removed":13725,"Ġsuc":13726,"teja":13727,"Ġvln":13728,"Ġanswers":13729,"Ġtaala":13730,"Ġalgo":13731,"âĸĵâĸĪâĸĪ":13732,"Ġmatr":13733,"LeMur":13734,"ĠDIM":13735,"foi":13736,"4444":13737,"saw":13738,"='-'+":13739,"Ġï¿½ï¿½ï¿½ï¿½ï¿½ï¿½ï¿½,":13740,"wins":13741,"Ġpldld":13742,"append":13743,"pattern":13744,"calls":13745,"Ġ200002":13746,"Ġmodexp":13747,"æķ°æį":13748,"Ġ|\\__,_|":13749,"ĠOptim":13750,"iball":13751,"EXT":13752,"Coded":13753,"äºİ":13754,"ÑĥÑİ":13755,"Some":13756,"ĠARYANC":13757,"Ġtraverse":13758,"ĉĠĉĠĉĠ":13759,"WISE":13760,"512000000":13761,"Defines":13762,"ĠSUB":13763,"ĉĉĉĉĉĉĉĉĉĉĉĉĉĉĉĉĉĉĉĉĉĉĉĉĉĉĉĉĉĉĉĉĉĉĉĉĉĉĉĉĉĉĉĉĉĉĉĉĉĉĉĉĉĉĉĉĉĉĉĉĉĉĉĉĉĉĉĉĉĉĉĉĉĉĉĉĉĉĉĉĉĉĉĉĉĉĉĉĉĉĉĉĉĉĉĉĉĉĉĉĉĉĉĉĉĉĉĉĉĉĉĉĉĉĉĉĉĉĉĉĉĉĉĉĉĉĉĉĉĉĉĉĉĉĉĉĉĉĉĉĉĉĉĉĉĉĉĉĉĉĉĉĉĉĉĉĉĉĉĉĉĉĉĉĉĉĉĉĉĉĉĉĉĉĉĉĉĉĉĉĉĉĉĉĉĉĉĉĉĉĉĉĉĉĉĉĉĉĉĉĉĉĉĉĉĉĉĉĉĉĉĉĉĉĉĉĉĉĉĉĉĉĉĉĉĉĉĉĉĉĉĉĉĉĉĉĉĉĉĉĉĉĉĉĉĉĉĉĉĉĉĉĉĉĉĉĉĉĉĉĉĉĉĉĉĉĉĉĉĉĉĉĉĉĉĉĉĉĉĉĉĉĉĉĉĉĉĉĉĉĉĉĉĉĉĉĉĉĉĉĉĉĉĉĉĉĉĉĉĉĉĉĉĉĉĉĉĉĉĉĉĉĉĉĉĉĉĉĉĉĉĉĉĉĉĉĉĉĉĉĉĉĉĉĉĉĉĉĉĉĉĉĉĉĉĉĉĉĉĉĉĉĉĉĉĉĉĉĉĉĉĉĉĉĉĉĉĉĉĉĉĉĉĉĉĉĉĉĉĉĉĉĉĉĉĉĉĉĉĉĉĉĉĉĉĉĉĉĉĉĉĉĉĉĉĉĉĉĉĉĉĉĉĉĉĉĉĉĉĉĉĉĉĉĉĉĉĉĉĉĉĉĉĉĉĉĉĉĉĉĉĉĉĉĉĉĉĉĉĉĉĉĉĉĉĉĉĉĉĉĉĉĉĉĉĉĉĉĉĉĉĉĉĉĉĉĉĉĉĉĉĉĉĉĉĉĉĉĉĉĉĉĉĉĉĉĉĉĉĉĉĉ":13764,"ĠCHECKTIME":13765,"ÐºÐ¾Ð¼":13766,"dodge":13767,"Ġsupported":13768,"ĠSqrtM":13769,"ĠClass":13770,"Road":13771,"ĠERASE":13772,"ĠisFib":13773,"Ġorthogonal":13774,"KAZAKH":13775,"ĠDESPACIT":13776,"æķ°æį®":13777,"ĠDESPACITO":13778,"&=(":13779,"259":13780,"359":13781,"613":13782,"967":13783,">')":13784,"Anc":13785,"Bad":13786,"CIN":13787,"Dan":13788,"Fayed":13789,"Lt":13790,"LCP":13791,"Master":13792,"NS":13793,"RREP":13794,"SWS":13795,"[][":13796,"[\"<<":13797,"`'":13798,"bol":13799,"dz":13800,"ires":13801,"jG":13802,"jai":13803,"khah":13804,"lj":13805,"mg":13806,"rIterator":13807,"square":13808,"vion":13809,"walk":13810,"zhi":13811,"ªÃł":13812,"Ð·":13813,"Ġ$$":13814,"ĠÙħ":13815,"ĠÑĩ":13816,"Ġlat":13817,"selected":13818,"Ġmand":13819,"Ġmata":13820,"Ġadel":13821,"ifj":13822,"Ġcool":13823,"Ġcot":13824,"uri":13825,"Ġsli":13826,"Ġsnow":13827,"//}}}":13828,"Ġvrg":13829,"Ġ\"../":13830,"++),":13831,"Ġdg":13832,"Ġddx":13833,"uede":13834,"ĠrIterator":13835,"maks":13836,"EEGG":13837,"tiary":13838,"splay":13839,"---->":13840,"Ġrenn":13841,"Ġuhn":13842,"])<":13843,"ĠMost":13844,"Ġifact":13845,"Ġprof":13846,"Ġ/::\\":13847,"Ġeh":13848,"ĠAnik":13849,"108":13850,"Ġqv":13851,"â£¸":13852,"ĠSuper":13853,"ĠPUL":13854,"Ġtrnl":13855,"())/":13856,"())<<":13857,"Ġminy":13858,"mapp":13859,"640":13860,"640000000":13861,"Ġ//~":13862,",,::::":13863,"oman":13864,"trap":13865,"ĠDON":13866,"ĠDear":13867,"ĠDOWN":13868,"ssg":13869,"Ġsummation":13870,"/*\"":13871,"/*============================================":13872,"Ġmemmove":13873,"Ġ79":13874,"(!!":13875,"repn":13876,"Ġ49":13877,"Ġ4000":13878,"ĠObli":13879,"ĠMAXL":13880,"Ġcharact":13881,"Ġmxy":13882,"ĠUpd":13883,"ocashe":13884,"///------":13885,"ĠEG":13886,"ĠEvent":13887,"583":13888,"â¢¤":13889,"â¢°":13890,"Ġbasell":13891,"303":13892,"Ġdiameter":13893,"Ġbitput":13894,"Ġ90":13895,"â¡ı":13896,"160":13897,"Ġprintminusone":13898,"lication":13899,"nxtone":13900,"Ġtypeid":13901,"ĠWSIZE":13902,"ĠWeighted":13903,"10000000000":13904,"oba":13905,"writeDouble":13906,"doge":13907,"/**----------------------------------------------------------------":13908,"Ġdisapp":13909,"27253":13910,"keytype":13911,"keymod":13912,"Ġdoit":13913,"%%%":13914,"ForwardIterator":13915,"pwq":13916,")]\\":13917,"wek":13918,")&(-(":13919,")<<\")":13920,"ailed":13921,"Leaf":13922,"Ġproject":13923,"âĸĳâĸĳâĸĳâĸĳâĸĳâĸĳâĸĳâĸĳâĸĳâĸĳâĸĳâĸĳ":13924,"ĠCompute":13925,"ĠMiniball":13926,"CHANGE":13927,"Ġlengths":13928,"Ġ5001":13929,"Ġabove":13930,"Ġquad":13931,"ĠFILEIO":13932,"Ġ'?';":13933,"Address":13934,"Ġ(~(((":13935,"***\\":13936,"Ġstates":13937,"ĠComment":13938,"Ġpolar":13939,"Ġaccording":13940,"TOT":13941,"Ġfailure":13942,"pnts":13943,"Ġbalance":13944,"Ġ************************************************************************":13945,"jdfj":13946,"AKU":13947,"---------///":13948,"Ġtenp":13949,"IIIIIIII":13950,"ãĤĭ":13951,"â£łâ£¾":13952,"â£łâ£´":13953,"Ġitosm":13954,"Ġ|_|\\___/":13955,"â£Ħâ£Ģ":13956,"Ġcomponents":13957,"Ġdisplay":13958,"â£¼â£¿â£¿â£¿â£¿":13959,"çĽ´":13960,"khane":13961,"Ġmomocashe":13962,"Ġ\\:\\__\\":13963,"ä¼ļ":13964,"Ġ239017":13965,"ĠFiles":13966,"ĠChiho":13967,"Study":13968,"ĠnCkMp":13969,"Ġstoim":13970,"pakking":13971,"ClionProjects":13972,"stitution":13973,"Ġprobably":13974,"ĠÐ¿ÑĢÐ¾ÑģÑĤ":13975,"===============================================*/":13976,"\\*===============================================*/":13977,"çķĮ":13978,"Ġundirected":13979,"==============================":13980,"Ġsatisfy":13981,"ĠTertiary":13982,"Ġmadhav":13983,"ĠkaratsubaMultiply":13984,"Prior":13985,"pseudo":13986,"ĠROOT":13987,"ĠGYAKU":13988,"Ġadelkhah":13989,"/*==============================================*\\":13990,"ĠOblivion":13991,"Ġmomocashew":13992,"(;;":13993,"(');":13994,"237":13995,"421":13996,"757":13997,"787":13998,"879":13999,"821":14000,"?_":14001,"AE":14002,"Ann":14003,"BOND":14004,"Co":14005,"ElapsedTime":14006,"FK":14007,"IV":14008,"Lca":14009,"TEMPLATE":14010,"Vx":14011,"WER":14012,"YO":14013,"_),":14014,"card":14015,"did":14016,"fgets":14017,"hos":14018,"hlp":14019,"hfds":14020,"jK":14021,"lq":14022,"mac":14023,"met":14024,"nil":14025,"rub":14026,"vk":14027,"ymax":14028,"§½":14029,"å¼":14030,"æĸ":14031,"Ġ999":14032,"ĠÑģÑĤ":14033,"Ġ*******/":14034,"invalid":14035,"intain":14036,"Ġlu":14037,"Ġlight":14038,"sein":14039,"Ġmov":14040,"Ġnh":14041,"Ġ1229":14042,"Ġpur":14043,"Ġpime":14044,"Ġpepega":14045,"Ġsnum":14046,"Ġsparse":14047,"Ġsleep":14048,"Ġdroot":14049,"Ġdob":14050,"sibling":14051,"Ġrsum":14052,"olol":14053,">>::":14054,">>>(":14055,"],{":14056,"))>>":14057,"....*":14058,"prsp":14059,"Ġ,\";":14060,"Ġifmax":14061,"Ġifmin":14062,"<<\";":14063,"vek":14064,"Ġ/_/":14065,"Ġeu":14066,"maxs":14067,"104729":14068,"dpp":14069,"isl":14070,"ĠPar":14071,"=(-":14072,"icient":14073,"mind":14074,"GGf":14075,"igma":14076,"sumb":14077,"aka":14078,"Ġ((_":14079,"ĠGo":14080,"ĠDsu":14081,"\")<<*":14082,"MAXC":14083,"ĠBB":14084,"getbit":14085,"bsz":14086,"theta":14087,"/*âĸĦâĸĪâĸĪâĸĪâĸĪâĸĪâĸĪâĸĪâĸĢâĸĢâĸĢâĸĢâĸĢâĸĢâĸĪâĸĪâĸĪâĸĪâĸĪâĸĪâĸĪâĸĦ":14088,"Ġsell":14089,"Ġ500010":14090,"ayad":14091,"32000":14092,"Ġleap":14093,"bounds":14094,"ĠreadS":14095,"ĠreadAhead":14096,"Ġ!!!":14097,"ĠEven":14098,"ĠElapsedTime":14099,"Ġ.---.":14100,"Ġtmpc":14101,"Ġargsort":14102,"fastpower":14103,"Ġ10002000":14104,"Ġmapi":14105,"EEEG":14106,"EEEGD":14107,"columns":14108,"subsize":14109,"Ġbitn":14110,"Ġ9592":14111,"161900":14112,"=='-';":14113,"3487":14114,"facts":14115,"checks":14116,"ĠpowMod":14117,"piv":14118,"775":14119,"âĸĪâĸĪâĸĪâĸĪâĸĪâĸĪâķĹ":14120,"Ġ317":14121,"hashing":14122,"TimeEnd":14123,"TimeStart":14124,"ources":14125,"59837":14126,"ASES":14127,"Ġpqbig":14128,"Ġpqsmall":14129,"cyan":14130,"Ġperform":14131,"141592653589793238462643":14132,"âĸĵâķ¬âķ¬âķ¬âķ¬âķ¬âķ¬âķ¬âķ¬":14133,")&(-":14134,"cpeditor":14135,"ĠPRS":14136,"Ġmultiplier":14137,"141592653589793238462643383":14138,"Ġ`--'":14139,"ControlIO":14140,"Ġ16106":14141,"ĠINV":14142,"Ð°ÐµÑĤ":14143,"_________________________________________":14144,"laj":14145,"SUM":14146,"983":14147,"âĸĢâĸĢâĸĢâĸĢâĸĢâĸĢâĸĢâĸĢ":14148,"Ġblue":14149,"Ġ481129":14150,"BITWISE":14151,"impl":14152,"Colour":14153,"NNNNNN":14154,"Practice":14155,":\",\")<<*":14156,"FastRead":14157,"twos":14158,"Â¦Â":14159,"åĲĲæ":14160,"12741":14161,"programming":14162,"Ġrecursive":14163,"Ġtarjan":14164,"childs":14165,"åħ¥":14166,"082048":14167,"ĠTaskA":14168,"Ġ.'|":14169,"Ġscdd":14170,"BiEdge":14171,"çļĦåĢ¼":14172,"unto":14173,"Ġ78498":14174,"9000999":14175,"Offsets":14176,"Ġbipartite":14177,"Ġ179424":14178,"?\"\":\",\")<<*":14179,"Ġkhokharnikunj":14180,"âĸĳâĸĳâĸĳâĸĳâĸĳâĸĮâĸĴâĸĴâĸĴâĸĴâĸĢâĸĢâĸĢâĸĴâĸĴâĸĴâĸĴâĸĴâĸĴâĸĴâĸĲ*/":14181,"Ġ3000000000000000007":14182,"/*******":14183,"/////////////////////////":14184,"10000000000000010":14185,"Ġ11227253":14186,"Ġ324161900":14187,"sprintf":14188,"Ġ664579":14189,"wzpakking":14190,"5095293":14191,"ĠDIVIDE":14192,"Ġ666666666":14193,"hossein":14194,"Ġpimes":14195,"Ġ1000200013":14196,"59837082048":14197,"Ġ1610612741":14198,"Ġ48112959837082048":14199,"åĲĲæ§½":14200,"Ġ179424673":14201,"Ġ112272535095293":14202,
[...]
