#version: 0.2 - Trained by `huggingface/tokenizers`
i n
ĉ ĉ
in t
d e
Ġ =
s t
Ġ <
) ;
r e
Ġ i
de f
o r
Ġ (
o n
in e
def ine
ĉĉ ĉ
Ġ l
s e
Ġ m
Ġ a
Ġ n
+ +
Ġ 1
c l
0 0
Ġ {
Ġ p
Ġ 0
i f
o u
Ġ c
f or
l l
u r
e n
( )
cl u
in clu
inclu de
re t
* *
ĉĉ ĉĉ
Ġ< <
ur n
ret urn
st d
- -
Ġ s
Ġ +
Ġ >
on g
/ /
Ġ v
. .
ou t
i t
Ġ -
a c
Ġ "
a m
Ġ int
< <
a n
] ;
Ġ t
Ġ b
c on
a t
Ġl ong
] [
e r
in g
y p
i r
u s
l e
++ )
c t
Ġ x
Ġ &
Ġ d
en d
Ġ f
t yp
" ,
Ġm a
( "
i d
a l
a r
K K
Ġ *
am e
e ct
s i
) {
m p
ect or
** **
_ _
z e
typ e
Ġ> >
: :
Ġ std
c out
con st
c in
00 00
] .
o p
= =
st r
Ġ j
u e
o s
Ġ T
Ġ Ġ
Ġ r
type def
m a
Ġ= =
a ir
W W
( );
n t
o l
e l
E E
Ġl l
si ze
us ing
h i
ac e
ac k
t i
Ġ }
an s
Ġ '
s p
el se
> >
e mp
Ġn ame
o d
u t
i o
Ġ for
Ġ 2
Ġa n
sp ace
Ġ y
# #
-- --
at e
str ing
e g
Ġname space
] ,
) )
(" %
o id
b ack
v ector
Ġ re
Ġ return
end l
us h
u m
Ġ ;
.. ..
Ġ k
se t
Ġan s
Ġma in
a s
Ġ u
p r
â ĸ
] )
eg in
Ġ M
w hi
Ġ %
ir st
whi le
b it
b egin
Ġ g
Ġ< =
ĉ Ġ
t emp
L L
b le
o w
c h
c an
st re
Ġ ,
stre am
con d
! =
**** ****
l ate
se cond
it h
D D
Ġi f
i i
Ġ in
ou ble
Ġ ++
temp late
Ġ Ċ
v oid
] =
x t
Ġv ector
e d
bit s
<< "
std io
Ġp air
++ .
Ġ+ =
std c
can f
ĉĉ ĉĉĉ
] );
Ġ )
Ġc out
Ġ& &
a se
ti e
KK KK
< =
) ,
() ,
p air
" ;
v e
++ ;
o ol
int f
8 8
en ame
Ġ endl
Ġ :
e t
as s
Ġ N
a d
n c
Ġc on
) );
Ġp r
Ġ |
m e
p ush
al se
w ith
I N
¿ ½
ï ¿½
Ġm od
at or
s y
Ġ /
l ine
er ator
Ġ e
cl ass
Ġ !=
l ong
sy nc
Ġ F
Ġ A
op en
p ut
Ġc in
Ġma x
ma x
Ġd ouble
) .
f irst
1 0
o de
re open
---- ----
k e
Ġ q
o f
ĉ Ċ
b ool
r t
Ġre s
d p
i s
EE EE
.. .
â £
c nt
// //
p b
s canf
WW WW
re e
Ġ S
Ġ P
++) {
ï¿½ ï¿½
## ##
g n
b ase
M M
Ġ op
; }
ut o
i ze
o t
Ġt r
Ġf irst
() )
re s
ch ar
O D
= (
u n
Ġ __
a g
typ ename
q ue
Ġ> =
Ġp ush
Ġi t
A X
Ġ 3
Ġ _
Ġcon st
Ġa r
Ġm in
.... ....
ma p
i c
} ;
pr intf
h e
Ġ w
u l
i st
ĉĉĉĉ ĉĉĉĉ
n d
__ __
( (
a uto
Ġ second
0000 0000
; ;
c ur
i os
m od
' ;
Ġp b
t in
se rt
a st
or t
t xt
Ġma ke
f reopen
6 4
b u
in line
Ġ R
******** ********
Ġd p
er r
Ġ //
f alse
, ,
g e
v al
Ġv al
+ =
-- )
m in
f s
Ġ L
â£ ¿
' )
Ġc nt
c k
Ġ o
ol ve
Ġ st
() {
G G
âĸ ĳ
Ġm p
Ġ" <<
Ġc h
i g
o m
s um
t r
a k
Ġ h
ĠM OD
ar r
p os
Ġ| |
Ġ( (
si gn
00 0
Ġs z
== ==
> =
p p
DD DD
", &
i me
() );
i l
Ġop erator
" );
n ode
Ġg et
in d
a p
or de
Ġ C
Ġ G
IN F
Ġa ll
c d
1 1
O R
] ==
ou nt
Ġs canf
Ġ D
-- ;
ĉĉ Ġ
, -
Ġ de
e xt
que ue
m at
d ouble
end if
" )
sign ed
u p
tin ue
Ġtr ue
Ġv oid
re ak
io stream
Ġ else
ll d
ĉĉĉĉ ĉĉ
Ġl d
88 88
Ġt yp
s s
M AX
t ree
- >
] ]
Ġp ii
Ġu n
e m
Ġm id
Ġ I
âĸĳ âĸĳ
E P
g or
â£¿ â£¿
d s
Ġt o
Ġ B
ith m
gor ithm
Ġ" ;
âĸ Ī
Ġc ur
Ġs ize
Ġ ?
9 9
l en
n um
a ll
Ġf alse
al gorithm
Ġpr intf
ĉ ĠĠ
Ġs um
v er
p re
f i
i on
l o
Ġ #
s ort
g et
] -
g s
f r
b s
Ġ z
Ġ' \
en t
Ġ INF
t h
l i
ow er
//// ////
m x
ag ma
pr agma
p op
KKKK KKKK
s z
E S
N O
& &
mat h
/ *
Ġstd in
e st
Ġ1 00000000
Ġ1 0
Ġ se
Ġtyp ename
A R
t o
Ġ 5
e x
* (
o stream
Ġm em
re d
Ġf i
Ġ 7
++ --
] +
v i
( !
-------- --------
u b
c o
Ġi os
Ġ- =
Ġun signed
c ount
Ġ( !
Ġin f
) %
++-- ++--
a y
Ġar r
ou nd
f t
Ġa d
U LL
Ġs olve
Ġi s
in put
re p
o int
MM MM
Ġ );
l d
ĠG C
u ll
s k
c e
3 2
", "
d ate
) (
h t
if def
b reak
#### ####
f f
); }
ĉĉ ĠĠ
ĠGC C
Ġp os
in sert
p s
Ġv i
Ġ ret
' ,
Ġg cd
orde red
t a
Ġ 4
Ġ V
m id
Ġ O
âĸĪ âĸĪ
id x
* /
Ġ LL
c math
Ġ \
Ġ" \
Ġ out
âĸ Ĵ
ĠM AX
5 3
v is
ï¿½ï¿½ ï¿½ï¿½
r o
Ġin line
1 8
Ġch ar
) /
" <<
ig ht
Ġi d
1 5
Ġf reopen
G S
Ġl e
st ack
c stdio
Ġ set
n ow
i m
an d
1 00
d fs
Ġ" ,
Ġ string
Ġre p
p ii
, &
Ġ os
Ġt ree
Ġstd out
bu g
c err
ar t
Ġ class
2 6
Ġ while
f l
N ULL
ti m
Y ES
Ġ100000000 7
1 0000
____ ____
Ġ str
u ct
e s
cl o
ĉĉĉ Ġ
i p
as sert
size of
con tinue
me m
Ġc err
........ ........
a x
b ound
EEEE EEEE
Ġb ool
[ ]
ĠP I
Ġl en
se d
==== ====
t y
// #
( -
Ġ ]
ĠF OR
Ġmem set
Ġ --
Ġm x
> &
out put
Ġn um
' .
it y
Ġp ll
h pp
r i
1 4
Ġp re
Ġ U
Ġre ad
... )
ĠA r
1 2
@ @
AR GS
] ++;
u er
Ġc o
S E
ĉĉ Ċ
bu il
Ġcon tinue
s se
t mp
m ent
Ġp i
MAX N
Ġop tim
Ġd fs
up date
;; ;;
a re
clo ck
c i
s olve
( {
V A
c string
hi s
orde r
it e
uer y
Ġ !
âĸĴ âĸĴ
it erator
Ġu ll
O C
o c
Ġ X
ed ge
; ++
Ġoptim ize
w ap
ac t
// /
**************** ****************
2 0
,, ,,
st at
er ase
F OR
Ġ of
} );
ĠĠ Ċ
ct ion
Ġ [
Ġa c
emp ty
Ġf r
() .
std in
Ġ E
Ġs q
o k
str uct
ver se
> (
Ġsize of
:: ::
a bs
] ){
' );
Ġad d
Ġ1 0000
M OD
ad d
IN E
WWWW WWWW
Ġt emp
3 3
m n
cl e
li b
> ,
Ġi i
on t
ul t
9 7
e p
si on
Ġde bug
L INE
Ġs s
un ordered
Ġ* /
ti me
Ġn e
GG GG
Ġt he
m an
Ġ .
std lib
Ġt mp
max n
ve c
D G
]== '
at a
â ķ
Ġval ue
Ġe ps
DDDD DDDD
fr ont
d ist
', '.
ci sion
Ġan d
Ġ* =
1 000
bit set
f ind
Ġar g
<< '
Ġ% =
I nt
) -
<< (
pre cision
g cd
2 4
) +
WW W
Ġn ode
Ġm ul
//////// ////////
io man
ioman ip
8888 8888
co mp
]= {
Ġ( "
> ;
ad j
a z
Ġu p
R EP
( ...)
Ġ end
f ast
âĸ Ģ
â ł
Ġ ^
( __
Ġa bs
++--++-- ++--++--
t his
5 8
p ar
an ge
g th
Ġb reak
Ġac os
a b
std out
Ġ1 000
e c
t op
( _
â£¿â£¿ â£¿â£¿
Ġma p
I n
Ġ"<< #
un ction
re size
Ġ include
Ġs ort
EE E
J U
) *
on e
mem set
E R
<<" \
ĉĉĉ ĠĠ
ri x
n ame
A L
DG E
JU DGE
ma sk
x x
N LINE
< (
pp er
p tr
buil tin
n e
E B
15 9
r and
Ġ 6
Ġ' ;
c stdlib
it s
Ġ define
) *(
are nt
14 159
| |
14159 26
r r
Ġd b
) <<
Ġ/ =
-- ){
cle ar
de x
l ist
Ġo stream
n def
l ace
Ġd ist
l ast
KK K
M ax
Ġl o
c ol
â ¢
he ck
','. ','.
S T
de que
I O
r ite
gn u
Ġc om
4 3
ar gs
ĠO NLINE
âĸ Ħ
Ġb u
à ¦
if ndef
âĸĳâĸĳ âĸĳâĸĳ
t ag
as h
r begin
d i
ine r
Ġb ase
tr ue
Ġ H
] !=
u sed
EP S
ta iner
Ġm n
2 2
1415926 53
s wap
put s
c c
ĠMAX N
o re
> ::
( '
Ġd x
3 7
x ed
Ġ ĉ
len gth
s stream
Ġd y
} ,
3 0
MMMM MMMM
Ġc heck
i or
t ot
Ġp ut
Ġl ast
5 0
at rix
] *
h a
ct ime
az y
le x
ll i
d d
h s
ĠR EP
Ġ he
val ue
OC AL
SE C
ior ity
U G
i stream
Ġf ind
t t
f unction
p ow
Ġo k
Ġv v
ma ke
Ġe x
Ġq uery
Ġ ){
<<" :
pb ds
Ġs c
Ġl c
- =
Ġv ec
a a
5 5
######## ########
p ll
A C
n ull
(), (
Ġv is
re ad
Ġf f
con tainer
Ġco mp
Ġ Y
Ġid x
l ow
/ =
in k
ro ot
0000 5
Ġp ar
Ġd i
al c
ic s
le ft
p l
u ti
ch r
Ġ K
Ġ hi
Ġ1 00
ĉĉĉĉ ĉĉĉ
se g
L E
ist ics
EB UG
b er
a v
p ol
s ub
op erator
ar get
stat istics
Ġ ++)
ass oc
pr ime
ĠL OCAL
Ġb it
Ġad j
c assert
on o
r ow
Ġ EPS
Ġs i
: .
Ġg o
Ġ en
Ġ 9
g o
at ion
... );
â ¡
ĠAr gs
p t
<<" =
e ad
1 6
n ext
]- '
KKKK K
Ġf ast
__ )
Ġa uto
3 8
in f
Ġ{ }
emp lace
g h
pop count
Ġar gs
o o
Ġ ï¿½ï¿½ï¿½ï¿½
m ul
<< #
99 8
= -
Ġmax n
ĠI n
ĠAr g
141592653 58
I t
Ġ" :
Ġn ow
re nd
pol ic
== '
m t
4 6
Ġt arget
<<"= "<<
Ġt ot
fl ag
ch e
Ġpr int
li m
M E
Ġ( )
Ġget char
in v
Ġp ower
] +=
n g
Ġv ll
Ġs h
er ic
]) );
i ve
Ġst art
Ġsq r
14159265358 97
998 24
3 1
S ize
5 6
function al
l ic
n xt
======== ========
99824 43
R E
p oint
ar y
1415926535897 9
9982443 53
yp e
() -
)) )
polic y
w er
Ġn xt
re verse
11 11
if f
Ġc ount
Ġr ight
Ġb e
3 4
@@ @@
ĉĉĉĉ Ġ
] ];
<<"="<< (
ex pr
Ġle ft
l f
Ġle ss
f act
type of
Ġp oint
hi ld
Ġpr ime
Ġ- >
che ck
Ġn ext
er o
Ġn ull
r ight
Ġl ower
st art
Ġc ol
Ġs can
Ġtyp e
] ].
ĉĉĉĉĉĉĉĉ ĉĉĉĉĉĉĉĉ
Ġ} ;
Ġf l
Ġv ii
ĠS Z
---------------- ----------------
M atrix
U T
Ġp ow
Ġne w
ub lic
g r
o ot
Ġy ou
s c
ĠĠ ĠĊ
IN T
chr ono
q u
Ġr b
i que
[ ]={
Ġ>> =
d ata
Ġ W
d is
p i
c om
n o
num eric
- '
1 00000000
at h
(" -
] >
7 7
KKKKKKKK KKKKKKKK
1 99
Ġfr om
f stream
Ġp op
R T
F F
I I
N ode
Ġt h
âĸĪâĸĪ âĸĪâĸĪ
ĉĉĉ Ċ
] <<"
14159265358979 32
l ink
at er
Ġs p
+ (
Ġ Q
Ġt est
, ;
] --;
p ublic
] ))
o b
Ġfi xed
( *
Ġin d
M od
Ġp f
s q
in it
Ġ or
Ġm y
ap h
t est
s u
null ptr
b b
m i
up le
le ment
% =
or m
ar k
o ve
ma in
ul ar
Ġg r
lo op
re ater
Ġa s
n s
stat ic
Ġin it
0 1
Ġ cl
l azy
u int
) ){
re m
ĉĉĉĉĉĉĉĉ ĉĉĉĉ
a il
P oint
Ġ on
Ġse g
Ġtr ace
Ġma sk
1415926535897932 38
Ġp arent
Ġf act
Ġr oot
2 00
ex p
] <
edge s
P ER
Ġpr iority
M P
v v
r os
Ġsq rt
Ġlc m
Ġ using
Ġs ub
for n
+ =(
d ge
, (
R O
d ig
199 37
ot h
w rite
, +
Ġin v
buil d
- (
(" \
Ġ ĉĉ
p th
p er
I T
cur r
OC K
L OCK
co st
Ġres ult
() ){
* =
141592653589793238 46
N o
Ġ 998244353
Ġ ::
p a
y y
Ġv vi
Ġa t
] ][
s in
un ique
Ġset precision
Ġ3 1
________ ________
ĠM od
Ġm d
m ark
Ġ 8
Ġs wap
âĸĴâĸĴ âĸĴâĸĴ
h o
q uery
' ){
I LE
get char
lo ck
10000 5
a h
++--++--++--++-- ++--++--++--++--
M X
O N
âĸĢ âĸĢ
Ġ2 0
LOCK S
[ (
7 9
4 8
Ġu pper
s ol
a ble
0000 0
l ower
ii i
~ ~
Ġ ordered
]= (
fi x
Ġ ...
ĠA LL
Ġre m
in dex
Ġup date
s h
**** **
Ġp a
]] ++;
& (
Ġc an
fr om
1 9
Ġb egin
Ġ clock
eg er
ĠI O
v l
V al
it ed
Ġm s
ĠD EBUG
i e
Ġ' <<
h ash
ti on
Ġcom ment
Ġput s
5 00
j j
l c
Ġ) ,
comp lex
av x
Ġs ol
const expr
od d
Ġco st
D E
1 7
l ity
W K
Ġs y
, _
h ar
)<< ",
Ġv s
)) );
re q
b e
e v
d o
string stream
an g
o ch
rand om
ne w
/ **
or y
Ġl ow
O fast
link er
Ġfor n
ĉĉĉĉĉĉĉĉ ĉĉĉĉĉ
); ++
Ġx x
ti set
) :
at ive
ep och
sin ce
Ġ" /
Ġd is
]) ,
d b
//////////////// ////////////////
2 3
- ')
GGGG GGGG
m s
p arent
arr ay
p q
ar g
w o
T ime
Ġ( ((
ac h
o st
il d
he ap
10000 0
++ ]
Ġp t
Ġb in
Ġu sed
Matrix Size
v s
uti lity
Ġu int
bu f
Ġs u
>> (
] ])
ac ro
Ġ10000 0
un signed
ou r
i ll
sub str
), (
Ġ^ =
5 9
2 8
Ġr all
It erator
t e
st ead
ow n
Max MatrixSize
âĸ Į
P os
b est
Ġit er
fi le
A S
Ġ++ ;
Ġp q
at ch
a ve
v el
Ġ err
pr int
.... .
2 7
Ġp p
Ġc mp
Ġdb g
Ġfl ag
Ġ" )
Ġo o
res ult
si m
Ġ3 0
c alc
6 0
__ _
Ġt ime
Ġl b
name s
Ġr hs
++ ,
T ES
Ġp w
Ġn o
Ġw rite
ex it
le ss
ros s
A T
C har
Ġ2 6
','.','. ','.','.
Ġt m
99 99
__ ,
l y
an ce
p ower
âķ Ĳ
stead y
Ġ" ]
C ount
Ġr ng
................ ................
) ==
Ġc alc
T ree
er ge
Ġne ed
2 9
Ġv l
or d
Ġ' .
ke y
mem ory
Ġy y
---- --
Ġs f
Ġbu ild
C ase
C RT
Ġv er
E dge
Ġ emplace
U RE
ĠI nt
h or
## #
1 3
KKKK KKK
Y es
Ġt l
Ġ( *
', '
ay s
o mp
SEC URE
t ex
Ġa a
ĠM P
" .
; .
ĠP B
Ġd o
i v
2 00005
u st
hi gh
b r
ĠPI I
t uple
ĠM ax
Ġk e
sq rt
n x
T ype
m d
r ime
pre v
A N
Ġi stream
A LL
e lement
ic e
O ut
] ]=
ii ii
<= (
>> =
t f
lo at
loop s
( ;
ĠD B
Ġpre v
Ġtemp late
Ġn orm
Ġin put
################ ################
)) %
100000000 7
âĸĦ âĸĦ
D EBUG
Ġin dex
Ġg c
}, {
% %
d iff
Ġ" [
Ġb y
M in
dig it
Ġt t
de bug
pop cnt
up d
ar d
S Z
t l
â Ķ
(); }
Ġm t
t er
O F
ĉĉĉĉĉ Ġ
ro ll
Ġ' ,
Ġd ata
/ ********************************
F ILE
Ġt his
Ġm k
fl ow
u se
)) ,
10 10
Ġre verse
Ġ| =
DD D
c r
m mx
ĠM X
de g
Ġb est
ss se
Ġin sert
;;;; ;;;;
A rr
un roll
ĉĉĉĉ ĠĠ
Ġ( ;
F S
Ġl i
Ġr ange
ab m
I Z
if t
GG G
âĶ Ģ
m m
K E
4 0
\ \
an k
,,,, ,,,,
ar ch
ma ll
Ġb ig
âķ ¬
pre f
88888888 88888888
l s
]) %
DDDDDDDD DDDD
5 7
] %
N IN
W AR
S t
Ġf in
p o
r k
Ġde l
WAR NIN
Int eger
oth er
Ġarr ay
WARNIN GS
] <<
T T
cl im
ans wer
un e
Ġbu f
pr iority
ĠP oint
b ig
de r
uti on
WWWW WWW
clim its
L ine
> =(
Ġre v
Ġpre f
Ġr r
) ?
] >=
Ġc c
Ġr and
= "
u pper
ut hor
O UT
si ble
Ġu b
lim its
r a
Ġn ot
ĠF I
fi xed
d x
f a
b y
max N
set precision
A ST
34 56
MMMMMMMM MMMMMMMM
IZ E
! !
Ġput char
à §
Ġm i
f ac
Ġ' );
WWWW WW
EEEEEEEE EEEE
******** ******
fi ll
Ġl ine
th row
max i
â£¿â£¿â£¿â£¿ â£¿â£¿â£¿â£¿
Ġname s
F or
vis ited
n ative
Ġ" ";
' \
â£¿ â£
t une
:: :
E C
Ġnum ber
: //
on ent
r c
r b
2 1
] <=
Ġp s
Ġfi le
N N
ĉĠ Ċ
Ġit erator
" "
KKKK KK
Ġ. ,;
Ġ{ -
âĸ Ĳ
000 10
l n
c y
* -
N U
Ġ3 2
<<' \
Ġ( __
Ġf ore
he ad
f j
ct ype
Ġ(" %
ĠIO S
âķ¬ âķ¬
Ġq ue
it er
ĠC LOCKS
Ġ10000 5
Ġb s
ĠĠ Ġĉ
IO N
Ġe v
E T
Ġ ĉĉĉ
AC K
i k
2 5
re v
name space
c hild
2 64
Ġ- *-
ob j
, "
â¢ Ģ
10 1
11 1
8 9
Ġr ow
Ġcom ma
ON G
() ))
Ġ one
Ġ INT
r s
Ġa re
Ġp c
Ġde b
p w
Ġd iff
k k
' ]
as k
; --
O G
r int
i z
Ġ" %
4 7
Ġï¿½ï¿½ï¿½ï¿½ ï¿½ï¿½
on oid
s m
(" ");
, .
Ġn eg
pr o
ST ACK
r y
Ġ edge
fl ush
P B
Ġ/ *
Ġcur r
m y
<< -
10 5
Ġ" ("
Ġ100000000 0
L ong
0000 00
Ġans wer
!= (
Ġz ero
Ġ' -')
ent er
' s
Ġr t
Ġg reater
Ġ with
Ġp er
)); }
lo g
14159265358979323846 264
W KK
Ġt a
Ġb b
col or
Ġma rk
Ġde pth
Ġsy nc
Ġa l
mul tiset
de p
âĸ ĵ
4 9
R ange
ĠV I
A ME
ac os
n eg
' ||
P II
put char
Val ue
u d
ĠIn put
V ector
@@@@ @@@@
f in
Ġr d
-- ,
Ġsi gn
u ff
Ġ el
Ġh ash
In put
[ '
} }
Ġex p
popcount ll
D EEEE
( #
ar a
u x
Ġnorm al
Ġprime s
de l
Ġw h
r g
("% .
ac tion
Ġhe ll
6 7
) ]
Ġ Z
[] (
_ |
oo st
#### #
Ġex it
w e
Ġscan i
) &
) <<"
Ġl im
Ġll i
, :
N D
Ġhi gh
b ad
A ns
]= '
] ],
g reater
he re
Ġstr uct
a in
b l
14159265358979323846264 33
de pth
de d
Ġ" -
WWWWWWWW W
it r
Ġg en
a f
c ase
ol d
Ġ à¦
Ġw e
Ġ// /
Ġcomp lex
_ (
c p
Ġtot al
t c
i re
tot al
ne ed
ĠĠ ĉ
ĉĉĉĉ ĉĉĉĉĉ
op e
ĠP R
S tr
Ġl azy
Ġm acro
a i
.... ..
Ġe b
fr i
** /
âł Ģ
âĶĢ âĶĢ
O W
t m
um ber
ak en
8 0
Ġout put
Ġup d
Ġfi ll
fri end
N AME
w as
ble m
ce s
P I
ĉĉĉĉ ĉĉĉĠĠ
an t
__ ;
it ion
E D
ĉĉĉĉĉĉĉĉĉĉĉĉĉĉĉĉ ĉĉĉĉĉĉĉĉĉĉĉĉĉĉĉĉ
D e
âĸĳâĸĳ âĸĳ
******************************** ********************************
de rr
Ġv pii
12 3
p ath
Ġmod ular
ĉĉĉĉ Ċ
00000000 0
(); ++
Ġï¿½ï¿½ï¿½ï¿½ ï¿½ï¿½ï¿½ï¿½
Ġst at
) ((
L I
Ġ edges
/ (
Ġ ~
re nt
Ġ J
() ),
NO TES
Ġm at
qu al
ce pt
Ġmul ti
C T
5 4
âķĲ âķ
& ...
() ==
u mp
Ġ1 1
:::: ::::
V I
Ġm e
} ";
) <<"\
L e
arr y
ma g
d y
is digit
3456 7
i al
] ]);
c ctype
Ġ' )
Ġgr aph
db g
i es
AC RO
It er
f req
,, ,
Ġ"] ";
U N
f loat
88 8
c um
ĉĉĉĉĉĉ ĠĠ
Ġh tt
6 6
1415926535897932384626433 8
re st
or s
n y
Ġ other
ta il
tex s
Ġ Ð
ĠS Q
h ite
Ġ ][
Ġp dd
T S
f ore
â¢ ¿
Ġ> ::
) >>
ĠP T
Ġse c
n od
Ġcl r
Ġ"[ ";
ĠP rint
100 5
w t
ut e
Ġr nd
st ate
;; ;
ĠL INF
k s
Ġn l
Ġc ross
di sp
w w
Ġ ];
m on
s rand
b j
cl z
................ ........
n n
Ġsh ift
Ġe xt
se arch
Ġmod ul
) <
u nc
e ar
3 9
v ll
[ ++
Ġ1 2
l st
su f
C hild
Ġpr o
-------- ------
c ap
d f
E K
Ġ order
Ġ odd
WWWW W
c mp
Ġ& _
Ġun ordered
E M
Ġas sert
Ġbin ary
s on
le vel
Ġhe ad
Ġke y
Ġv c
Ġf abs
6 8
c pp
ĉĉĉĉ ĉĉĠ
Ġs m
6 1
P rime
Ġ") ";
X X
Ġb ound
iv ate
00000000 00
âĸĳâĸĳâĸĳâĸĳ âĸĳâĸĳâĸĳâĸĳ
r action
10000 00
S um
min i
Ġf n
1000 10
ĉĉĉĉĉĉĉĉ ĉĉĉ
14159265358979323846264338 32
Ġ. :
)+ (
Ġstat ic
== -
================ ================
j k
im er
atch er
r ange
Ġmax i
ĉĉĉĉĉĉĉĉ ĉĉ
prime s
disp atcher
Ġcon t
Ġm erge
gr aph
A SE
Ġp l
t p
c s
z ero
ĉĉĉĉ ĉĉĉĠ
& ]
Ġv ar
(# __
Ġth at
Ġ `
el d
Ġ<< "
ip le
EEEEEEEE EEEEEEEE
2 0000
Ġt op
Ġd ig
AS K
ĠF or
Ġ( _
Ġch k
Ġ" {
si de
as sign
our ce
e ve
ce ss
C LOCKS
d q
ĠL D
ĠC omp
Ġ ].
Ġ --------------------------------
Ġc ase
u late
Ġc t
go od
t u
p ha
Ġt c
er se
pr ivate
ĠN ULL
;} }
Ġr i
ĠM in
100 1
se c
Ġ10000 00
++--++--++--++--++--++--++--++-- ++--++--++--++--++--++--++--++--
ĠDB N
Ġtype def
I ME
Ġl oc
b a
d own
Ġb r
Ġ2 00
**** *
C on
ð Ł
() +
Ġde p
GGG DDDDDDDDDDDD
1415926535897932384626433832 79
; :
Ġn x
Ġt uple
Ġde g
com ma
**************** ********
Ġ5 0
Ġstr len
L G
Ð µ
); (
co re
stdin Pos
3 00
6 9
Ġ1 5
Ġo bj
âłĢ âłĢ
ĠO O
Arr ay
ĠN ode
Ġof f
] :
Ġmod int
ĠL OG
[ ],
Ġit r
Ġv b
cl type
Ġarg c
' t
e ps
op y
), &(
' &&
an c
Ġc ode
st em
I L
Ġp ath
ĠP LL
Ġlo g
is h
C H
s can
Ġt p
ĠD I
st derr
NU M
) ++)
Ð ¾
Ġn d
Ġs d
", (
&& (
b o
Ġ[ &]
A A
A D
Ġv pll
ire ction
I mp
ĠM EM
se r
IO S
eg ment
e w
++ ++
Ġt wo
Ġf ac
Ġlo op
$ $
KKKKKKKK KK
EEEEEEEE EEE
d ir
ĠG et
0 7
c ast
num ber
ĠT R
4 1
re g
Ġh ave
33 33
[ {
r d
) [
m sk
0 9
6 3
ĠĠ Ġĉĉ
m acro
or k
u i
] >>
d if
Ġm ult
Ġerr or
M IN
Ġ ed
ä ¸
in p
f o
Ġhe re
Ġsu f
Ġev en
re al
Ġb fs
]= -
ĉĠĠ Ċ
ĠE OF
â¡ ¿
l int
Ġl st
EE D
Ġ ----------------
ll ah
Ġtr iple
Ġw as
Ġle vel
Ġï¿½ï¿½ï¿½ï¿½ ï¿½
4 4
b lock
12 8
f st
t wo
Ġ" .
K W
L GG
. :
s a
Ġ"<< (
' +
ĠT ail
8 7
S et
ev en
<= '
Ġmax N
Ġl g
.... ...
Ġmul tiset
s mall
E x
P ower
Ġi ii
mat rix
CT ION
Ġf st
Ġ! (
[ ])
Ġlen gth
Ġ2 00005
1111 1111
5 1
Ġ1 9
Ġgo od
Ġc y
â£ ¯
s l
Ġ ++){
e re
Ġ} );
ĠM IN
ist er
âĸĪâĸĪ âķ
[ "
i j
Ġf a
Ġbound s
ate d
Ġdel ta
ĠF AST
c ross
d one
Ġd d
Ġ__ _
q r
bu ff
Ġhtt ps
b in
Ġ'. ')
' },{
]- =
- =(
_ ,
} };
)) /
Ġ5 00
Ġ ULL
... );}
â£ ·
â£ Ł
l ush
Ġ ĉĉĉĉ
Ġw ill
ĠL ong
ĠV A
EE K
fj t
iz ation
C omp
Ġa b
S IZE
e ed
&& ...
Ġyou r
() (
",& (
hite space
m o
ï¿½ï¿½ ï¿½
clo se
Ġs in
M N
^ =
2 00000000
pl y
M onoid
n b
Ġs o
"; }
Ġq r
> ());
Ġ( -
+ '
q q
st ep
() ->
DE F
M ul
Ġnode s
Ġp d
l b
Ġ1 7
Ġc hild
Ġ" );
el per
Ġ6 0
] /
Ġ{ {
u f
Ġ1 23
Ġp pb
Ġmin i
]== '.
ha ve
ĠD irection
per m
Ġde c
à§ ĩ
Ġ1 6
if y
ĠM ACRO
val c
ã Ģ
re c
) >
[ *
() <<
Ġar a
ĠR E
________ ____
() >
Ġr ank
Ġre st
Ġarg v
Ġ', ');
) =(
1 10
Ġn y
v a
Ġp tr
Ġre c
//////////////////////////////// ////////////////////////////////
tr ie
Ġta ke
r it
u ck
} */
in c
reg ister
W KKKKK
Ġq u
jj i
ï ¼
ĠR A
100 100
Ġn args
se nt
Ġv p
S can
) ];
i le
Ġ IN
Ġe lement
Ġse p
V EC
k ol
Ġu se
P P
âĸĪâĸĪ âĸĪ
lock ed
Ġmem o
ta ble
n k
o stringstream
Ġf unction
ĠA uthor
Ġque ue
2 000
l vl
Ġf x
R e
or ary
Ġs k
ver t
C nt
O L
FF FF
UN CTION
) =
!= -
Ġvis ited
> ();
Ġ> (
nc e
val s
Ġp o
=( (
exp onent
I M
os sible
ĠT T
Ġre set
Ġlc a
m erge
<< *
55 55
Ġ --)
Ġ --;
Ġ* (
ĠF ILE
ĠU n
Ġs pl
b fs
N umber
D B
] &&
l g
-- -
Ġf o
lo c
E nd
for m
T est
Ġ[&] (
U SE
ol ution
Ġo st
Ġcol or
Ġc e
ĉĠ ĉ
Ġst ep
Ġvalue s
S S
Ġd if
: "
v ar
} //
Ġin c
St art
B it
Ġr is
Ġ' ?
â£¿ â¡
P ow
Ġh as
]== -
Ġ& =
Str ing
ĉĠĠ ĠĊ
r aph
st ore
Ġv d
al tu
Ð °
Ġs gn
ic k
Ġget Char
ff lush
ĠMod ular
' ]++;
]!= -
w ard
Ġl n
0000 000
Ġfor r
o i
Ġbig mod
_ ;
u re
tr i
Ġstring stream
12 34567
âĸĢ âĸĦ
lc a
Ġb oost
Ġ" }";
Ġf y
im um
Ġm ove
str i
)/ (
Ġread Int
A dd
Ġd ir
val id
t int
Ġ( ~
10000 1
SE RT
ir cle
Ġstr chr
Ġsh ort
I MP
Ġ{ };
Ġin s
test s
Ġm m
AC E
Ġb ad
Ġb ack
ĠF raction
Ġ; }
Ġpow mod
âĸĵ âĸĵ
P T
P ro
T h
` `
u cl
Ġm atrix
## ~~
Ġu i
Ġs cl
ta in
Ġx xx
%% %%
ĠM A
node s
â Ģ
re f
ing le
Ġ' *
Ġre f
A B
T o
Ġv e
dist ance
'},{ '.
r ng
Ġmodul us
if stream
en tr
ct z
m k
y a
Ġn a
di v
] <<'
l ol
v ii
Ġs l
un locked
ĠD FS
]] --;
j ti
WW K
WW KK
KKKK W
ĠIn f
L R
m ove
Ġc ap
Ġf printf
## _
Ġk ol
Ġl ist
++ ]=
âĸĳâĸĳâĸĳâĸĳ âĸĳ
]!= '
ðŁ Ĵ
c xx
n l
Ġc and
ðŁĴ ©
= '
W hitespace
u k
F UNCTION
ĠS olve
In verse
Ù İ
de c
; (
Ġt e
Ġf d
' '
, ...)
Ġj j
H elper
I D
g t
ĠA ns
ĠS T
Ġf low
n r
whi ch
________________ ________________
l a
p f
ow el
2 00000
S U
] ?
v c
ĉĉĉĉĉ ĠĠ
ĠLL ONG
d ot
w ays
ã ģ
Ġ erase
<<" [
g g
ti c
ere nce
Ñ Ĥ
++ ];
e f
ĠĠ ĉĉ
Ġk k
Ġp at
ĠS IZE
err or
P C
Ġfor d
i mag
p c
ds u
Ġfore ach
---- -
Ġb its
Ġx y
D ata
Ġc k
Ġ' #
22 8
u u
Ġo ver
=" ";
ðŁĴ© ðŁĴ©
< _
D L
mod ular
ĠFOR E
] *(
â£ »
â£ ½
;;;; ;;
Ġth an
Ġi mp
Ġ' "
>= '
( ++
t s
Ġd r
ap sed
ver texs
U L
p date
() ));
Ġch r
Ġdi v
D FS
Ġr s
ot ate
mul ti
orary Node
h as
Ġb lock
ver s
<<" -
Ġdist ance
l p
Ġd ot
)) *
, __
^ (
def or
Ġc r
Ġd own
GGGGGGGG GGGGGGGG
cp y
defor ces
) <(
Ġch ange
KKKKKKKK KKKKKKK
WWWWWWWW WWW
DDDDDDDD DDD
EEE K
AS SERT
S olve
Ġspl it
E MP
l ft
Ġm ii
Ġ10000 000
]; }
Ġn n
Ġ> ,
Ġf req
pre fix
Ġwh at
Ġr c
)- (
E N
Ġs a
c x
m int
Ġs mall
>> ;
pr v
] ]==
Ġ stream
Ġ> ;
Ġw in
e ing
ar ge
à¦ ¾
ĠTR ACE
AR Y
ang le
/******************************** ****************
Ġc enter
S e
% (
c b
on th
Ġall oc
M AT
F L
n w
Ġf altu
e y
s x
ou p
<< ",
Le ft
n ect
** *
pr od
Integer Range
âķ¬âķ¬ âķ¬âķ¬
Ġi iii
RO W
arg v
9 8
si z
Ġpii i
Ġtest s
i de
Ġ( );
Ġl s
Ġ(! (
ĠE X
Ġgr id
âĸĢâĸĢ âĸĢâĸĢ
" [
ut ation
max x
ĠU N
******************************** ********
9999 9999
Ġr un
un def
D ist
P UT
Ġp li
Imp ossible
Ġa sk
ĠT ime
he ll
ff ff
Ġmulti ply
g c
Ġb eg
ch k
t ti
ac ti
Ġt ail
al pha
ĠT he
ĠM onoid
Ġsi eve
Ġ which
ĠGC D
F T
Ġfor i
Ġtr ans
" ]
L D
se eing
T ASK
e b
Ġdi vi
n ax
Ġc s
][ (
Ġ2 000000000
]] ]]
pl us
b al
ch ange
EEEE EE
oo se
************** /
cum ulate
EEEE E
m it
int er
== (
= *
O ME
50 5
erse ct
4 00
> '
n m
r un
Ġl p
Ġf ir
ĠR e
D EB
n er
le v
< '
Ġl ol
Ġd or
MM M
2 56
b oost
:: .
ke k
ĠSQ R
= _
Ġb l
Ġï¿½ï¿½ï¿½ï¿½ï¿½ï¿½ ï¿½
> (),
z i
ft er
H ash
of stream
Ġrand om
" ),
s rc
Ġl hs
Ġf loat
:::: :
(' \
A r
sp rime
ĠI t
500 5
): (
D P
r u
','.','.','.','. ','.','.','.','.
R ead
V ER
d ay
Ġc arry
get line
L en
e ks
w ar
Ġpre fix
Ġsi z
Ġ us
re ct
op t
ĠN ame
Ġis Prime
pa use
4 5
str a
>> >
( &
I d
);++ (
( ')
O ne
[ _
l t
w in
Ġpr v
sy stem
ĠF i
,,,, ,,
a der
pr ot
inv d
Ġchr ono
C A
S egment
c arry
f ir
Ġon es
R I
| (
Ñ ģ
); --
Ġa ux
]) +
ĠFOR D
> ()
q l
(( (
bu tion
â£¿â£¿â£¿â£¿ â£¿â£¿
/ **************
E G
f abs
g er
x y
ol ower
100000 5
c enter
e e
Ġ **************/
de cltype
Ġ<< (
==' -')
f ound
w a
Ġl vl
ĉĉĉĉĉĉĉĉ ĉĉĉĉĉĉ
uff er
Ġ~ (
i a
i gn
// *
Ġt in
Ġf s
IN ES
#### ##
MAT H
y es
Ġ" !
~~ ~~
o v
Ġ @
Ġw ork
DEF INES
[ __
e ci
f n
t he
Ġ" #
of f
(){ }
0000 1
Ġcom b
@@@@@@@@ @@@@@@@@
Ġ"{ ";
a uthor
m ult
ha ust
pro blem
s f
ĠB ig
uer ies
ou ld
ta ke
D ouble
ce il
Ġpoint s
bb bb
D K
Ġs ha
ĠD P
haust ed
(" /
temp l
... :.
WWWW WK
Ġw here
Ġpre calc
,,,, ,,,
WWW KK
WWW KKK
Ġfact or
âĸĴâĸĴâĸĴâĸĴ âĸĴâĸĴ
OR T
ĠI ter
Integer Iterator
stri bution
B S
__ );
* =(
O O
R es
Ġd one
++; }
Ġsol ution
n a
Ġ er
im ize
12 34
gr id
se q
), _
ĠF ast
(! (
prot ector
& -
F AST
c m
o g
en ded
Ġq l
Ġinf o
ĠE nd
eci al
Ġ"[ "
7 2
R ep
n p
le te
Ġin p
Ġval id
ĠH ead
'},{'. ','.','.','.','.','.','.','.','.
Ġf oo
al f
Ġke k
A nd
a le
w r
Ð ½
ak h
|| (
v vi
Ġ1 8
ĠS t
ri end
[ --
ç ļ
le ct
Ġ2 9
ĠR FOR
çļ Ħ
) !=
s nd
Ġs nd
IMP L
B C
f un
Ġmod Mul
res s
SE T
Ġfile s
Ġm onth
set f
ag e
:::: ::
:::: :::
Ġ-------------------------------- --------------
st k
or g
if orm
64 7
ge eks
Ġ100000000 9
di stribution
pl ic
Ġsh ow
big mod
Ġst ate
âł Ľ
( *(
9 0
Ġ2 5
B uffer
Ġp ld
ĠA llah
â£ ¾
ver y
az u
200 5
} )
// }
== "
Ġe printf
"," <<
ĠE ND
Ġgen er
Ġce il
o in
Ar gs
: \
b eg
g en
ĠS H
6 5
F N
/ __
Ġ ï¿½
Ġ open
Ġy es
Ġre al
um ent
ĠF irst
ĠO UT
fact or
,,,,,,,, ,,,,,,,,
)? (
e q
Ġs im
3 5
Ġn g
<<" ]
Ġmod num
cur rent
Ġ-- >
Ġ{ +
Ġw ho
7 0
} });
ĠC ode
Ġbin pow
' :
E L
i stringstream
Ġ++ __
ĠC on
ion s
mem o
Ġac cumulate
s core
Ġf unc
ĠG ET
ĉĉĠĠ Ċ
âĸĦâĸĦ âĸĦâĸĦ
D I
K EE
M S
ĠM atrix
co deforces
uk azu
O per
i w
Ġb o
a pp
Ġ def
si c
> {
D i
p x
v p
10 24
âł ĺ
B y
Ġl ink
Ġb p
ĠĠ Ġĉĉĉ
ĠN IL
Ġnull ptr
entr oid
D EE
D EEE
F I
W KKKK
() ]
ĠT args
WWWWWWWW WWWW
âĸĦ âĸĢ
9 3
r hs
CH AR
Ġ---------------- ----
t x
In it
ĠMod Int
Ġver texs
] });
m q
Ġ [](
en ti
Ġt y
Ġvv ll
) &&
j t
// ~
Ġ# __
33 7
read Type
âĸĪâĸĪâĸĪâĸĪ âĸĪâĸĪâĸĪâĸĪ
3 00005
Ġn r
__ (
Ġdi a
TES TS
) ][
l it
Ġ| _|
Ġel apsed
##~~ ##~~
Ġ( '
Ġval s
ĠG od
Ġread Char
Ġare a
buff er
R ight
T IME
Ġc p
Ġun i
â¢ ¸
FILE NAME
141592653589793238462643383279 5
6 2
m ode
p le
Ġr a
Ġ4 8
ĠV ector
arg c
del ta
d a
Ġg ot
ĠS P
Ġat an
ĉĉĉĉĉĉĉĉĉĉĉĉĉĉĉĉĉĉĉĉĉĉĉĉĉĉĉĉĉĉĉĉ ĉĉĉĉĉĉĉĉĉĉĉĉĉĉĉĉĉĉĉĉĉĉĉĉĉĉĉĉĉĉĉĉ
: ..
; //
r ank
Ġcur rent
z z
Ġ Ø
ĠN umber
Ġmod Inverse
Ġbu g
Ð Ĳ
for i
Ġs ame
(" .
mat ch
]=='. ')
' ;}
Ġd q
8888 888
Ġ100000000 0000000000
count er
ma s
Ġmax x
ho ge
" :"
A l
I dx
c n
m l
Ġc n
Ġin verse
Ġ3 00
âķĲâķ ¦
âķĲâķ ©
w ho
re n
>> >>
ĠI T
ver sed
Ġ6 2
âķĲ âķĲ
Ġloc al
in s
;} ;
AN D
perm utation
Ġl f
Ġf ound
Ġma s
ĠF F
ĠP Q
Ġtr i
14 7
E j
G raph
a ux
h od
Ġd su
Ġ2 000
Ġq q
99 7
Ġread Type
MMMMMMMMMMMMMMMM MMMMMMMMMMMMMMMM
; \
Ġi o
uff le
, ;;
Ġm sk
Ġn i
(_ )
) <=
s ame
Ġs out
ĠN O
ab c
lim it
5 10
N um
Ġ Ã
Ġt aken
Ġd Power
lo or
22 22
################################ ################################
U se
str len
he ight
' ];
g ot
h h
n ot
p at
t j
ĠT ES
pr im
]) -
8888 8
) //
Ġ<< =
ar n
n om
Ġpr i
ĠC LR
sq r
acti ve
Ġc all
ĠR OF
10000 000
on enti
Ġ++ _
Ġw r
ĠC om
8888 88
A M
U E
n ight
Ġa m
Ġd im
mod ify
+= "
OR ARY
EMP ORARY
Ġp il
' ))
y s
Ġ ero
pos s
D ice
Ð ¸
Ñ Ģ
Ġgo a
I G
O f
P LL
t aken
Ġ" "
res olution
vis it
Con tain
c all
e i
Ġv pi
Ġt s
EEEE EEE
seg ment
Ġrem ove
) >=
2 88
W KKKKKKKK
v b
++ );
WW KKK
EEEEEEEE EE
WWWWWWWW WW
DDDDDDDD DD
di vi
KKKKKKKKKKKKKKKK KKKKKKKK
tf LGG
40 3
â¢Ģ â¢Ģ
ser ve
//* //*
Ġdia gn
I E
op tim
ĠR ep
Ġen able
ost ic
Ġdiagn ostic
cept ed
++++ ++++
cl r
con j
Ġr g
Ġ2 00000
ĠM S
ĠS et
ĠL ine
Ġ100 100
Ġcount er
Ġon ly
2 00010
L ast
M ode
l hs
Ġpre sent
141592653 59
sub tree
Ġlim it
Ġm int
Ġd ay
id ul
Ġpr Contain
are a
Ġn cr
(" <<
Ġan g
In dex
Ġfl ush
su ff
âķĲâķ¦ âķĲâķ©
c a
Ġll d
Ġtrans form
war ukazu
'},{'.','.','.','.','.','.','.','.','. '},{'.','.','.','.','.','.','.','.','.
c u
Ġa aa
ĠT ree
ith ub
ER O
* )
C C
f to
Ġf flush
Ġ' -'
Ġst ack
A H
O NLINE
n i
Ġ empty
Ġd c
) ].
){ }
el p
Ġor d
ĠPR INT
âĸĪâĸĪâķ ĳ
Ġt able
ation s
f unc
x s
Ġd ud
Ġarg ument
MX N
Ex p
Ġx s
+= '
ĠC O
âł ¹
48 3
C M
L OG
e ap
Ġ1 4
ĠD EB
ĠRE V
Ġ'? ')
( ~
Ġ um
in verse
vis ors
Ġvv l
Ġseg ment
ĠFI LL
l z
p y
s w
Ġexp onent
141592653589793238462643383279 50
P R
S ub
se en
Ġr ge
#### ###
main ing
Arr ays
Ð »
re ase
;;;; ;;;
Ġ1000 10
g ithub
ĠC ON
re ate
Ġl int
Ġl num
er s
le t
)) ))
mod int
Mod Int
Ġ' ('
Ġ100000 5
B IT
] ->
_ .
Ġ" ")
(( *
ĠDB G
- ');
H ead
Ġe ach
Ġw t
= %
] %=
Ġl et
Ġm ll
<< __
ĠT s
all oc
Ġdb l
S ingle
Ġ& (
Max n
################################ ################
erse ction
versed IntegerRange
A rg
E qual
F ind
i mp
Ġ **
Ġs b
18 28
Ġnumber s
P air
c opy
Ġl ft
Ġb a
Ġf riend
Ġin i
ĠB U
Ġ4 0
sol ver
AT E
Ġver tex
o ver
s d
s ource
w h
Ġde cltype
sh ift
T he
V AR
d r
n u
Ġp ol
Ġv a
ĠS ORT
e le
t olower
ĠA dd
Ġsc n
Ġ( #
ĠT H
)) .
Ġe qual
Ġ\ |
â¢ »
==' \
oth ing
onenti ation
' ][
define d
Ġn od
Ġch oose
8 6
Ù Ħ
Ġ 64
Ġc opy
Ġrep lace
8888888888888888 88888888
C ol
Ġ ...)
Ġc or
Ġs x
Ġt i
ĠB ASE
P ath
Ġt imer
Ġ) :
â£ Ĩ
ĠP i
Ġtr ie
Ġne ver
Ġbu ff
rem ove
write Char
ho me
ĠInt eger
â£¿â£¿â£¿â£¿â£¿â£¿â£¿â£¿ â£¿â£¿â£¿â£¿â£¿â£¿â£¿â£¿
[ ]=
n orm
Ġa y
100000000 0
; ........
E DD
W EEEEEEEEEEEE
Ġn w
KK E
KK W
WW KKKKK
<<" )
lo ad
WWW K
inf o
tf GGGDDDDDDDDDDDD
c ut
in i
Ġ2 3
Ġ2 56
Ġg e
, `
c ode
t ar
ar p
Ġll ong
.... :
Ġ% .
ĉĉĉĉĉ Ċ
ĠF IN
min us
all y
fi eld
Ġsh ould
âĶĢâĶĢ âĶĢâĶĢ
G L
b i
f p
s valc
ĠD e
Ġrep d
20 3
aa aa
right Child
Ġsol ver
. :.
7 8
T N
] ^
f ft
o se
Ġc um
ll int
en w
Ġ* __
ĠS L
add Edge
Ġchk max
5 000
C D
w ay
Ġ ï¿½ï¿½
Ġm set
Ġp y
10000 01
dig its
Ġsy stem
14159265358979323846264338327950 288
F low
k a
Ġi st
Ġa ct
Ġn s
---------------- --------
NN NN
20000 1
147 483
Ġmod inv
3 6
f ail
v ed
i se
ĠI I
Ġnum eric
left Child
O U
Ġint er
Input Iterator
S h
S z
b x
t d
Ġan y
!= '
]); }
ent s
ĠU pdate
Ġrt n
Ġcase s
' ));
I R
j a
re serve
ĠA l
ĠC H
Ġcol s
Ġ ....
Ġ clear
Ġ( &
Ġ- (
__ <<":
ĠS egment
Ġlb nd
ucl ide
ĠFi eld
q ry
Ġi sprime
for r
Ġf out
**** */
Ġu id
Ġub nd
4 2
; )
] &
Ġ') ';
+ "
r x
Ġp ob
Ġc x
Ġch min
tr ans
à¦ ¿
Ġsf ll
ĠRA Iter
? -
D iv
O p
Ġn Value
Ġc al
<< ","<<
Ġt ag
<<" ("<<
Ġch max
5 00005
? "
V s
Ġre sp
Ġpr im
____ ___
ĠL B
âł ī
1415926 5
Ġmodul o
Ġsk ip
147483 647
, '
k i
Ġm o
Ġp x
Ġb et
Ġpr od
Ġ/ \
vi ew
vis or
Ġ', ',
Ġchk min
, :.
P r
Ġa p
â£ ¤
======== ====
ah man
ÐĲ Ð
: /
I C
_ )
s o
on es
Ġp al
Ġs ll
ĠT imer
Ġu ti
Ġsort ed
Ġdefine d
[]={ -
âĸĴâĸĴâĸĴâĸĴ âĸĴâĸĴâĸĴâĸĴ
) ++
f d
Ġ []
er t
ĠF ind
â£ ¶
)+ '
"" ""
cy cle
plic it
ĠTES TS
5 2
h idul
Ġfast IO
G E
i x
r nd
re ated
Ġm an
si eve
Ġw or
up id
Ġ4 2
Ġms g
af e
Ġpro blem
Ġxy Point
âķĲâķ¦âķĲâķ© âķĲâķ¦âķĲâķ©
j ect
Ġs ource
Ġd t
ĠT N
Ġld b
comp os
Ġsu ff
. \
T r
e qual
ĠR est
ĠB IT
Ġ"; __
ĠO f
Ġoptim ization
â¡ ĩ
ww w
DB G
" >
F irst
() <
######## ##
Max N
) |
F raction
T able
U n
n Value
Ù Ĳ
Ġt im
Ġre pr
DDDD D
]] ){
ï¿½ï¿½ï¿½ï¿½ ï¿½ï¿½ï¿½ï¿½
________ __
Ġac c
Ġend s
M ACRO
Q uery
T O
Ġ ------
// .
]) ){
Ġe q
10 3
({ {
gr am
1234567 89
: ",
at r
()) -
ĠI s
99 9
sk top
cc cc
sh ort
Ġsign ed
De sktop
G et
Ġs rt
it ch
Ġb ind
Ġ2 0000
pr op
ĠS S
ï¼ ģ
G NU
Ġj ud
00000000 0000000000
De bug
Ġ emp
Ġd s
Ġr rep
max l
di vs
Out put
G i
e ded
f h
t urn
u g
si ve
Ġo str
and ard
row s
Ġdig it
r ope
], &
ĠN L
ĠR REP
pp ed
ĠE dge
AC H
Ġ'. '
d g
l x
| =
Ġm ode
Ġ2 2
ĠP ro
âł »
ĠH OME
77 72
Ġ(~ (
R R
f oo
u v
Ġa fter
en ce
it f
Ġt b
Ġ& ...
al k
]) *
ind x
Ġz i
) &&(
d j
t arget
Ù Ĵ
Ġ ï¿½ï¿½ï¿½
Ġv ld
KK WWWW
ze t
Ġll inf
GG DDDDDDDDDDD
000 1
Ġle v
WWWWWWWW WWWWWWWW
âł ¿
Ġsp ecial
Ġ.: ,:
7 1
a ze
w ik
ac he
Ġt out
Ġr o
Ġfor it
can d
mod ul
ĠG cd
]+ (
Ġ10000 1
à¦ °
Ð¾ Ð
Ġ ..
Ġm atch
Ġs ci
Ġe p
Ġ'. ';
34567 89
Ġi mi
Ġ\ \
97 8
Use rs
s ave
Ġ1 3
ĠT IME
ĠD ist
Ġfi x
Ġmk p
âłĢâłĢ âłĢâłĢ
' ]=
l ax
r p
y ear
Ġ endif
ou pper
Ġd a
Ġe le
tr ace
li p
AN S
jk stra
d le
p d
v x
Ġs fl
ti ces
Ġw rit
Ġh ow
ĠV s
<<"[ ";
ĠCON T
7772 16
: %
P RO
() &&
ĠM D
Ġe very
(' -');
qu are
ter n
ãĢ Ĳ
ãĢ ĳ
GNU C
= __
k y
t k
Ġi mag
it ive
>> {
Ġh o
comp ute
Ġimi e
F ast
] <<"\
i us
Ġc d
Ġ2 1
Ġy ear
Ġst upid
11 1000
ï¼ Į
8 2
b ot
h am
x b
er os
Ġre size
Ġpos sible
' ].
H T
a o
t v
Ġ< >
Ġf ail
Ġre maining
ĠC P
Ġde que
]] +
tim er
Ġtemp oraryNode
value s
Ġbig int
Ġwh en
w ord
Ġa x
Ġn p
Ġb el
Ġre q
un iform
ĠR D
ĠD ice
â£¿â£ ·
arn ing
Ġ) );
ig h
]==' *
bin ary
Ġzi pper
u c
x a
æ ķ
Ġf to
ĠP ower
ĠB S
Ġ": "
Ġover flow
ĠSH OW
( --
, *
1 33
L OCAL
b c
i able
q s
v t
v en
Ġf t
Ġf ft
pp ly
Ġ10 5
500 1
p nt
» ¿
ï »¿
ĉĉ ĠĊ
le af
TES T
prod uct
Q UE
b g
ou n
ur s
Ġan c
ĠV VI
Ġex hausted
Ġelement s
S top
Ġ1 11
Ġb al
Ġf loor
ĉĠ ĉĉ
ĠA c
ĠA ll
]<= '
Ġï¿½ï¿½ï¿½ï¿½ï¿½ï¿½ï¿½ï¿½ ï¿½
v y
{ {
Ġ ****************************************************************
ou gh
Ġd on
ĠO F
Ġpoint er
init ial
cy c
Ġ'* ')
Ġgener ated
b te
t oupper
de n
Ġf b
ĠT o
Ġ' +
ag ate
Ġcomp are
Ġrow s
ĠComp are
ucl id
O M
b akh
t K
st andard
ĠM ore
temp oraryNode
ck et
Ġun ique
pre sent
à¦ ¨
æķ °
9 4
T e
Ã ł
Ġle ad
54 77
) >::
8 1
A lex
c at
f re
Ġl a
Ġm l
ĠP OW
}; //
Ġw arning
Ġst m
exp o
ĠAc cepted
. "
7 3
D EP
S eg
h ull
r om
s v
Ġ ////
en i
Ġpr ob
........ ..
ff f
58 07
âĸĪâĸĪâĸĪâĸĪ âĸĪ
uck y
Exp onentiation
4 99
B LE
P RE
f b
n v
æ ľ
Ġc b
Ġ' _
un used
om et
âĸĴ âĸĦ
22 337
14159265358979 3
Ġpw r
68 5477
203 685477
22337 203685477
D mit
J Helper
b t
j d
p v
ti i
Ġ2 4
ri ev
Ġcl k
ĠJ Helper
ey Dmit
ĠDe bug
Alex eyDmit
AlexeyDmit riev
M at
T H
Ġ JUDGE
Ġs cc
Ġ' (')
]) /
;;;; ;
Ġ6 3
dis able
]>= '
Th an
l on
Ġl inf
Ġf e
ti ent
Ġans w
Ġw a
Ġhe ight
Ġ100 5
ĠInput Iterator
41 97
W ord
h alf
v owel
Ġ ************************
Ġy s
ĠF R
min n
Ġget int
aa a
!! !
S H
d st
h en
Ġ ))
ch ain
is Whitespace
Ġit n
enw ick
14159265358979323846264338327950288 4197
22337203685477 5807
) ^
k en
Ġm si
Ġp art
Ġd j
Ġ2 8
Ġmin n
Ġst k
point s
FF ER
IT E
) <=(
R oot
s ha
Ġl ps
ou s
ac c
Ġ| \
ul er
ĉĠĠ ĉ
ĠINF LL
ex plicit
MMMM M
pt s
sl ope
Data End
c std
f c
Ġ old
Ġl arge
for ward
Ġs w
con nect
---------------- --------------
ĠO p
oc c
Ġhe ap
ME M
iiii iiii
L ONG
S A
j ump
ver tex
br ur
Ġhell o
ĠCom mon
& (-
A ll
Ġ< (
at an
Ġmod Pow
Ġconst expr
ĠC heck
18 0
Ġ10000 01
Ġlo ok
ant s
C ircle
O K
P OW
n ex
Ġn b
Ġw ays
âĸĳâĸĳ âĸĮ
get s
ay er
Imp l
number s
ðŁĴ©ðŁĴ© ðŁĴ©ðŁĴ©
è ¿
re ader
Ġs rc
sort ed
Ġ100000000 000000000
Ġpow w
ath er
................................ ..
Ġdo es
ï»¿ #
, ........
: .....
G EE
K WWWWWW
L GGGDDDDDDDDDDDD
x r
Ġn c
() %
Ġ" ?
an e
WW KKKK
LL GGDDDDDDDDDDD
EEEE D
ĠS ET
00000000 00000000
DDDD DD
KKKKKKKK KKK
Ġread Array
20 10
Ġ. ::.
Ġ... ,.
;;;;;;;; ;;;;;;;;
WWWWWWW KKKKK
Ġhtt p
G CD
ĠU B
In v
lc p
........................ ..
Ġsuf fix
vers ity
: ...
: ........
== =
Ġu map
Ġtr av
**************** ******
Ġext ended
" +
e ight
f printf
m r
ll ong
**** /
Ġj t
Ġy n
th ing
LI B
PP L
PC PPL
Te am
s dbg
w y
if ul
Ġs core
am p
Ġ# "
//////// ////
-------------------------------- --------------------------------
d at
w ork
de v
Ġn C
Ġn othing
Ġr it
Ġ2 00010
pr i
Ġg i
time s
ER E
Ġpow m
o ll
o red
Ġl in
ti Test
____ _
(_ ,
sh uffle
ra w
ing s
id s
sp lit
ĠA R
Ġ5 000
Ġvv ii
lc m
$$ $$
ĠEnd l
; _
A K
D S
E OF
P F
e ach
h at
s b
s gn
} ]
Ġt Start
id th
ĠS ize
"<< __
Ġfact d
Ġper m
b el
l in
t ask
Ġl t
Ġc os
it a
Ġ2 01
ĠD L
num s
ĠX XX
Ġfast io
ĠMX N
à§ į
T imer
con t
Ġf p
al ign
Ġmod ify
ĠR ead
val array
12 3456
pol y
3333 3333
Se arch
ĠCO MP
) ]);
B its
s out
t w
Ġ **/
++ ]);
Ġ{ "
Ġd ump
Ġll u
Ġ3 3
ĠL cm
Ġbit maxl
Ġprint Single
Ġtime s
8 3
= {
A t
f up
Â ¦
se lf
Ġ& );
si lon
bu w
ĠL S
â£¿â£¿ â£¿
Ġse q
MMMM MM
FOR N
ĠUn i
%%%% %%%%
M ap
f valc
s Count
re am
hi m
]) *(
tr a
>= _
get num
fl g
Ġ(" .
Ġinit ial
db l
dec ay
Ġep silon
g on
re ction
Ġb i
ans w
set s
ĠA N
Ġdi vs
ie ve
Ġum in
" ){
) >(
L azy
Ġl z
Ġp hi
Ġp uti
Ġf il
0000 01
Ġw atch
O S
c al
l arge
n pos
ä »
Ġ *****
de tail
Ġs rand
Ġ' ||
ĠP RO
un ite
âĸĪâĸĪâĸĪâĸĪ âĸĪâĸĪâĸĪ
w b
Ø ±
Ġp ublic
Ġc a
Ġt urn
id ge
Ġu max
ĉĉĉĉĉĉĉĉ ĉĉĉĊ
Ġto Int
ĠLL D
ĠFOR R
ĠUni versity
K i
O r
k v
Ġs on
it em
Ġ2 147483647
cond ition
10 2
Ġw ay
Ġsp ace
ik aze
ĠPrint s
ä¸ Ģ
Ġsmall est
wr iter
9 5
: ;
b ute
k ikaze
r ay
t sc
Ġi gn
Ġinf ll
32 1
AN G
ï¼ģ ï¼ģ
' );}
) --)
: \\
A uthor
P art
k o
Ġp e
Ġp fl
Ġ" +
Ġq ry
is mi
ĠS eg
RE C
Ġscan I
Ġscan L
Ġsp eed
...... :
jk l
Ġ{{ {
ismi llah
' re
G D
c as
q ueries
s r
s cc
å °
se s
Ġa v
Ġ" =
er c
ĠĠ ĉĉĉ
Ġr v
ĠF A
-------- -
... (
Ġtr y
ĠD A
ĠV L
# .
/ ************************
3 00000
Ġ ort
<<" {
Ġpr op
ĠL G
âł Ļ
polic ies
" ))
3 000
U pdate
e ll
f en
f write
å Ī
Ġs it
at s
ĠC h
ĠG raph
te am
Ġcy cle
Segment Tree
' ll
) >>(
. ,
T Y
V owel
d ing
i red
ï ¹
Ġp u
Ġcon tainer
Ġst derr
Ġmul mod
ng ine
over flow
E xt
or ds
as df
ĠP ER
OD E
un i
"<< #
one y
Ġcl z
Ġfin ish
11111111 11111111
/ =(
T aken
Ð ¡
å Ĳ
Ġm ore
Ġa pp
cl es
Ġp ss
er active
ed g
que st
15 0
Ġvis it
â¡ Ħ
âĸĮ âĸĮ
___ (
Ġwe ight
O n
] ++,
_ [
n Time
v o
w here
} ),
for geeks
Ġv t
Ġt x
Ġ* _
10 11
ĠS tr
ĠP A
Ġto o
est or
Ġse e
######## #
ĠV V
Ġlow bit
Ġext gcd
ĠMA IN
G cd
W IN
o x
t le
z ip
() ];
Ġint eger
Ġ' {
ĠM DL
Ġcon nect
ĠA pply
Ġq ueries
ĠL CM
ĠD i
++-- ++
point er
OUT C
we ight
++--++--++--++--++--++--++--++--++--++--++--++--++--++--++--++-- ++--++--++--++--++--++--++--++--++--++--++--++--++--++--++--++--
geeks forgeeks
) ||(
B e
P ar
00 1
ur ation
Ġb ot
Ġd f
]) ==
ĠF T
Ġun ion
/* !
Ġvii i
ave s
___ /
LI M
Ġ'" '
Ġpol y
erc iful
G en
S ort
s n
t b
Ġ ##
Ġp rep
Ġr x
Ġy yy
)) -
<= _
erator Monoid
ĠL ONG
"<< (
âĸĳâĸĳâĸĳâĸĳ âĸĳâĸĳâĸĳ
Ġsi de
â¡ Ī
tri bute
Ġref lect
DEP REC
t ing
Ġ ĉĊ
Ġl double
se ed
at tribute
Ġ3 00005
ĠR I
Ġor ig
pro cess
ĠUn ique
alloc ate
F R
W ith
d ump
n ep
u le
in ic
Ġm rand
Ġp nt
Ġx r
Ġf un
ĠT EMPORARY
Ġr n
ĠF J
ĠA BC
ĠL e
ĉĉĠĠ ĠĊ
100 500
................ ....
1111 11
;;;;;;;; ;
rg t
Pro ject
2 55
l ag
p ot
Ġm ust
ĠT C
ed i
Ġ| __
Ġmax imum
is s
ĠP L
Ġstdin Buffer
Ġco ef
20 5
stdin Buffer
Ġthe re
UT ION
ĠFI X
Ġneg ative
E ND
n max
r v
t em
Ù ĳ
ĠM ove
map a
pos sible
ĉĉĠ ĉ
count s
Ġ. ,
âł Ī
ĉĉĉĠĠ ĠĊ
sc n
Ġso me
C ost
F act
M A
T wo
i b
r otate
in ary
Ġpair s
S quare
f ull
l r
in side
Ġp v
Ġv it
Ġb x
end s
Ġj oin
nt ime
ĠM ul
ĠN N
Ġcon vert
ĠS um
OD O
un ion
ĠO ut
Ġ\ /
ĠE x
yy o
W EE
Z ERO
t en
Ù ħ
de nt
de lim
__ <<"
)) &
Ġde ep
ĠO I
Ġang le
, .....
E i
E KE
K D
W KKKKKKKKKKKKKKKK
Ġint ersection
KK WWW
emp late
DD f
IN G
WWWW WKK
Ġit em
min ator
Ġo cc
Ġun ite
KKKKKKKK KKKK
EEEEEEEE E
WWWWWWWW KKKKK
DDDDDDDD DDDDDDDD
âł ģ
KKKKK WWKKKKK
jj t
..... :::
KKKKKKK WKK
Ġli ke
WWWWWWW KKKKKK
EEEEEEEEEEEE EEE
DEEEE E
we en
bl ack
Ġï¿½ï¿½ï¿½ï¿½ï¿½ï¿½ï¿½ï¿½ ï¿½ï¿½
WWWWW KKKKK
LGG DDDDDDDDDDDD
,,,,,,, ;;;;
tj LLGGDDDDDDDDDDD
q rt
x i
); //
Ġl son
Ġp h
Ġc ub
-- (
Ġv r
Ġf en
Ġr son
Ġg g
ĠD F
Ġbit set
<<") ";
L i
_ ##
p h
r mq
clu ding
er ation
Ġpair t
ĠF ord
ĠINF L
âķĲâķ Ŀ
ĠLOG N
+ ".
B uf
b as
ĠM N
-------- --
Ġq pow
AR T
Ġpos ition
ĠV P
................ ...
ri e
av y
ost m
Ġdig its
, {
. ::
E X
j ud
Ġm u
Ġrep i
]={ };
ĠIn cluding
200 100
Ġal pha
Ġ'# ')
) ],
C L
H eap
a ult
c entroid
w d
§ ÙĦ
Ã ¥
Ġt ab
Ġd l
ĠT ODO
Ġre lax
20 20
fin ish
ba sic
ĠØ §ÙĦ
C ode
I S
L ist
[ -
e printf
st eps
Ġn ax
Ġs max
ir d
ĠĠ Ġĉĉĉĉ
ut u
)) ==
Ġop t
Ġw ant
]==' #
zi pper
zi pped
ĠEND L
' ])
< >
g l
r ig
v pii
Ġ ot
st dex
le f
__ ),
op cr
Ġw ord
pre p
cc c
****** /
ĠMEM S
ĠUN I
Ġsha hidul
stdex cept
opcr of
5 77
N ame
a ei
f mt
o ice
Ġn u
Ġp ot
Ġint ersect
Ġma g
Ġg ive
Ġpr in
Ġall r
âķ ļ
âĸĢ âĸĴ
Ġ'" ';
multi precision
- ';
y k
~ (
Ġa to
ou ps
Ġ2 7
Ġpr ln
ĉĉĉĉĉĉ Ċ
and om
à¦ Ł
ĠQ uery
tic al
Oper ation
ĉĉĉĉĉĉĉĉĉĉĉĉĉĉĉĉĉĉĉĉĉĉĉĉĉĉĉĉĉĉĉĉĉĉĉĉĉĉĉĉĉĉĉĉĉĉĉĉĉĉĉĉĉĉĉĉĉĉĉĉĉĉĉĉ ĉĉĉĉĉĉĉĉĉĉĉĉĉĉĉĉĉĉĉĉĉĉĉĉĉĉĉĉĉĉĉĉĉĉĉĉĉĉĉĉĉĉĉĉĉĉĉĉĉĉĉĉĉĉĉĉĉĉĉĉĉĉĉĉ
; */
N C
P re
S P
] };
c os
f ul
t ut
x D
Ġ ],
Ġu li
(), ::
â¡ ·
RE AD
/******************************** ********
float field
Ġcross Oper
By One
rease ByOne
tra its
#. #.
" };
5 00000
? ?
l ab
Ð º
Ġm f
Ġr otate
Ġ} }}
Ġu set
ĠN U
ĠF L
ĠD ata
Ġld bl
ES S
Ġpre c
big int
AA AA
Ġign ored
L ower
l v
r ary
de lete
Ġi ss
Ġc u
Ġ& ,
Ġd ays
nc r
}; ///
ak i
Ġse en
]==' ?
(' -'
Ġpop cnt
Rep lace
7 5
D ig
b an
j oin
Ġ DD
-- .
(), "
ad ius
ul i
Ġgcd Ext
Ġne eded
ĠIt erator
ĠSt art
('-' ),
4 59
a use
Ġs ay
Ġr f
Ġr file
Ġpr nt
Ġw file
ĠR es
âĸĳ âĸĲ
________ _,
â¡ Ģ
Ġcount Bits
Ġshort est
ahman ir
ĠOp eratorMonoid
) ||
b templ
f LL
p art
Ġ ent
Ġmem s
ĠLL INF
Ġread Double
FOR E
Ġlc p
Ġcomp ute
Ġpt s
................................ ....
clz ll
âĸĳâĸĳâĸĳâĸĳâĸĳâĸĳâĸĳâĸĳ âĸĳâĸĳâĸĳâĸĳâĸĳâĸĳâĸĳâĸĳ
499 6
sCount er
9 6
C h
R ed
a ke
j an
v d
__ |
Ġmod Int
ext ra
ĠI F
50 1
read Int
AS H
DB N
ĠOut put
A Y
S p
_ \
u y
Ġf read
__ ,_
Ġk now
Ġpr l
sk ip
50 10
root s
19 8
iiii ii
âĸĲ âĸĳâĸĳâĸĳ
256 000000
Ġho ge
) <<(
y b
00 7
Ġb ut
ch ed
et a
IN PUT
ĠF args
Ġget line
Ġrep e
TT Y
Th xD
@@@@@@@@@@@@@@@@ @@@@@@@@@@@@@@@@
################################################################ ################################################
PRE TTY
ThxD em
0 33
B G
C O
u dge
int ersect
Ġ<< '\
// ++--++--++--++--++--++--++--++--++--++--++--++--++--++--++--++--++--++--++--++--++--++--++--++--++--++--++--++--++--++--++--++--
Ġmax imize
ĠL CA
++--++-- ++--++
Ġ", "
++--++--++--++-- ++--++--++--++
Ġth r
++--++--++--++--++--++--++--++-- ++--++--++--++--++--++--++--++
ms g
âĸĪâĸĪâķ Ĺ
ismillah ir
ĠFIX ED
Ġmag ic
//++--++--++--++--++--++--++--++--++--++--++--++--++--++--++--++--++--++--++--++--++--++--++--++--++--++--++--++--++--++--++--++-- ++--++--++--++--++--++--++--++--++--++--++--++--++--++--++--++
' ),
9 1
Ð Ķ
Ġs r
Ġv x
Ġb c
ĠA bs
... :
â£ §
Ġst ore
10000 10
clo c
Ġdi visor
gr oup
Ġskip Whitespace
) ])
7 1828
h ing
x or
Ġt en
ĠN ot
Ġpb ds
Ġget bit
Ġis digit
200 1
************** *
Ġel if
Ã¥ Ã
d uration
r l
r at
x c
Ġf pow
ĠT ASK
ĠA kikaze
Ġmp ow
ĠO M
ĠAr ray
Ġdb gs
Ġvv vi
II II
<<"] ";
AND OM
ĠBU FFER
' -'
A P
C y
_ ^
r all
r nk
u al
Ġi l
or ig
if e
le ase
ma il
Ġ| /
()) :
Ġit s
Ġnum s
Ġstart s
no minator
+=( (
âĸĴâĸĴâĸĴâĸĴ âĸĴ
ization s
Ġref erence
) >=(
S F
ã Ĥ
Ġ stre
re ge
Ġm ost
Ġs min
el y
ve x
â£ ¦
ĠP ow
ĠC L
ĠB it
________ ___
12 7
Ġ10000 10
dd dd
Ġdi rection
Ġindex ed
____________ __
problem set
MS C
modul o
rege x
) ]=
p n
u ild
() !=
Ġq s
pos ition
55 5
Ġprint s
Ġprint array
Ġsub mit
__, __
deg ree
iz er
fin al
total Count
F IN
U R
U pper
b ur
d t
Ġv y
Ġj ust
ĠI S
im ie
mem cpy
141592653 6
:. :.
Ġgo al
Ġver tices
âĸĳâĸĳâĸĳâĸĳâĸĳ âĸĲ
' -
G ET
L ANG
Ġ ////////
Ġ YES
__ ((
Ġ} ,
Ġif ndef
Ġ_ .
Ġh elp
]- (
Ġbit num
Ġbit count
FFFF FFFF
ward Iterator
abc def
DEPREC ATE
R ow
R ITE
` ,,
q x
Ġi end
Ġ1 10
() /
Ġs fi
ct r
Ġg l
]] ]
Ġ10 10
Ġset In
Ġset Out
â¢ ¾
neg ative
ĠInput Iter
ä¸ ª
âĸĪâĸĪâķ Ķ
//*//* //*//*
__,_ |
' m
A Z
B B
] ||
l at
m b
è ¡
Ġp si
Ġ" ;}
Ġt d
Ġb oth
ĠA ND
cnt r
ĠC ount
Ġmem cpy
ta b
Ġread N
//////////////// ////
Ġbe fore
-' ){
Ġon bit
child ren
Le ss
xy z
N ext
f ree
g hi
Ð £
å ı
Ġp queue
Ġr ll
Ġr mq
Ġin side
pair s
mod fast
Ġh h
20 1
Ġcom mon
function s
pro gram
1024 000000
dev ice
Ġ'{ ';
) ->
L ES
S N
l op
Ã ®
å ¤
Ġ2 27
Ġreturn s
Ġmod pow
ĠR a
Ġh s
Ġ10 1
fast io
wer ty
Ġscl l
plus plus
Debug ger
M ask
R est
b rr
s rt
Ġ( _|
Ġp ass
() ).
Ġin dist
Ġmin imize
Ġz ip
Ġse arch
ex cept
ĠV EC
ono state
ĠÐ ¿
Ġ"{ "
qr st
Re versedIntegerRange
ĠRe versedIntegerRange
ĠInteger Range
Un ion
uv w
Ġ'+ ')
" :
D own
G reater
N max
j i
t out
ä º
å ĩ
de dge
Ġi ceil
ĉĉĉ ĠĠĊ
Ġa i
op qrst
Ġre cur
]= ++
et urn
Ġe s
is Prime
... >
Ġ_ `
Ġ(( *
ĠG NU
Ġto String
mn opqrst
Ġroot s
Ġsub tree
Ġno except
âĸĦâĸĢ âĸĴâĸĴ
ĠAN S
jkl mnopqrst
Ð¡ Ð
abcdef ghi
uvw xyz
abcdefghi jklmnopqrst
7 6
8 5
M y
c oun
h elp
i G
p e
-- -'
<< ((
Ġf io
)) +
)) ,(
Ġu f
Ġe uclide
â£ ł
ĠD S
ĠI f
Ġstdin Pos
Ġstdin DataEnd
ĠO K
ĠIn it
inv fact
)){ }};
Comp lex
Ġmove s
Ùİ Ùĳ
IG HT
ĠTimer Start
abcdefghijklmnopqrst uvwxyz
! (
B U
D iff
f out
de t
ine s
Ġc pp
ll ow
Ġx b
Ġ' :
ate s
ĠN um
ĠF W
sum s
all ah
left Count
St ack
================================ ============
Ġ<<" \
tK arp
opcrof tKarp
################################################################################################################ #
) };
2 15
I f
N T
P rint
f e
i sprime
w hite
de m
Ġl r
ac ity
ir l
el ist
Ġg t
-------- ----
Ġ__ __;
____ __
Ġ7 7
({ -
Ġmap a
bb b
po z
Ġal gorithm
Ġal ways
block s
ign ore
Ġcomb ine
ple Test
! \
. ;
F ile
t GG
x f
å Ľ
Ġr sz
DD i
ĠB R
Ġread Long
mi x
200 200
For ce
Ġdivi de
[_ ]
': '
ĠSegment Tree
initial izer
, ..
D EEEEEEEEEEEE
G WWWKK
K WW
K EEEEEEEE
L GGGG
N ot
P E
T EMPORARY
W EEEEEEEE
W EEE
W KKK
W KKKKKKK
Y ou
f DEEEE
t or
in file
Ġ1 80
out file
KK G
KK i
ĠT r
WW EEEEEEEEEEE
EE L
EE f
od o
as d
ble ms
DD WWKK
EEEE ED
... */
WWWW K
Ġw w
tr ol
/* ...
EEEEEEEE EK
Ġmx s
,,,, ,;
:::: ..
Ġ. :.
DG f
EEE WEEEEEEEEEEEE
KKK WWW
go al
KKKKK WWWWWWWWW
KKKKK WKKKKK
[]={ +
KKKKKKKKKKKKKKKK KKKKKKKKKK
KKKKKKKKKKKKKKKK KKKKKKKKKKKKKKK
be ki
DDDDDDDDDDDD DDD
WWWWWWW KKKK
WWWWWW KKKKK
::: ;:
DEEEE KKKKKKKKKK
,,, :.
suf fix
Ġ.: ;
EEEEEEEEEEEEEEEE E
rd v
.: ;
ij LGGGDDDDDDDDDDDD
GGGGGGGGGGGGGGGG GGGGGGGG
EEEEEE DDf
DEEE KKKKKKKK
itf GGGDDDDDDDDDDDD
ĠMul tiTest
ĠOI mode
.....::: ..
P FL
S FL
a de
v f
z a
Ġm is
Ġ== >
el s
set fill
Ġit os
Ġ100000000 00000000
Ġex po
Ġ9 87
16 93
................................ ......
Ġoff set
. ::.
3 00010
M I
S OL
V E
c st
e k
f ll
f tree
Ġb ar
Ġf re
Ġ' /
>> &
ĠS OL
mod num
Ġ# %
(- (
Ġ100 1
com b
Ġab c
Number Iterator
Sh ort
compos ition
pleTest Mode
a fter
d ul
p ull
x po
Ġ inclu
Ġ âĢ
Ġv out
os s
ans s
sp eed
ul ation
ĉĉĉĉĉĉĉĉ Ġ
]] -
Ġgr oup
ho st
Ġdis c
ill ah
Ġfunction s
sw itch
Ġbet ween
ham dul
141592653589793238462643383279502884197 1693
hamdul illah
1415926535897932384626433832795028841971693 99
8 4
B R
U p
f align
s DEB
Ã ²
Ù ı
re a
Ġs afe
al i
Ġy a
ĠA BS
â£ Ģ
Ġ3 6
fs ched
()); }
]] >
)( __
ĠO N
Ġle af
Ġset bit
======== ==
Ġinv fact
bo ard
Power Of
Se cond
Ġsha red
optim ize
PowerOf Two
A s
m v
m erciful
y o
Ġ ****************************************
Ġ 997
re sp
re ach
() *
op le
el n
ĠC ASE
Ġun iform
mx N
Ġpower mat
Mod Matrix
Ġmy rand
âĸĵâĸĵ âĸĵâĸĵ
âķ¬âķ¬âķ¬âķ¬ âķ¬âķ¬âķ¬âķ¬
divi der
" ).
' ==
2 000000
g i
l as
l ucky
o od
Ġn ex
Ġb t
(" {
Ġj ump
Ġmin us
Ġh or
ĠC reated
ĠD OU
âĸĳâĸĳ âĸĪ
Ġfi b
]+ =(
ï¿½ï¿½ï¿½ï¿½ ï¿½ï¿½ï¿½
Ġfr r
ĠMax n
5555 5555
TASK NAME
ĠDOU BLE
] --,
m stream
o y
t ext
Ġp lace
sp f
Ġre d
Ġre pp
is alpha
th r
................ .
Ġ(" -
fact ors
Ġnext Int
/******************************** ************************
Ġthr ough
, ``
T t
f ma
s fl
Ġ od
st a
st op
Ġs ff
LL L
ic es
Ġst eps
up er
â£¿â£¿ â£·
ĠB y
&& !
Ġis Square
Ġ4 7
Ġ4 00
Ġfr action
â¢ ¯
MMMMMMMM M
Ġind x
Ġ"] :",
â£¿â£ ½
â£¿â£ Ĩ
EC T
(""); }
âĸĳâĸĳâĸĳ âĸĢ
loc ale
]]]] ]]]]
â£Ĩ âł¹
âłī âłī
wik i
Lower Case
v ir
w ise
Ġl ife
er al
ar th
et ch
ĠA DD
33 3
In Out
])) );
ĠMax N
ĠZ ERO
move s
Ġimp lement
Ġrandom Integer
71828 1828
. _
7 4
T R
V ec
Y NC
c plusplus
f open
s g
s ingle
ret ty
ĠM p
ĠM at
Ġh ull
Ġle f
Ġmx n
ST R
hs h
Ġdi visors
Ġ9 223372036854775807
100000000 0000000000
Ġas sum
Ġ'# ';
ĠBig mod
ĠPower Mod
Upper Case
F i
} ");
an o
Ġr ot
Ġy b
pair t
... ));
ĠS p
res h
âĸĴ âĸĲ
Ġread Integer
ĠE Q
37 510
ary anc
OUT PUT
Ġnormal ize
ĠRE AD
Ġmultiply Mod
1234 5
quest ions
141592653589793238462643383279502884197169399 37510
A head
d im
m u
t nm
Ñ ĩ
ç Ĥ
); */
Ġv li
Ġt ar
Ġre qu
10 9
th an
ce ll
Ġfr u
par ator
ĠH ash
Ġ12 3456789
ĠFA IL
çĤ ¹
. )
G LI
Q ue
u a
Ñ Į
int t
Ġn j
** */
mp le
of ile
Ġw alk
ĠL E
Ġh alf
88888888 8
Ġprint v
================================ ==
Ġoff bit
ĠFORE ACH
Ñģ ÑĤ
ĠBig Mod
Ġ|_| \
]=='* ')
) ]++;
a ut
l ps
r ound
v ect
x l
| =(
Ñ ĥ
de ep
st ants
Ġt v
][ __
Ġ* )
line s
â£ Ħ
ĠP F
ĉĉĉĉĉĉĉĉ ĉĉĠĠĊ
Ġh ale
)% (
', ');
ĠMAX K
im al
1000 5
âĸĳâĸĳâĸĳâĸĳ âĸĲ
Ġex ist
1415926535897932 3
23 53
Ġct z
eed Force
Ġchild ren
prop agate
TY PE
Ġhale yk
0 3
0 123456789
2 10
B l
P S
_ );
e ff
p al
Ø ¨
Ġ 97
re ment
Ġ( ){
on ly
Ġv pl
ac ent
Ġd st
Ġfor t
et hod
ĠB inary
Ġco me
Ġfast power
@@@@ @@
Ġpro cess
BC XX
omet hing
GLI BCXX
6 64
B ig
Y n
] }
b X
l and
r in
v r
ķ Ð
Ġi oi
Ġa for
Ġs g
// /*
Ġre min
ĠS ort
Ġse ive
------ -
},{ -
Ġzero es
Ðµ Ð½
Ġtake mod
âłĽ âłĽ
ĠSP EED
Ġlocal host
++++++++ ++++++++
iable s
eturn s
4 20
6 54
F unction
Z ero
c hi
f il
p lace
Ġ ********************************
in ity
() <=
am ple
Ġ' [
], -
)) !=
Ġ&& ...
Ġe kv
ĠA IM
10 7
ĠD C
Ġde lete
âĸĢâĸĢ âĸĢ
be fore
Ġstruct ure
____________ ___
Ġ'# '
Ġstack overflow
Ġevery thing
L CA
M Q
g ain
v pll
// {
Ġ" ="
const ant
ĠT ype
(); (
Ġk o
Ġmid dle
Ġis PowerOfTwo
<<( #
âł ĩ
141592653 5
Ġth en
df n
bo x
ref erence
/************************************************ */
ĠEX IT
Ġinclu sive
E of
E LE
L f
T ask
p as
Ð ĵ
Ø Ń
Ġ **********************
id o
Ġr l
Ġre max
Ġu l
00000000 1
fi b
Ġz z
]==' (')
xx x
//////////////////////////////////////////////////////////////// ////////////////////////////////
Ġ'* '
Ġbl ack
ĠTH E
__<<": "<<__
ĠPro blem
3 60
E Q
E n
M x
P arent
b st
b log
c f
f nd
n ik
p hi
p li
v ot
re set
Ġ( ));
on al
Ġn il
Ġs omething
an i
Ġt int
Ġf ree
Ġr p
set w
as g
ĠM MM
Ġg a
ch oose
Ġif stream
____ __,
bu cket
,, ;
ĠC C
di visors
14159265358 98
ev ents
66 66
........................ .......
0000000 1
,,,,,,,,,,,,,,,, ,,,,,,,,
Ġam ount
<<"{ ";
thr ust
3 0000
: -
> )
C K
C ur
C ON
j ir
o a
Ġl y
Ġp lld
Ġp ull
Ġin fi
ĠN X
') *
Ġch ain
@@ @
di ct
<<": "
Ġcount bit
qu ence
Pos sible
Ġ10000000 21
Ġdef init
PR S
åĽ ŀ
D is
J K
] ^=
_ /
j f
k l
} "<<
Ġl x
Ġa max
Ġc reate
Ġs ink
ĠĠ Ġ
Ġg p
ĠA L
-------- -----
ĠP re
Ġ__ __
Ġmin imum
tr av
ĠD SU
]] !=
ĠINF INT
ĠV AR
ĠFOR d
â¢ ¹
right Count
Ġext ra
Ġdec reaseByOne
âĢ Ļ
divi de
, ',');
/ |
2 14
M DL
^ ^
c ircle
i sp
o z
p dd
Ġp sum
() >=
Ġv il
Ġt w
Ġb f
Ġk b
pr ob
Ġ__ ___
AR E
to tient
100 10
Ġpll l
20 97
read N
16 777216
Ġnorm mod
Ġline s
case s
ĠUn ion
ĠFast Read
& )
< >,
I s
V L
c v
d h
g ap
å ħ
Ġ 9999
de q
Ġc cc
ĉĉĉĉ ĠĊ
-- >
// --------------------------------
Ġ" '
Ġt ut
ti al
Ġ' >
("% "
ĠM AT
ĠM ain
Ġg re
Ġmake it
Ġh are
Ġget Sum
ex hausted
vi ky
Ġvv b
14159265358979323846 26
mark ed
27 1
/************************************************ ******/
ĠInteger Iterator
compos ite
è¿ Ķ
]=='? ')
* =-
6 00
G R
c ar
n j
s hi
t om
Ø ³
ĉĉĉ ĠĊ
Ġa li
Ġc m
Ġs lld
yp ot
Ġr y
ol og
DD E
Ġcon tain
ĠS PCPPL
un k
Ġst op
Ġvv pii
Ġfast er
vv l
Ġpro blems
Ġck min
Ġfactor ize
da u
'},{'.','.','.','.','.','.','.','.','.'},{'.','.','.','.','.','.','.','.','. '},{'.','.','.','.','.','.','.','.','.'},{'.','.','.','.','.','.','.','.','.
ele m
Ġman y
Ã® Ã
f name
g mail
j l
r an
Ġc i
end ido
]= "
ĠL IE
Ġ5 5
Ġread String
â¢ ·
ST ART
pow mod
Ġcomp onent
200 2
ĠFAST IO
Ġck max
â£» â£¿â£¿
EN T
eight ed
â¡Ī â¢¿
ĠgcdExt endido
) !=(
0 8
> "
G IC
S o
W hen
Y Y
c or
e a
h y
i q
p tion
r ht
x ff
} ));
Ġ= >
re ap
Ġi sp
() <<"\
-- '
Ġs ave
ac cess
Ġf ather
Ġr nk
)) ){
pr il
]) //
ĠM Y
Ġmax im
Ġh and
Ġz eros
ce ption
Ġadd Edge
à¦ ®
à¦ ²
Ġsc f
ĠInt eractive
:::::::: :
Ġbuff er
ĠAR Y
aei ou
h an
m st
r sz
x p
Ġ âĸĪâĸĪâķĳ
Ġa min
Ġc ps
-- ->
er a
Ġy Last
um n
second s
Ġ_ |
64 000000
min x
11 00
Ġto ken
ĠB ang
vi z
ha ha
Ġ9 000000000000000000
file s
ĠPR Id
â¡¿ âł
UL O
ĠnC r
( ==
? (
A V
C heck
T OR
T rie
f lip
se ive
Ġa mt
Ġa ug
Ġc present
Ġs ii
er ing
Ġd v
__ ))
Ġr ound
)) <
Ġu u
ĉĠ ĉĉĉ
Ġ) \
... ,
base d
**************** *****
ĠL ast
ĠD E
ĠH ERE
-------------------------------- ----
Ġtotal Count
ĠFor wardIterator
Dig it
Cy cle
(== )
& =
N ew
O P
R d
W rite
b p
de nominator
Ġma y
Ġr gt
sp ar
Ġfor mat
Ġg ll
ed ia
ĠR ALL
sum m
Ġh am
ip edia
97 7
fast IO
ab a
Ġdi sp
ĠW RITE
Ġcl one
Ġ((( (
Ġta jir
300 5
Ġ500 5
inter val
!=' -')
Ġ------ -
Fi eld
è¿Ķ åĽŀ
' ]--;
M ay
_ -
k ing
r n
z x
in al
Ġm st
Ġn m
Ġn v
Ġ" }
Ġt ask
ĠT ask
Ġr w
as ing
ith me
Ġe y
ĠP ll
ĠB UG
ĠB FS
Ġpos itive
ĠO FF
Ġ1000 111000
âĸĳâĸĳâĸĳâĸĳ âĸĮ
Ġvv pll
read y
38 9
Ġpp f
Ġmark ed
Ġ` "
Ġ'? '
Ġte am
optim izations
wik ipedia
sha red
asdf asdf
ithme tic
" \
( !=
5 00010
T C
T p
] )))
f ig
k night
l h
m oney
p ass
r im
¦ Ĭ
Ġl v
Ġm b
() <<"
Ġt olower
Ġf nd
__ \\
io ta
ĠM ap
Ġ) .
ag onal
he s
he st
;; ..
ĠB e
Ġle ast
Ġset w
100 3
','. ','
Ġsort a
lic e
su ma
................................ ........
po sed
ðŁ ¦Ĭ
xy Line
Ġbo ard
uclide an
Ġele m
(!= )
) \
V ar
Z Z
b k
b ar
c W
f G
t I
Ġ zet
Ġx l
si s
Ġll int
Ġk ill
ĠS C
ĠS I
Ġ3 00000
ĉĉĉĉĉĉĉĉ ĉĉĠĠ
ĠMAX M
Ġ. '
30 5
29 3
<<", ";
Ġls b
ffff fff
OO P
##~~##~~ ##~~##~~
Ð£ Ð¡Ð
B reak
G T
Q Q
_ <
q e
æ Ĺ
Ġn t
Ġma xt
op s
Ġr k
as u
]) .
ĠS A
ĠR ES
Ġst ar
Ġh ar
ĠC ODE
ext ended
âĸĪ âĸĮ
lo ve
Ġis in
ĠV PII
88888888 888
à§ ĭ
bo ok
~~~~ ~~~~
jump s
//////////////////// //
0 45
D f
G f
c en
t ed
æ ĺ
Ġ our
de b
Ġc nk
Ġd ad
(" ?
Ġ' ]
Ġcon v
Ġmax c
âĸĳ âĸĦâĸĢ
Ġget Max
ĠC ac
ĠB G
ver tical
Ġ4 09
âĸĴâĸĴ âĸĴâĸĦ
ĠE ngine
lib rary
Ġsort d
22 2
Mod ular
&( ~(
calc ulate
Ġfin al
!! !!
Res ult
ĠTimer Stop
trol IO
ĠEngine ering
& >::
A dj
E ven
G B
I nc
U U
_ ];
f io
h er
Ð ¼
Ġ 88
Ġ= ================
Ġc as
Ġs ig
Ġr ch
Ġr ig
WW EE
Ġre g
LL AH
â£ ¼
;} };
Ġcnt bit
Ġh t
Ġde n
vi ous
Ġ\ _|
58 2097
â¢ ł
seg tree
ĠW A
Ġor g
sh ow
Ġï¿½ï¿½ï¿½ï¿½ï¿½ï¿½ï¿½ï¿½ ï¿½ï¿½ï¿½ï¿½
â£¿â¡ ĩ
Ġimp l
Buf Size
ĠNU M
Ġcpp str
14159265358979323846264338327950288419716939937510 582097
' ve
( ...);
+ --
B ase
t am
w hitespace
de st
st an
Ġt k
Ġ' <
Ġ' -';
Ġ2 00001
... ;
Ġ3 0000
Ġst uff
ĠC U
ĠD ef
)( '
======== =
Ġsort ing
go a
AT CH
KE K
49 44
Ġbinary Search
ref lect
Ġwin ner
Ġcor rect
Ġpoly gon
14159265358979323846264338327950288419716939937510582097 4944
* ((
, ....
, ;;;;
5 0000
: ................................
; ,.
C P
D KK
D EEEEEEEEEEE
G DDD
K G
K EEE
K DEEE
M Y
N AN
W KKKKKK
d n
d v
f D
f u
f x
h ow
i DD
i DEEEE
z eros
Ð ŀ
ç Ľ
Ġ .....:::..
st ar
Ġc tr
for l
it t
Ġf Read
Ġf Write
KK EK
:: ,
:: :.
:: ,,,,,,,;;;;
ĠT L
WW KKKKKKKKKKKKKKKK
WW KE
WW EEEEEEE
EE KK
EE DDDD
EE KKWWWW
DD L
DD DG
Ġ++ (
ad r
Ġe qu
EEEE EED
... ,.
WWWW KKKKKKKWKK
ĠP os
=( __
Ġst ay
DDDD DDD
Ġget num
ĠC Tr
Ġis vowel
ĠV al
Ġ", ++
WWWWWWWW WWWWWW
WWWWWWWW WWK
GGGG DDDDDDDDDDD
GGGG GL
Ġ. ;
Ġ. :::;:
DDDDDDDD D
WWW KKKKKKKKKK
WWW KKKKKKKKKKKKKKK
comp ress
KKK WWWWWWWW
KKK WWK
:. ::::::::
KKKKKKKKKKKKKKKK W
KKKKKKKKKKKKKKKK WKKKKKKKK
DE i
WK E
tf GGGGDDDDDDDDDDD
St amp
WWWWWW KKKKKK
EEEEEEEEEEEE E
Ġev ents
," /
WKK WK
WWWWWWWWW GWWWKK
ED i
Ġ.: ,;
KW EK
ij LG
'},{ '
WKKKKK i
Ġgener ate
DEE KKK
Pair s
sd k
111000 111
æľ ī
GEE KKKKKWKKKKK
:........ .....
Sort Comp
edi an
WWWWWWWWKKKKK i
WWWWWKKKKK WWWWWWWWWWWW
è¡ ¨
Ġ.:. ,:
GGGGGGGGGGGGGGGGGGGGGGGG GG
Short est
:................................ .
0 2
C ASE
R eturns
Ġ( &...
Ġc ar
Ġ' }
as y
Ġe ver
Ġmin heap
Ġget s
ĠC ont
Ġvi ew
ĠO P
ec ution
Ġ100000 3
VEC TOR
'},{'. ','
âĸĳâĸĳâĸĳâĸĳâĸĳ âĸĮ
got o
alloc ator
Ġcor ner
459 045
718281828 459045
shi p
Ġ1000111000 111000111
718281828459045 2353
, --
; ,,
B O
O k
d l
e uclid
Ġs cd
Ġv ull
Ġfor up
Ġ, &
Ġ| _
Ġtr a
pp ort
ĠC an
ex ist
Ġpi e
VA L
1000 11
âĸĢ âĸĪâĸĪâĸĪâĸĪâĸĪ
)* ((
à¦ ķ
âĸĪâĸĪâĸĪâĸĪ âĸĮ
âĸĢâĸĢ âĸĳâĸĳâĸĮ
âĸĦâĸĦ âĸĳâĸĳâĸĮ
," %
Le ap
........................ .....
Ġ200 100
Ġsd k
âĸĪâĸĪâĸĪ âĸĮ
Ġback s
tic ulation
âĸĢâĸĢâĸĢâĸĢ âĸĢâĸĦ
âķĲâķ¦âķĲâķ©âķĲâķ¦âķĲâķ© âķĲâķ¦âķĲâķ©âķĲâķ¦âķĲâķ©
Ġwrit eln
jd flg
577 215
âĸĲâĸĳâĸĳâĸĳ âĸĦâĸĦâĸĳâĸĳâĸĮ
ÐĶ Ð
Que ue
âĸĢâĸĢâĸĢ âĸĴâĸĴâĸĴâĸĴâĸĴâĸĴ
Ġ409 6
577215 664
p ur
t ms
v ent
Ġ ####
Ġ( --
Ġa gain
Ġn max
cl k
// _
// */
Ġb lo
Ġb rr
Ġlong est
er m
Ġf up
Ġk hod
ĠM M
ad dedge
Ġ3 7
Ġo stringstream
Ġset fill
Ġread Impl
12 0
1000 100
ec ause
30 7
read Impl
inf uck
init Arrays
Ġinit Arrays
100000 6
br idge
Min Val
Ġbs r
Ġ') ')
ser ved
rd tsc
ĠEX P
================================== +
> ())
C E
[ ";
c z
c id
c ope
k th
s at
å º
Ĳ ¹
Ġl ab
Ġm il
Ġc entroid
Ġc ache
// '
Ġ2 00000000
back s
<<" ?
ĠP O
') ';
Ġmp ii
Ġ", ";
Ġbool alpha
ab b
xx xx
)<< ","<<
Ġcount s
IT Y
lc mp
ðŁ Ĳ¹
Ġfd to
ĠFi x
<<"] \
Ġbo x
Ġuti lity
ðŁ¦Ĭ ðŁ¦Ĭ
æĺ ¯
G N
M ove
` .
b es
j e
l m
l is
w itch
Ġ ****
ĉĠ ĉĠ
ii iii
ĠS LL
Ġsecond s
Ġinf l
22 9
1111 1
âĸĪâĸĪâĸĪâĸĪ âĸĪâĸĪ
Ġas d
anc estor
Ex ecution
stri ct
AB C
Ġte ll
Ġpat tern
lz y
Ġuti ls
1 31
C out
H i
M ain
[ !
] /=
` ..
c begin
i N
n YES
â ĺ
å ®
Ġ âķļ
Ġi str
Ġa o
Ġt u
le s
Ġf lip
ame ter
Ġr ai
Ġy o
Ġre ps
Ġin stead
Ġe e
â£ ŀ
ĠS witch
Ġw on
â£¿ â¢Ģ
ĠD O
MAX L
all a
ver sion
oc al
â¡ Ĩ
34 9
Ġas df
.: ..
â£¯ â¢¿
â£½ â£»
MMMMMMMMMMMMMMMMMMMMMMMMMMMMMMMM MMMMMMMMMMMMMMMM
â¢Ģâ¢Ģ â¢Ģâ¢Ģ
â£¶ â£¶
ĠPA IR
SP EED
â£§ âłĺ
Ġsubmit ting
Ġ227 420
cope Timer
Ġ227420 978
C R
P Q
S uf
m is
n NO
Ġv int
type s
Ġr FOR
]) !=
), -
()) *
Ġ_ =
Ġmin im
)% =
/// --------------------------------
******************************** *****
Ġfr ont
Ġadd mod
ST L
Ġsc s
Ġas sign
Ġpa use
28 7
}} }
ĠMA GIC
âĢ Ķ
æľ Ģ
bel ong
ethod s
' ]);
1 79
5 26
P ref
X Y
_ =
k h
s ink
æ ŀ
Ġ oth
Ġp n
<< =
ch u
ĠF RE
ĠC ost
Ġde s
ĠI L
ĠO L
Ġmx m
Ġ[ "
comp onent
Max Val
ĠH eap
ĠK night
Ġwh ite
Ġmodular Exponentiation
XX XX
Ġsl ope
/ ****************
4 97
: ";
X Z
p retty
r m
Ġ( ),
Ġp of
Ġ0 123456789
Ġd ust
Ġmod Add
Ġe uler
max v
Ġq e
ic o
Ġw l
fr q
Ġ7 2
Ġco ll
à¦ ¤
Ġen i
ON E
AT ION
element s
Ġdiff erence
Ġ"{ }";
Ġdeg ree
ĠNO T
cu oi
å° ı
ĠBinary Operation
divide nd
D el
L et
S olution
l ay
r ge
Ġt xt
con test
__ )(__
sp ecial
<<" }";
Ġmax heap
ss s
co ord
10000 2
par ity
Ġmn m
Ġvv v
Ġright s
ĠW H
199 9
Ġseg tree
Ġdo ing
ter s
Ġ200 5
âĸĢâĸĦ âĸĳâĸĳâĸĳâĸĳ
PRO G
ĠPRO GR
/************************ ***
]=='# ')
âĸĳâĸĳâĸĳâĸĳâĸĳâĸĲ âĸĳâĸĳâĸĳâĸĳâĸĳâĸĳâĸĳ
C ont
O I
W I
f ace
i ent
r ate
Ð ł
Ġi m
se p
ĉĉĉĉ ĠĠĊ
-- ;}
ac b
Ġb te
ĠT emplate
Ġre served
can t
ke ep
ĠP DD
Ġo i
Ġh a
ĠD FOR
Ġde t
mx m
ri vo
ĠE LE
ST D
-= '
mul a
Ġsub mod
AT OR
EC K
Ġmulti pleTestMode
ĠRA H
FFFF FF
Ġprim os
Ġbet ter
F ree
I F
W E
r adius
w idth
¦ ģ
Ð ´
æ Ħ
Ħ ï¹
Ġ= {
Ġi sz
Ġm om
ac a
Ġb an
at ing
Ġx a
Ġx or
Ġmod inverse
ĠF o
ge ti
fr ac
Ġ5 55
Ġ-- ){
In side
Ġ6 1
Ġcheck Mod
Ġfact ors
29 07
1010 101
ls o
Ġdeb pr
Ġdeb arr
Ġgen erator
Ġpl us
ĠDirection s
FAST IO
888888888888888888888888 8
â£¤ â£¤
{{ {
Ġfil ename
ï¹ Ħï¹
Ġcub e
Yn B
æĦ ı
ï¹Ħï¹ ĥ
* >
2 30
4 00000
B i
B uild
R and
S Q
W atch
_ ((
c ent
p u
q we
s afe
| !
Ã ¨
Ġn inf
si der
ol y
Ġfor ward
Ġre n
stre ad
ĠS y
âĸĳ âĸĪ
ĠC opy
Ġ7 98
co ver
Ġis Leap
Ġset base
now n
Ġco ords
Ġhe art
LE N
av g
Ġ"] "
Ġà¦ ķ
20000 2
anc ed
Pro blem
inter cept
RI X
/ :/
C or
W all
h az
r ahman
u ary
w atch
x cross
Ġ ol
Ġm ish
Ġn pq
Ġ{ },
std int
std ata
Ġb g
Ġf pi
Ġr ad
(); *
Ġfor do
Ġk th
"; }}
Ġmod Div
Ġe m
ĠF unction
ĠF FT
ĠF lag
put nb
10 198
is space
ĠS olution
Ġ3 60
Ġar y
sert sCounter
tr y
ĠC ase
ĠG en
]== ')
ĠI R
Ġsize s
Ġ? ??
Ġ100000000 0000
Ġ10 11111111
Ġ\ :\
//////////////// ///
43 1
pl ayer
Ġbit on
Ġbit off
Ġfast InOut
gr ade
sol ution
te stdata
St ream
à§ ģ
ln b
pw r
iz a
del rahman
)(( ((*
Ġ~ /
cs lnb
Ġqu it
SS I
acti ce
ĠCon tainer
lit tle
norm fac
atr on
Ġemp b
Fast er
ĠSHOW VECTOR
ĠSeg Tree
SOL UTION
Ġaug ment
141592653589793238462643383279502884197169399375105820974944 59
haz fast
Ġmish atron
2 50
? '\
F rom
H I
H ERE
k t
r al
t re
{ '
st er
Ġn ep
Ġ" []
Ġint o
__ \
nt on
>> ,
pr ice
Ġmod Sub
is whitespace
ize d
00000000 000
ĠC ircle
ĠG r
Ġto str
Ġ100000000 5
MMMM MMM
'. ';
ĠX OR
1000 1
ST AN
Ġvv ld
Ġon line
db lcmp
Ġsu re
8888888888888888 88
Ġfin p
ĠÐ ·
fore ach
Ġ50 5
Ġed g
var i
ov ed
çļĦ å
Ġge ti
!!! "
ðŁĲ¹ ðŁĲ¹
+ ",
2 000000000
> ((
A rea
D SU
S PCPPL
T args
a e
q t
Ġ et
se gn
Ġa ut
it or
Ġb ra
Ġd at
Ġf c
:: _
)) ][
set base
Ġans s
]) ]
Ġ| .
Ġq y
ag et
ĠL IM
ĠC o
pre calc
Ġ5 00000
Ġinf LL
clo g
Ġlen a
Ġ! !
stat us
Ġvv d
Ġtime Stamp
/******************************** ******
Ġrd tsc
Ġobj ect
Ġcy c
Ġpd queue
Ġalloc ator
Dist ance
bal ance
bot l
Ġ//////// ///
CON STAN
5 12
C rt
C LR
D bg
K night
Y ear
d c
l ans
m ost
m onostate
q werty
u nt
ä ¼
Ġ Â
Ġ close
Ġi a
def ault
en cy
() :
Ġf open
ti l
sp ot
ĠM ASK
Ġq i
ĠS W
ĠS h
ĠC alc
th ird
Ġ7 8
88888888 88
read Ahead
Ġbe f
II I
print Line
Ġ'. ');
Ġà¦ Ĩ
Ġ-------------------------------- ----------------
11111111 111
**************************************** **
99999999 9999
ru ntime
Ġge omet
Ġ'|| *
Bl ack
Crt Dbg
CrtDbg Break
+ ((
7 09
I K
N MAX
P tr
R a
U ONG
e uclidean
f y
m f
v ol
Ù Ĩ
st t
Ġ1 14
Ġp red
Ġs v
ar ithmetic
type cast
Ġr an
Ġre ct
ĠP air
ort h
ĠR ANDOM
Ġo v
Ġh rs
ĉĉĉĉĉĉ ĠĊ
ĠINF F
100 2
Ġ-- ++--
Ġac cepted
Ġtmp v
Ġwrite Word
Ġsf d
Ġmulti map
ew el
Ġalloc ate
0000000000000000 00000000000
1111111111111111 11111111111
ĠØ§ÙĦ Ø±
ĠIterator Type
ĠSOL UONG
spar se
ĠCopy right
E uclid
J un
S YNC
^ _^
b oth
r ot
w ant
} ]=
} ;}
Ñ ĭ
Ù Ĭ
Ġ EE
se l
Ġc ut
Ġc are
Ġv ect
Ġ" ");
le ar
si mple
__ );}
ĠT his
Ġ2 39
88 1
ĠN AME
ĠF X
ĠP DE
ĠP PII
Ġ3 000
Ġw idth
;; )
ĠC F
ĠC MP
mat ion
/* #
ce v
Ġpre cision
Ġread Line
Ġull i
//////////////// ////////////
à¦ Ľ
lim N
Ġth row
ĠMod Inverse
ĠALL AH
Ġ', ')
**************************************************************** ****************************************************************
ĠÐ ½
________________________________ ________________
VER S
/__ /
<<") ";}
Ġ**************************************************************** *************************************
fc se
ĠSp eedForce
Ġ'[ ';
æĹ ¶
ĠPROGR AM
1 37
9 223372036854775807
: ......:
; :.
L S
S ol
W e
c ache
ä ½
Ġ ])
ĳ Ðŀ
Ġ1 123456
Ġp lease
ll l
al go
ĠT h
Ġ2 28
Ġre unique
as m
Ġ) %
Ġe f
ĠF OUT
â£ ´
Ġtr ail
Ġ3 20
Ġar ticulation
Ġmp p
Ġget v
ĠI D
Ġ7 77
ĠV S
10000 9
Ġstr i
ĠFOR IT
,,,, ;
âł ¸
ĠH ASH
(' <<
ĉĉĉĉĉĉĉĉĉĉĉĉĉ Ċ
Ġwrite Int
................................ ...
à§ Ł
Ans wer
ĉĉĉĉĉĉĉĉĉ Ċ
ĠPrint V
bbbb bbbb
bbbb bbb
cstd int
dent ity
Ġ|_|\ __,_|
blog spot
ĠSy nc
" (
# ';
4 00005
B lock
T ION
d m
t our
Ġi ds
Ġm ex
Ġa tr
Ġn ok
Ġ> &
Ġb st
yp ow
Ġx Last
Ġr loop
el if
ĠM B
ow ed
=( *
ag ic
Ġo c
Ġh sh
Ġget Min
mx x
ro me
Ġset Bit
Ġread Table
<<' ('<<
adj list
AL T
be f
ang ed
âĸĵ âĸĪ
De f
Ġtop olog
ĠComp ut
small er
ãĢ Ĥ
FT B
Ġng y
Ġra and
Or der
âĸĮâĸĮ âĸĳâĸĳâĸĳâĸĳâĸĳ
Ġbot tom
Ġato i
intersect ed
' };
* )&
0 6
H OME
I l
O dd
] <<(
b d
n dp
q y
v pi
Ñ ı
Ġ= ================================
Ġl op
Ġn th
Ġc op
ĉĉĉĉ ĉĉĉĉĉĠ
Ġb id
ect ed
ĠM O
ĠD ate
th ree
Ġse ed
Ġ-- -
ĠU S
Int ersect
]={ -
di visor
Ġput num
read th
av ail
:. :
Ġtest Case
ev el
diff erence
\\ \\
Ġbuf Size
Ðµ ÑĤ
DEF INE
off set
Al go
prim elist
ÑĢ Ð¾
tar un
ðŁĴ©ðŁĴ©ðŁĴ©ðŁĴ© ðŁĴ©ðŁĴ©ðŁĴ©ðŁĴ©
Ġprop agate
Project s
etch er
Ġimplement ation
654 321
Ġary anc
# $
' ],
( ';
) [(
9 000
N L
O ff
V er
f loor
g ht
h p
h our
p sum
Ø §
Ġ OR
); ;
Ġ{ //
Ġp fs
Ġc at
.. /
us k
Ġx i
str chr
ue ss
Ġr m
Ġ: )
Ġop eration
mod inv
ĠL et
arr i
Ġall rev
ĠD X
ĉĠĠ Ġĉ
pre c
________ _
Ġpre compute
oc ol
Ġof stream
88888888 88888
âĸĦ âĸĴâĸĴâĸĴâĸĴ
Ġsu ch
Ġ") \
color s
Ġext r
DI A
aaaa aaaa
Ġbel ieve
ĠUNI VERS
Ġstre e
SSI BLE
Ġaugment ing
ĠUNIVERS ITY
. `
B ASE
D C
F args
N ow
T OC
\ :\
] <<'\
d ad
n C
o ok
r on
~ !
Ð Ĺ
ļ ÐĲÐ
de nom
Ġl w
Ġm it
++ /
for u
Ġ" <
an y
:: ...
ĠT A
ĠT ry
Ġre ach
Ġg u
ve cin
Ġmax v
â£ Į
ĠS U
un setf
Ġcnt r
ind rome
MAX M
Ġ10 24
sk i
Ġstr a
Ġread in
MMMMMMMM MM
Ġput si
ĉĉĉĉĉĉĉ Ċ
â¡ Į
do Replace
/** /
Ġ(* __
â£¿â£ §
â£¿â£ ¾
â£¿â£ Ł
ire ct
Ġorder set
â£¯ â£Ł
â£Ł â£¾
â£¿â¡ ½
SU CC
EMP L
/************************************************ /
>>>> >>
2222 22
!=' -'
trans form
â¡ĩ â¢¸
connect ions
Ġ100000000000000000 7
Ġputi i
ĠPRO TOC
ofile Idx
ï¹Ħï¹ĥ ï¹Ħï¹ĥ
SUCC ESS
ĠPROTOC OL
C N
O SSIBLE
n ing
Ð ²
é ĩ
Ġ( ::
Ġa e
Ġp uu
// (
an ya
Ġb ip
(); )
Ġ2 50
ch ool
ch oice
88 7
Ġe sp
()) !=
Ġw ind
ĠL og
"); }
OR Y
'. ')
ĠU L
33 6
Ġthe y
ĠH opcroftKarp
Ġgr af
())) ))
ĠDI S
sl am
ctz ll
factor ial
ose n
cccc cccc
Ġlarge st
ĠAR G
Ġ201 9
ķÐ ľ
fil ename
Ġstri ct
4 01
A MP
E mr
F enwick
N Q
f altu
l w
t ps
å ¯
Ġ ĉĉĉĉĉ
Ł Ð£Ð¡Ð
in ct
if ic
() ].
Ġs ze
<< _
Ġb ecause
__ <<
Ġg od
stre ss
ĠF ile
ĠP H
he avy
Ġde q
ĠB L
Ġ5 0000
ht tps
15 1
Ġcheck Bit
dis c
79 1
Ġsu ma
my Cout
ces sed
mon th
Ġ(_ )
Ð¾ Ðµ
Ġdec imal
Ġreset Bit
Ġce ll
EG IN
ĠFast IO
ĠCon stants
Ġdef ault
reate st
ÐĲÐ ŁÐ£Ð¡Ð
Ġwor ld
ĠDef ines
ļÐĲÐ ķÐľ
Emr ul
ÐĲÐŁÐ£Ð¡Ð ļÐĲÐķÐľ
" ));
/ \
E ngine
R ev
T emplate
V EN
b order
c sc
e of
h r
k an
r is
y i
{ \
Ġ 99
Ġ ---------
re z
Ġi q
Ġp ff
Ġs n
Ġ" >
Ġf ull
)) *(
ch max
IN IT
') +
Ġch unk
Ġh ope
em s
em z
ĠB INF
ĠB IG
ion Projects
lo bal
32 7
ĠO n
18 7
âķ Ĺ
Ġlo gn
av a
Ġsh uffle
Ġth ree
****** */
hor se
ALL OC
8888888888888888 888
=" ",
Ġ19 00
]=='. '){
âĸĪâĸĪâĸĪ âĸĢ
Ġspl ay
Ġfo llow
IMP OSSIBLE
Ġsmall er
Ġ'-' ){
ĉĉĉĉĉĉĉĉĉĉĉĉĉĉĉĉĉĉĉĉĉĉĉĉĉĉĉĉĉĉĉĉĉĉĉĉĉĉĉĉĉĉĉĉĉĉĉĉĉĉĉĉĉĉĉĉĉĉĉĉĉĉĉĉĉĉĉĉĉĉĉĉĉĉĉĉĉĉĉĉĉĉĉĉĉĉĉĉĉĉĉĉĉĉĉĉĉĉĉĉĉĉĉĉĉĉĉĉĉĉĉĉĉĉĉĉĉĉĉĉĉĉĉĉĉĉĉĉ ĉĉĉĉĉĉĉĉĉĉĉĉĉĉĉĉĉĉĉĉĉĉĉĉĉĉĉĉĉĉĉĉĉĉĉĉĉĉĉĉĉĉĉĉĉĉĉĉĉĉĉĉĉĉĉĉĉĉĉĉĉĉĉĉĉĉĉĉĉĉĉĉĉĉĉĉĉĉĉĉĉĉĉĉĉĉĉĉĉĉĉĉĉĉĉĉĉĉĉĉĉĉĉĉĉĉĉĉĉĉĉĉĉĉĉĉĉĉĉĉĉĉĉĉĉĉĉĉ
ĠRa him
ĠRES ET
ÐĹ ÐĲÐŁÐ£Ð¡ÐļÐĲÐķÐľ
) });
0 4
4 43
C EP
D es
I nd
W eighted
c se
f as
de cl
Ġp m
Ġp DD
if i
Ġc ircle
am b
Ġb sh
Ġd w
Ġf valc
(" !
al a
Ġfor m
], (
Ġre ally
Ġmax L
ĠP RE
ot al
Ġo set
ĠC hi
em ory
ds h
ver tices
NO T
Ġis Arr
Ġis Inside
Ġmx x
14 9
comp s
Ġlo ve
Ġbu cket
22 7
ĠY ou
Ġprint a
100000000 9
Ġgc dex
ĠDI C
]=='. '
ĠMA JK
200000 5
Len gth
plic ative
IC PC
133 1
Gen eral
) <<'\
0 5
2 11
M e
M AST
U S
[ %
b W
f ather
g y
p il
w rit
{ }
Ġa ss
() %(
-- ;}}
Ġt Mod
Ġt our
at tern
ing h
ĠM x
ĠN o
ĠN ext
Ġ/ :/
Ġ3 50
ĠD R
Ġde cl
ĠB EGIN
Ġsum s
Ġpos s
53 7
18 9
Ġnum erator
cc w
Ġvv c
Ġcomp ress
ng y
gr oups
ĠW or
RO LS
power s
67 3
old ans
<<"[ "<<
Ġover load
ĠCONT ROLS
ĠâĢ ĵ
/******************************************************** */
Ġdefinit ely
Ġtoken s
cW Ej
ĠÂ ©
ĠPH ASE
MAST ER
* ()
> -
B E
D p
G K
G W
P i
] |=
e u
g jdflg
j o
l apsed
ã ĥ
æ ī
Ġ ######
int eg
Ġi x
Ġ1 79
Ġp as
if ac
Ġs arth
// ----------------------------------------------------------------
Ġt ic
le d
Ġf ld
Ġf Min
eg a
Ġu pp
Ġin q
ĠN E
cnt a
ĠR IGHT
Ġget sum
up grade
Ġ100000000 0000000
Ġse parator
Ġis n
18 1
im it
ab br
col s
âĸĳâĸĳâĸĳâĸĳ âĸĳâĸĳ
ha h
ha i
Ġvv s
Ġex gcd
Ġmy land
************** */
67 1
ĉĉĉĉĉĉĉĉĉ ĠĠ
âĸĳâĸĳâĸĳâĸĳâĸĳâĸĳâĸĳâĸĳ âĸĳâĸĳâĸĳ
Ġpo z
CA KE
Ġgot o
wy n
//-------------------------------- ----------------
âĺ ģ
aget ree
ĠComput er
EMPL ATE
Ġsarth ak
& !
2 34
4 000
? ""
H EL
M id
è ¯
é Ĺ
Ġi max
Ġm v
Ġm pr
Ġa nt
Ġv ir
ue s
sp ec
Ġ2 000000000000000000
ĠM r
Ġg s
ĠA LI
cnt s
ĠS e
(( __
ĠR ed
ĠL i
Ġo or
Ġst i
tr im
ES T
---------------- ---
Ġdebug a
ne eded
Ġbase s
Ġgo ing
34 82
Ġless Than
ĠW e
pa int
Ġ100000 6
13 9
Ġneg a
De composition
Ġtake s
tri angle
`` `
app y
imp ossible
ĠAl hamdulillah
connect ed
------------------------------ -
Ġinitial ize
large st
ĠEx it
CONSTAN TS
" ^
( %
) ^(
3 00001
4 11
? ),
I AB
R ST
W N
l ad
p m
Ġ 99999999
++ (
Ġc ent
<< ')';
ti ll
ans x
Ġfor ab
Ġ++ ]
<<" !
Ġpr sp
ĠF r
max m
ĠL ang
ĠMOD ULO
num erator
Ġ5 00005
Ġis Vowel
ĠV II
15 7
Ġset max
12 1
mn m
97 3
Ġpower k
ĠW IN
Ġver dict
iv en
;;;;;;;; ;;
;;;;;;;; ;;;
Ġà¦ ¸
Ġà¦ ı
()), ((
ĠEX CEP
DI RE
PR INT
Col or
ĠUNI QUE
ĠCL own
IAB LES
ĠEXCEP TION
* ";
- ()
6 97
: "<<
D IM
L OOP
a w
a int
b id
s it
y e
æ Ī
Ġ oup
re calc
Ġm ypow
Ġp pl
Ġt ext
si an
== ///
str cpy
Ġfor get
set bit
ad s
Ġ3 5
Ġcnt s
Ġ5 2
co ef
Ġset IO
/// ================================
In fin
ĠH ere
Ġfind Set
ĠK AZ
Ġfast pow
inf inity
-------------------------------- ----------
RT IME
01 7
IT NO
OW N
ee k
cut s
Seg Tree
âĸĪâĸĪâķĶ âķĲâķĲ
ĠFix Point
ĠFunction s
ĠCo deforces
HEL PER
DIRE CTION
4 24
C AT
C entroid
U P
b et
f w
j udge
Ġ Ñģ
Ġ( %
Ġn on
Ġ1 28
Ġc st
Ġf uck
al ize
:: ..
ĠT TT
)) ^
Ġu c
ĠF ac
ĠS E
ĠP b
Ġst od
Ġst able
Ġch ocol
ĠD fs
âĸĪ âĸĢ
Ġis Left
######## ###
Ġ4 1
ĠE ps
ĠE ACH
à¦ ¶
pow s
AC M
998 3
Ġprint ln
Ġpow s
Ġinv General
1010 10
ĠÐ ´
Con st
Ðµ ÑĢ
irection al
Ġyour self
ĠIN PUT
Test s
Data In
Ġact ive
Ġwa it
ä» £
ĠPER F
FFFFFFFF FFFFFF
irl ing
ĠLE FT
ĠCont est
Ġchocol ate
. );
2 53
: (
= "<<
N TS
O T
R otate
W alk
] |
a si
b m
d ays
o tient
p Out
t G
Ġ ***
Ġs ong
le ast
(" ")
ĠT emp
Ġ; .
Ġe rep
Ġop er
sum i
tr ack
Ġh ai
ext gcd
Ġpii ii
to ken
Ġis space
Ġis Eof
Ġ] ++;
ĠE B
ĠH H
Ġmn x
77 7
Ġtest Num
ev ent
........................ ....
************************ **
bin pow
Ġsin ce
rit ten
--- \
Di jkstra
modul us
ï¼ģï¼ģ ï¼ģï¼ģ
Ġpe ople
åĪ Ĩ
Ġ'} ';
ĠisLeap Year
, ++
3 58
9 2
H ASH
J ust
P H
X R
] ++
d on
m iss
Ã ¡
è ¾
re b
Ġi dentity
Ġp pp
Ġp ls
Ġc z
Ġc hi
() ][
it i
Ġt G
Ġb all
Ġd m
str cmp
ue l
ĠT p
hi k
Ġ' !
Ġy r
Ġu ax
ed y
... ){
âĸĳ âĸĦ
om ial
]== ...
th read
Ġread Vector
stdin DataEnd
Ġne igh
GGGG GG
Ġpar y
Ġgr oups
19 3
Ġwrite Char
Ġindex ing
For E
cy cles
fin dp
]=' #';
MIN GW
ĠTime End
ĠTime Start
ĠCon trolIO
2222 2
trans posed
Ġmode xpo
ANS I
Fast IO
Ġlead ing
cstd def
Timer Stop
Ġconnect ed
rat io
ĠVAR IABLES
Ġ================= ==========
ĠCU RTIME
bes me
mis sion
STD IO
lapsed Time
ä»£ è¡¨
' ?
, %
< !
F in
M p
b aki
g k
o Set
t n
t odo
u ntime
v m
Ñ Ī
â Ĭ
è ¦ģ
de sh
Ġ= (
Ġl as
an de
an ized
Ġt ie
Ġb k
le aves
end ing
Ġf w
op er
os ite
Ġk mp
Ġu in
Ġ: ;
ad a
Ġ| ";
Ġ_ ##
cur L
ge st
ĠD EG
]] ].
ĠI slam
ĠB Y
ES H
to R
rep i
pii i
________ __,
Int eractive
az akh
par se
par tial
à¦ ĩ
Ġpower With
ĉĉĉĉĉĉĉĉĉĉĉĉ Ċ
..... ,
27 67
60 7
âķĲ âķĲâķĿ
Ġcc w
Ġmi x
Input Iter
mag ic
Ġ'* ';
la desh
GGGGGGGGGGGGGGGG GGGG
ĠRe set
Sh ift
Ġprod uct
3456789 1
ĠBang ladesh
Ġorg anized
577215664 90
âĬ Ļ
ĠpowerWith Mod
' }
. ,;
2 147483647
: ,
: ................
: ,;;
; ,.....
? ",
D W
D GG
D GGGG
D EEK
E ti
E ii
E iii
E DDD
G EEE
G EEEEEEEEEEEEEEEE
I P
K ii
K WWWWWWWW
K WKK
K EEEK
L j
L ink
L iii
L GGG
N eed
P al
S low
W EEEEEEEEEEEEEEEE
W KKKKKKKKKK
W EEEEEEEEEEE
W EEEEE
W EEEED
b f
f K
f DD
f EEE
f WK
f LGGDDDDDDDDDDDD
i D
i WWWWWK
i KDEEE
j D
j LGGGDDDDDDDDDDDD
k id
m en
t WK
t EL
v w
y n
Ø ¹
re lax
Ġ{ (
Ġp LL
ll f
.. ;........
at ri
Ġf an
Ġf DEEEKKKKKKKK
KK EEEEEEEE
KK WWWWWWW
KK EEEEEEE
){ //
:: ,,
:: ,,,,
:: ..........................
WW D
WW EEE
WW EEEEEEEEEEEE
WW EEEEEEEEEEEEEEEE
WW KW
WW KKKKW
EE DD
EE KKKK
EE KKKKKKKK
EE KKKKKKKKKKKKKKKK
EE GEEEEEEEEEEEEEEEE
Ġ} */
ans a
eg o
.... ::::..
LL GGGG
LL GGG
Ġ, ::,,,,,,,;;;;
DD GG
DD DE
DD EEEWEEEEEEEEEEEE
KKKK WWWWWWWW
KKKK EEE
Ġ: ,
Ġ: ,:.
et s
ĠF ill
EEEE DDDD
EEEE EK
EEEE WEEEEEEEEEEEE
... ,:
WWWW KK
WWWW EEEEE
WWWW KKW
........ ...
Ġw ar
ĉĉĉĉĉĉĉĉ ĠĠĠĉĉĉĉ
;; ...
,, ,:
min v
ĠL DEEEE
Ġst oi
Ġget Faster
ĠC PP
ĠG DEEEKKKKKKKK
ĠD ig
Ġtyp es
KKKKKKKK KKKKK
Ġfi ve
26 9
................ ....:
Ġpre vious
,,,, ,:.
:::: .
WWWWWWWW KKKK
WWWWWWWW WWWWWWW
DDDDDDDD EEE
DDDDDDDD DDDDDDDDDDDD
DDDDDDDD DEEEE
DDDDDDDD EEEEEE
WWW KKKKKKKK
WWW EEEEEEEEEEEE
]={ {
ab ab
EEE WW
EEE KE
EEE KKWWWW
EEE KKWWW
EEE KKKWWW
ne igh
KKK EK
KKK WWWWW
KKK WWKK
â¡ Ł
KKKKK WWWWWWWWWWW
KKKKK WKKKKKK
ME NT
Ġbe ep
KKKKKKKKKKKKKKKK KKKKKKK
Ġas che
Ġ:: :.
pa ired
Ġ... ,:
DE K
WK EEEEEEEEEE
WK WKKWK
be ar
23 9
................................ ................................
KKKKKKK WKKKKK
KKKKKKK EL
tf LG
tf LGGGG
tf LGGG
/******************************** ********************************
DDD K
GGG K
âĶĢ âĸĪ
KE KKK
KE KKKKKKKKKKKKKKKKKKKKKKKK
KE KKW
EEEEEEEEEEEE KKKKKKKKKKKKKKKKKKKKKKKK
KKKKKK WWWWWWWWW
fj i
fj ti
Ġdeb mat
Ġel m
DEEEE KKKKKKKKKKKKKKKK
WWWWWWWWW E
WWWWWWWWW KKKWWK
...... ,
...... ;
CT y
:::::::: ::::::::
:::::::: :..
EK EEEEE
Ġ.: ,
Ġ.: ,;;
ĠFor a
;: ..
EED f
KW KKK
EEK WWWWWWWW
WKKKKK EE
WWKK WWWW
KKKKW KKKKKKKKKKKKKKKK
'' ''
ĠST R
Ġxy Circle
GGGGGGGGGGGGGGGG GGG
KKKKKKKKKKKKKKK WKKKKKKKK
EEEK WWWWW
EEEK WWWWWWKKKKKK
EEEEEE DEi
,,,,,, ;
,,,,,, ,;
DK WWWWWWKKKKK
DK iWWWWWK
WWWWWK WKKKK
,,,,,,, ;;
,,,,,,, ;;;
cm f
:::::: ,
:::::: ,,,,,,,;;
::::::: ,,,,,;
::::::: ,,,,,,,;
tfLGG DDDDDDDD
tfLGG DDDDDDDDDD
tfLGG DDDDDD
.:. ;:
ĠCH ECK
Ġ.... ::::
itf LGGDDDDDDDDDDDD
KKWWWW KEEEEEEEE
WWWWWWWWWWWWWWWW WWWWWW
Ġbel ow
WWKKKK WWWWWWWWWWW
;;;;;;;;;;;;;;;; ;;;;;;;;;
WWWWWWWKKKKK i
WWWWWWWKKKKK t
uni std
KKKKKWWKKKKK WWWWWWWWW
EEEEEEEEEEEEEEE KKKKKKKKKKKKKKKK
.:: ;:
,.. ;
WKKK WK
WKKKKKKK WWWWWWW
fDEEEE EE
WWEEEEEEEEEEE WWWWEEEEE
DDWWKK DDDDD
EEEEEEEEEK EEEEEEEEEEEEEEEEE
............................... :
,,,,,,,,,,,,,,,,,,,,,,,, ,
,;;;; ,
iDD EEEEWEEEEEEEEEEEE
WWKKKKKKKKKKKKKKKK K
WWEEEEEEE DD
DDDG L
WWWKKKKKKKKKK W
WWWKKKKKKKKKKKKKKK WKK
WWWWWWWWWGWWWKK GGGG
ijLG DDDDDDDDEEEEEE
integ ral
EEKKKKKKKKKKKKKKKK KKKKKKKKKKKKKKKKW
LLGGGG L
LLGGG DDDDDDDDDD
WWWWKKW KKKEK
tfLGGGG DDDDDDDDDD
tfLGGG DDDDDDDDDDD
= '\
C om
M int
R AND
X OR
in ate
Ġi map
Ġ( ++
se gs
for mula
++) )
Ġd cmp
al t
Ġr at
Ġr adius
nt t
size s
ans y
Ġk ase
set IO
ad o
Ġpr s
Ġpr ice
ĠF rom
ĠA s
Ġmin x
ic al
ĠR O
Ġ100000000 1
Ġ10 9
Ġse gs
Ġ5 0000000
rep lace
Ġle aves
assert sCounter
20 18
20 48
Ġdebug v
Ġ(" \
50 9
Ġadj list
ME NTS
ĉĉĉĉĉĉĉĉĉĉĉĉĉĉĉĉ ĉĉĉĉĉĉĊ
Ġinv d
kk kk
flush er
Ġwe ak
ĠComp lex
63 6
Ġ---------------- ------
Re al
PT IM
Ġdistance s
Op tim
âĸĴâĸĴâĸĴâĸĴâĸĴâĸĴâĸĴâĸĴ âĸĴâĸĴâĸĴâĸĴâĸĴâĸĴâĸĴâĸĴ
PRO J
TH E
MEM ORY
Ġav ail
skip Whitespace
ĠNot e
Ġ10000000000000000 01
As sertsCounter
Ġbra infuck
ALLOC ATOR
azakh stan
" !
. ";
/ ********
2 16
5 79
E LL
G o
G HT
N G
P ll
T E
T IE
f ans
f gc
f strict
g a
h ero
j h
p ed
in lin
); };
Ġa f
Ġn om
Ġ{ '
Ġp in
// -
Ġv pp
Ġv cd
it DEB
Ġd X
Ġd id
Ġd ream
(" #
al ive
WW E
Ġg reatest
Ġ| ___/
max a
max im
ĠP LI
Ġ3 4
ĉĉĉĉĉĉĉĉ ĉĉĉĠ
ĉĉĉĉĉĉĉĉ ĉĉĉĉĉĉĉ
ĠR and
Ġ// ................................................................
ĠL in
ĠL EN
ĠC nt
11 6
ĠD in
ss DEB
]] ];
Ġ5 3
count ing
Ġ4 4
Ġ4 6
20 19
Ġ. '.
]==' -'){
top r
pow w
Ġadj acent
31 7
II CT
/** *
Ġyy o
Ġfile io
Ġfore ver
**************************************************************** ****
54 1
XX X
cb rt
âĸĦâĸĦâĸĦâĸĦ âĸĦâĸĦâĸĦâĸĦ
ins ns
ĠUpdate Max
fre order
full y
fsched ule
ĠMAT RIX
fgc se
inlin ing
/ *****
B ound
L INF
W hat
[ &]
c w
c ou
f wd
l ds
m ed
m ore
n q
v ance
or n
Ġa ft
Ġ1 46
Ġp cl
ll u
Ġ" ...
Ġt os
Ġy alla
]= ((
Ġmax a
un der
Ġ3 00010
ul ik
ĠR ound
min im
Ġh v
Ġsz z
MAX K
get c
15 5
Ġ10000 9
Ġ1000 100
30 1
Ġvv pi
38 3
ĠIn dex
Ġpower Mod
Ġrb e
]<< ",
ĠFI LES
my map
ĠFILE NAME
Ġsplit mix
ĠOUT PUT
who le
pat hs
ĠUpdate Min
ĠFT B
ĠTASK NAME
Union Find
âĸĳâĸĳâĸĳâĸĳâĸĲ âĸĳâĸĳâĸĳâĸĳâĸĳâĸĲâĸĳâĸĳâĸĳâĸĳâĸĳâĸĳâĸĳ
ĠPre fix
Ġhand le
Ġblo om
Ġbid irectional
336 777216
ulik ov
) >&
* )(
; `
= !
D ec
E le
M ar
N MM
R ANDOM
S mall
W r
b all
f fs
g re
u ish
u age
æ į
ç º
é ¢
Ġl is
Ġm ed
Ġm oney
Ġp Sz
Ġc v
Ġc he
it b
Ġ" ->
ing uish
(" }");
cin i
Ġr ang
Ġ' ---'
Ġ2 22222
)) ));
pr ofileIdx
Ġ&& _
Ġcon sider
10 6
is Vowel
â£ ³
ĠP UU
ĠR EPS
,, `
â£¿ â¢¿
â£¿ â¢¾
') %
Ġo ok
Ġst irling
Ġh elper
Ġh ypot
Ġ|| __|
ĠD o
tree max
lo gn
/* }}
ex agonal
);} };
Ġfr ac
Ġtemp orary
Ġdist inguish
43 9
MMMMMMMM MMMMMM
Ġex pr
â¡ ½
â¡ Ļ
Ġpop b
Node s
])) %
â£¿â£¿â£¿â£¿â£¿â£¿â£¿â£¿ â£¿â£¿
â£¿â£ »
Ġev ent
25 1
47 6
Ġgreater Than
ĉĉĉĉĉĉĉĉĉ ĠĠĠĊ
20000 000
Ġlog g
â£¯ â£¿â£¿
â£Ł â¡¿
â£Ł â£¯
â£Ł â£·
â£¿â¡ Ħ
â£¿â¡ Ĩ
multi ply
__); \
ĠØ £
"> "
PRO FILE
ä¸Ģ ä¸Ģ
#.#. #.#.
Ðº Ð¾Ð
'- .
//*//*//*//* //*//*//*//*
gi atri
("{ ");
]]]]]]]] ]]]]
_- _-
â£¿â¡ĩ â¢¸
â£ŀ â¡¿
Ġ|. --.
'} },{
Ġ50000000 4
ĠREPS Z
/*}} }*/
, ",
0 49
@ %
D ep
E ight
H AV
P hi
R andom
S ALT
U s
W hite
a id
c ans
c sum
e uler
h n
s of
Ð ¹
Ġ ****************
in deg
re main
re asing
Ġp ln
Ġt st
Ġt re
op eration
um ns
ĠM E
ĠM AD
me x
ĠP r
ort a
64 1
ĠL INE
ĠL ET
ĠL OO
Ġst ill
Ġch ance
tr act
ĠC UT
ĠD ep
to U
Ġ5 7
Ġ7 0
im mint
man y
ĠH oss
50 50
Ġdi rect
ĠIn v
56 7
ĉĉĉĉĉĉĉĉĉĉĉĉĉĉĉĉ ĉĉĉĉ
Ġparent s
59 3
ust om
cap acity
Ġbr idge
rank s
ĠTES T
ÑĢ Ð°
fd n
Ġwor ds
ĠCP Y
$$$$ $$$$
Ġitem s
Ġsay ed
ĠIF D
Ġassum ed
Cur rent
Ġgeomet ry
éĹ ´
ĠMAD HAV
immint rin
3 11
> *
J ia
O PTIM
d od
g p
h ack
k bear
n ag
n othing
r f
s I
t st
v st
w ords
y r
z n
Ġi de
Ġi OS
Ġn dp
Ġ1 997
Ġp lc
Ġc ac
Ġs cin
Ġs dbg
Ġs ingle
Ġv LL
ac cumulate
Ġ" ***
si g
type info
)) <<
pr io
LL ONG
Ġin file
ĠN A
ĠN s
ĠF D
ĠF cd
10 4
cnt b
ĠS G
res sed
cur R
ĠR AND
pp ing
Ġ? !
ĠV PLL
Ġout file
âĸĴ âĸĢ
ĠFOR N
order set
mask s
Ġdefine s
à¦ ¬
Ġcheck max
mul mod
ĠW rite
ail d
ang Jia
8888888888888888 888888
Ġà¦ ª
Ġpro gram
ba sis
Mul tiTest
Ġrank s
Ġscl n
Ñģ Ð»
âł¿ âł¿
uc cess
Ġanc estor
Ġcb rt
task name
ĠLe ft
ĠLi angJia
ä»£è¡¨ è¿ĶåĽŀ
Ġ1997 11
ĠFcd kbear
ĠLiangJia Jun
7 27
B and
D fs
E lement
F our
O ct
b readth
d up
e ep
n f
u ce
å ľ
in ing
Ġc sum
() ),(
Ġv owel
Ġ" ",
(" ","
id ates
ame d
Ġ' +'
Ġfor I
Ġ2 55
Ġcon j
ĠA RT
ĠP attern
Ġit e
ul ty
Ġun zipper
get Min
Ġz x
to L
Ġfi eld
ht tp
ĠO r
ĠU se
are ru
20 2
ĠE d
abs v
fast er
141592653 56
ĠREP E
pl ane
16 7
56 9
start ed
qu otient
Val id
jj j
100000 3
buf Read
Ġcalc ulate
md ay
/******************************** ****************************************
Ġbuf At
," }");
âĸĳâĸĳâĸĳ âĸĲ
Ġï¿½ï¿½ï¿½ï¿½ï¿½ï¿½ï¿½ï¿½ ï¿½ï¿½ï¿½
UN T
Ġcy cles
1024 00000
Ġtri angle
################################################ #####
ĠAl pha
978 978
Ġ":" ",
TH ING
=== ///
Ġconnect ions
ĠLe ss
EX AMP
("{ ",
Ã¨ Ã
PROJ ECT
Band me
EXAMP LE
# ~~
) --
2 57
5 11
A PP
B A
D o
J w
M W
S qr
Y m
Y SN
_ ],
b ind
b SN
n am
if act
// ================================
Ġv I
Ġt er
Ġb ag
Ġd Y
Ġr begin
Ġ} };
Ġu LL
ĠM agic
Ġg ap
ch ay
Ġpr f
ĠA CM
is in
que s
Ġ3 2767
........ .....
Ġst l
tr iple
ĠC y
Ġde lim
Ġpii pi
co me
'. ');
Ġread Arrays
Ġdebug ger
Ġacos l
Ġstart ing
ĉĉĉĉĉĉĉĉĉĉĉĉĉĉĉĉ ĉĉĉ
pi e
EC UTION
old r
UN I
bj ect
Ġpat hs
ĠEX ECUTION
Ġsha ft
Ð¾Ð ²
âłĢâłĢâłĢâłĢ âłĢâłĢ
ĠCOMP ARE
Ġ"= >"
@@@@@@@@@@@@@@@@@@@@@@@@@@@@@@@@ @@@@@@@@@@@@@@@@@@@@@@@@@@@@@@@@
Ġrequ ire
XZ v
ĠÐ· Ð°
Ġtrail ing
ĠFac ulty
1 64
1 97
3 53
6 53
B al
G ood
S C
S canf
T his
_ ));
a sic
f ds
g ao
h are
h ang
k ill
â Ī
in de
re maining
Ġl it
se quence
Ġa void
Ġa sc
Ġn base
Ġc rivo
for d
Ġs he
Ġv u
Ġv str
Ġv ow
Ġt em
con vex
Ġd raw
Ġf bo
ma ss
Ġ' |
pr in
]) >
ĠA dj
rt n
Ġtr ick
un lli
bu y
ĠR ight
min imum
Ġh ack
Ġh lp
ap a
MAX V
]] +=
Ġun zip
ff ect
Ġout dist
15 32
Ġset min
Ġco ord
)+ ((
di rect
Ġvv I
55 7
Ġcomp s
av ed
34 7
gr af
Ġcl p
Ġ20 20
Ġsu pport
Ġbinary Exponentiation
$$ $
Ġfa ke
multi plicative
Ġblock s
ee ded
ĠPRINT V
Ġort a
BU FFER
ELE VEN
pril n
Ġ'] ';
ĠPos itive
7182818284590452353 6
/**************** ***************
Ġet c
segn um
ĠCPP ELEVEN
ĠUse ful
* ,
. _________,
2 33
3 10
; ){
C SE
F riend
H opcroftKarp
L ow
M n
R em
S qrt
S uccess
T reap
c ate
c reated
e asy
i sy
r w
t ol
u id
v ld
y l
y t
y an
² âĬĻ
½ æķ°
æ ł
Ġ clog
int ersection
Ġi y
Ġn q
Ġn pair
Ġn pos
++ ()
Ġc f
am t
am ount
Ġt odo
ir ag
le ep
Ġf ace
Ġy i
Ġk h
âĸ ²âĬĻ
!= ""
]= '.';
<<" }"<<
), "
ĠF S
ĠF UNCTION
ĠS copeTimer
un g
Ġpush ed
Ġ3 99
Ġ_ (){
cur x
ĠC SE
]] ]++;
Ġun paired
ĠI oSet
ĠB LOCK
Ġ10 2
to String
######## #######
ĠO ne
âĸĴ âĸĮ
art ite
14 3
SE G
33 1
di ag
ĠH A
Ġhe avy
<<": "<<
Ġen g
38 29
com mon
________________ ____
âĸĮ âĸĴ
/******************************** ***************
â¢Ģ â£Ģ
ĠSQ RT
nod o
mon ic
Ġext end
entr y
mode xpo
Al hamdulillah
prim os
imp ort
Flow Edge
ĠIs Less
Debug Stream
%%%%%%%% %%%%%%%%
åĩ ½æķ°
//////////////////////////////////////////////////////////////////////////////////////////////// ///
Var iables
Ġhar monic
åº ¦
Ġem z
Ġ------------------------------------------------ --
57721566490 1532
[&] (
ĠIoSet up
577215664901532 86
& );
+ ')
1 389
4 79
4 19
5 99
6 20
M B
M O
Q ry
` --'
h ur
h and
p z
p id
w q
å Į
Ġ ----
Ģ ¼
Ġl ive
Ġm en
Ġa ds
Ġp pi
Ġc ans
Ġs at
out l
it v
at Me
Ġf v
(" +
)) &(
Ġre z
um e
Ġk ing
Ġans a
Ġg uess
ch an
et e
Ġmod s
ĠF act
Ġmax Value
max imum
Ġar ound
ĠR S
ak t
Ġad vance
Ġis Const
32 9
);} }
15 2
100 9
Ġpi pii
âķ Ŀ
ab out
22 3
50 7
<<": \
ĠK MP
LE T
Ġfast exp
ĠIn pOut
ĠW ATCH
No isy
ILE D
19 1
100000 7
Ġ"] \
Ġke ep
FS IZE
ls on
rs on
-------------- -
Ðµ Ð»
Re qu
ãģ ®
ĠBig Int
OU R
ĠIs Greater
Ġextended Euclid
Ġpopcnt ll
iq ul
amb da
é¢ ĺ
ĠFUNCTION S
1389 3829
! "
: "<<__
J ump
R Pr
R MQ
S ame
d raw
e ver
g f
h v
j p
k r
k ind
l az
p ic
r ad
æ Ŀ
Ġ ì
Ġ -----
re cur
on d
Ġ1 68
Ġ{ "<<(
Ġs set
Ġs il
Ġs main
Ġs iii
// __
Ġd fn
ĠT O
Ġr ule
ma z
Ġ} ";
Ġk x
]) <<
ĠM y
ĠM UL
Ġif ac
<<" <
et r
ĠA A
... \
... ))
ĠP test
un j
Ġmin pq
map i
ĉĉĉĉĉĉĉĉ ĉĉĉĉĠ
____ _|
Ġdp p
ĠL azy
ĠL uck
Ġst t
il ar
11 9
ĠB uild
Ġsum modfast
pre compute
Ġ'\ ''
Ġse nd
Ġvi ky
ĠO bject
100 7
26 3
10000 4
update Range
88888888 8888888
Ġ6 5
âĸĦ âĸĪâĸĪâĸĪâĸĪâĸĪâĸĪâĸĪâĸĪ
di a
Ġcheck min
Ġpar a
Ġdi e
Ġdi jkstra
Ġsh ok
vv vi
Ġsqrt n
Ġsub str
17 3
ang uage
Iterator Type
print Single
','.','.','.','. ','.','.
St ud
neg a
)<<" }"<<
Ġvar iables
300 300
Ġloop s
reg ion
ĠMA P
ÑĤ Ð¸
Ġdown range
âĸĢâĸĢâĸĢâĸĢ âĸĢâĸĢ
400 5
Ġus age
RI GHT
wh at
------------------------ ----
"""" """"
Ġ//// //
;_ <
ĠFA ILED
ĠDi jkstra
GET A
Ġali ve
Ġextr act
éĩ ı
Ġstrict ly
APP LE
asic Integer
* _
4 27
F A
G C
H igh
L og
P rev
S ORT
U CK
U til
W extra
X or
^ =(
d u
g asg
m ing
r ans
å ¹
å Ĩ
in q
int rin
Ġi min
Ġm tr
Ġ1 22
Ġp j
Ġp cnt
Ġs st
out s
Ġ" |
Ġint t
Ġt tt
con v
at al
Ġf close
)) /(
Ġ; )
]) ].
Ġg iven
ow s
ch min
ĠF un
Ġq x
ĠS qrt
Ġop s
000 5
ind rom
]] >=
to read
co eff
ĠU s
âĸĴâĸĴ âĸĦ
ĠX or
/// #
]={ },
Ġlo se
col umn
hs f
Ġvv vvi
Ġhi bit
mi j
PER F
write Word
Ġcost s
Ġ"/ "
Ġwrite p
Ġver t
Ġver tical
âĸĦâĸĦ âĸĦ
Ġvar iable
Add Edge
win ner
/__ \
<<"] ";}
call ed
_______ |
so le
Ġtim max
ĠDist Type
äº Ĩ
En able
Ġrai se
ĠALI GN
è¾ ¹
' >
( +
6 29
A ug
B r
D U
N E
P OS
S a
] ";
b us
d jk
f v
g hest
h g
m ar
s or
s cl
x aaaaaaaa
x cccccccc
y f
y md
z ub
Ð ¢
Ġ é
Ġl ans
Ġl eg
Ġa z
Ġa way
cl one
() ]=
// ________________________________
an it
Ġt min
Ġb m
ĠT est
ma y
Ġk y
]) <=
ĠM int
ĠM id
ch em
ĠA re
ĠS ieve
Ġconst ants
Ġw s
Ġw tf
ĉĉĉĉĉĉĉĉ Ċ
Ġ// __\\
â£¿ âł
â£¿ âłĩ
âĸĳ âĸĮâĸĮâĸĳâĸĳâĸĳâĸĳâĸĳ
Ġh ang
Ġget Pow
ind ices
ĠD p
tree min
ĠB ismillahir
fi ve
pop c
input s
ĠMAX V
Ġle ave
[] {
12 9
ok har
oo oo
48 7
sol n
100000 2
Ġ'. '){
br a
ĠMax C
fj ke
49 8
300 100
Ġost m
mk p
UL AR
<<"- "<<
FL OW
chk max
ru le
âĸĴâĸĴâĸĴâĸĴâĸĴâĸĴ âĸĢâĸĦ
ĠSt ate
Ġsim ilar
âĸĦâĸĢ âĸĴâĸĮ
âķĲâķĲ âķĲâķĲ
10000000 97
################################################ ######
OU ND
uc ed
Ġ************************ **/
Ġ************************ ****/
ĠnC k
âĸĮâĸĮ âĸĳâĸĮâĸĮâĸĳâĸĳâĸĳâĸĳâĸĳ
âĸĢâĸĴ âĸĮ
tut utu
dddd dddd
å¤ §
Down range
pe ople
Ġinclusive Range
Ġinclusive Downrange
nik unj
Ġtut utu
â¡¿âł ĭ
Ġnok ol
âĸĳâĸĳâĸĳâĸĳâĸĳâĸĳâĸĳâĸĳâĸĳâĸĳâĸĳ âĸĮâĸĮâĸĳâĸĮâĸĮâĸĳâĸĳâĸĳâĸĳâĸĳ
Ġvir us
ĠKAZ AR
âĸĳâĸĳâĸĳâĸĲ âĸĳâĸĳâĸĳâĸĳâĸĲ
okhar nikunj
- ((
/ %
6 24
8 37
B ut
P e
R ank
\ _\
b li
l u
s ci
w or
x F
Ġi pair
or i
Ġm onostate
Ġm edian
Ġn k
Ġp id
Ġv oice
Ġt ou
Ġb us
Ġb as
con version
Ġx max
Ġd um
Ġf lo
Ġma ss
Ġ} )
ans l
Ġfor sn
Ġ2 000000
ĠM o
ĠM erge
Ġg am
Ġg ol
Ġin fs
Ġcon fig
IN P
Ġ/ (
Ġq werty
ĠS ub
ĠS ource
ĠS STR
ĠP OS
(( !
ĠR ec
ĠR andom
ĠR ahmanir
err ide
Ġst o
Ġget F
Ġz er
th on
vi v
ld bl
sk ill
Ġ4 00005
ĠO per
ï¿½ï¿½ï¿½ï¿½ ï¿½
58 7
50 3
==' -'){
46 7
Ġsh it
Ġcol ors
-------------------------------- ------
ĠW ritten
Ġth ink
IT H
28 3
vel y
Ġ', ';
ĠÐ ±
ĠÐ ²
Ġpl ayer
ä¸ į
____________ _
Ġuse ful
Ġ*( --
]&& !
<<"[ "<<(
chk min
Ġones ll
Ġfriend s
Ġinter cept
Ġmode r
Â¦ Â¦
Ġov erride
2 77
5 47
A n
B Y
B ismillahir
C PC
F W
W in
b or
b ag
c j
e il
g ame
i ous
k x
m c
m ii
p et
u kk
æ ³
Ġ ]=
Ġ< __
Ġc en
Ġ<< #
Ġs or
Ġs we
Ġ" _
Ġb d
Ġb mm
ir nag
us s
Ġd out
ĠT rie
Ġ' );}
Ġmax k
max y
base s
MM ENT
Ġ__ |
Ġ_ ;
Ġw yn
ĉĉĉĉĉĉĉĉ ĉĉĠ
ĠR ank
min a
Ġst orm
Ġde st
ĠI CPC
Ġto gg
Ġsum m
Ġ5 9
Ġ4 50
ight s
art ment
10000 7
(- )
Ġ] "
ĠU I
ĠU SU
Ġ! (*
âĸĴâĸĴ âĸĲ
20 7
33 9
1000 50
ab ba
37 9
low bit
Ġdi ma
1111 111
Ġfl g
199 9999
ob ius
ĉĉĉĉĉĉĉĉĉĉĉĉ ĉĉĠ
vv s
ah ang
Ġ20 5
ĉĉĉĉĉĉĉĉĉĉĉĉĉ Ġ
Ġpq i
Ġdo Replace
57 636
pro g
we h
80 9
000000000 7
Ġ` .
Ġbr ute
Ġlog f
________________________________ ________________________________
Ġxy Line
Ġimp ro
factor ize
Ġwr f
let ed
Ġge tii
Ġbal anced
AK H
LIM IT
Ġmu ch
ĠNU IP
CO MMENT
position s
âĸĪâĸĪâķĶ âķĿ
Ġ987 65
ĠAL PH
Ġ'> ')
âĸĴâĸĴâĸĴâĸĦ âĸĴâĸĴâĸĴâĸĴâĸĴâĸĴ
fu weh
Ġtra vers
3482 791
]==... ==
ĠDep artment
irnag ar
ĠUSU AL
ahang irnagar
57636 3482791
( ",
( '.');
, !
- .
. -'
3 67
6 77
6 79
7 00
C an
D raw
F e
G r
K n
N X
P d
R Y
U V
] &(
_ ]
a sp
d gs
e ul
f ect
n base
p C
w ow
x o
} ];
Ġ enter
in o
on s
Ġl ucky
Ġm rg
Ġ1 50
Ġp ip
it calc
Ġ>> (
ĠĠ ĉĉĉĉ
ans r
as dg
Ġif def
Ġ++ ,
nc es
Ġe pr
Ġmax K
Ġmax V
rt h
;} }}
ot o
()) ->
res sion
Ġ__ /|
Ġ>= '
Ġh b
ĠC l
em ber
len a
num b
ĉĠĠ Ġĉĉ
pre d
AR S
Ġ\ .
ip tion
ĠE D
ok o
Ġthe m
Ġdist inct
Ġlo ad
Ġbu y
Ġbu il
37 3
read in
RE V
RO M
write Int
________________ _____
fix Array
Ġ"] :
Edge s
Ġfin dp
)? "
NN N
we i
bl ing
ire InputIter
âĸĳâĸĳâĸĳâĸĳâĸĳâĸĳâĸĳâĸĳ âĸĳ
Ġ200 200
Ġ50 10
fo llow
Ex po
Ġsk y
To String
app ly
ĠAl gorithm
Ġgi ua
uni q
IS MI
ĠELE MENTS
Dep th
sof ar
Requ ireInputIter
ukk ha
ISMI LLAH
) |(
4 33
; *
C enter
D inic
I WI
M on
M ac
O B
P f
S L
S ource
b ld
f whole
i y
n mask
p ak
p uti
y d
± Ã²
Ġ( ;;)
Ġl arg
Ġa asdfasdf
Ġa lso
++ ]=(
-- ()
Ġv S
Ġv m
ac ency
an te
ir Vector
Ġj jj
ol o
)) -(
vector s
Ġk r
as fh
as ses
bit rary
Ġg min
******** ****
Ġin vert
ed ron
ĠA lex
ĠA nton
Ġcin v
max c
Ġq t
rt y
ĠS EG
ag ak
64 3
ĠR C
â£¿ â¡¿
Ġmp os
pos it
ĠG ood
11 7
ĠD AR
ĠB lock
lo se
get her
Ġinf f
Ġis qrt
ld b
ld k
ld jk
ĠV D
mid dle
âĸĪâĸĪ âĸĦâĸĦâĸĦâĸĦ
Ġ\ _______
Ġ\ __\\
ro om
[] ){
ri uper
;++ _)
20 9
Ġfr q
]==' ('
]==' -')
)+ =(
top t
rr or
ĠH exagonal
37 79
lli seconds
ĠREP N
Ġex ec
Ġadj acency
16 9
lim ite
Ġbe ki
lf asfh
Ġas gasg
200 500
cost s
ah edron
ah lfasfh
random Engine
ter m
ls ldk
â£¿â£ ¶
fj ahlfasfh
ik ldjk
rg ht
ĠZ n
âĸĳâĸĳâĸĳ âĸĦâĸĢâĸĴâĸĴ
ĠÐ µ
68 1
cpp str
ĠComp ress
scan i
Ġsd fjahlfasfh
Ġ---------------- ---\
ĠIN IT
âĸĪâĸĪâĸĪ âĸĢâĸĢ
Ġinc rease
Ġcap acity
ÑĤ Ð¾
Ġchange s
Ġask fh
lect ed
fun safe
Ġ\| _______|
âĶĢâĶĢâĶĢâĶĢ âĶĢâĶĢâĶĢâĶĢ
ĠCH R
ÐĲÐ Ŀ
dg asg
âłĻ â¢¿
åı ĺ
214 4
lh agak
rim irVector
Ġ\_| \
Ġsdk fas
ĠCalc ulate
Ġass dgs
âĺģ âĺģ
ĠLOO K
nam ic
Ġeng ine
wq riuper
Ġaasdfasdf asdf
Ġasgasg ash
Ġaskfh wqriuper
dgasg hsf
lhagak lsldk
Ġsdkfas lhagaklsldk
Ġassdgs dgasghsf
Ġaskfhwqriuper ikldjk
& ,
' `
* \
6 59
8 77
8 57
H AM
L ocal
M ASK
P L
R oll
] (
a for
a lex
c ary
d ic
e sp
k p
q b
r ink
z er
{ };
Ñ İ
Ġ ut
Ġm ethods
Ġa maz
Ġp us
Ġc ard
() ])
Ġs hik
it ies
Ġ" ):
am ir
Ġt it
(" ;
(" *****
mp p
Ġr ii
ma de
Ġu nt
ĠN oi
Ġcon d
ĠF low
Ġq ll
ic ks
he p
Ġw len
ul a
'; )
âĸĳ âĸĢâĸĦ
Ġmp i
Ġh ast
]== "
ĠD on
tree Size
]] <
]+ '
rep e
######## ####
ĠO VER
FOR D
Ġac cess
mn s
Ġ. /
30 10
Ġprint arr
FF T
Ġth ird
Ġmy mul
Ġms l
âĸĦâĸĦ âĸĳâĸĳâĸĳâĸĳâĸĳ
40 5
Ġps l
Ġà¦ «
LI LLAH
ĠJ an
ĠJ ust
range s
Ġpl ay
Ġ-------------------------------- ------------------------
Ðµ Ð¼
inc rease
ĠIN Iter
Ġpo si
Ð½ Ð°
Ġuni q
Ġ100100 1001
LOG N
------------------------ ---
------------------------ -----
Ġwor ks
Ġtim min
Ġro ck
Ġ***** \
âĸĳâĸĳâĸĳâĸĳâĸĳâĸĲ âĸĦâĸĦâĸĳâĸĳâĸĳâĸĳâĸĳ
Ġ997 3
âĸĳâĸĳâĸĳâĸĳâĸĮ âĸĳâĸĳâĸĳâĸĳâĸĳâĸĲâĸĦâĸĦâĸĳâĸĳâĸĳâĸĳâĸĳ
Ġwinner s
çĽ ¸
Del ta
Weighted Edge
Fin ite
çº ¿
UNI QUE
Enable d
(+ )
ĠOper ations
Ġ98765 431
OB AL
Ġamaz ing
ĠNoi sy
% _
4 49
5 14
8 00
8 53
: .......
: ....:
? -(
A lice
C l
K M
L M
R o
d os
g lobal
h d
h ot
j ah
l um
l num
l ish
m ut
p ool
r h
u max
¯ ÐĶÐ
Ð ĳÐŀ
Ù ĩ
Ġ eg
in vert
Ġ( -(
se ll
se parator
Ġn tt
Ġp ool
Ġp ci
-- ]
Ġ+ (
]; //
Ġb for
con n
Ġd u
Ġf inv
Ġr agetree
ma xt
Ġre main
Ġu k
ĠM INF
******** ***/
<<" -->
Ġ) (
Ġcon vex
ĠF IO
Ġmax l
ĠP erm
Ġ3 30
........ .:
(){ };
âĸĳ âĸĪâĸĪâĸĪâĸĢ
âĸĳ âĸĮâĸĴ
]] *
ĠI FN
all el
Ġ'\ "
AR SH
Ġ\ ________
âĸĴ âĸĢâĸĢâĸĢâĸĢ
âĸĴ âĸĢâĸĴ
âĸĴ âĸĪâĸĪâĸĪâĸĪâĸĮ
ĠMAX LL
Ġ", __
10000 3
................ :
................ ..
Ġmx v
ri es
/// ---
/// ...................................
97 1
adj acent
Ġ^ _^
Ġdb a
âĸĦ âĸĪâĸĪâĸĪâĸĪâĸĪâĸĪâĸĪ
âĸĳâĸĳâĸĳâĸĳ âĸĦâĸĪâĸĪâĸĪâĸĪâĸĪâĸĪâĸĪâĸĪ
Ġmn s
Ġcheck bit
Ġvv vl
Ġstart Time
100000000 00000000
100000000 000
âĸĪâĸĪâĸĪâĸĪ âĸĢâĸĴ
âĸĪâĸĪâĸĪâĸĪ âĸĢâĸĪâĸĪâĸĪâĸĪâĸĪ
âĸĪâĸĪâĸĪâĸĪ âĸĦâĸĴâĸĴâĸĴâĸĴ
âĸĪâĸĪâĸĪâĸĪ âĸĪâĸĪâķĶâķĿ
________________ ______
âĸĴâĸĴâĸĴâĸĴ âĸĢâĸĢâĸĢâĸĴâĸĴâĸĴâĸĴâĸĴâĸĴ
sh ir
âĸĮ âĸĳâĸĳâĸĳ
âĸĮ âĸĴâĸĦ
âķĲ âĸĪ
................................ .................
Ġver y
ĠDB GG
,,,,,,,, ,,
âĸĲ âĸĪâĸĪâĸĪâĸĮ
âĸĲ âĸĴâĸĢâĸĢâĸĢâĸĢ
âĸĳâĸĳâĸĳ âĸĲâĸĳâĸĳâĸĳâĸĦâĸĦâĸĳâĸĳâĸĮ
LI E
Ġ') '
state s
son s
Ġ.: --.
***** .................................................
Ð¾ Ð»
ĠTR Y
ä¸ º
ĠTail s
ĠMIN US
_, \
Mul ti
--- ///
âĸĢâĸĦ âĸĳâĸĳâĸĳâĸĦâĸĢâĸĴâĸĴ
'' |
âĸĴâĸĴâĸĴâĸĴâĸĴâĸĴ âĸĢâĸĪâĸĪâĸĪâĸĪâĸĪ
âĸĴâĸĴâĸĴâĸĴâĸĴâĸĴ âĸĢâĸĢâĸĢâĸĴâĸĴâĸĴâĸĴâĸĴâĸĴ
Res ource
Ġceil ing
Ġ\| __|
âĸĴâĸĦ âĸĢâĸĢâĸĢâĸĢâĸĢâĸĦ
ĠLS One
âĸĪâĸĪâĸĪâĸĪâĸĪâĸĪâĸĪ âĸĦ
team s
wd Iter
âĸĳâĸĲ âĸĪâĸĪ
âĸĳâĸĲ âĸĪâĸĮ
âĸĳâĸĲ âĸĪâĸĪâĸĪâĸĪâĸĢâĸĴ
âĸĲâĸĳâĸĳâĸĳ âĸĢâĸĢâĸĳâĸĳâĸĮ
ÐĶ ÐĲÐĿ
âĸĴâĸĴâĸĴâĸĴâĸĴ âĸĪâĸĪâĸĪâĸĪâĸĮ
âĸĦâĸĢâĸĴâĸĴ âĸĢâĸĦâĸĳâĸĳâĸĳâĸĦâĸĢâĸĴâĸĴ
âĸĳâĸĳâĸĪ âĸĴâĸĦâĸĢâĸĢâĸĢâĸĢâĸĢâĸĦ
âĸĳâĸĳâĸĳâĸĢ âĸĪâĸĪâĸĪâĸĢâĸĢ
âĸĳâĸĳâĸĳâĸĢ âĸĮâĸĴâĸĦ
âĸĴâĸĲ âĸĪâĸĪâĸĪâĸĮ
Ðĵ ÐĶÐĲÐĿ
Ġ"' "
Ġ"} "
âĸĳâĸĦâĸĢ âĸĮâĸĳâĸĳâĸĳ
âĸĴâĸĴâĸĴâĸĦ âĸĴâĸĴâĸĴâĸĦâĸĴâĸĴâĸĴâĸĴâĸĴâĸĴ
âĸĳâĸĳâĸĳâĸĳâĸĳâĸĮ âĸĴâĸĴâĸĴâĸĴâĸĢâĸĢâĸĢâĸĴâĸĴâĸĴâĸĴâĸĴâĸĴ
âĸĳâĸĳâĸĳâĸĳâĸĳâĸĮ âĸĴâĸĴâĸĴâĸĦâĸĴâĸĴâĸĴâĸĦâĸĴâĸĴâĸĴâĸĴâĸĴâĸĴ
âĸĢâĸĢâĸĳâĸĳâĸĮ âĸĲâĸĳâĸĳâĸĳâĸĢâĸĢâĸĳâĸĳâĸĮ
âĸĢâĸĢâĸĢâĸĢâĸĢâĸĦ âĸĴâĸĲâĸĪâĸĪâĸĪâĸĮ
âķĲâķ¦âķĲâķ©âķĲâķ¦âķĲâķ©âķĲâķ¦âķĲâķ©âķĲâķ¦âķĲâķ© âķĲâķ¦âķĲâķ©âķĲâķ¦âķĲâķ©
âĸĲâĸĳâĸĳâĸĳâĸĦâĸĦâĸĳâĸĳâĸĮ âĸĲâĸĪâĸĪâĸĪâĸĮ
ÐĶÐ ¯ÐĶÐ
âĸĪâĸĪâĸĪâĸĪâĸĪâĸĪ âĸĦ
Ġâķļ âķĲâķĲâķĲâķĲ
Let ter
âĸĢâĸĦâĸĳâĸĳâĸĳâĸĳ âĸĦâĸĢâĸĴâĸĴâĸĢâĸĦâĸĳâĸĳâĸĳâĸĦâĸĢâĸĴâĸĴ
Ġfld gjdflg
ITNO A
âĸĪâĸĪâķĶâķĲâķĲ âĸĪâĸĪâķĹ
ande ro
âĸĴâĸĴâĸĴâĸĴâĸĴâĸĴâĸĴâĸĴâĸĴâĸĴâĸĴâĸĴâĸĴâĸĴâĸĴâĸĴ âĸĴâĸĪâĸĪâĸĪâĸĪâĸĮ
Ġ.'. ''|
âĸĴâĸĢ âĸĪâĸĪâĸĪâĸĪâĸĪâĸĪâĸĦ
ĠObject Type
âĸĢâĸĢâĸĢâĸĢâĸĢâĸĢ âĸĪâĸĪâĸĪâĸĪâĸĪâĸĪâĸĪâĸĦ
âĸĴâĸĴâĸĦ âĸĢâĸĢâĸĢâĸĢâĸĢâĸĦâĸĴâĸĲâĸĪâĸĪâĸĪâĸĮ
âĸĴâĸĴâĸĲ âĸĮ
Ġimpro ve
Ġ\. _,\
âĸĪâĸĪâĸĦâĸĦâĸĦâĸĦ âĸĪâĸĪâĸĪâĸĪâĸĦâĸĴâĸĴâĸĴâĸĴ
alex andero
âĸĳâĸĢâĸĦ âĸĲâĸĴâĸĢâĸĢâĸĢâĸĢ
jah idul
ÐĳÐŀ ÐĵÐĶÐĲÐĿ
<<"--> "<<
âĸĳâĸĪâĸĪâĸĪâĸĢ âĸĴâĸĴâĸĴâĸĴâĸĴ
âĸĳâĸĮâĸĴ âĸĢâĸĦâĸĳâĸĳâĸĳâĸĳâĸĦâĸĢâĸĴâĸĴâĸĢâĸĦâĸĳâĸĳâĸĳâĸĦâĸĢâĸĴâĸĴ
âĸĴâĸĢâĸĴ âĸĪâĸĮ
///................................... *****.................................................
âĸĦâĸĪâĸĪâĸĪâĸĪâĸĪâĸĪâĸĪ âĸĢâĸĢâĸĢâĸĢâĸĢâĸĢâĸĪâĸĪâĸĪâĸĪâĸĪâĸĪâĸĪâĸĦ
âĸĪâĸĪâĸĪâĸĪâĸĢâĸĪâĸĪâĸĪâĸĪâĸĪ âĸĢâĸĴâĸĮ
âĸĳâĸĳâĸĳâĸĲâĸĳâĸĳâĸĳâĸĦâĸĦâĸĳâĸĳâĸĮ âĸĲâĸĳâĸĳâĸĳâĸĦâĸĦâĸĳâĸĳâĸĮâĸĲâĸĪâĸĪâĸĪâĸĮ
Ġ.:--. '.
âĸĴâĸĴâĸĴâĸĴâĸĴâĸĴâĸĢâĸĢâĸĢâĸĴâĸĴâĸĴâĸĴâĸĴâĸĴ âĸĪ
âĸĳâĸĲâĸĪâĸĮ âĸĴâĸĴâĸĴâĸĴâĸĴâĸĴâĸĴâĸĴâĸĴâĸĴâĸĴâĸĴâĸĴâĸĴâĸĴâĸĴâĸĴâĸĪâĸĪâĸĪâĸĪâĸĮ
âĸĳâĸĳâĸĪâĸĴâĸĦâĸĢâĸĢâĸĢâĸĢâĸĢâĸĦ âĸĴâĸĴâĸĦâĸĢâĸĢâĸĢâĸĢâĸĢâĸĦâĸĴâĸĲâĸĪâĸĪâĸĪâĸĮ
âĸĳâĸĳâĸĳâĸĢâĸĪâĸĪâĸĪâĸĢâĸĢ âĸĪâĸĪâĸĪâĸĪâĸĢâĸĪâĸĪâĸĪâĸĪâĸĪâĸĢâĸĴâĸĮ
âĸĳâĸĳâĸĳâĸĢâĸĮâĸĴâĸĦ âĸĪâĸĪâĸĦâĸĦâĸĦâĸĦâĸĪâĸĪâĸĪâĸĪâĸĦâĸĴâĸĴâĸĴâĸĴ
âĸĳâĸĦâĸĢâĸĮâĸĳâĸĳâĸĳ âĸĢâĸĢâĸĳâĸĳâĸĮâĸĲâĸĳâĸĳâĸĳâĸĢâĸĢâĸĳâĸĳâĸĮ
âĸĳâĸĳâĸĳâĸĳâĸĳâĸĮâĸĴâĸĴâĸĴâĸĴâĸĢâĸĢâĸĢâĸĴâĸĴâĸĴâĸĴâĸĴâĸĴ âĸĴâĸĲ
âĸĳâĸĳâĸĳâĸĳâĸĳâĸĮâĸĴâĸĴâĸĴâĸĦâĸĴâĸĴâĸĴâĸĦâĸĴâĸĴâĸĴâĸĴâĸĴâĸĴ âĸĲ
ÐĶÐ¯ÐĶÐ ®
âĸĳâĸĢâĸĦâĸĲâĸĴâĸĢâĸĢâĸĢâĸĢ âĸĴâĸĴâĸĴâĸĴâĸĴâĸĴâĸĢâĸĢâĸĢâĸĴâĸĴâĸĴâĸĴâĸĴâĸĴâĸĪ
ÐĳÐŀÐĵÐĶÐĲÐĿ ÐĲ
âĸĳâĸĮâĸĴâĸĢâĸĦâĸĳâĸĳâĸĳâĸĳâĸĦâĸĢâĸĴâĸĴâĸĢâĸĦâĸĳâĸĳâĸĳâĸĦâĸĢâĸĴâĸĴ âĸĦâĸĢâĸĴâĸĮ
///...................................*****................................................. ///
âĸĳâĸĳâĸĳâĸĢâĸĮâĸĴâĸĦâĸĪâĸĪâĸĦâĸĦâĸĦâĸĦâĸĪâĸĪâĸĪâĸĪâĸĦâĸĴâĸĴâĸĴâĸĴ âĸĪâĸĢ
âĸĳâĸĦâĸĢâĸĮâĸĳâĸĳâĸĳâĸĢâĸĢâĸĳâĸĳâĸĮâĸĲâĸĳâĸĳâĸĳâĸĢâĸĢâĸĳâĸĳâĸĮ âĸĴâĸĢâĸĴâĸĪâĸĮ
) <<'
. ________________
5 23
6 19
= ++
> &&
B ob
C ODE
F ound
J ul
T s
_ >
d ol
e val
e rent
h m
h ld
h ypot
i ally
p ost
q i
r id
s aved
t ap
» Ħ
â Ĺ
ç ¬
Ġ ur
Ġ 888
Ġi cbrt
Ġl ch
Ġl az
Ġm c
Ġp ost
Ġs ab
Ġv L
Ġv in
Ġd n
Ġf ak
", ++
Ġma pii
:: \
Ġr int
Ġr sort
Ġ' ['
Ġ' (';
Ġy l
)) +"
Ġk i
ĠM onth
ch a
Ġin l
]= [";
<<" ]=[";
Ġendl n
Ġpr actice
ĠF enwick
is ok
ĠP rime
ul al
min y
Ġo buf
Ġh p
Ġh old
Ġget Root
11 3
11 10
ĠD GC
mat r
Ġto int
Ġse r
Ġinf int
Ġ\ /__/
Ġle a
art e
ĠE NG
mn x
cle an
ont al
Ġne i
ER S
Max Flow
tt t
Ġsc ans
ĠY a
Ġdi am
LE FT
<<"= [";
46 1
46 3
ng lish
31 3
Ġtype of
ĠW hen
77 3
ĠQ ry
Ġas dg
Ġsqrt l
Ġsub tract
ho le
ON ENT
19 00
do min
tf j
"" "
iz ontal
PB R
Ġstat us
Ġsm th
20000 9
ĠLD B
Re ader
Pro cess
Ġbl ah
Ġinter val
Ġho me
QUE UE
Ġpart ition
Ġdoes n
Ġav g
comb ine
Ġ123456789 0
coord inate
Sol ved
nC r
Ġoverload ing
Mid dle
æĪ ĳ
âĸ²âĬĻ âĸ²âĬĻ
Ġlarg er
ARSH AD
$ %
' <<
* }
- ',
0 10
1 34
4 0000
4 57
9 00
: `
: ,;
; `,,
> !
B ISMILLAH
F RE
S ep
T U
V V
Y MMMMMMMMMMMMMMMM
\ /
f li
k mp
l ayer
m ber
n ano
t sz
} @
} ))
è Ĭ
Ġ GG
Ġ own
st p
Ġi stringstream
on line
Ġl xt
Ġl mt
Ġl ambda
Ġm ight
++ ].
Ġ1 20
Ġp eek
Ġc arte
// ****************************************************************
Ġt ed
Ġt ap
Ġx n
mp ty
__ <<"\
Ġj udge
Ġr long
Ġre r
]) +(
ĠM U
Ġg max
<<" >
ĠN max
Ġpr ie
Ġmod Inv
â£ ĩ
ĠS GD
ĠP d
ĠP RT
MM MN
un dy
Ġ3 33
ĠL O
Ġmp si
Ġget ans
ĠC ur
ĠD ukkha
]] ))
em y
â£¿â£¿ â£Ĩ
99 1
Ġ5 67
Ġinf Value
Ġinf inity
Ġvi v
Ġrep n
10000 00010
ĠFOR SZ
Ġpre process
Ġread Word
ci a
Ġsq u
<<( *
Ġup max
âł Ħ
âł ı
58 476
ST AR
di jkstra
ĠH MOD
MMMMMMMM MMMMM
Ġsc ii
55 9
pl s
â¡ ¾
â¡ ĺ
Ġpower s
,; `
ove mber
Ġ20 10
index ed
Ġpq l
ank s
Ġbig ger
â£¿â£¿â£¿â£¿â£¿â£¿â£¿â£¿ â£¿â£¿â£¿â£¿
â£¿â£¿â£¿â£¿â£¿â£¿â£¿â£¿ â£¿â£¿â£¿â£¿â£¿â£¿
â£¿â£ ŀ
âķ¬âķ¬ âķ¬
Ġwe ll
Ġ"]"; }
â¢¿ â£·
20000 3
Ġ-------------------------------- --------
ser tion
ser vers
Ġï¿½ï¿½ï¿½ï¿½ï¿½ ,
â£¯ â¡¿
gen eral
Ġbp m
ĠIT R
_. '
wh en
â¢» â£¿â£¿â£¿â£¿â£¿â£¿â£¿â£¿â£¿â£¿â£¿â£¿â£¿â£¿â£¿â£¿
888888888888888888888888 888
ĠFIN D
â¡ĩ â¢¹
ï¿½ï¿½ï¿½ï¿½ï¿½ï¿½ï¿½ï¿½ ï¿½ï¿½ï¿½
âł» â£½
133 111
Ġprop er
ell o
âłģ â£¾
prep are
aei ai
ĠBit Cnt
stop watch
âłīâłī âłīâłī
ĠUnion Find
ĠâĸĪâĸĪâķĳ âĸĪâĸĪâķĳ
Ġmaxt y
ĠFRE IN
ifi cant
à¦¶ à¦¨
ĠFrom Str
â¡Ļ âł
Ġrequire ment
Friend ship
nano seconds
Ġpeek Char
Ġcarte sian
' <=
2 17
8 43
9 19
= *(
F r
K ey
M AN
O ver
P A
T X
] \
f po
h b
h amed
k c
l pos
m edian
n on
¦ Ĥ
¯ Ã
Ð ¿
Ð ĺ
å ¦Ĥ
int eger
st it
Ġl max
Ġl map
Ġl scn
se nd
Ġn al
Ġ1 34
Ġ1 111
Ġp ub
Ġp tt
-- ]);
Ġs printf
out p
Ġr h
hi ll
Ġk t
pr s
ĠM C
88 3
Ġ: ";
ad ded
Ġe i
ĠF Or
is LowerCase
is UpperCase
ĠS OUT
ĠS chool
mod pow
ĠR F
**************** ***
+= '\
min j
tr ick
Ġget p
Ġget ting
ĠC har
ĠC lear
Ġde v
]] <<"
Ġun locked
99 6
mx i
mx y
Ġ100000000 6
to a
Ġ5 12
ex e
Ġ); }
Ġ4 30
100 4
ĠFOR all
ĠAr bitrary
SE ND
ĠE R
Int ersection
)+ "
Ġup min
Ġdy namic
ĠREP P
Ġcomp lete
Ġ100 500
Ġpow r
Ġ8 61
ON D
Ġ20 18
sol ved
sh it
be k
power Mod
40 7
Ġrand operation
Ġà¦ ¬
44 4
]-= '
loc al
ĠSH IK
code r
Ġmatch ing
xb f
ĠPOW ER
Ġspace s
lab el
pli er
/| _|
Ġ9999 0001
//---------------------------------------------------------------- -------------
ĠRO AD
Wr iter
ĠPOS L
èĬ Ĥ
¯Ã °
- *
2 100
5 27
A G
B inary
J an
J ahangirnagar
M UL
R L
T here
[ ]);
^ )
a res
a ft
c ir
c base
d w
i min
k ir
k ase
l ap
p Node
u map
w s
é Ģ
Ġ ĉĠĠ
Ġ( ))
Ġl out
Ġl ii
se ti
Ġm on
() ||
Ġv et
am in
le ad
Ġd inic
== ')
Ġr printf
Ġr ht
Ġ} \
Ġ' ^
Ġ2 19
Ġ2 101
Ġy j
Ġu pb
]) ];
stre e
ed itor
<<" ----------------
Ġpair T
ĠN D
Ġpr il
ĠF ROM
ĠA P
ĠA cc
is a
ĠS u
()) =='
cur sum
ĠR P
') ){
ck x
Ġh m
Ġget Id
ĠG OD
ĠD ouble
ĠD inic
Ġde nom
Ġun getc
Ġ# "<<
ex ception
ub e
ay a
Ġarr i
53 9
Ġrep de
................ .......
Ġread ll
sse r
/// ===
ĠE RR
ĠE GCD
ok en
Ġadd modfast
ep ega
Ġend c
ab l
Ġ6 60
]* =
Ġok ay
Ġsc ope
Ġcomp ile
Ġprint New
inv f
56 3
14159265358979323846 3
Ġsol v
parent s
28 1
ĠInt MaxVal
AN GE
/******************************** ***************/
40 9
St ate
49 1
Ġà¦ ¤
ĉĉĉĉĉĉĉĉĉĉĉĉĉĉĉĉĉĉĉĉĉĉĉĉĉĉĉĉĉĉĉĉ ĉĉĉĉĉĉĉĉĉĉĉĉĉĉĉĉĉĉĉĉ
unc om
Ġ---------------- --------------
block ed
ĠLong MaxVal
Pro cessed
ide nt
Ġlp d
~~~~ ~~
Ġ"# "
ĠNumber Iterator
ĠMS I
Ġba sic
Ġ40 4
minus one
ĠIs Equal
Ġprob ab
Ġ1000001 9
ä» ¬
Fact ors
MA IN
åı ¯
ĠÐ¿ ÑĢÐ¾
============================================ ===
Ġreg ister
ĠFRE OUT
ĠRAH MAN
{{{ */
Ġ|_|\__,_| _|
ĠPRE F
//------------------------------------------------ -------
Infin ite
miss ing
ĠComplex ity
]<<", ";}
ĠMo hamed
æĪĳ ä»¬
ĠprintNew Line
ĠRAHMAN IR
" ]=
1 1010
1 307
4 00010
7 01
8 11
8 27
> _
? '
F ill
J wb
L y
R A
R D
U SH
W XY
Y iN
\ *
b ab
g ar
i mid
j V
j YnB
l mt
n ine
r ang
y c
ç ķ
Ġ( @
Ġm r
Ġc ir
Ġc ustom
en g
() ]);
Ġv sz
ac cc
Ġ" -------
Ġint s
le tt
Ġ& ___
Ġf ar
Ġf name
Ġf po
Ġf resh
ar ations
os z
ĠT AB
Ġr st
Ġr ap
)) :
Ġk p
]) ]++;
ĠM ult
ĠM SET
Ġ% %
Ġg ya
ch anged
ed s
ĉĉĉĉĉ ĠĠĊ
Ġ) /
Ġ) >>
ĠF B
Ġres z
ĠP S
Ġmin v
cur Node
ast e
ĠR ET
ĠL imit
Ġo b
ĠC am
ĠD is
mat ic
all owed
get Max
Ġz Algo
to Int
Ġ5 1
Ġ5 97
Ġ5 57
Ġ5 5555
ĠV i
ĠMAX INT
Ġle arn
Ġrep v
es o
Ġread i
Ġ1000 5
Ġcheck ed
Ġput n
50 4
Ġvv vs
100000000 00000
Ġpop f
IT S
Ġ8 30
Ġlow b
57 1
47 29
Ġï¿½ï¿½ï¿½ï¿½ï¿½ï¿½ .
bl ue
Ġ~ ((
Ġ-------------------------------- ----------------------------------------------------------------
Ġ[&] ()
ÑĤ ÑĮ
))* ((
/************************************************ *****/
Ġsegment s
ĠBU FF
ĠFIN AL
Ġany thing
ĠCH MAX
ĠCH MIN
Ġwrit ing
ĠTo String
lin ux
######### ~~
Ġprep are
ĠABC D
ĠABC DE
ãĤ Ĵ
ĠCASE T
+-- +--
ĠCan h
ĠEXP ECT
ĠRAH IM
ĠSW AP
NQ cWEj
Ġlit tle
!="" ?
åĮ ĸ
<<"< "<<
UV WXY
<<"---------------- "<<
Jwb X
# __
/ _
6 01
@ ï¿½ï¿½
A JU
D A
I m
I ATION
N W
P ham
T A
U Int
U pd
a red
a wa
c md
d op
e qu
h ol
j oint
k orn
m ethods
o ber
p uu
q ing
r be
r ach
s ir
s ample
x k
x max
z hang
ä ¹
æ ²
ĩ åĩ
in sertion
Ġi out
Ġl pair
Ġl pri
Ġl priln
Ġm ir
Ġa pt
Ġn z
Ġn ai
++ <<":
Ġ1 43
Ġp out
Ġp fr
Ġ0 61
Ġc max
Ġc nd
Ġc oun
Ġ+ -
ong korn
// !
Ġv dbl
Ġv aild
ac hi
Ġ" (
Ġ" >>
Ġ" >>>>>>
Ġt n
Ġt ol
Ġb ac
Ġb size
Ġf prio
ar cia
ect ion
__ <<'
const s
ue z
os ri
ĠT E
ĠT aken
ĠT utu
Ġr ans
el m
Ġ} }
od rig
Ġy e
Ġre vv
set a
Ġu nd
Ġg y
Ġg str
Ġg ao
LL A
can hazfast
<<" }
Ġ/ |
Ġ/ *********************
ĠF G
ĠF oo
Ġmax pq
Ġtr ll
Ġ3 00000000
ĉĉĉĉĉĉĉĉ ĠĠ
Ġpb c
ĠR R
ĠR odrig
ĠL en
Ġo ll
Ġo stat
Ġh ero
ĠMOD P
sign al
il i
ĠC A
ĠG A
ĠG arcia
ĠD ont
ĠB i
ĠB ATCH
ĠB osri
all t
/* {{{*/
Ġ10 7
)( {\
Ġret if
ĠV d
ĠV ll
ĠV iii
ĠV LLL
ĠLL L
Ġout l
Ġset DP
ĠFOR X
Ġmx N
Ġpll pl
Ġread c
Ġread UInt
Ġoptim iza
({ (
******************************** /
20 4
Ġfr d
)- =(
comp are
ab delrahman
à¦ ¸
ĠH uu
ĠH achi
Ġput nb
ha v
Ġsc iii
AC T
Ġen l
Ġen try
RE AJU
Ġpow mulmod
])) ,
su do
Ġsub string
Ġcan hazfast
Ġ100000 1000
Ġpp fr
Ġ") "
Ġwrite i
Ġwrite ll
ly s
br ary
Ġtt me
der s
ra ja
ik ung
ĠJ ewel
Ġme an
mon d
1415926535897932384626433832 7
Ġ-------------------------------- -
Ġct if
Ġbr if
Con stants
ĠGet Ans
Ġ---------------- ---------
ĠLong MinVal
Ġab cd
Ġab delrahman
ĠRE AY
Ġvp ull
Ġvp uu
Ġqueue l
dec reaseByOne
Ġfd n
âĸĢâĸĢâĸĢâĸĢ âĸĦ
ĠUN DEF
ĠUN SYNC
Ġer t
Ġï¿½ @ï¿½ï¿½
âĸĪâĸĪâĸĪâĸĪâĸĪâĸĪâĸĪâĸĪ âĸĪâĸĪâĸĪâĸĪâĸĪâĸĪâĸĪâĸĪ
Ġcall s
optim iza
14159265359 3
ĠCO MI
short est
Ġvld bl
Ġwrit es
Ġ21 34567891
Ġfto a
Ġfto it
ĠSHOW QUEUE
ĠFR W
Ġinitial ise
ĠCh ulal
Ġclz ll
Ġapp end
ĠDi ego
lag be
ĠVP d
ĠVP i
ĠVP ll
ĠFL USH
Ġabc de
Ġ**************************************** **/
Ġctz ll
Inc rement
tam a
Ġkhod a
Ġbsr ll
ĠEXP ONENT
ðŁ¦ĬðŁ¦Ĭ ðŁ¦ĬðŁ¦Ĭ
å® ĩåĩ
ĠPAIR LL
æŀ ľ
chu an
Ġnpq i
Ġnpq l
999999999999 73
Des mond
writ es
ĠWor rach
Ã¡ ly
Ġwar ukazu
/******************************* \
ĠHA QUE
indrom ic
Ġé »Ħ
pet ed
1999999 973
Ġpus hi
Ġpril n
ĠAcc peted
Ġ"------- "
ĠCam po
qing chuan
zhang qingchuan
ĠRodrig uez
Ġostat ok
ĠHachi ikung
REAJU L
ĠREAY Z
Ġï¿½@ï¿½ï¿½ :
ĠCOMI LLA
ĠChulal ongkorn
ĠEXPONENT IATION
å®ĩåĩ ¡
ĠWorrach ate
Ġé»Ħ å®ĩåĩ¡
/ ******
8 29
8 39
: -(
D ot
E vent
N orm
N IL
P o
R ahmanir
W S
] ]));
b ismillahir
e red
f g
f read
g u
g ui
h it
h vf
j ay
r uffle
r limit
s st
t ans
u dent
v asu
w edge
y aki
~ //
» å
Î ±
Ï Ģ
Ġ ********
Ġ ÏĢ
in n
in x
Ġ= :
or ial
on ment
cl are
Ġ{ _
Ġc id
-- );
-- ];
Ġs fff
// --------
Ġv asu
Ġt ii
Ġt ill
Ġb end
Ġb pow
Ġb akh
Ġf enwick
Ġma il
ĠT IE
Ġr tr
Ġr vi
Ġr REP
Ġr ahmanir
Ġ' -');
Ġre serve
Ġk ar
as ya
ĠM d
Ġg d
Ġpair sort
Ġ) */
ad ox
ĠF GB
ĠA ux
put si
max k
ĠS ame
ĠS ha
ĠS ho
ĠP SET
Ġw i
Ġw edge
cur Time
ĠR ang
ĠR otate
+= ",
ĠL N
ĠL P
ĠL Z
Ġcnt a
Ġh vf
ĠC V
mat on
Ġto c
Ġto Double
ĠB log
Ġcur y
algorithm s
th er
vi jay
Ġis Ex
Ġis Digit
ff loat
ï¿½ï¿½ï¿½ï¿½ ï¿½ï¿½
ĠPI L
ĠU P
ĠU T
OC D
Ġac um
//////////////// ////////
58 9
par adox
Ġmap T
Ġsort f
ne i
ne ss
à¦ ¥
ĠH NO
ĠH appy
37 94
30 9
Ġpar tial
Ġ100 3
Ġen vir
16 3
Ġfast Scan
Ġprint Line
Ġpower mod
Ġsh andom
================ ============
100000000 000000
Ġth ings
su c
ular Function
exp onentiation
Ġsub mission
dig u
Ġinv f
________________ _
Ġpa ired
ms a
Ġ((( _
ĠInt MinVal
Ġub d
;-- (
Ġhash set
Ġhash map
Ġexp ressed
De clare
Con tainer
Ġfa stread
Comp ile
Ġ"}"; }
ĠST ll
99999999 9
change s
off line
take mod
Ġfactor ial
Ġdef ining
1024 000
Ġra him
ĠSP ACE
zz zz
hod ox
Ġ200000 6
Ġonly unique
888888888888888888888888 88
Ġ23 11
Ġda u
sha hidul
è¿ Ļ
Ġ5000 321
Ġ201 103
ä» ¥
Ġort hodox
Ġcu oi
ĠStart s
ĠBR UR
2000000 100
arth a
Ġfastpower mod
Ġgre at
Ġ30000 9
sat yaki
Ġeuler totient
Ġoi int
Ġquit ters
Ra him
æĹ¶ éĹ´
Ġoper ations
'}},{ {'
é¢ĺ æĦı
eul ers
åıĺ éĩı
Ġtit ose
ĠJan artha
Ġsqu are
ĠÏĢ Î±
ĠSha hidul
ĠRang pur
Ġenvir onment
Ġorthodox paradox
! ";
- +
3 97
8 68
A sk
F IO
L N
M emory
O ON
P oly
S l
T emp
T AK
W unused
W missing
] '
_ ){
a j
a ffect
c od
e en
e rest
m si
q C
t os
t qu
x FFFFFFFFFFFFFF
y w
± Ã
å ¿
æ Ń
Ġ @@@
Ġi rep
Ġ1 12
Ġp nn
Ġc gh
Ġc md
Ġ<< '
Ġ+ --
an si
Ġt f
Ġb pp
Ġb order
Ġd ar
mp ow
ĠT LE
ma su
Ġ== (
Ġy min
Ġk v
ith er
Ġpair l
ĉĉĉĉĉ ĠĊ
<= ___
), __
ĠN DEBUG
ĠN CR
ad ur
Ġe of
Ġe val
ĠP P
Ġmin d
Ġmin Heap
64 9
ĠR s
ĠL s
ĠL ow
sum B
Ġh ate
ĠC oll
ĠD Y
]] <<
ĠI II
ĠB ir
Ġz n
Ġz wr
---------------- -
ĠV LL
ĠMAX I
Ġrep A
ĠFOR S
Ġ-- +
Ġmx e
tmp v
/// ********************************
Ġne mat
comp ose
58 63
ab in
In f
AL AM
Ġ6 7
di rection
Ġex plicit
ĠK ings
ĠK azakhstan
ĠK ALAM
Ġhi ghest
Ġ100 7
38 7
Ġprint ii
Ġsh l
Ġbe en
Ġnext p
sc f
]> '
vv b
har d
59 2
27 0
Ġpp ap
Ġ(; (
fa stread
Ġbs l
ET CH
47 13
Ġgen rate
ĠPR IME
EM ESH
Ġ")"; }
69 1
Ġln f
0000000 100
ĠAns wer
Data Out
Ġimp rimirVector
/************************************************ **************
run d
ĠGET B
IG MA
_. __
Ġlet ter
Ġany way
_______ ,
Ġro om
133 3
ĠTo Str
Ġ'+ ';
nv j
ĠDebug ger
Ġ100000000000000000 5
Ġpe at
åĲ Į
tem ber
ĠØ§ÙĦ ÙĦ
CO UNT
ĠÐ¿ ÐµÑĢ
Complex ity
Diff Pf
Ġ987 654321
Ġ'> ';
Ġ'< ';
========= ////
BO EB
Ġlab el
ĠOL BOEB
ĠKnight s
]==') ')
Ġ"[] "
ÙĬ Ùħ
Ġtopolog ical
Ġ================================= =========////
decl arations
âłĢâłĢâłĢâłĢâłĢâłĢ âłĢ
atMe Scanf
Ġhast am
å¦Ĥ æŀľ
ĠPREF ETCH
Ġ55555 7
æ² ¡
ili ary
msa wy
erest ing
xFFFFFFFFFFFFFF FL
Ġcgh f
Ġzwr aca
EMESH OON
" },
' ]==
) ...);
* --
4 77
8 63
A pril
C alc
E rror
H H
K MP
L PS
M arch
N IT
N ah
S core
] /(
d om
h u
i vely
p item
u fo
| )
} ]++;
int d
Ġi p
Ġl m
00 9
Ġp que
ur y
am ps
Ġt ll
Ġt ip
Ġt ang
Ġt take
at ely
Ġma de
Ġr out
Ġr ay
Ġ' -',
)) >
)) ]);
set up
ĠM ou
Ġ<= (
push down
ĠF K
open cv
Ġmax m
is upper
ĠS uf
ĠS YNC
ĠS ingh
ĠS PBR
Ġ__ _____
ĉĉĉĉĉĉĉĉ ĠĊ
min m
fs um
ĠL ocal
Ġo h
(){ __
ĠC T
Ġld d
Ġto string
ĠB ah
Ġad ded
Ġis Whitespace
Ġout arr
art hest
Ġstr ip
12 28
20 17
Ġfr ab
ĠE gor
ĠE nglish
Ġtemp l
33 0
ab an
ab bb
à¦ ľ
ĠK hat
ĠK ulikov
Ġgo es
gh jkl
]+= '
77 216
Ġpop count
Ġsp f
141592653589793238 5
141592653589793238 510
Ġ20 12
Ġ'<< __
Ġdis co
Ġlb d
Ġtm d
br uary
Ġ', '
/******************************** ****/
Ġ'); \
neg at
bl k
Ġà¦ ¦
ĠFor E
300 1
ĠMIN INT
ĠreadInt Array
multi pleTestMode
Ġ10000000 33
ffff ffff
inter vals
Ġwho le
ĠGET M
Ġra j
zz a
Al gorithm
ĠPRINT M
ĠDEB A
Ġscn ll
Ġwrit ten
Ġfe el
Ġcub ic
ĠFord E
CL ionProjects
/**************************************** */
ĠIF DEB
è¡ Į
ĠRa j
Ġ**************************************** ****/
Ġrequ ired
ĠBang a
Ġ'< ')
å°ı çļĦ
Ġ??? ?
14159265358979323846264338327950288419716939937510582097494459 230
Ġ"[] ";
ä¼ ĺ
Ġrect angle
ĠPrintV l
bbbbbbbb bbbbbbb
irect ed
************************** //
besme llah
ĠHoss ain
ĠInv Mod
åľ ¨
Ġsat is
Ġtravers al
Fe bruary
TX T
Jan uary
Ġ******** **/
///******************************** **************************//
Nah id
ĠBah adur
ĠKhat ri
bbbbbbbbbbbbbbb ll
" []
& ((
) ]==
1 30
5 00001
6 28
D im
D toU
J une
J ewel
L toR
L anguage
N ovember
O h
R toL
S I
U ser
W H
] --)
a N
a X
a u
b ut
b lo
d or
d an
f etcher
h el
i it
i str
j at
m cmf
p fl
r j
s ze
v tr
w n
w ski
y ch
¨ æĦı
å ½
ç Ķ
Ġ cloc
de red
ine ar
Ġl nd
Ġm ne
Ġa st
++ =
Ġ1 500
Ġp aa
ou dh
ou ght
() ?
// ____
at sub
][ "
Ġx f
Ġx wb
Ġd abl
Ġf etcher
si st
ze gor
ze wski
const r
ue v
Ġy c
Ġy max
## =
Ġre u
ch s
******** *****
Ġin deg
<<" #
Ġcon n
Ġcon ti
Ġcon struct
)); ++
Ġpr ivate
Ġmod r
-------- //
ĠS top
un zipper
Ġ3 24
Ġmin a
ast er
') >(
Ġst a
Ġmp di
Ġch osen
11 29
ĠD iv
") <<
âĸĳâĸĳ âĸĢ
Ġto gether
fr aid
Ġ'\ '
li ke
to D
Ġ5 100000
Ġad dedge
Ġis F
32 0
Ġrep D
ĠAr yan
oc ument
FOR R
ok ay
Ġ10000 7
Ġdebug p
find Set
<<' ='
par areru
1415926 358
ĠH e
ĠK ey
ĉĉĉĉĉĉĉ ĠĊ
Ġbit cnt
Ġnew Buf
Ġnew BufSize
199 2
su re
Point s
exp ect
sh rink
Ġms b
lc s
new BufSize
buf Size
buf At
60 287
Ġli brary
IZ ATION
]<< ((
Ġdiff erent
Ġrd v
**************************************************************** /
)(( *
ĠJ HELPER
66 1
ĠÐ ¼
Ġkey mod
Ġ15 48
ä¸ ²
Ġ---------------- -----
ĠMIN LL
]=='. '&&
//////////////////////////////////////////////////////////////// ////////////////
2000 20
Ġna ame
cb c
[_ ]<<"
);-- (
Ġceil Div
997 09
segment s
ĠRep d
Ġrg ht
NNNN NNNN
Ġprim elist
Ġap pro
Ġ20000 9
ĠBS Bandme
ĠTo Number
Ġort h
ĠCh oudh
åĲ İ
Ġposition s
ĠStart Point
_______________ \
ELE M
ani el
Ġdefinit ion
han ad
7182818284590452353 60287
ĠGr zegor
Optim izations
Dec ember
Oct ober
FA IL
Aug ust
Ð¢ Ð
æ³ ¨æĦı
ÐµÐ¼ ÐµÐ½
Jul y
BISMILLAH IR
Sep tember
//**************************************************************** *********************
èĬĤ çĤ¹
sir jan
ĠAux iliary
ĠMou hanad
"[] :
Dim Dice
atsub a
ĠStop Watch
ĠChoudh ary
718281828459045235360287 4713
ĠGrzegor zewski
, };
, [](
. *
2 24
4 53
6 31
< -
= ;
B ach
B FS
C ell
D ocument
H e
H ull
M an
R ARY
T otal
V i
b n
c atch
e rep
g d
i max
k il
q c
{ ";
} ])
~ ((
¥ ¤
à ¥¤
ç ±
Ġ WW
Ġ ÙĬ
į æĿ
st able
re l
Ġl wb
Ġm ol
Ġa fraid
Ġp pll
Ġ0 4
() [
() });
// **
am an
am os
]; ++
at ile
Ġx m
ĠT er
ĠT EMPLATE
Ġr untime
Ġ' <<#
sp r
ut or
Ġk Stack
Ġans l
Ġans x
ĠM ark
ĠM MS
Ġg n
Ġg ame
), (-(
ĠN MAX
ĠF it
ĠA T
ot s
()) ){
=( _
cur ans
ĠR MQ
Ġh ur
pos ite
Ġget height
ĠG PP
ĠD MAX
ĠD uy
Ġde m
Ġde nominator
Ġde leted
Ġpii p
ĠB asicInteger
ĠB eng
get m
ce ed
32 3
ht ml
ĠLL MAX
ro ck
Ġstring s
âĸĢ âĸĦâĸĦâĸĦâĸĦ
ec utor
Ġ6 64
di am
di ameter
]!= '.')
37 1
37 59
Ġpar ity
LE GE
ĠIn verse
Ġpow MM
Ġcl f
Ġcl n
ĉĉĉĉĉĉĉĉĉĉĉĉ ĠĠ
Ġseg Tree
vv v
pa i
yy y
mark er
Ġpa i
500 2
do it
te k
print s
__, #__
Ġindex es
Ġmt s
/******************************** ********************************************************************************************************************************
=" {";
rev pro
ĠZ L
ND S
Ġ12 99709
Ex ception
Ġvp dd
--- .
FUNCTION S
ĠRe pr
Ġcp y
+=" }";
GL OBAL
Ġwor st
Ġro ad
]=='* '
Stop Watch
141592653589793 116
LIB RARY
ĠVV L
Be fore
ĠEx ecutor
Ġato z
Sp ace
~~~~~~~~ ~~~~~~~~
ĠVal ue
BO Y
bridge s
ABC DEF
æŀ Ĳ
ĠFlag ship
>(( _
^_^ )
Ġtopolog y
ĠChi ef
åĪĨ æŀĲ
OPTIM IZATION
ĠOr dered
Ġbus y
STAR K
æ²¡ æľī
ä¼ĺ åĮĸ
Ġ1548 5863
Document s
ĠkStack Size
ĠBeng ali
LEGE NDS
" <<"
A DD
B ear
D X
D eg
D ay
G H
G HI
L Decomposition
R ES
S CC
T our
c reate
f inv
f old
f enwick
j u
j mp
l k
n pair
p j
s gt
t ll
v an
w z
w ah
x half
â ļ
å ¾
Ġ )),
Ġ âĪ
in cr
re pp
Ġi vector
Ġi ostream
define s
Ġl os
Ġl vector
Ġm ci
Ġm ms
Ġm ill
Ġn f
Ġn or
Ġc min
() <<'\
ĉĉĉĉ ĠĠĠĊ
Ġs sync
Ġs ot
.. ;;
out dist
Ġ" !!!"
am id
Ġt max
er ate
Ġx half
Ġ& __
Ġd in
Ġma d
Ġ* &
:: ......
ĠT Z
ĠT e
ĠT Case
Ġr foreach
el apsed
Ġ2 10
], *
)) );}
Ġans r
as he
]) &&
ĠM MMMMMMM
(), _
IN OUT
ĠA CC
max len
10 10000
//// /
ĠS Y
ĠP PC
un zip
Ġar cy
Ġw n
ĉĉĉĉĉĉĉĉ ĉĉĊ
____ ,
cur y
min s
Ġh app
Ġget C
ĠG old
ĠD eb
Ġun q
EP B
â£¿â£¿ â£¿â£·
Ġsum r
ES P
NO PQ
/* ---------------------------
Ġ10 57
co ll
Ġout V
26 7
________ ,
clo sed
Ġ-- (
'. '
ĠU SET
'); \
]==' <
)+ "]
âł ĭ
Ġbu gc
ĠH amir
ĠH ARSHAD
22 3456
read ing
Ġbit ch
Ġadj ust
Ġsi mple
ng le
Ġcol umn
mi lliseconds
ĉĉĉĉĉĉĉĉĉĉĉĉ ĉĉĉĉĉ
Ġsub modfast
500 3
Ġpq ll
)== "
sm l
my ostream
Ġal one
Ġexp ect
Ġupd max
cum u
Ġ12 34567
Ġlog ceil
++++ +
Comp osite
____________ __,
ĠIN DIA
Re verse
Ġ'* '){
Ġ10000000 9
à¦¾ à¦
**************************************** */
Ġbeg time
Ġfactor ization
ĠFast Inv
Ġbo y
Al pha
Ġ200000 5
Ġsb t
ĠBU FSIZE
nu ke
Ġ(# _
Ġ(# _)
tar iqul
Ġ(& __
============ =
__________ .
SH AL
Ġvt ll
ĠStr uct
å¤ įæĿ
goal s
Ġsetbit c
Ġ**************************************** *****/
ĠNX POW
JK LM
Ġmakeit number
Ġcontain s
------------------------------------ */
Ġrai chu
///-------------------------------- ----------------------------
IF D
ĠCase T
ðŁĲ¹ðŁĲ¹ ðŁĲ¹ðŁĲ¹
ĠSW S
ĠSh ort
Ġà¦Ĩ à¦Ľ
Ġ================================= ================================
Ġcop rime
ĠUS EPB
?"" :"
RST UVWXY
ĠDig vijay
Ġdream s
Ele m
ÑģÐ» Ð¸
Ġgam ma
Ġoverride s
posit if
ĠÐµ ÑģÐ»Ð¸
Ġ2311 1992
negat if
ABCDEF GHI
âļ ¡
ĠâĪ ª
NOPQ RSTUVWXY
ĠUSET R
ĠHamir pur
ĠFastInv Sqrt
å¤įæĿ Ĥ
JKLM NOPQRSTUVWXY
ABCDEFGHI JKLMNOPQRSTUVWXY
ABCDEFGHIJKLMNOPQRSTUVWXY Z
- __
6 17
? ')
F LL
H ello
P ush
R AD
a prime
b at
f er
j b
k N
k n
k as
n al
p ld
q a
r out
r as
u ally
v n
v us
z ai
{ *
· ¦
Ø ª
å Ń
Ġ Ñ
Ġ ......
Ġ âĸĪâĸĪâķĹ
Ġ ------------
Ĳ æ
Ġi b
Ġa ka
Ġn for
Ġp fi
Ġp pow
ou l
Ġc ou
Ġc arr
Ġv st
Ġv ol
Ġ" *";
an ds
Ġt ans
at t
er ber
++) );
Ġ& >::
Ġ* --
){ _
== _
Ġr min
Ġll f
Ġ' $
ut ure
Ġfor l
Ġmain stream
ch osen
ĠA n
ĠA x
ĠA li
ĠA lso
res sive
ĠR AD
Ġcnt b
Ġst p
Ġst old
Ġget m
Ġget ar
ĠC pC
Ġall comp
ĠD AS
ĠD CD
ĠD CL
--; )
Ġun ions
pre cd
Ġz xc
/* #################################################################################################################
Ġse lf
AR R
Ġmem n
ay ed
Ġis on
insert er
Ġvi z
ĠO S
Ġ\ __
Ġout N
Ġout AN
ro ad
ĠPI PII
struct ure
Ġ10000 3
','. '},{'
88888888 888888
fast InOut
Ġabs o
Ġdb puts
âĸĦ âĸĪ
Ġhe pic
Ġdi bs
seg Tree
Ġfast P
__) <<"\
Ġnew node
Ġmy type
Ġsub size
ĠALL OC
DE D
28 9
ord ing
8888888888888888 8888
answer s
000000 1
ĠZ I
ĠZ P
ĠZ S
Ġmat mul
UN SYNC
ĠPrint A
ĠPrint Al
68 3
Ġtop r
Ðµ Ñģ
Ġ15 000000
Ġso close
Ġpd l
Ġvp DD
Ġback ing
ÑĤ Ð°
Ġopen in
Ġopen out
match es
Ġtri ed
Ġti sic
norm al
load s
14159265358979323846264338327950288 4
Ġact ual
so ma
ĠTESTS I
Un ique
jd k
Ġ************************ ****
ĠDL S
ĠDL X
âĸĪâĸĪâĸĪâĸĪâĸĪâĸĪâĸĪ âķĹ
lab els
AAAA AAAA
Sp eedForce
Ġstre ss
ĠDS L
################################################################################################################# */
vir us
///* ....
........................................ .......
Ġkhod aa
ĠELE M
Cor vus
ĠPPII PII
Ġallrev comp
Ġcell s
/**************************************************************** *******/
Ġkar atsuba
constr uct
Ġ1057 27
ĠStruct ure
ĠShort cut
Ġ================================================================= =========
å¤įæĿĤ åº¦
erber us
ĠCpC m
" [++
+ ");
1 26
4 50
5 29
B is
C X
G ITS
M ind
M atch
N d
O FF
P a
P ri
S copeTimer
\ __,
] },
c el
c Lazy
f ar
f ii
f gh
g ing
h dsh
k d
m ust
o str
o buf
p se
s sync
s nk
v int
y Free
Ġ ë
ŀ ĭ
Ń Ãł
Ġp ic
ou se
Ġc ould
for t
() *(
Ġ<< <<
return s
Ġs low
Ġs ark
Ġs ample
Ġv rit
ac um
ac aba
Ġ" )<<
am en
Ġb ro
con vert
ir tu
Ġf ii
os ition
Ġr val
Ġr ain
Ġfor q
Ġfor rr
Ġre pb
.... */
Ġk s
pr oc
ĠM erciful
Ġ| ((
push up
Ġmod In
Ġmod Expo
max Val
Ġq td
is o
;} ///
Ġ3 16
00000000 01
ĠR OO
') &&
Ġch mod
Ġch rs
sum r
Ġh it
ĠC or
ĠC UR
ĠG Y
Ġun der
Ġto add
len s
all l
get v
mx n
Ġse ems
Ġ5 01
(! )
Ġis ch
Ġis alpha
input f
Ġ4 996
im i
100 111
Ġrep R
>& ,
oc cur
/// ******************************************
ok tama
MOD ULO
50 95
ĠREP I
Ġok a
Ġdi ag
chr s
Ġ100 10
46 5
Ġcount ing
Ġbe kid
Ġnew Node
ĠW ill
com bin
100000000 0000
Ġmy little
Ġsqrt s
curr L
Ġsol n
17 8
Ġ100000 7
Ġcalc ul
Ġver sion
AN C
Ġrev pr
)? -(
ra ft
ra and
my istream
âĶĢâĶĢ âĸĪ
Ġupd min
De ll
Ġ12 34
ĠDI VI
Ġloop r
ä¸ ĭ
Ġab out
Ġso ma
Ġqu ick
Ġshort cuts
âĢ Ŀ
ãģ «
Ġpat kan
vers o
Ġtrans posed
ĠRe verse
Ġlol o
Ġ"! (!
DI S
ĠNumber ToString
ĠÃ ŃÃł
Ġba sis
load yFree
Ġuti l
__________ \
Ġbel ong
cstd arg
ĠLS B
gon al
Ġort ho
ĠCh ange
ĠPL PLL
Ġrelax Max
Ġrelax Min
Pre fix
Ã¥Ã Ń
Ġ': '
fe of
Big Int
------------------------------------ ->
Ġmay be
!!!! !!!!
Ġcar ds
ĠGen erator
æī ¾
Ġrat oz
Multi ply
ĠCA KE
»å ŀĭ
ĠSame h
ĠisEx hausted
æĹ¶éĹ´ å¤įæĿĤåº¦
ĠÐ¿ÐµÑĢ ÐµÐ¼ÐµÐ½
Ġ'\' ';
ç± »åŀĭ
Ġ------------ >
Bis nu
Ġsark ar
Ġ")<< *
ĠmodIn verso
ĠÐ¿ÐµÑĢÐµÐ¼ÐµÐ½ Ð½
( /
, #
6 33
8 59
9 43
9 37
> ().
A kikaze
A nton
B est
C lear
D one
F lag
I SHAL
K AZ
M R
M ur
P y
S ign
S ieve
W ill
[ (*
c ity
n id
u do
v id
} },
Ð Ĵ
Ġ ]);
Ġ ÑĤÐ¾
Ġa tt
Ġa pply
++ );}
Ġ0 1
ou d
Ġc ast
Ġc our
Ġs ch
Ġv w
ac y
ac bb
Ġt le
Ġb h
Ġb aki
Ġf g
Ġf uel
si jo
== *\
Ġj a
Ġr j
typedef s
hi j
Ġ' =
Ġ' ='
)) +(
Ġans y
Ġu fo
ĠM ARS
Ġg old
Ġ, -
]= !
ĠA S
Ġmax s
ĠP al
ot e
()) =='\
un defined
Ġar sijo
Ġw ould
ĉĉĉĉĉĉĉĉ ĠĠĠĉĉĉ
cur t
ios fwd
Ġdp t
ig ger
ĠC mp
ĠG O
ĠD ESP
em ies
ĠB x
ĠB ar
Ġcur L
Ġcur x
Ġz a
th at
Ġvi p
ĠV B
Ġrep st
fl w
Ġpre ci
act ual
20 15
Ġ10000 00010
vec a
par k
ab cc
In line
In fo
Ġ6 6666
à¦ ¦
Ġmn n
AC IT
-' +
Ġsp an
test case
rem oved
Ġsu c
te ja
Ġvl n
Ġanswer s
Ġta ala
Ġal go
âĸĵ âĸĪâĸĪ
Ġmat r
Le Mur
ĠDI M
fo i
44 44
sa w
=' -'+
Ġï¿½ï¿½ï¿½ï¿½ï¿½ï¿½ï¿½ ,
win s
Ġpld ld
app end
pat tern
call s
Ġ20000 2
Ġmode xp
æķ° æį
Ġ|\ __,_|
ĠOp tim
ib all
EX T
Code d
äº İ
Ñĥ Ñİ
So me
ĠARY ANC
Ġtra verse
ĉĠĉĠ ĉĠ
WI SE
512 000000
Def ines
ĠSU B
ĉĉĉĉĉĉĉĉĉĉĉĉĉĉĉĉĉĉĉĉĉĉĉĉĉĉĉĉĉĉĉĉĉĉĉĉĉĉĉĉĉĉĉĉĉĉĉĉĉĉĉĉĉĉĉĉĉĉĉĉĉĉĉĉĉĉĉĉĉĉĉĉĉĉĉĉĉĉĉĉĉĉĉĉĉĉĉĉĉĉĉĉĉĉĉĉĉĉĉĉĉĉĉĉĉĉĉĉĉĉĉĉĉĉĉĉĉĉĉĉĉĉĉĉĉĉĉĉĉĉĉĉĉĉĉĉĉĉĉĉĉĉĉĉĉĉĉĉĉĉĉĉĉĉĉĉĉĉĉĉĉĉĉĉĉĉĉĉĉĉĉĉĉĉĉĉĉĉĉĉĉĉĉĉĉĉĉĉĉĉĉĉĉĉĉĉĉĉĉĉĉĉĉĉĉĉĉĉĉĉĉĉĉĉĉĉĉĉĉĉĉĉĉĉĉĉĉĉĉĉĉĉĉĉĉĉĉĉĉĉĉĉĉĉĉĉĉĉĉĉĉĉĉĉĉĉ ĉĉĉĉĉĉĉĉĉĉĉĉĉĉĉĉĉĉĉĉĉĉĉĉĉĉĉĉĉĉĉĉĉĉĉĉĉĉĉĉĉĉĉĉĉĉĉĉĉĉĉĉĉĉĉĉĉĉĉĉĉĉĉĉĉĉĉĉĉĉĉĉĉĉĉĉĉĉĉĉĉĉĉĉĉĉĉĉĉĉĉĉĉĉĉĉĉĉĉĉĉĉĉĉĉĉĉĉĉĉĉĉĉĉĉĉĉĉĉĉĉĉĉĉĉĉĉĉĉĉĉĉĉĉĉĉĉĉĉĉĉĉĉĉĉĉĉĉĉĉĉĉĉĉĉĉĉĉĉĉĉĉĉĉĉĉĉĉĉĉĉĉĉĉĉĉĉĉĉĉĉĉĉĉĉĉĉĉĉĉĉĉĉĉĉĉĉĉĉĉĉĉĉĉĉĉĉĉĉĉĉĉĉĉĉĉĉĉĉĉĉĉĉĉĉĉĉĉĉĉĉĉĉĉĉĉĉĉĉĉĉĉĉĉĉĉĉĉĉĉĉĉĉĉĉĉ
ĠCHECK TIME
ÐºÐ¾Ð ¼
dod ge
Ġsupport ed
ĠSqrt M
ĠCl ass
Ro ad
ĠER ASE
ĠisF ib
Ġortho gonal
KAZ AKH
ĠDESP ACIT
æķ°æį ®
ĠDESPACIT O
& =(
2 59
3 59
6 13
9 67
> ')
A nc
B ad
C IN
D an
F ayed
L t
L CP
M aster
N S
R REP
S WS
[ ][
[ "<<
` '
b ol
d z
i res
j G
j ai
k hah
l j
m g
r Iterator
s quare
v ion
w alk
z hi
ª Ãł
Ð ·
Ġ $$
Ġ Ùħ
Ġ Ñĩ
Ġl at
se lected
Ġm and
Ġm ata
Ġa del
if j
Ġc ool
Ġc ot
ur i
Ġs li
Ġs now
// }}}
Ġv rg
Ġ" ../
++) ,
Ġd g
Ġd dx
ue de
Ġr Iterator
ma ks
EE GG
ti ary
sp lay
---- >
Ġre nn
Ġu hn
]) <
ĠM ost
Ġif act
Ġpr of
Ġ/ ::\
Ġe h
ĠA nik
10 8
Ġq v
â£ ¸
ĠS uper
ĠP UL
Ġtr nl
()) /
()) <<
Ġmin y
map p
64 0
64 0000000
Ġ// ~
,, ::::
om an
tr ap
ĠD ON
ĠD ear
ĠD OWN
ss g
Ġsum mation
/* "
/* ============================================
Ġmem move
Ġ7 9
(! !
rep n
Ġ4 9
Ġ4 000
ĠO bli
ĠMAX L
Ġchar act
Ġmx y
ĠU pd
oc ashe
/// ------
ĠE G
ĠE vent
58 3
â¢ ¤
â¢ °
Ġbase ll
30 3
Ġdi ameter
Ġbit put
Ġ9 0
â¡ ı
16 0
Ġprint minusone
lic ation
nxt one
Ġtype id
ĠW SIZE
ĠW eighted
100000000 00
ob a
write Double
do ge
/** ----------------------------------------------------------------
Ġdis app
27 253
key type
key mod
Ġdo it
%% %
For wardIterator
pw q
)] \
we k
)& (-(
)<<" )
ai led
Le af
Ġpro ject
âĸĳâĸĳâĸĳâĸĳâĸĳâĸĳâĸĳâĸĳ âĸĳâĸĳâĸĳâĸĳ
ĠComp ute
ĠMin iball
CH ANGE
Ġlength s
Ġ500 1
Ġab ove
Ġqu ad
ĠFILE IO
Ġ'? ';
Add ress
Ġ(~ (((
*** \
Ġstate s
ĠCom ment
Ġpol ar
Ġacc ording
TO T
Ġfail ure
pnt s
Ġbal ance
Ġ**************************************************************** ********
jd fj
AK U
--------- ///
Ġten p
IIII IIII
ãĤ ĭ
â£ł â£¾
â£ł â£´
Ġitos m
Ġ|_|\ ___/
â£Ħ â£Ģ
Ġcomponent s
Ġdisp lay
â£¼ â£¿â£¿â£¿â£¿
çĽ ´
kh ane
Ġmom ocashe
Ġ\:\ __\
ä¼ ļ
Ġ239 017
ĠFile s
ĠChi ho
Stud y
ĠnCk Mp
Ġsto im
pak king
Cl ionProjects
stit ution
Ġprobab ly
ĠÐ¿ÑĢÐ¾ ÑģÑĤ
=============================================== */
\* ===============================================*/
çķ Į
Ġund irected
============================ ==
Ġsatis fy
ĠTer tiary
Ġmad hav
Ġkaratsuba Multiply
Pri or
pse udo
ĠROO T
ĠGY AKU
Ġadel khah
/*============================================ ==*\
ĠObli vion
Ġmomocashe w
( ;;
( ');
2 37
4 21
7 57
7 87
8 79
8 21
? _
A E
A nn
B OND
C o
E lapsedTime
F K
I V
L ca
T EMPLATE
V x
W ER
Y O
_ ),
c ard
d id
f gets
h os
h lp
h fds
j K
l q
m ac
m et
n il
r ub
v k
y max
§ ½
å ¼
æ ĸ
Ġ 999
Ġ ÑģÑĤ
Ġ *******/
in valid
int ain
Ġl u
Ġl ight
se in
Ġm ov
Ġn h
Ġ1 229
Ġp ur
Ġp ime
Ġp epega
Ġs num
Ġs parse
Ġs leep
Ġd root
Ġd ob
si bling
Ġr sum
ol ol
>> ::
>> >(
], {
)) >>
.... *
pr sp
Ġ, ";
Ġif max
Ġif min
<<" ;
ve k
Ġ/ _/
Ġe u
max s
10 4729
dp p
is l
ĠP ar
=( -
ic ient
min d
GG f
ig ma
sum b
ak a
Ġ(( _
ĠG o
ĠD su
") <<*
MAX C
ĠB B
get bit
bs z
th eta
/* âĸĦâĸĪâĸĪâĸĪâĸĪâĸĪâĸĪâĸĪâĸĢâĸĢâĸĢâĸĢâĸĢâĸĢâĸĪâĸĪâĸĪâĸĪâĸĪâĸĪâĸĪâĸĦ
Ġse ll
Ġ5 00010
ay ad
32 000
Ġle ap
bound s
Ġread S
Ġread Ahead
Ġ! !!
ĠE ven
ĠE lapsedTime
Ġ. ---.
Ġtmp c
Ġarg sort
fast power
Ġ1000 2000
Ġmap i
EEE G
EEE GD
col umns
sub size
Ġbit n
Ġ9 592
16 1900
==' -';
34 87
fact s
check s
Ġpow Mod
pi v
77 5
âĸĪâĸĪâĸĪâĸĪ âĸĪâĸĪâķĹ
Ġ31 7
hash ing
Time End
Time Start
our ces
59 837
AS ES
Ġpq big
Ġpq small
cy an
Ġper form
14159265358979323846264 3
âĸĵ âķ¬âķ¬âķ¬âķ¬âķ¬âķ¬âķ¬âķ¬
)& (-
cp editor
ĠPR S
Ġmulti plier
14159265358979323846264338 3
Ġ` --'
Con trolIO
Ġ16 106
ĠIN V
Ð° ÐµÑĤ
________________________________ _________
la j
SU M
98 3
âĸĢâĸĢâĸĢâĸĢ âĸĢâĸĢâĸĢâĸĢ
Ġbl ue
Ġ48 1129
BIT WISE
imp l
Col our
NNNN NN
Pr actice
:", ")<<*
Fast Read
tw os
Â¦ Â
åĲ Ĳæ
127 41
program ming
Ġrecur sive
Ġtar jan
chi lds
åħ ¥
08 2048
ĠTask A
Ġ.' |
Ġscd d
Bi Edge
çļĦå Ģ¼
unt o
Ġ78 498
9000 999
Off sets
Ġbip artite
Ġ179 424
?"" :",")<<*
Ġkh okharnikunj
âĸĳâĸĳâĸĳâĸĳâĸĳâĸĮâĸĴâĸĴâĸĴâĸĴâĸĢâĸĢâĸĢâĸĴâĸĴâĸĴâĸĴâĸĴâĸĴâĸĴâĸĲ */
Ġ300000000 0000000007
/****** *
//////////////////////// /
100000000000000 10
Ġ112 27253
Ġ324 161900
spr intf
Ġ664 579
wz pakking
5095 293
ĠDIVI DE
Ġ66666 6666
hos sein
Ġpime s
Ġ10002000 13
59837 082048
Ġ16106 12741
Ġ481129 59837082048
åĲĲæ §½
Ġ179424 673
Ġ11227253 5095293
Ġ324161900 71
Ġ48112959837082048 697
, ................................
, :::
, ;;;;;;
, :::::::
, ;;;;;
, ...:
, ::,
, ::::::::::::::::
. ,:
. ::::::::
. :::::::
. :::::::::
. ;:..
. ::::::,
4 00000000
4 47
7 33
7 43
9 53
: ,,,
: ..........................
: ,,,,,,,;;;;
: ,,,:.
: ,,,:
: ,;;;;,
; ...
; ................................
; ,:
; ........................
; ,:.
; ..................................
; ,........
; ...................
; ........................................
; ...;
; ,....
; ...................................
; ............................
; ,,,,,:.
; :::::::::..
; ,..;
; ..;;
A j
A k
A ngle
B oth
D j
D ti
D WWWW
D fi
D EEEEEEEE
D KKKKK
D GGG
D EEEEEEEEEEEEEEEE
D LG
D WWWKKK
D WEE
D EEEEEEEEEK
D OWN
E KK
E KKKK
E KKKKKKKK
E KKK
E DE
E WK
E iiii
E WWWWWWW
E LG
E KKE
E KKW
E DDDDD
E KKKKKWWKKKKK
E WEEEEEEEE
E KKG
E DDDDDDD
E tWK
E DEEEEKKKKKKKKKKKKKKKK
E khane
F P
G DD
G DDDD
G EEEEEEEEEEE
G DEE
G Ki
G WEE
G KD
G tGG
G WEEEEEEEE
G DDDDDDDDDDDDDDD
G EEEEEEEEEKEEEEEEEEEEEEEEEEE
H ere
I v
K EEEE
K WWWW
K WWW
K WK
K EEEEEEEEEEE
K EEK
K WWK
K WWKK
K DL
K Di
K EEEEEEEEEE
K WWWWWWWWWW
K DDE
K GGGGGGGGGGGGGGGGGGGG
K DDEEEWEEEEEEEEEEEE
K EEEEEEEEEEEEEEEKKKKKKKKKKKKKKKK
K jK
L EE
L ii
L EEEEEEEE
L EEE
L DDD
L ij
L EEEEE
L iiiiiiii
L WWWWK
L EEKK
L ook
L DDEEEWEEEEEEEEEEEE
L WWWWKK
M erge
N K
N IE
N IGHT
O VER
R K
T ext
U D
W GG
W DK
W EEEEEEEEEE
W GD
W EEEEED
W GGGGGGGGGGGGGGGGGGGGGGGGGG
W GGGK
W KKKKWKKKKKKKKKKKKKKKK
W Lii
X C
Z n
[ !(
f L
f WW
f EEEE
f exp
f jj
f our
f GGG
f WWWWWW
f GGGDDDDDDDDDDDD
f jji
f DEEE
f dev
f EEL
f KEEE
f EEKK
f EEKKWWWW
f KKWWWWKEEEEEEEE
f WEEEEEEEEEE
g sy
g ag
h ind
h la
i E
i WWW
i DE
i WWWWWW
i LGG
i End
i Ej
i KKE
i EKE
i WWWWWKK
i itfGGGDDDDDDDDDDDD
i DEEKKK
i Liii
i WWEEEEEEEEEEEE
i DKWWWWWWKKKKK
i KDi
j ff
j EEE
j DDD
j WWWWWWW
j ED
j KKKKKKKKKK
j EED
j EKE
j LGGGG
j EEf
j KEEE
j EEKKWWWW
j DDL
j KEKKW
j EKKG
k nown
p apa
q pow
s hep
t E
t on
t EEE
t DDD
t ED
t LGG
t WWWWWKK
t DEEEEE
t KKi
t Lf
t EEKKWWWW
t KKWWWWWWW
t WWD
t KKWWWWKEEEEEEEE
u red
¯ Ðĵ
Ð ¬
Ø º
Ù ĭ
â ī
ç §
Ġ .....
Ġ ........................
Ġ KKKKKKKKKKK
Ġ KKEK
Ġ KKKWWWWWWWW
Ġ :::::::,,,,,,,;
de s
de xt
st n
re w
Ġi DEE
Ġi GEEE
Ġl h
++ -
Ġp ick
if LL
if DEEEEEEEEEEEE
if DDDDDDDDD
if LEEEEEEEE
Ġs sum
// ?
.. :
.. ;
.. ::::
.. ,;
.. ,.
.. ,;;
.. ,........
.. :.....
.. :::::::::
.. ,....
it E
it KKKKKKKK
it tf
it WWWKK
it DGG
it jLGGGG
an tic
Ġb or
ir o
Ġd op
Ġd ark
Ġf ro
Ġf EEE
Ġf DEEEE
Ġf DEEEEE
Ġf EEKKKK
Ġma intain
KK WWWWWWWW
KK EEE
KK GGGGGGGG
KK WWWWWW
KK WWWWWWWWW
KK LGG
KK WWWWWK
KK DDDDDDDDDDDDDDDD
KK EEEEEED
KK WWKW
KK EEEEEK
:: ,,,,,,
:: ,,,:.
:: .......................
Ġj DEEEEKKKKKKKKKK
ĠT wo
ĠT otal
ĠĠ ĉĊ
WW KKKKKKKK
WW EEEEEEEEEEEEEEEEE
WW EEEEEEDDf
WW EEEEEED
EE W
EE i
EE ii
EE DG
EE KKK
EE KE
EE WWK
EE KKW
EE GL
EE fft
EE DDDDD
EE WEEEEEEEE
EE KKi
EE jD
EE WWEEEEEEEEEEEEEEEE
EE KKKKKWWKKKKKWWWWWWWWW
ack et
ti E
ti LE
ti Eiii
Ġ' @
Ġ' ),
string s
eg al
back ward
Ġ; ::,,,,
.... ,;
.... ,........
.... ,.....
pr f
]) &&(
ĠM ake
ĠM emory
LL DEEEEEEEEEEE
LL GGGGGGGGGGGGGGGGGGG
LL GWEE
!= _
DD ti
DD EEEEEEEE
DD EEEEEEEEEEE
DD Ej
DD Gf
DD EEEEEEDEi
DD KDDE
ii E
ii EEEEEEE
ii KKi
ii jLGGGDDDDDDDDDDDD
ii WKEEEEEEEEEE
ii DEEEEEEEE
Ġ&& (
KKKK i
KKKK WWWWWWW
KKKK WWWWWWWWW
KKKK WWWWW
KKKK WWWK
KKKK EEEED
KKKK Ei
KKKK WKE
KKKK WWWWWWWWKKKKKi
KKKK DGG
KKKK WWKKWWWW
Ġ: \
Ġ: ...
Ġ: ,,,,
Ġ: ,;
Ġ: ,;;
Ġcin i
Ġcin s
Ġcin as
Ġcin ai
max imize
bool alpha
is Local
EEEE f
EEEE DDD
EEEE EEK
EEEE Ki
EEEE WEEE
EEEE KG
EEEE GEEEEEEEEEKEEEEEEEEEEEEEEEEE
... ::
... ::::
... ::::::
... :...
WWWW KKK
WWWW KEE
WWWW KKWWW
WWWW KKG
WWWW EEEEEEDDf
WWWW EtWK
ĠS to
ĠS OME
ot a
Ġtr im
OD ED
un d
........ .;
ic y
;; :.
;; .....
;; ,:
;; ......
;; ,,,,,,,
;; ....:
;; ,:.
;; :........
;; ..................
;; ,:::::::
64 6
,, .
,, :
,, :.
,, ,;
ĠL EEE
ĠL DEEEEKKKKKKKKKK
ĠL OOP
ĠL DDEEEEEEEE
GG i
GG ff
GG DDDDDDDDDDDD
GG LG
GG EEEEEEEEEEE
GG KKE
GG Li
GG DGf
GG DDDDDDDDDEEEE
sum A
Ġh mod
DDDD i
DDDD EEEK
DDDD DK
DDDD ji
DDDD DGf
DDDD EDDDDDDD
ap ache
ĠG LD
ĠG DEE
11 2
MAX P
ĠI nc
gor y
Ġto an
Ġto Number
get sum
gs h
fr o
KKKKKKKK KKKKKK
KKKKKKKK KEE
KKKKKKKK WKKKK
KKKKKKKK KWW
KKKKKKKK WKKWK
KKKKKKKK Eti
KKKKKKKK WWWWWWWWWWWWWWW
est ors
Ġse quence
Ġ5 8
ex gcd
Ġis E
Ġset pre
100 198
EEEEEEEE DG
EEEEEEEE EEEEEEEEEEEE
EEEEEEEE EED
EEEEEEEE KKKKKKKKKKKKKKKKKKKKKKKKKKKKKKK
EEEEEEEE WWEEEEEEEEEEEEEEEE
(- :
ity Queue
ĠU M
;;;; .....
;;;; ,:
are st
,,,, ,
,,,, ::::.
ĠE MP
:::: ,
:::: ,,,,,,,,
:::: ......:
:::: ,,,,,,,;;;
WWWWWWWW KKK
WWWWWWWW KKKKKKK
WWWWWWWW KKKKKK
WWWWWWWW WWWWW
WWWWWWWW KKKKWKKKKKKKKKKKKKKKK
WWWWWWWW Eiiii
mn y
GGGG KE
GGGG GGGDDDDDDDDDDDD
Ġ. ,.
Ġ. ::::::::
Ġ. :::::::
Ġ. ,;;
Ġ. ,,;
Ġ. :::.
DG fi
DG WWW
DG DDDDDDDDDDDDDDD
DG DWEE
DG KEEEEEEEEEE
DG iWWWWWKK
DDDDDDDD EEEEE
DDDDDDDD DDDDDDDDDD
DDDDDDDD DEEEEE
DDDDDDDD DDDDDDDDDDDDDDD
DDDDDDDD DED
Int Mod
WWW EEE
WWW KKKKKKK
WWW KE
WWW EEEEE
WWW Gi
WWW GWWWKK
WWW EEDDDD
WWW KKKKEEE
WWW EEEEDDDD
ab et
Ġ1000 11
EEE j
EEE LL
EEE ft
EEE KKKKKKK
EEE WKK
EEE GL
EEE KKKKKKKKKKKK
EEE DEEEEEEEEEEEE
EEE DDDDDDD
EEE KKKWWWWW
EEE WWWWEtWK
EEE KKKKKKKKKKKKKK
Ġdist R
KKK D
KKK WK
KKK WWWWWWW
KKK WWWWWWWWW
KKK WWWWKKKKKKKWKK
KKK EKKKK
tt KW
tt KKE
ĠK hai
:. ,.
Ġen ough
ation al
KKKKK WWWWWWWW
KKKKK ED
KKKKK EEEEE
KKKKK WWWWWWWWWWWW
KKKKK WWWWWWWWWW
KKKKK WWWK
KKKKK WWWWWWWWWWWWWWWW
KKKKK iiiiiiii
KKKKK WWKKKK
KKKKK WWWWK
KKKKK Eii
KKKKK Eiii
KKKKK WKKKWK
KKKKK WKKKKKKKWWWWWWW
KKKKK Liiiiiiii
KKKKK WWKKKKKKKK
38 1
gh ys
ĠArg SortComp
Ġless s
ĉĉĉĉĉĉĉĉĉĉĉĉĉĉĉĉ ĉĉĉĉĉĉĠĊ
gr p
KKKKKKKKKKKKKKKK KKKKKK
KKKKKKKKKKKKKKKK fKKWWWWKEEEEEEEE
KKKKKKKKKKKKKKKK KKKKKWWWWWWWWWWWWWWWW
,; ,
,; ....,........
,; ,,,;
])) *
200 9
exp onenti
iii EEK
iii WWWKKK
iii EKKKKKKKK
iii jKEKKW
iii KKKKKKKKKWW
iii EEEEEEEEDG
iii KKKEKKKK
Ġ... ::,,,,
Ġ... :::::::,,,,,;
Ġ... :,,,
Ġ... ::,,,:.
Ġpa int
jj DDi
DE j
DE ii
DE DDDD
DE GGG
DE Gi
DE DDDDDD
DE DEEEEE
DE KEEEEEEEE
DE KG
DE DDDDDDDDEEE
DE KEKKK
WK WW
WK WK
WK WWWWW
WK EEEEEEEEEEE
WK WKKKKK
WK EEEEE
WK WWWWWK
WK WKKKKKKKK
WK EEEEEEEEEEEEEEE
WK EEEEEEDDf
WK EEDDDD
WK EEEEEED
WK EEEEEEEEEEEEEEEEEEEE
WK WWWWWWWWKKK
WK iiiWWWKKK
ĉĉĉĉĉĉĉĉĉĉĉĉĉ ĠĠ
GGGGGGGG GGG
GGGGGGGG GGGGGL
GGGGGGGG DGDDDDDDDDDDDDDDD
GGGGGGGG DDDDDDDDDDDDDDDDDD
Time s
Ġiter sort
..... :
..... ;
..... ;;;;;;;;;
..... ::::..
..... :................
................................ ....:
KKKKKKK W
KKKKKKK WWWWWWWW
KKKKKKK WWWWWWWWWWW
KKKKKKK WKKKK
KKKKKKK WWWWWWWWWWWW
KKKKKKK EEL
KKKKKKK WWWWWWWWWWWWWWWWWWWWWW
KKKKKKK EEEft
;. :
;. :........
;. ;,.
iiii ifLEEEEEEEE
iiii DDEEEEEEDEi
tf LLGGDDDDDDDDDDD
tf GK
tf LLGGGDDDDDDDDDD
tf GGDDDDDDDDDDDD
DDD f
DDD ii
DDD EEKKK
;;;;;;;; .....
;;;;;;;; ;:
;;;;;;;; ;;;;;;;
;;;;;;;; ;;;;;
;;;;;;;; :.............
;;;;;;;; ;;;;.....
GGG EKK
KE Gi
KE Li
KE KKKKKKKKKKKKKKKKKKKKKKKKKKKKKKK
KE KKKKKKKKKKKKKKKKWKKKKKKKK
KE Lj
KE DDDDDDDDDDDDDDDDDDDD
KE KKKKKKKW
,,,,,,,, ;
,,,,,,,, ;;;
DDDDDDDDDDDD EEEDDDDDDD
57 24
WWWWWW KW
WWWWWW KWWWWWW
WWWWWW fWK
WWWWWW KKKKWWWWW
WWWWWW KKKKKKKWWWWWWWWWWWW
EEEEEEEEEEEE EK
EEEEEEEEEEEE EEEK
EEEEEEEEEEEE DEEEEEEEEEEEE
EEEEEEEEEEEE WWEE
EEEEEEEEEEEE KKKKKKKKKKKKKKKKW
::: ,;
::: ,,,
::: ,,,,,,
::: ,,,,,,,;;;;
::: ,,,:.
::: ,,.
::: ,,,,,,,,;;;
KKKKKK ii
KKKKKK WWWWWWWW
KKKKKK WKKKKK
KKKKKK WKKKK
KKKKKK WWWWWWWWWW
KKKKKK iiiiiiii
KKKKKK iiiiii
KKKKKK WKKK
KKKKKK WKKKKKKK
KKKKKK WWWWK
KKKKKK iiiii
KKKKKK Dj
KKKKKK WKKKKWKKKKKKKKKKKKKKKK
KKKKKK EEEEf
KKKKKK WWWWKKWWW
Ġ.,; ,:::
my set
WKK WWWW
WKK WWWWWW
WKK WKK
WKK WWWWWWWWWWWW
WKK EEEED
WKK WKKKKKKKKKKKKKKKK
WKK WWWWWWWWWGWWWKK
WKK ELG
WKK WGG
Ġexp ected
DEEEE EK
DEEEE EEEK
DEEEE DDE
DEEEE EEEWW
67 5
we ek
,: .....
WWWWWWWWW KKKKW
WWWWWWWWW iiiiiiii
WWWWWWWWW DDWWKK
WWWWWWWWW GK
WWWWWWWWW iiiiifLEEEEEEEE
Ġgen Vector
Ġà¦ ļ
...... :.
...... ;:
...... ,;;;;,
âĶĢâĶĢ âĶĢ
ED f
ED fEEE
ED iiDEEEEEEEE
:::::::: ,,
:::::::: ::::::
:::::::: ::,
:::::::: ,,,,;
:::::::: ,,,,,,;
,,, ;;;;
,,, :::::
,,, :::,;
;;; ,
;;; ,.
;;; :...
;;; :;
;;; ..,;;
........................ .....:::
........................ ...:
........................ ...::
EK EEKK
EK EEEKE
EK EEEEKG
Ġorder ing
WWWWW t
WWWWW KKKKW
WWWWW DGWWW
Ġkey Count
Ġ.: ,,,:
Ġ.: ,,,:::,;
EEEEEEEEEEEEEEEE EEEEEEEEEEE
EEEEEEEEEEEEEEEE EEEEEEEEEE
EEEEEEEEEEEEEEEE EEEEEEEEEEEEE
EEEEEEEEEEEEEEEE EEEKE
EEEEEEEEEEEEEEEE KEEEEEEEEEEEEEEEKKKKKKKKKKKKKKKK
EEEEEEEEEEEEEEEE WWEEEEEEEEEEEEEEEEE
20000 4
ĠLD EEEKKKKKKKKKKKKKK
;: ....................................
;: ...............................:
;: ....,;
LG i
LG DK
LG KD
LG KDL
Ġnd l
Ġloop rs
KKKKKKKKKK WKKKK
KKKKKKKKKK WWKKK
KKKKKKKKKK EEf
KKKKKKKKKK WWWWWWWWWWWWWW
KKKKKKKKKK WKEEEEEEEEEEEEEEE
EEEEEEEEEEE W
EEEEEEEEEEE KKKKKKKKKKKKKKKKWKKKKKKKK
EEEEEEEEEEE DEEEEEEEK
EED EEEEEEEEEEE
EED EEEEEEEEEEEEKKKKKKKKKKKKKKKKKKKKKKKK
Ġï¿½ï¿½ï¿½ï¿½ï¿½ .
KW KKKKKKKKKKKKKKK
KW EEEEEEE
KW KKKWWW
KW KKKKWWWWWWWW
KW EEW
KW KKKKWWWWWWWWKKKKKi
KW EEEWKK
KW KKKKKKKKKKWWWWWWWWWWWWWW
LGG DDDDDDDDEEEEE
.: ,;,,,;
.: ,,,:::::
....... ;
ij DEE
ij LGGDDDDDDDDDDDD
ij fG
ij fLGGDDDDDDDDDDDD
ij fGGGDDDDDDDDDDDD
ij DEEEEEK
EEK f
EEK WWWWWWWKKKKK
EEK EEEEEEEEE
EEK WWWWWWWKKKKKK
EEK DDi
EEK WWWKKKKKKKKKKW
EEK EEEEWEEE
EEK EEEEEEEEEEEEEEEEWWEEEEEEEEEEEEEEEEE
//////////////////////////////////////////////////////////////// ////////////
WKKKKK EEL
2000 5
2000 11
Re f
Ġsk ill
WWK EEK
WWK EEEEED
WWK EEDDDD
WWK WWWWWWKKKKWWWWW
WWK EEEEEEEEEEEEDEEEEEEEEEEEE
WWK WWWWWKKKKW
WWKK W
WWKK EEEEEEDDf
WWKK DDGG
WWKK WWWWWWWWWE
WWKK DLG
KKKKW EDi
KKKKW Eti
KKKKW tKKi
KKKKW EEii
]!=' *
;;;;;; :................
KKKKKKKKKKKKKKK W
KKKKKKKKKKKKKKK f
KKKKKKKKKKKKKKK WWWKKK
WWWWWWWWWWW KK
WWWWWWWWWWW KKKKKKKKKKK
WWWWWWWWWWW KWKK
WWWWWWWWWWW KKKKKED
DDDDDDDDDDD EE
EEEK WWWWWWWKKKK
EEEK iDD
EEEK WWWWWKKKKKWWWWWWWWWWWW
EEEK EEEEEEEEEEEEEEEEEEEKE
EMP MOD
**************************************** *
hell o
LD EEEEEEEEWWEEEEEEEEEEEEEEEE
LD EEEKKKKKKKKKKKK
EEEEEE KKKKKKKKKKKKKKKKWKKKKKKKK
EEEEEE WEEEED
EEEEEE WWEEE
EEEEEE KEKKK
EEEEE i
::::: ,
::::: ;
::::: ......,
,,,,,, :::::::::
EG DKK
EG DDDEEKKK
xy Point
DK DD
DK EEEWW
DK tWWWWWKK
DK DEii
...:. :
WWWWWK i
WWWWWK WW
WWWWWK WKKKKK
WWWWWK WKKKKKi
WWWKK EEE
WWWKK EEEEED
WWWKK EWK
WWWKK WGGGK
WWWKK tfGK
WWWKK GGGEKK
WWWKKK WWWW
WWWKKK EKE
WWWKKK WWWWWWWWKKKKK
WWWKKK WKKKKKKK
WWWKKK EEjD
WWWKKK GGKKE
ĠIter SortComp
:::::: ,.
:::::: :.:.
::::::: ;
::::::: ,,
::::::: ,;;;;
,,,,,,,,,,,,,,,, ::,
KEE L
KEE f
KEE DG
KEE KKWWW
KEE WWWWWWWWWDDWWKK
Di WWWWW
Ġlink s
DEE WWWWWWWWWE
DEE iWWEEEEEEEEEEEE
DEE WWWWWWWWKKKKWKKKKKKKKKKKKKKKK
DEEE KKWWW
DEEE KKKKKKKKKKKKKKKKKKKKKK
WKKKK Liii
WKKKK WWWWKKK
WKKKK EEEGL
WKKKK WWWKKKWKKKKKKK
WWWWWWWWWWWW EK
WWWWWWWWWWWW KWWWWWW
ĠØ ¥
match ed
Ġlocal time
Ej EEEEEEEEEK
Ej itWWWKK
tj fLL
tj fLGGDDDDDDDDDDDD
tj LLGGGDDDDDDDDDD
EEEEEEE WWEE
WKKKKKKKK EEGG
WKKKKKKKK KEEDG
WKKKKKKKK EEEEEEEWWEE
WWKKK jEKE
WWKKK WKKELG
EEEEEEEEEE KKKKKKKKKKKKKKKKKKKKKKKK
EEEEEEEEEE KKKKKKKKKKKKKKKKKKKKKKKKKKKKKKK
EEEEEEEEEE KKKKKKKKKKKKKKKWKKKKKKKK
EEEEEEEEEE KEKKKKKKKKKKKKKKKKKKKKKKKKKKKKKKK
WWWWWWWWWW KKKKKKKKKKKK
WWWWWWWWWW KKKKWtKKi
KKKKKKKKKKKKKKKKKKKKKKKK KKKKKWWWWWWWWW
KKKKKKKKKKKKKKKKKKKKKKKK KWWWWWWWW
KKKKKKKKKKKKKKKKKKKKKKKK KWWK
KKKKKKKKKKKKKKKKKKKKKKKK KKKKKWWWWWWWW
tfLGG DDDDDDDDDDDD
tfLGG DDDK
tfLGG DDDDEDDDDDDD
Ġflush er
ĠPRINT ERS
;;;;;;; ,,
Ġba o
Ġ40 26
;........ .
;........ ..
;........ ....
;........ ...
;........ .....:
EDD j
EDD EEEWEEEEEEEEEEEE
EDD WWKE
EDD DEi
EDD EEDDDDD
EDD EEEEEEK
EDD EEEWWWWEtWK
EDD EEEEEEEEEEKKKKKKKKKKKKKKKKKKKKKKKKKKKKKKK
WEEEEEEEEEEEE EEEKEEEEEEEEEEEEEEEEEEEKE
WEEEEEEEEEEEE EjEEEEEEEEEK
KKE fff
KKE WWWWKKKKKKKWKK
KKW KKKKKKWWWWK
WWKKKKK WWWWWW
WWKKKKK WWWWWWWWWWWW
WWKKKKK EEf
WWWK DEK
WWWK WWKKKKKKKKKKKKKKKKK
WWWK EEEEEEEEEEEEEK
WWWK WKKWWWWWWWWWWWW
....: .......
.:. ,.
.:. ,:
.:. ::::::,
.:. ::::::::,,
Ġ.... ::::..
Ġ.... ::,,
Ġ.... :::,,.
Ġ.... ::::::,.
ÐĲÐ ĳÐŀ
GE KKKKKWWKKKKK
GE DDDDDDDDDDDDDDDDDDDDDDD
GE DDDDDDDDDDDEE
DDDDD ti
DDDDD LL
Ġbind s
itf GEDDDDDDDDDDDEE
WWWWWWWWWWWWWWWW WWWWWWKKKKKK
WWWWWWWWWWWWWWWW tiEiii
WWWWWWWWWWWWWWWW WWWWWt
Ġ.:,: ;:
Ġ.. :,;;;;,
Ġ.. ;..;;
Ġ.. :.,.
save s
tK WWWWWWW
tK EEKWWWKKKKKKKKKKW
âĸĪâĸĪâĸĪâĸĪâĸĪ âķĹ
;;;;; ...................
Ġys ghys
iiiiiiii iiiii
.................................. :
,........ .
,........ .:
GEE KKKKKWWKKKKK
GEE WWWWWWWWKKKK
GEE WWWWKEE
KWWWWWW KKKKKKKWKK
KWWWWWW KEKKKKKKKKKKKKKKKKKKKKKKKK
KWWWWWW KKKKEi
KWWWWWW KKKKKKWKKK
WWKKKK iii
WWKKKK WWWWWWWWW
WWKKKK EEEED
EEEED EEEEEEEEEEEW
DDDDDD Gi
DDDDDD Gf
DDDDDD EEDD
KKKKKKKKKKK W
KKKKKKKKKKK WKKKKKKKKKKKKKKKK
KKKKKKKKKKK WWWKKKKKKKKKKKKKKKWKK
KKKKKKKKKKK WKKKKKKKKEEEEEEEWWEE
;;;;;;;;;;;;;;;; ;;,,,,,,,
;;;;;;;;;;;;;;;; ;;;;;;;,,
WWWWWWWKKKKK f
Team s
Ki KEEK
Ki WWWKKEEE
ä¸Ģ ä¸ª
:; ......;
GD GGGGGGGGGGGGGGGG
ĠLG DEEEEKKKKKKKKKK
., ...
Ġapp ear
.................... ,
;;;;;;;;; .....
Ùĳ Ùİ
WEE GDDDD
WEE WEEEEED
WEE KWEEEEEEE
,..... ,
Ei KKKK
EKE KK
EKE KKKWWW
KD GGGGGGGGGGGGGGGGGGGGGGGGGG
WKKKKKKKKKKKKKKKK KKKKWWWWWWWW
WKKKKKKKKKKKKKKKK KKKKKWKKKWK
WKKKKKKKKKKKKKKKK KWEEW
DDf L
WWWWWKK j
WWWWWKK WW
WWWWWKK WWWKKKKKKKK
KKKKKKKKKKKK WW
KKKKKKKKKKKK WWWWWWW
KKKKKKKKKKKK WWWWW
EEEEEEEEE KKKKKKKKKKKKKKKKKKKKKKKKKK
EEEEEEEEE WEEEED
EEEEEEEEE DEDEEEEE
EEEEEEEEE KKKKKKKKKKKKKKKKKKKKKKKKKKKKKWWWWWWWW
WWWWWWWWKKKKK E
DDDDDDDDDDDDDDDD DDDDDDDDDED
DDDDDDDDDDDDDDDD EDDEEDDDDD
KKKKKKKWKK WWWK
WWWWWWWKKKKKK t
WWWWWWWKKKKKK EG
WWWWWWWKKKKKK tiE
WWWWWWWKKKKKK iiE
EEEEEEEEEEEEEEE WWWEEEEEEEEEEEE
WWWWWKKKKK EE
WWWWWKKKKK WWWWWWWWWWW
ph abet
Pre cision
.................................... :::::::::..
.................................... :::::::.:.
uy en
iiiiii EEKKKKKKKK
iiiiii jG
...: ,
ji EjitWWWKK
iG DDDD
ĠInit ial
ĠNum Type
Print Enabled
.; .......
tGG DDDDD
tGG DEEEEEEEEEEE
DDi L
DEEEEEEEEEEEE EEKE
KEEEEEEEE DEEEEEEEEEEE
LGGGG DDDDDDDDDDDDEEEDDDDDDD
WEEEEEEEE EEKDDi
WEEE Di
WEEE Df
WEEE KKKKKKKKKKKKKKKKKKKKKWWWWWWWWWWWWWWWW
WKKK WEEEDf
fDEEEE KKKKKKWKKKK
fDEEEE KKKKKKKKKKKWKKKKKKKKKKKKKKKK
KKG DDDDDDDDDDDDDDDDDDDD
KKG DGDWEE
KKi EG
WWEEEEEEEEEEE W
WWEEEEEEEEEEE KiKEEK
DDWWKK DDDG
EEEEED KG
WWWWK WWWWWWWWWWKKKKWtKKi
Ġ.:. ,.
DGf tiLE
EEEWEEEEEEEEEEEE WWWEEE
KKKKKWWWWWWWWW KKKKKKWKKKKKKK
KKKKKWKKKKK WWWWWW
KKKKKKKKKKKKKKKKKKKKKKKKKK WWKKWWWW
KKKKKKKKKKKKKKKKKKKKKKKKKK WWWKKKKKKK
KKKKKKKKKKKKKKKKKKKKKKKKKK WWWWWWKWWWWWW
KKKKKKKKKKKKKKKKKKKKKKKKKKKKKKK W
DDDDDDDDDDDDDDD GGGGGGGGGGG
WWWWWWWKKKK ED
WWWWWWWKKKK EL
WWWWWWWKKKK Ei
WWWWWWKKKKK EL
WWWWWWKKKKK Ej
DEEEEKKKKKKKKKK WWWKKKKKKKKKKKKKKKWKK
GGGGGGGGGGGGGGGGGGGGGGGG GGGG
...................................... ::::......:
...................................... :::::......,
...................................... :::::::,;;;;
Ñĩ Ð½
,,,,,,,,,,,,,,,,,,,,,,,, ;
jf LGKDL
car ds
DDE ijDEEEEEK
ĠDE KKKKKWWKKKKKWWWWWWWWW
ĠDE KKKKKWWKKKK
;;.. ,.....,
Df DDi
WWEE DDDDDDGf
...; .....;
KEK EEEEEEEEEEEEEEE
KEK EEKEEEEEEEEEEEEEEEEWWEEEEEEEEEEEEEEEEE
KEK DDDDDDDDDDDDDDDDDDDDDDDDDED
,.... ,
DKK GGGGGGGGDGDDDDDDDDDDDDDDD
DKK WKKWWWWWWWWWGWWWKK
GDDD GGLG
GDDD EEEEEEEEEEEEKKKKKKKKKKKKKKKKW
GDDD EEEEEEEEEEKEKKKKKKKKKKKKKKKKKKKKKKKKKKKKKKK
KEEE GEEEEEEEEEEE
KDEEE WWEEEEEEEEEEEWWWWEEEEE
WKKKKKK EEEGD
fD LGDK
iDEEEE EEKKi
iDEEEE KKKKKKKKWKKWK
iDEEEE KKKKKKKKKKKKKKKf
KKEK WWWKKKKKKKKKKW
KKEK WWWWWWWWWGK
:::. ::.......................
WWKKKKKKKKKKKKKKKK tKKWWWWKEEEEEEEE
WWKE KEKKKKKKKW
WWEEEEEEE KKKKKKKKKKKKKKKKKKKKKKKKKWWK
DDL DDDDji
DDL EEEEEEEEEWEEEED
DDDDDDD EEEEEEE
WWWWWWWWWWWWWW KKKKKKKEL
WWWWWWWWWWWWWW KWKKK
WWWWWWWWWWK WWD
GGGGGL GGGGGGGGGGGGGGGGGGGG
GGGGGL GGGGGGGGGGGGGL
Ġ.; :::,,,,,,,;;;;
WWWKKKKKKKKKKKKKKK EKKW
KKKWWWWWWWW WWWWWK
KKKWWWWWWWW WKWW
KKKWWK WWWWW
:.:::::::: ,,,,
:.:::::::: ,,,
WKE KK
EEEEEEEEEEEEE DEEEEE
Ġ.:,; ,:.
Ġ.:,; ,,;
KWEK W
KWEK WWWKKKKKKKKKK
ijLG DDDDDDDEEEEEEE
DEEKKK WWWKWKKWWWWWWWWWWWW
DEEKKK WWKKKKWWWWWWWWW
GEEKKKKKWKKKKK WWWWWWWW
GEEKKKKKWKKKKK WWWWWWWWW
GEEKKKKKWKKKKK WWWWWWWWWW
GGGGGGGGGGGGGGGGGGGGGGGGGG DG
;,, :..
;,, ,;,
............................. :::::
............................. :::::::;
Ġâķļ âķĲâķĿ
âĢĶ âĢĶ
Ġdegree s
WE KKKKKKKKKKKKKKKKKKKKKKK
WE iiiiiijG
ĠLIM IT
ĠEE i
:......: ,,,,,;
:......: ,,,,,,;
ĠOn line
paint ing
ĠÐ´ ÐµÐ»
tG DEEEEKKKKKKKKKKWWWKKKKKKKKKKKKKKKWKK
Ġ;. :::::::,,,,,;
Ġ;. ::::::::,,,,;
ĠtG DEEEEKKKKKKKKKKKKKKKK
ĠtG DEEEKKKKKKKKKKKKKKKKKKKKKK
GGGGGG LLGGGGGGGGGGGGGGGGGGG
:, ...,
:, ::,,
;,..... ,;
;,..... :.....
DW DWWWW
DW DDiL
DGGGG GDGGGGGGGGGGGGGGGG
DEEK WWWWWKKKKKWWWWWWWWWWWW
DEEK WWWWWWKKKKKKKWWWWWWWWWWWW
Eii WWWWWKWW
EDDD EEKEEEEEEEEE
GEEE KKKKKKKKKKKKWWWWW
Kii WWWWWW
Kii WWWWW
KWKK WEiiiiiijG
KEEEK EEEDEEEEEEEEEEEE
KEEEK EEEEEEEEEEEEEEEWWWEEEEEEEEEEEE
WEEEEEEEEEEEEEEEE EEKKKKKKKKKKKKKKKKKKKKKKKKKKKKKKKKW
WEEEEEEEEEEEEEEEE EEEEEEEEEEKKKKKKKKKKKKKKKKKKKKKKKK
WKKKKKKKKKK fWK
WKKKKKKKKKK WKKWWWW
WEEEEEEEEEEE DEj
WEEEEEEEEEEE DDLEEEEEEEEEWEEEED
WEEEEE DDDGL
WEEEEE GGDGf
fK EEEEEDKG
fDD EEEEEEEEEEEEEEEK
fDD EDDEEEEEEK
fEEE KKKKKWKKKKKK
iKDEEE WKEEEEEEEEEEE
iKDEEE WWEEEEEEEEEEEW
tWK t
tEL ii
..;........ .
..;........ ...
ĠfDEEEKKKKKKKK KWKKKKWWWWWWWW
ĠfDEEEKKKKKKKK WKKKKWWWWKKK
KKEEEEEEEE EDi
KKEEEEEEEE EDDj
KKWWWWWWW KWW
KKEEEEEEE i
KKEEEEEEE DfDDi
WWEEE DDDDDGf
WWEEEEEEEEEEEE EEWEEEEEEEE
WWKKKKW iEj
WWKKKKW itE
EEKKKK WWKKKKKWWWWWW
EEKKKKKKKK KEKEEEEEEEEEEEEEEE
EEGEEEEEEEEEEEEEEEE EEEKKKKKKK
EEGEEEEEEEEEEEEEEEE EEDEEEEEEEEEEE
DDGG EGDKK
DDDE ii
DDDE DDDD
KKKKEEE KWEKW
EEEEDDDD Gf
EEEEEK EEEEEEEEEEEEEEEEE
WWWWKK LLGWEE
;;... ,.........:
ĠLDEEEE KKKKKKKWKKKK
ĠLDEEEE KKKKKKKKKKKWWWKKKKKKKKKKKKKKKWKK
ĠGDEEEKKKKKKKK KWKKKWWW
ĠGDEEEKKKKKKKK WKKKKWWWKKKWKKKKKKK
KKKKKKKKKKKKK WWWW
KKKKKKKKKKKKK WWKE
....................: ,
WWWWWWWWKKKK fWW
WWWWWWWWWWWWWWW KKKKKKKEL
DDDDDDDDEEE DDDDDDDDDD
WWWKKKKKKKK EEf
WWWEEEEEEEEEEEE KKKKKKKKKKKKKKKKKKKKKKKKKKWWWWWWKWWWWWW
EEEKKWWWW KKKKKWWWWWWWWWWW
EEEKKWWWW KKKKKWWWWWWWWWW
EEEKKWWW KKKKKWWWWWWWWW
EEEKKWWW KKKKKKKWWWWWWWW
EEEKKKWWW KKKKKWWWWWWWWWWWW
EEEKKKWWW KKKKKKWWWWWWWW
KKKWWKK WWWWW
KKKWWKK WWWWWWWWWGWWWKKGGGG
KKKKKWKKKKKK WKWWWWW
KKKKKKKKKKKKKKKKKKKKKKK WWWWWWWWWWWWW
DEK EEEEEEWWEEE
WKEEEEEEEEEE DDEj
WKWKKWK itKKKKKKKK
WKWKKWK iiiKKKKKKKKKWW
KKKKKKKWKKKKK EEEEEEEEEEEEE
KKKKKKKWKKKKK WWWGi
tfLG DDDK
tfLG DEDDDDDDDDEEE
GGGK GGGGGGGGGGGGGGGGGGGGGGGGGGDG
KEKKKKKKKKKKKKKKKKKKKKKKKK KKKKW
EEEEEEEEEEEEKKKKKKKKKKKKKKKKKKKKKKKK W
fjti iiii
WWWWWWWWWKKKWWK ii
WWWWWWWWWKKKWWK iLGG
:::::::::::::::: ,
EKEEEEE KK
Ġ.:, ;;;
KWKKK iiiiiiiiiiiii
EEKWWWWWWWW DDWWKKDDDDD
EEKWWWWWWWW KWKKKKKKKKKKKKKKK
WKKKKKEE fj
WKKKKKEE LG
GGGGGGGGGGGGGGGGGGG LLGGGGL
KKKKKKKKKKKKKKKWKKKKKKKK KKKKKKWWWWKKWWW
EEEKWWWWW KKKKKKKWWWWWWWWWWW
EEEKWWWWWWKKKKKK WWWWWWWWWWWKKKKKKKKKKK
EEEKWWWWWWKKKKKK WWWWWWWWWWKKKKKKKKKKKK
DKiWWWWWK WW
DKiWWWWWK WK
WWWWWKWKKKK EE
WWWWWKWKKKK Ei
tfLGGDDDDDDDD EDDD
tfLGGDDDDDDDD DKDD
tfLGGDDDDDDDDDD DE
tfLGGDDDDDDDDDD KD
tfLGGDDDDDD EDDDDD
tfLGGDDDDDD DEDDDD
Ġ....:::: :.
Ġ....:::: ......:.
WWWWWWWWWWWWWWWWWWWWWW Ki
EEEEEEEEEEEEEEEKKKKKKKKKKKKKKKK WWKKKKEEEED
WKKKWK EEDf
fDEEEEEE KKKKKKKKKKWKEEEEEEEEEEEEEEE
fDEEEEEE KKKKKKKWKKKKKEEEEEEEEEEEEE
WWEEEEEEEEEEEWWWWEEEEE DDDf
DDWWKKDDDDD KKDDDDDDDDDDDDDDDD
EEEEEEEEEKEEEEEEEEEEEEEEEEE WWEEEEEEEDD
...............................: ....................
iDDEEEEWEEEEEEEEEEEE WWEEDDDDDDGf
WWKKKKKKKKKKKKKKKKK WKE
WWEEEEEEEDD LD
WWWWWWWWWGWWWKKGGGG KGGGGGGGGGGGGGGGGGGGG
/******** **
ELL EDDEEEWWWWEtWK
WWE WWWKKGGGEKK
ĠRand Int
âĸĦâĸĦâĸĦâĸĦâĸĦâĸĦâĸĦâĸĦ âĸĦâĸĦâĸĦ
may be
Ġtogg le
ĠBlock Size
ĠPerm utation
.........: ....................
ç¬ ¦
åĲĮ çļĦ
ĠCT y
iit jLGGGDDDDDDDDDDDD
Ð¢Ð ¯Ðĵ
Ġmol im
/**************************************************************************************************************************************************************** *****************************************
::...... ;........
irtu alize
ĠCor ner
Ġmylittle doge
Ġpreci se
Ġtraverse s
ĠClass Name
ifj DDGGEGDKK
,,:::: ,,,,,,:::::::::
ĠÐ¿ÑĢÐ¾ÑģÑĤ Ð¾Ðµ
Prior ityQueue
,................................ .::
,;;;;;; ,
,:::::::::::::::: ::
.,: .......
.:::::::: :::,,,
.::::::: ,,,,,,,
.::::::::: ,,,,
.;:.. :::::
:,,,: ...,
;................................ ......:
;,........ .....
;............................ ,
Dfi EGDDDEEKKK
DKKKKK EDDWWKE
DGGG KDGGGGGGGGGGGGGGGGGGGGGGGGGG
DEEEEEEEEEEEEEEEE KEEEGEEEEEEEEEEE
DWWWKKK EEEEKi
DEEEEEEEEEK EEEEEEEEEEEEEDEEEEE
EKKK WWWWWWWWWWW
EDE DEKG
EWWWWWWW KKKKW
EKKKKKWWKKKKK WWWWWWW
EWEEEEEEEE DKDEii
EDEEEEKKKKKKKKKKKKKKKK iG
GDD EEEKKKWWWWW
GDEE KKKKKKKKKKKKKWWWW
GKi WWWWWKKWW
GtGG fG
GWEEEEEEEE DWDDiL
KEEEE EEEKiDD
KWWW EEEEEEEEEKKKKKKKKKKKKKKKKKKKKKKKKKK
KWK WWWWKKKKKKKWKK
KEEEEEEEEEEE WEEKWEEEEEEE
KWWKK EEL
KDDEEEWEEEEEEEEEEEE WWKEEDDDD
KjK WWWWWWWWWWWWEK
LEE KKKKKKWKKKKK
LEEE KKKKKWKKKKKWWWWWW
LDDD EEEEEEEEEEEKKKKKKKKKKKKKKKKWKKKKKKKK
Lij LGGDDDDDDDDEEEEE
LEEEEE KKKKKKWKKKKWKKKKKKKKKKKKKKKK
LWWWWK EEEEEi
LEEKK WWWWWKKKKKWWWWWWWWWWWW
LDDEEEWEEEEEEEEEEEE WWWEEDDDD
LWWWWKK EEEEEEDEi
WDK WWKKWWWWWWWWWE
WGD f
WGGGGGGGGGGGGGGGGGGGGGGGGGG L
WLii WWWKKKEEjD
fEEEE KKKKKKKKWKKKK
fjj tii
fGGG DDDDDDDDEEEDDDDDDDDDD
fDEEE KKKKKKKKKKKKWW
fdev irtualize
fKEEE WWKEKEKKKKKKKW
fEEKK WWWWWKKKKKWWWWWWWWWWW
fEEKKWWWW KKKKKKWWWWWWWWWW
fWEEEEEEEEEE DDfL
gsy gsh
iDE KWWWWWWKEKKKKKKKKKKKKKKKKKKKKKKKK
iEKE KKKKKKDj
iDEEKKK WWKKKKKWWWWWWWWWWWW
iKDi LWWWWKEEEEEi
jff GGDDDDDDDDDEEEE
jDDD KEGi
jED EEEEEEEEEKKKKKKKKKKKKKKKKKKKKKKKKKKKKKWWWWWWWW
jKKKKKKKKKK WWWWWWWWWWWWWWWWWWWWWt
jEED EEEEEEEEEEKKKKKKKKKKKKKKKWKKKKKKKK
jEEf Gi
jKEEE KK
jEEKKWWWW KKKKKKWWWWWWWWW
tEEE L
tED EEEWEEEEEEEEEEEEWWWEEE
tLGG DDDDDDDDDD
tDEEEEE KKKKKKKKEti
tLf fi
tEEKKWWWW KKKKKWWWWWWWWWWW
tKKWWWWWWW DDWWKKDDDDDKKDDDDDDDDDDDDDDDD
Ġ........................ ....:
ĠKKKKKKKKKKK f
ĠKKEK WWWWWWfWK
ĠKKKWWWWWWWW K
ĠiDEE KKKKKWKKKKKKKWWWWWWW
ĠiGEEE KKKKKKKKKKWKKKK
ifLL ED
ifDEEEEEEEEEEEE KEEEKEEEEEEEEEEEEEEEWWWEEEEEEEEEEEE
..,; .,;
..::::::::: ,,
ittf DEEEEEEEEEEEEEEEEKEEEGEEEEEEEEEEE
itDGG DDDDDDDDDEEEE
itjLGGGG GGDDDDDDDDDDD
ĠfEEE KKKKKKKKKKKKKKKW
ĠfDEEEE EEKKKKKKKKKEKEEEEEEEEEEEEEEE
ĠfDEEEEE KKKKKKKKKKKWKKKKKKKKEEEEEEEWWEE
ĠfEEKKKK WWKKKKWWWWWWWWWWW
KKEEE WWEEEEEEEEEEEWWWWEEEEEDDDf
KKGGGGGGGG GGGGGGGDDDDDDDDDDDD
KKWWWWWW KWWWW
KKLGG DDDDDDDDDDDDDDDDEDDEEDDDDD
KKWWWWWK WWWWWWWWWGWWWKKGGGGKGGGGGGGGGGGGGGGGGGGG
KKEEEEEED WGDf
KKWWKW KKKKKKKKKKKKKKKKKKKKKKKWWWWWWWWWWWWW
KKEEEEEK i
::,,,,,, ;;
ĠjDEEEEKKKKKKKKKK WWKKKKKKKKKKKKKKKKKWKE
WWEEEEEED EEEEEEEEEEEEEEEEEEEEEEEEEE
EEWWK EEEEEEKKKKKKKKKKKKKKKKWKKKKKKKK
EEKKW KKKKKKKWKKKKKWWWGi
EEfft f
EEWWEEEEEEEEEEEEEEEE EEEEEEEEEEEEKKKKKKKKKKKKKKKKKKKKKKKKW
Ġ;::,,,, ,;;
....,..... :
LLDEEEEEEEEEEE KEEEEEEEEDEEEEEEEEEEE
DDKDDE DEGi
iiEEEEEEE KKKKKKKKKKKKKWWKE
iiWKEEEEEEEEEE DDEijDEEEEEK
KKKKWWWK DDWWKKDDDG
KKKKEEEED GGi
KKKKWKE ij
KKKKDGG EKKE
Ġ:... :::::::,,
Ġ:,,,, :.
isLocal PrintEnabled
EEEEDDD GGLi
...:::: ,;
...:::::: ..,.
...:... ,,;
WWWWKKG LGKD
;;:........ .......
;;,::::::: ,,,,,,,,;
ĠLEEE KKKKKKKKKKWWKKK
ĠLDEEEEKKKKKKKKKK WKWKKKKKKKK
ĠLDDEEEEEEEE EEKEEEEWEEE
GGEEEEEEEEEEE KEKEEKEEEEEEEEEEEEEEEEWWEEEEEEEEEEEEEEEEE
DDDDEEEK EEEEEEEEKKKKKKKKKKKKKKKKKKKKKKKKKKKKKKK
DDDDDK DDDDDDDDDDDDDDDGGGGGGGGGGG
ĠGLD EEGEEEEEEEEEEEEEEEEEEDEEEEEEEEEEE
ĠGDEE KKKKKKKKKKKKWWWWWWW
KKKKKKKKKEE ft
EEEEEEEEEED i
::::,,,,,,,, ;;
WWWWWWWWKKKKKKK WKKKKKKKWWWWWWW
WWWWWWWWEiiii iiiEEEEEEEEDG
GGGGKE GGGGGGGGGGGGGGGGGGGLLGGGGL
Ġ.:::::::: ..
Ġ.::::::: ..
DGKEEEEEEEEEE DEEEEEEEWW
WWWKE KD
WWWEEEEE KKKKKKKKKKKKKKKKKKKKKKKKKWWWWWWWW
WWWGWWWKK GGGGKEGGGGGGGGGGGGGGGGGGGLLGGGGL
WWWKKKKEEE f
WWWEEEEDDDD LG
KKKWK EEGL
KKKWWWWWWW KWW
ttKW G
KKKKKEEEEE fi
KKKKKWWWK WWWWW
KKKKKiiiiiiii iiijKEKKW
KKKKKWWWWK WWWW
KKKKKLiiiiiiii iiiiiiEEKKKKKKKK
KKKKKWWKKKKKKKK WWWWWWWWWWWWWWWWWWWWWWKi
KKKKKKKKKKKKKKKKfKKWWWWKEEEEEEEE Dti
,;....,........ .......;
iiiEEK EEKKWKKKKKKKWKKKKKWWWGi
iiiEKKKKKKKK WKWWWWWWWWKKK
iiiKKKEKKKK WWKWWWWWWKKKKWWWWW
Ġ...::,,,, :.
Ġ...:,,, ;;,:
DEGGG DGGGGGDGGGGGGGGGGGGGGGG
DEDDDDDD iiWKEEEEEEEEEEDDEijDEEEEEK
DEKEEEEEEEE KKKKKKKKKKKKKKKKKKKKKKKKKKKKKWWWWWWWWW
DEKEKKK WWKKKKWWWWWWWWWWW
WKWKKKKK WWWWWWWWKKKKKi
WKEEEEE DDDGL
WKEEDDDD GGff
WKEEEEEED fi
WKEEEEEEEEEEEEEEEEEEEE KEKKKKKKKKKKKKKKKKKKKKKKKKKKKKW
WKiiiWWWKKK EEK
GGGGGGGGDDDDDDDDDDDDDDDDDD E
.....;;;;;;;;; ....................,
.....:................ ......,
KKKKKKKWWWWWWWWWWWWWWWWWWWWWW iLiii
;.:........ .:
;.;,. ::......;........
tfGGDDDDDDDDDDDD D
;;;;;;;;;: ..........
;;;;;;;;;;;;;;; ,,,,,,,,,,
;;;;;;;;;;;;; ,:.....
KELi LGGGGDDDDDDDDDDDDEEEDDDDDDD
KEKKKKKKKKKKKKKKKKWKKKKKKKK KKKWWKWWWWW
KEDDDDDDDDDDDDDDDDDDDD DGGGG
WWWWWWKW GGGKGGGGGGGGGGGGGGGGGGGGGGGGGGDG
EEEEEEEEEEEEWWEE GDDDGGLG
:::,,,,,, ;;;;
Ġ.,;,::: ,
WKKWKK GE
WKKEEEED LG
WKKWKKKKKKKKKKKKKKKK KKKKWWWWWWW
WKKWGG KKGGGGGGGGGGGGGGGDDDDDDDDDDDD
WWWWWWWWWKKKKW tEL
WWWWWWWWWiiiiiiii EEEEEEEEEEDi
WWWWWWWWWiiiiifLEEEEEEEE Di
......;: ...........................:
......,;;;;, ....................:,
EDfEEE DEEiWWEEEEEEEEEEEE
EDiiDEEEEEEEE WWEEEEEEDEEEEEEEEEEEEEEEEEEEEEEEEEE
;;;:... ,;
EEEEEEEEEEEEEEEEEEEEEEEEEEE WWEEEEEEEDDLD
EEEEEEEEEEEEEEEEEEEEEEEEEEEEE KKKKKKKKKKKW
EEEEEEEEEEEEEEEEKEEEEEEEEEEEEEEEKKKKKKKKKKKKKKKK KKKKW
ĠLDEEEKKKKKKKKKKKKKK WWWWWWWWWWWWWWWW
;:.................................... ;;;:...,;
EEEEEEEEEEEDEEEEEEEK WKEEDDDDGGff
EEDEEEEEEEEEEEEKKKKKKKKKKKKKKKKKKKKKKKK KKKKW
KWEEEWKK WWWWWKKj
.:,,,::::: ,,,,,,,;;;
ijDEE KKKKKWKKKKKKWKWWWWW
ijLGGDDDDDDDDDDDD D
ijfG DDDDDDDDDEEEEE
EEKWWWWWWWKKKKK WWWKWWKKKKKKKKKKKKKKKKK
EEKWWWWWWWKKKKKK WKKKKKKKKKKKKKKKKKKKKKWKKKWK
WWKEEEEED fL
WWKEEEEEEEEEEEEDEEEEEEEEEEEE EEGEEEEEEEEEEEEEEEEEEEKKKKKKK
WWKWWWWWKKKKW GKD
WWKKDDGG DEGGGDGGGGGDGGGGGGGGGGGGGGGG
WWKKDLG KEKDDDDDDDDDDDDDDDDDDDDDDDDDED
KKKKKKKKKKKKKKKWWWKKK WWW
WWWWWWWWWWWKWKK jiEjitWWWKK
WWWWWWWWWWWKKKKKED j
EEEKWWWWWWWKKKK WWWWWWWWKKKKKKKWKKKKKKKWWWWWWW
LDEEEEEEEEWWEEEEEEEEEEEEEEEE EEEEEEEEEDEDEEEEE
LDEEEKKKKKKKKKKKK WWWWKWWWWWWWWWWKKKKWtKKi
EEEEEEWEEEED EEEEEEEEEEEEEEEEEEEEEEEEEEEWWEEEEEEEDDLD
EEEEEEKEKKK WWWWEEEEEEDDf
DKEEEWW EEEEEEKEKKKWWWWEEEEEEDDf
DKtWWWWWKK WWWWWW
WWWKKEEEEED ji
WWWKKEWK Ei
WWWKKWGGGK GGGGGGGGGGGGGGGGGGGGGGGGGGGG
WWWKKtfGK GEDDDDDDDDDDDDDDDDDDDDDDD
WWWKKKEKE Df
WWWKKKGGKKE GGGGGGGGDDDDDDDDDDDDDDDDDDE
,,,,,,,,,,,,,,,,::, ::::
KEEKKWWW KKKKKKWWWWWWWWW
KEEWWWWWWWWWDDWWKK DDDDDKDDDDDDDDDDDDDDDGGGGGGGGGGG
DEEWWWWWWWWWE KKKKKKKKKKKKKKKKKKKKKKKKKKWWKKWWWW
DEEWWWWWWWWKKKKWKKKKKKKKKKKKKKKK KKKKKKKWKKWWWK
DEEEKKWWW KKKKKWWWWWWWWW
WWWWWWWWWWWWKWWWWWW Gi
tjfLL GDDDDDDDDDDDDDDD
WWKKKjEKE L
tfLGGDDDK DDDDDDDD
EDDEEEWEEEEEEEEEEEE WWEEEDDDDDGf
EDDEEEEEEEEEEKKKKKKKKKKKKKKKKKKKKKKKKKKKKKKK WWKKW
WEEEEEEEEEEEEEEEKEEEEEEEEEEEEEEEEEEEKE KKKKKKKKKKKKKKKK
WEEEEEEEEEEEEEjEEEEEEEEEK EEEEGEEEEEEEEEKEEEEEEEEEEEEEEEEE
WWWKDEK LWWWWKKEEEEEEDEi
WWWKEEEEEEEEEEEEEK EEEEEEEEEEEEEEEEEEEEEEEEEEEEEKKKKKKKKKKKW
Ġ....::,, ;;;,
ÐĲÐĳÐŀ Ð¢Ð¯Ðĵ
GEKKKKKWWKKKKK WWWWWWWWWW
WWWWWWWWWWWWWWWWWWWWWWKKKKKK G
WWWWWWWWWWWWWWWWtiEiii WWWKKEWKEi
Ġ..:,;;;;, ::::,,,,,,,,;;
Ġ..;..;; :.....
Ġysghys gsygsh
GEEKKKKKWWKKKKK WWWWWWWW
GEEWWWWWWWWKKKK WKKWKKKKKKKKKKKKKKKKKKKKWWWWWWW
GEEWWWWKEE KEKKKKKKKKKKKKKKKKWKKKKKKKKKKKWWKWWWWW
KWWWWWWKKKKKKWKKK W
ĠLGDEEEEKKKKKKKKKK WKKKKKKKKKKKKKKKKKWEEW
WEEGDDDD GGG
WEEWEEEEED EEDEEEEEEEEEEEEKKKKKKKKKKKKKKKKKKKKKKKKKKKKW
EKEKKKWWW KKKKWWWWWWWWW
WKKKKKKKKKKKKKKKKKKKKWWWWWWWW WWWWWWWWWWW
WWWWWKKWWWKKKKKKKK tWKt
....................................:::::::.:. ,;;;;;;,
tGGDEEEEEEEEEEE KEEEKEEEDEEEEEEEEEEEE
DEEEEEEEEEEEEEEKE KKKKKKKKKKKKKKKKKKKKKKKKKKWWWKKKKKKK
WEEEKKKKKKKKKKKKKKKKKKKKKWWWWWWWWWWWWWWWW WWWWWWWKKKKKKEG
fDEEEEKKKKKKWKKKK WWWKKKKKKKKKKKKKKKEKKW
fDEEEEKKKKKKKKKKKWKKKKKKKKKKKKKKKK KWEK
KKGDDDDDDDDDDDDDDDDDDDD DDDEDDDD
KKGDGDWEE WKKWKKGE
WWEEEEEEEEEEEKiKEEK EEEEEEWEEEEDEEEEEEEEEEEEEEEEEEEEEEEEEEEWWEEEEEEEDDLD
KKKKKWWWWWWWWWKKKKKKWKKKKKKK WWWWWWWWWKKKKWtEL
......................................:::::::,;;;; :...
jfLGKDL DDDDDDEEDD
ĠDEKKKKKWWKKKK WWWWWWW
DKKWKKWWWWWWWWWGWWWKK DGGGKDGGGGGGGGGGGGGGGGGGGGGGGGGG
GDDDEEEEEEEEEEEEKKKKKKKKKKKKKKKKW KKKKKKKKKKKKKKKWWWKKKWWW
GDDDEEEEEEEEEEKEKKKKKKKKKKKKKKKKKKKKKKKKKKKKKKK WWWWWDGWWW
KDEEEWWEEEEEEEEEEEWWWWEEEEE DDGf
iDEEEEKKKKKKKKWKKWK WWWWWKKWWWKKKKKKKKtWKt
KKEKWWWWWWWWWGK WWKKDDGGDEGGGDGGGGGDGGGGGGGGGGGGGGGG
WWKKKKKKKKKKKKKKKKtKKWWWWKEEEEEEEE EDiiDEEEEEEEEWWEEEEEEDEEEEEEEEEEEEEEEEEEEEEEEEEE
WWEEEEEEEKKKKKKKKKKKKKKKKKKKKKKKKKWWK WWWWWWWWWWWWWWKKKKKKKEL
WWWWWWWWWWWWWWKWKKK iKDiLWWWWKEEEEEi
WWWWWWWWWWKWWD KWEEEWKKWWWWWKKj
GGGGGLGGGGGGGGGGGGGL GGGGGG
WEKKKKKKKKKKKKKKKKKKKKKKK WWWWWWWWWWWWWWWWWWWWWWKKKKKKG
tGDEEEEKKKKKKKKKKWWWKKKKKKKKKKKKKKKWKK WWWKEEEEEEEEEEEEEKEEEEEEEEEEEEEEEEEEEEEEEEEEEEEKKKKKKKKKKKW
ĠtGDEEEEKKKKKKKKKKKKKKKK KEEEEEEEEEEEWEEKWEEEEEEE
ĠtGDEEEKKKKKKKKKKKKKKKKKKKKKK EKEEEEE
DEEKWWWWWWKKKKKKKWWWWWWWWWWWW KKWKKKKKKWWWWK
EDDDEEKEEEEEEEEE KKKKKKKKKKKKKKKWKKKKKKKKKKKKKKWWWWKKWWW
KWKKWEiiiiiijG KKKKKWWKKKKKKKKWWWWWWWWWWWWWWWWWWWWWWKi
WEEEEEEEEEEEEEEEEEEEEEEEEEEKKKKKKKKKKKKKKKKKKKKKKKK KW
WKKKKKKKKKKfWK iWWW
WEEEEEEEEEEEDDLEEEEEEEEEWEEEED EEEEEEEEEKEEEEEEEEEEEEEEEEEWWEEEEEEEDD
fDDEEEEEEEEEEEEEEEK EEEEDEEEEEEEEEEEW
fDDEDDEEEEEEK EEEEEKEEEEEEEEEEEEEEEEE
fEEEKKKKKWKKKKKK WWWWWWW
iKDEEEWKEEEEEEEEEEE WWWEEEEDDDDLG
ĠfDEEEKKKKKKKKKWKKKKWWWWWWWW WWWWW
ĠfDEEEKKKKKKKKWKKKKWWWWKKK WKKKKKKKKKKfWKiWWW
WWEEEEEEEEEEEEEEWEEEEEEEE EEEEEEEEEEEEEEEKKKKKKKKKKKKKKKKWWKKKKEEEED
WWWWKKLLGWEE GGGGGLGGGGGGGGGGGGGGGGGGGG
ĠLDEEEEKKKKKKKWKKKK WWKKKKKKKKKKKKKKKKtKKWWWWKEEEEEEEEEDiiDEEEEEEEEWWEEEEEEDEEEEEEEEEEEEEEEEEEEEEEEEEE
ĠGDEEEKKKKKKKKWKKKKWWWKKKWKKKKKKK WWWKDEKLWWWWKKEEEEEEDEi
WWWWWWWWKKKKfWW Lt
WWWWWWWWWWWWWWWKKKKKKKEL j
WWWEEEEEEEEEEEEKKKKKKKKKKKKKKKKKKKKKKKKKKWWWWWWKWWWWWW KKKKKKKEEL
KKKWWKKWWWWWWWWWGWWWKKGGGG WGGGGGGGGGGGGGGGGGGGGGGGGGGL
DEKEEEEEEWWEEE DEEEEEEEEEKEEEEEEEEEEEEEDEEEEE
WKEEEEEEEEEEDDEj EEEEEEEEEEEDEEEEEEEKWKEEDDDDGGff
WKWKKWKitKKKKKKKK KWKKKKKKKKKKWWWWWWWWWWWWWW
WKWKKWKiiiKKKKKKKKKWW KKKKKKKKWWWWWWWWWWWWWWW
tfLGDDDK DDDDDDDDD
WWWWWWWWWKKKWWKiLGG EDEDEKG
KWKKKiiiiiiiiiiiii jKKKKKKKKKKWWWWWWWWWWWWWWWWWWWWWt
EEKWWWWWWWWDDWWKKDDDDD KEDDDDDDDDDDDDDDDDDDDDDGGGG
EEKWWWWWWWWKWKKKKKKKKKKKKKKK WKKKKKKKKKKWKKWWWW
EEEKWWWWWWKKKKKKWWWWWWWWWWWKKKKKKKKKKK WWKWWWWWKKKKWGKD
EEEKWWWWWWKKKKKKWWWWWWWWWWKKKKKKKKKKKK WWWWWW
fDEEEEEEKKKKKKKKKKWKEEEEEEEEEEEEEEE WKEEEEEEEEEEEEEEEEEEEEKEKKKKKKKKKKKKKKKKKKKKKKKKKKKKW
WWEWWWKKGGGEKK GGGGGLGGGGGGGGGGGGGLGGGGGG
DfiEGDDDEEKKK ttKWG
DKKKKKEDDWWKE DGftiLE
GDDEEEKKKWWWWW tWWD
KWWWEEEEEEEEEKKKKKKKKKKKKKKKKKKKKKKKKKK WWWWWWWWWWWWWWWKKKKKKKELj
KDDEEEWEEEEEEEEEEEEWWKEEDDDD DGf
LEEKKKKKKWKKKKK WWWWWWW
LDDDEEEEEEEEEEEKKKKKKKKKKKKKKKKWKKKKKKKK KKKKKWWWWKWWWW
LEEEEEKKKKKKWKKKKWKKKKKKKKKKKKKKKK KEKKW
LDDEEEWEEEEEEEEEEEEWWWEEDDDD DGfi
fEEEEKKKKKKKKWKKKK WWWWWWWWWWWWWWKWKKKiKDiLWWWWKEEEEEi
iDEKWWWWWWKEKKKKKKKKKKKKKKKKKKKKKKKK KKKKWWKKWWWW
jEEDEEEEEEEEEEKKKKKKKKKKKKKKKWKKKKKKKK KKKKKWWWKWWWWW
tEDEEEWEEEEEEEEEEEEWWWEEE DDDDDLL
tKKWWWWWWWDDWWKKDDDDDKKDDDDDDDDDDDDDDDD DDDDDDDDD
ĠiGEEEKKKKKKKKKKWKKKK WWWWWWWWWWWW
ifDEEEEEEEEEEEEKEEEKEEEEEEEEEEEEEEEWWWEEEEEEEEEEEE EEKKKKKKKKKKKKKKKKKKKKKKKKKKKKKKKKW
ittfDEEEEEEEEEEEEEEEEKEEEGEEEEEEEEEEE KWWWEEEEEEEEEKKKKKKKKKKKKKKKKKKKKKKKKKKWWWWWWWWWWWWWWWKKKKKKKELj
ĠfDEEEEEKKKKKKKKKKKWKKKKKKKKEEEEEEEWWEE WEEEEEEEEEEEEEEEEEEEEEEEEEEKKKKKKKKKKKKKKKKKKKKKKKKKW
KKWWWWWKWWWWWWWWWGWWWKKGGGGKGGGGGGGGGGGGGGGGGGGG LLGGGGL
EEWWKEEEEEEKKKKKKKKKKKKKKKKWKKKKKKKK KKKWWKKWWWWW
LLDEEEEEEEEEEEKEEEEEEEEDEEEEEEEEEEE W
DDKDDEDEGi WKEEEEEEEEEEDDEjEEEEEEEEEEEDEEEEEEEKWKEEDDDDGGff
KKKKWWWKDDWWKKDDDG DKKGGGGGGGGDGDDDDDDDDDDDDDDD
WWWWKKGLGKD GGGGGGLLGGGGGGGGGGGGGGGGGGG
ĠLEEEKKKKKKKKKKWWKKK WWW
ĠLDEEEEKKKKKKKKKKWKWKKKKKKKK KKKKEEEKWEKW
ĠLDDEEEEEEEEEEKEEEEWEEE DDEEEEEEEEEEE
GGEEEEEEEEEEEKEKEEKEEEEEEEEEEEEEEEEWWEEEEEEEEEEEEEEEEE KKKKKKKKKKKKKKKKKKKKKKKKKKKKKKKW
DDDDEEEKEEEEEEEEKKKKKKKKKKKKKKKKKKKKKKKKKKKKKKK WWWKKKWWWW
WWWWWWWWEiiiiiiiEEEEEEEEDG iiii
DGKEEEEEEEEEEDEEEEEEEWW EEEEDDDGGLi
WWWEEEEEKKKKKKKKKKKKKKKKKKKKKKKKKWWWWWWWW WWWWWWWWWWWKKKKKEDj
KKKKKiiiiiiiiiiijKEKKW KKKKKKKWWWWWWWWWWWWWWWWWWWWWWiLiii
KKKKKLiiiiiiiiiiiiiiEEKKKKKKKK WWWWWWWWWWWWKWWWWWWGi
iiiEKKKKKKKKWKWWWWWWWWKKK WWWWWKi
DEDDDDDDiiWKEEEEEEEEEEDDEijDEEEEEK EEEEEEEEEEEEWWEEGDDDGGLG
WKKWGGKKGGGGGGGGGGGGGGGDDDDDDDDDDDD D
EDfEEEDEEiWWEEEEEEEEEEEE DGKEEEEEEEEEEDEEEEEEEWWEEEEDDDGGLi
EEKWWWWWWWKKKKKWWWKWWKKKKKKKKKKKKKKKKK WWWWWWW
EEKWWWWWWWKKKKKKWKKKKKKKKKKKKKKKKKKKKKWKKKWK W
WWKEEEEEEEEEEEEDEEEEEEEEEEEEEEGEEEEEEEEEEEEEEEEEEEKKKKKKK WWKKEEEEEEDDf
WWWWWWWWWWWKWKKjiEjitWWWKK WEEEDi
LDEEEEEEEEWWEEEEEEEEEEEEEEEEEEEEEEEEEDEDEEEEE W
LDEEEKKKKKKKKKKKKWWWWKWWWWWWWWWWKKKKWtKKi DWWWKKKEEEEKi
WWWKKtfGKGEDDDDDDDDDDDDDDDDDDDDDDD EEDD
tGGDEEEEEEEEEEEKEEEKEEEDEEEEEEEEEEEE WWWEEEEEEEEEEEEKKKKKKKKKKKKKKKKKKKKKKKKKKWWWWWWKWWWWWWKKKKKKKEEL
DEEEEEEEEEEEEEEKEKKKKKKKKKKKKKKKKKKKKKKKKKKWWWKKKKKKK EEDf
ĠtGDEEEEKKKKKKKKKKKKKKKKKEEEEEEEEEEEWEEKWEEEEEEE DEEEEEEEEEEEEEEKEKKKKKKKKKKKKKKKKKKKKKKKKKKWWWKKKKKKKEEDf
WEEEEEEEEEEEDDLEEEEEEEEEWEEEEDEEEEEEEEEKEEEEEEEEEEEEEEEEEWWEEEEEEEDD fj
WWEEEEEEEEEEEEEEWEEEEEEEEEEEEEEEEEEEEEEEKKKKKKKKKKKKKKKKWWKKKKEEEED fG
ĠLDEEEEKKKKKKKWKKKKWWKKKKKKKKKKKKKKKKtKKWWWWKEEEEEEEEEDiiDEEEEEEEEWWEEEEEEDEEEEEEEEEEEEEEEEEEEEEEEEEE WKEEEEEDDDGL
WWWWWWWWWKKKWWKiLGGEDEDEKG KKiEG
" ]);
) '
, ((
. +
5 32
5 49
7 39
9 11
A re
F ac
K ing
S B
S Y
T B
W R
] ++)
d out
f inline
f ath
f ho
f unroll
f cross
f call
f delete
f optimize
f thread
f partial
j ks
k now
n z
n ed
n br
o res
q v
s ra
t here
v ans
v rp
w tf
| _.__
~ %
¤ Ã¥Ã
å Ĵ
Ġ --------
Ġ ÙĦ
Ġ clean
re max
Ġi r
Ġm I
Ġ1 337
Ġp retty
ou go
Ġc reated
ll inf
en e
en sive
en emy
() ],
() )))
Ġ> ---->
Ġv lld
out o
an ch
Ġt ms
Ġt old
at ougo
Ġx c
Ġd inf
Ġd forn
Ġf our
Ġma jk
Ġma pping
(" );
ar i
ar jan
ar ante
__ ("
__ )),
ĠT AK
nt h
od ay
ut an
Ġ2 187
], "
Ġre l
]) ++
bit cnt
Ġg rt
Ġin puts
et work
ĠN FOR
Ġ| _)
Ġe asy
ĠA y
Ġq R
Ġq we
of lush
is ingh
Ġop tion
=( ((
Ġpush up
ĉĉĉĉĉĉĉĉ ĉĉĉĠĠĠĊ
mod ULAR
ĠR IT
Ġo j
Ġo x
ig atougo
tr igger
Ġh y
Ġh av
Ġh alt
Ġget Par
Ġde dup
Ġto min
Ġcur Mod
Ġsum b
pre vious
fi pa
get Sum
ower s
(! ((
Ġis Alpha
Ġ4 3
Ġ\ _\
"<< '\
26 0
ĠAr igatougo
Ġco ins
Ġpi vot
','. '},{'.','
find irect
)- __
58 1
Ġsort am
30 30
50 2
AC O
ĠY edi
popcount l
==' (')
34 1
sc r
ĠW arn
Ġind ices
test lib
mi le
Ġcl asses
Ġfact s
dig s
âĸĢâĸĢ âĸĦ
79 69
ach er
60 9
___ |
Ġ26 2144
ĠInt er
br ut
40 40
Ġbs ld
Ġà¦ ¨
ĠPR I
ĠJ udge
Ġsm l
1000000 1
tu al
Comp onent
//////////////////////////////////////////////////////////////// ////////////////////////////////////////////////////////////////////////////////////////////////
âĢ ľ
entr ada
ãģ §
inter block
Ġ"[" +
ĠØ Ń
nom ial
Ġ++_ )
Ġwr iter
Ġam en
tar jan
fp eep
Op en
Ġresp ect
fre run
Ġfe els
Ġ************************ *****/
Ġ|\ __,
jump ing
ĠLS ONE
åĪ °
Ġph y
AY S
Ã¥Ã °
Ġdirection s
ali asing
Ġsff l
Ġrot ation
Ġ********************** */
Ġtw op
Ġtask name
........................................ ...
Ġequ i
Ġequ alll
Ġ200000000 7
Ġasdf ghjkl
component s
Ġim outo
ĠFFT MOD
Ġcare fully
Ġ|_|\__,_| \__,
ĠUS ACO
\\\\ \\\\
Ġbsh d
Ġ'! ';
ped antic
Ġ//................................................................ ......................................
Ġ//................................................................ ...........................................
Ġ**************** */
ĠACM TU
æł ĳ
Ġdum my
Ġconfig ured
±Ã² Ãł
Ġcond ition
domin os
¯Ã° Ã®Ã
Po or
zai masu
)<<") ";}
OVER FLOW
fexp ensive
exponenti al
fho ist
fcross jumping
fcall er
|_.__ /|_|
åĴ Į
arante ed
ĠArigatougo zaimasu
ĠYedi ge
fpeep hole
ĠACMTU YO
" >>
" ";
" !!
& @
' ---'
' ~!
) ]+=
* ;
* `
. ''
6 27
: ....
: (_
@ &
@ +
@ ~
A ble
B x
E MM
H ep
I MM
M ake
N MMM
R KK
S lr
X MMMMMMMMM
] ]),
_ ();
` ,,,,
` ,,,,,,,,,,,,,,,,
` ,`
` .::.
a isingh
c nd
c sz
c rivo
d k
e o
f lo
g as
k om
l I
l P
m eta
q h
q w
r ir
r sum
} ]]]]]]]]]]]]
~ ;
~ ,,
§ â¢Ģ
¬ â£
¯ â¢¿
» æī¾
Ù °
Ù ī
æ ±
ĥ â¢Ģâ¢Ģ
Ł â¢Ģ
Ġ< ---
Ġi mm
on na
++ ],
cl p
Ġp z
Ġc clear
en um
() &
Ġs ss
// âĸĪâĸĪâķĶâķĲâķĲâĸĪâĸĪâķĹ
Ġ- _-_-
Ġt erm
Ġb ck
Ġb rk
con tain
us d
ct rx
Ġx p
Ġd k
Ġd dy
Ġf mm
Ġf ailed
ar b
ar chi
str b
Ġj at
os ra
Ġr max
ti p
Ġfor rit
Ġy f
eg e
)) &&
Ġre b
Ġre calc
Ġ; --
Ġk am
as ax
]) /(
ĠM n
Ġpr Vec
Ġ| `.
Ġ/ ****
put num
Ġcin d
â£ ®
â£ °
â£ µ
â£ ¹
â£ Ī
â£ ī
â£ ¬â£
//// #
MM E
()) ?_
Ġ__ ____
Ġ3 00001
Ġw ish
cur Sum
Ġ// (
,, `,,
ĠL eap
â£¿ â¢¯
Ġ"<< ++
tr unc
ak ar
Ġh f
ĠC x
Ġde mo
â£¿â£¿ â£¿â£
â£¿â£¿ â¢Ģ
â£¿â£¿ â£¿â¡
â£¿â£¿ â¡·
â£¿â£¿ â£Ĩâł¹
Ġto max
Ġto LowerCase
Ġto UpperCase
ĉĠĠ ĉĉ
Ġz r
Ġarr ays
Ġis LowerCase
Ġis UpperCase
Ġis Intersect
Ġis Letter
Ġis Middle
Ġ4 0000
ĠO ver
Ġout f
Ġout side
53 3
100 1000
ĠFOR I
Ġmx i
'. -'
ĠAr r
Ġco ver
/// ==
20 11
Ġac cept
Ġ. ''
dist s
)- ((
<<( _
âł ·
âł ĵ
â£¿â£¿â£¿â£¿ â£¿â¡
â£¿â£¿â£¿â£¿ â£Ĩ
ER R
â¢ £
â¢ ģ
â¢ ĥ
â¢ Ĩ
â¢ ĭ
Ġbase int
MMMMMMMM MMM
MMMMMMMM MMMMMMM
Ġquery Range
Ġcomp osition
ĠY et
pl it
â¡ »
â¡ ŀ
46 57
Size Helper
Ġnew line
qu ency
Ġrb end
ĠW ork
,; :,;
(* __
Ġmy Complex
Ġmask s
exp ressive
curr R
79 3
48 57
Ġupper Bound
hash er
100000 10
Ġbin Pow
te en
Ġneed s
Ġ'. \
cr nt
cr iption
,,,,,,,, ,,,
Ġrand o
=" \
Ġnot Equal
MMMMMMMMMMMMMMMM MM
â£¿â£ ®
â£¿â£ ¯â¢¿
"" >>
â¢Ģ â¡¿
â¢Ģ â£¿â£¾
kk k
Ġal g
Ġsign ificant
,: ;
Ġtotal Time
ĠJ aisingh
54 56
,,, `,,,,,,,,,,,,,,,,
66 9
â¢¿ â£»
â¢¿ â£¿â£¿â£¿â£¿â£¿â£¿â£¿â£¿â£¿â£¿â£¿â£¿â£¿â£¿â£¿â£¿
â¢¿ â£¿â£½
ĠPrint Data
68 7
Prime s
ĠMin PriorityQueue
Ġ200 1
Con vert
ĠOO L
Array Type
Array SizeHelper
ĠMEM SET
â¡¿ â£¯
87 654321
small est
â£· â¢¿
â£· â£»
â£· âłĪ
â£· â¡Īâ¢¿
//////////////////////////////////////////////////////////////// ////////////////////////////////////////////////////////////////////////////
OL D
--- >>>
â£¿â¡ Ī
`` ,`
##_ ==
##_ :(_
Ġcand idates
________________________________ ___________
gg dem
â£½ â¡¿
EN M
Ġrun d
::. :.
ĠisPrime Number
ader s
Ġones l
â£¿â£¿â£¿â£¿â£¿â£¿ â£·
ĠSt uff
gen rate
:.. :
:.. ::
:.. `..
â¢Ģâ¢Ģ â£¤
âł¹ â£·
âł¹ â£Ł
âł¹ â£Łâ£¾
Ġpol icy
Ġequal To
â¢» â£½
norm alize
,` ;
,` ,,,`,,,,,,,,,,,,,,,,
<<","<< _
<<"("<< _
âłī âłĻ
â£¤ â£Ħâ£Ģ
ï¿½ï¿½ï¿½ï¿½ï¿½ï¿½ï¿½ï¿½ ï¿½ï¿½
Ġrrep s
Ġanc estors
:........ ....
â£¿â£¿â£¿ âłĩ
ĠAN G
<<"{ "<<
â¡Ħ â¢¿
Fact or
.:: ..
Ġiss q
â¡Ģ âłĻ
orig inal
Ġ|/ .''
â£¦ âłĺ
Ġww s
Short cut
â¢¯ â£Łâ¡¿
Ġ******************************** ************************
Ġ&&... _
En igma
ĠAL HAM
â¢· â£»
â£»â£¿â£¿ â£¿â¡
bar ik
â¢ł â£¿
ĠCU RR
Ġ|_ '---'
je je
Ġasd asd
.:.. :
â£¯â¢¿ â£¿â£¿â£¿
MMMMMMMMMMMMMMMMMMMMMMMMMMMMMMMMMMMMMMMMMMMMMMMM MMMMM
â¢Ģâ¢Ģâ¢Ģâ¢Ģ â¢Ģâ¢Ģâ¢Ģâ¢Ģ
â£¶â£¶ â£¶
/**************** *
Ġmom ent
çļĦå ·¦
//////////////////////////// /
Ġgu aranteed
â¡Į â¢¿
â£¿â£§ âł
ï¹Ħï¹ĥï¹Ħï¹ĥ ï¹Ħï¹ĥï¹Ħï¹ĥ
å¯ »æī¾
ĠlessThan Equal
WN MMMMMM
Ġ99999999 999999999
::.. ::
Ġ'---' `--'
ĠgreaterThan Equal
â£¿â¡Ħ â¢
â£¿â¡Ĩ â¢¸
â£¿â¡ĩâ¢¸ â£¯â£Ł
Ġbridge s
Ġide a
BA U
è¾¹ çķĮ
DU LILLAH
â£¿âłĩ â¢¸
bra infuck
çĽ¸ åĲĮçļĦ
âĸĪâĸĪâĸĪâĸĪâĸĪâĸĪâķĶâķĿ âĸĪâĸĪâķĳ
shir bek
ĠâķļâķĲâķĲâķĲâķĲ âķĲâķĿ
à¦¶à¦¨ à¦Ł
â¡Ļâł ¾
Ġvet or
å¦Ĥæŀľ æ²¡æľī
LPS Array
å°ıçļĦ æķ°
Ġmill er
à¦¾à¦ Ĥ
ĠAn and
Ġ,"; _
?"":",")<<* _
ĠSOME THING
Hep ic
Ġimm edi
//âĸĪâĸĪâķĶâķĲâķĲâĸĪâĸĪâķĹ âĸĪâĸĪâķĳ
Ġ-_-_- _-
archi ve
asax laj
Ġ.'' '-.
Ġ|/.'' '.
ĠALHAM DULILLAH
0 11
2 12345
5 15
A m
L v
P b
V is
W l
] |=(
b ip
c next
f uck
f uel
g gest
k er
l us
m N
n h
n ment
p ub
q td
¤ º
æ İ
ç ¤º
Ġi buf
Ġl set
Ġ1 27
Ġp ct
for ce
ll ll
ret if
Ġs gt
Ġt me
Ġd ll
Ġd xt
(" >
id a
al pa
ar ound
mp os
__ ||
Ġj mp
Ġ2 41
Ġy nm
)) ))*((
Ġk im
Ġk chay
set t
Ġu v
Ġg ave
Ġg irl
stream buf
<<" --------
Ġpair ll
ĠN eg
ad il
sy s
ĠF Q
ĠA p
Ġmax Val
Ġq b
ĠP ush
Ġ__ _|
Ġ3 35
Ġmin s
cur acy
Ġmake v
ĠR ST
min al
min imize
ĠL ST
ig uri
ĠG over
ĠI IT
gs d
fr action
Ġ100000000 00
Ġ100000000 00000
red uced
---------------- ----
ĠV l
ĠV SE
Ġ\ ::
Ġout A
26 2
ĠFOR LL
Ġ-- ,
Ġread l
Ġ10000 2
24 1
24 9
adj List
ec ific
43 7
Ġmn v
Ġmn y
22 1
cc ase
(' :
ĠREP D
ĠREP LL
Ġex cept
ĠY es
Ġdi j
Ġ100 9000999
==' ('
Ġstart ed
Ġbe aut
Ġbe come
Ġprime Factors
check max
Ġnew P
Ġnew s
bb akar
Ġsub mask
DE L
Ġ100000 79
Ġrange s
Ġiterator s
ai u
ĠJ alpa
ĠÐ º
Ġ` """"
Con nect
ä¸ Ń
Ġab acaba
Ġ{{ -
Ġvp ld
Ð° Ð»
âĸĢâĸĦ âĸĴâĸĴâĸĴâĸĴ
Ġve cin
Ġrs rt
ĠSt ack
ĠRFOR LL
70 5
)))) ==(
remove Min
Ġcal m
Pr op
ĠRREP LL
Ġperm utation
poly gon
Ġbi clz
Ġbi ctz
Ġson s
ä¸Ģ ä¸²
ĠMove s
ĠBit set
ĠFW RITE
asd gsd
Ġ'/ ')
vir tual
Ġbf fs
è¿ĶåĽŀ å°ıçļĦæķ°
Ġ200100 1001
577215664 9
Ġasdf asdg
SQ RT
Ġclose st
ĠÐ½ ÐµÑĤ
Ġoc cur
usk al
writ eln
Ġsong s
gre en
ä»£è¡¨è¿ĶåĽŀ çĽ¸åĲĮçļĦ
ä»£è¡¨è¿ĶåĽŀ å¦Ĥæŀľæ²¡æľī
cate gory
mar ico
ĠgetF oo
Ġdima si
Ġut int
ĠWhen ever
Fr ont
ĠArbitrary ModInt
Ġyj z
868 7969
ĠColl ege
Ġdisco very
çĶ ¨
ĠCUR L
3487 465
çļĦåĢ¼ è¿ĶåĽŀå°ıçļĦæķ°
Ġgrt srt
ĠANG LE
çļĦå·¦ è¾¹çķĮ
å¯»æī¾ çļĦåĢ¼è¿ĶåĽŀå°ıçļĦæķ°
Ġimmedi ately
Ġkim bbakar
ĠGover nment
ĠJalpa iguri
ä¸Ģä¸² çļĦå·¦è¾¹çķĮ
Ġasdfasdg asdgsd
ä»£è¡¨è¿ĶåĽŀçĽ¸åĲĮçļĦ ä¸Ģä¸²çļĦå·¦è¾¹çķĮ
ä»£è¡¨è¿ĶåĽŀå¦Ĥæŀľæ²¡æľī å¯»æī¾çļĦåĢ¼è¿ĶåĽŀå°ıçļĦæķ°
" <<"\
& ()
. %
2 13
6 37
6 888
7 10
B o
B ta
B tI
B OUND
C ASES
F X
H F
R ule
R LIMIT
S V
T ry
b nd
b ck
b il
b cc
b cx
b CN
c G
g b
g od
h x
h bX
i ans
j Q
j UG
k m
k on
l id
m up
m Ej
n TIME
p node
p em
r lim
s wa
w an
w al
z b
} \
~ #~~
ç Ń
è ®
é Ŀ
Ġ ê
Ġ åĩ½æķ°
Ġ åıĺéĩı
on us
Ġm or
Ġa u
Ġn mask
Ġn Sz
Ġ1 100
cl ic
Ġp L
Ġ0 2
for in
Ġs am
// ++
// ++++++++++++++++
Ġv toa
ac cb
Ġ" -->
Ġt z
at hs
ir ls
Ġd anc
Ġf ans
(" ../
ĠT ra
ĠT reap
Ġr q
Ġr id
ma e
)) ?(
Ġk ind
as ure
pr ln
ĠN eeded
Ġcon sole
Ġe ularFunction
ĠA ny
ĠA aman
max Len
is al
is Composite
ĠS can
ĠS ure
ĠS qC
ĠP er
#### ##~~##~~##~~##~~
ic G
00000000 0001
mod Int
ĠR ange
Ġ// _
min val
Ġst ov
Ġst oa
Ġst dext
Ġch a
sum x
Ġget D
Ġget par
Ġget Dist
ind ist
Ġall owed
]] ][
Ġto y
ĠB in
ĠB ase
Ġcur ans
num er
ĠINF l
rep t
Ġout s
53 1
ĠU RL
Ġoptim al
VA LI
ĠX X
/// --------------
ĠE VER
>( *
Ġadd Matrix
Ġadd ModMatrix
Ġ10000 103
97 9
Ġthe se
]==' +')
Ġmul Matrix
Ġmul ModMatrix
az a
ptr diff
IO I
Ġcom bin
à¦ ĸ
22 54
cc y
ha o
read Arrays
pt I
16 1
start ing
ĉĉĉĉĉĉĉĉĉĉĉĉĉĉĉĉ ĉĉĠ
-------------------------------- --
ĠQ ue
(* )
Ġor ient
200 111
Ġsub Matrix
Ġsub ModMatrix
Ġat os
Ġswap s
Ġ20 48
Ġ... }
ie u
500 50
Ġsu ggest
]]) %
file Input
Ġpp c
Ġpw mod
ĠMax MatrixSize
40 8
big u
rc u
21 77
Ġfile Input
47 5
Ġï¿½ï¿½ï¿½ï¿½ï¿½ï¿½ ,
Ġper son
Ġwe i
ai b
dy N
Ġlog ic
Ġsd a
bin omial
lush er
USE R
##~~ #~~
ĠST L
ãģ ¨
modular Exponentiation
ĠUN COMMENT
Ġï¿½ï¿½ï¿½ï¿½ï¿½ï¿½ï¿½ .
Ġprefix es
Ġshow Matrix
MS NQcWEj
lit ies
ĠÃ ¢
++++++++ +++++
td mEj
Ġpal indromic
Ġ20000 7
ĠPro gram
sha ft
Ġsuffix es
Ġvt os
Ġph b
Ġph f
Ġato v
NC cG
cell s
Ġ123456789 0123456789
Yn Aj
ķÐ ķÐ
++++++++++++++++ +++++++++++++
Ġgre edy
è¡¨ ç¤º
ĠPO SU
///-------------------------------- -------------------------------
XZ sI
ä½ ł
Ġgu ys
ific ation
Ġ99 9983
bW Jw
------------------------------------------ */
Ġ*** \
Ġidentity Matrix
XZv I
XZv Ly
Ġ102 3456789
/__\ |
MUL T
jYnB tI
#########~~ ######~~##~~##~~##~~
ĠÐ¿ÐµÑĢÐµÐ¼ÐµÐ½Ð½ ÑĥÑİ
ĠAS SERT
Ð¬ Ð¬
ĠÐ´ÐµÐ» Ð°ÐµÑĤ
WR tdmEj
æ± Ĥ
<<"-------- "<<
Bta WRtdmEj
pem Jw
//++++++++++++++++ +++++++++++++++++++++++++++++
VALI D
##~~#~~ ~
" ||
' ]){
+ .
3 88
4 32
5 000000000
7 69
9 47
C reate
E very
E ATE
E mpty
H old
K A
M ark
N eeded
P er
R el
S wap
U F
V VI
Y A
] ]==-
c ool
d abba
h fs
i en
j in
k chay
l val
m rk
o ck
p res
s jf
u at
u ch
u pp
v out
v qx
y ou
Â §
ç »
ì Ŀ
Ġ #####
de ad
re y
Ġi abs
ine d
Ġl ic
Ġm lld
++ __
Ġ1 11111
Ġc ame
Ġc set
for it
for mat
Ġs rev
Ġs nk
Ġ> {
Ġ> ()
Ġ" &
Ġ" ]["
Ġt om
Ġb urn
at os
Ġf u
(" ",
id ate
Ġ* ,
== >
str oy
ĠT I
Ġr z
ma le
Ġ== '
Ġ' <'
Ġfor c
Ġre present
Ġk Mod
Ġk kkk
as c
]) ][
ĠM sum
ĠM prod
ch irag
]); }}
Ġcon test
Ġ/ ,
ĠA shirbek
max d
max j
Ġq d
is Ok
ĠS ci
ĠP PLL
auto maton
ĠR ev
ĠL ook
Ġo oo
ak ur
Ġh u
ĠC eil
ĠG E
11 63
Ġde ad
ext c
ext end
ss age
MAX S
MAX X
]] ]=
ub y
ĉĉĠĠ ĉ
Ġvi m
', ')
53 6
Ġset s
10000 99
Ġpre vv
12 88
Ġco eff
Ġpi v
Ġ[ &
REP SZ
37 5
50 22
50 978
31 32
()- __
Ġbe hind
fact mod
Ġscan Int
UT IL
ĠW ITH
test Case
________________ __________
ah am
sol v
Ġsy d
do osra
Ġbin omial
Ġiter ating
ave let
mall oc
]% (
Ġdel t
Line s
101 10
my Complex
Ġwith in
)<<" ]
tail s
ww ww
dif fs
Ġed s
ĠFAST READ
mo y
close st
Ġdec rement
110 32000
//////////////////////////////////////////////////////////////// //
Ġ'? '){
AB LE
AB AB
lol o
ãģ ª
Ġck x
uu v
Ġdiv mod
(& )
plic ation
Ġ300 5
Ġio setup
------------------------ -
ĠDebug Stream
_____ /
ĠRead ArrayType
Ġvisit ado
DEPREC EATE
END L
Ðº Ð°
ĠgcdExt ended
Ch ange
Ch irag
AP Util
Less Than
Ġhor izontal
ano va
Ġ'[ ')
trav el
gap s
pass ing
ĠTh akur
Ġef fort
Def ine
Fenwick Tree
Ġfollow ing
ĠÑģ Ð¸
Ġvowel s
Ġswe et
Ġ"_ ";
Ġexec ute
âĹ Ĳ
<<"> "<<
Ġdev ice
ĠSu pport
DA IICT
TOT AL
400000000 0000000100
2254 50978
sjf nb
ĠSci ence
ĠPPLL PLL
UTIL S
0 881
2 99
2 31
4 29
4 00001
5 20
6 89
9 07
= ~(
? )
? ((
A pp
C OL
D ev
E uler
H as
M o
N F
R EE
R un
S CL
S hah
S park
U M
W AYS
X L
a fs
c end
c val
c float
e very
f q
f at
h id
k oko
m than
r or
r ase
s scanf
s main
w i
{ //
} ]==
£ Ã®
å į
Ġ )))
Ġ 8888888888888888
Ġ 88888888888
ĥ ½
Ġi set
on moy
Ġl ex
Ġm ist
Ġn ux
++ <<
Ġc ev
Ġc ry
Ġs un
Ġs nuke
// ----------
Ġv max
out f
Ġ" ::
Ġb re
at o
at oi
yp ko
Ġd pr
end x
Ġf gets
Ġma l
id ing
al an
ar v
Ġj o
ĠT hing
ĠT onmoy
ĠĠ ĠĉĊ
ma ze
io i
Ġy md
---- |
Ġre nd
um in
Ġk l
Ġk an
Ġk er
pr m
pr t
ĠM i
ĠM II
ĠM ask
Ġg era
ch et
Ġin st
Ġin max
Ġin min
]); ++
ad or
Ġpr m
Ġpr t
long est
ĠF lib
ĠA C
Ġcin ad
max p
max size
10 1000
10 497
ĠS ol
ĠS OR
ĠS CC
ĠS IGMA
ot age
Ġmin P
mod s
64 00
Ġdp call
val ent
ĠL MAX
Ġst ick
Ġch oice
Ġh r
==== ///
pp pp
Ġget Val
ind ows
ĠG re
OR E
ĠD ONLINE
Ġde reference
MAX F
Ġto ok
len th
num DiffPf
ĉĠĠ Ġĉĉĉ
Ġsum x
bs a
mx r
Ġ10 1010
Ġse ven
to add
ex am
Ġ7 00
---------------- ------
co ins
count t
ĠV u
ĠMAX S
ĠMAX X
Ġset bits
im g
Ġtree s
26 1
10000 37
mem ber
'. ','.','.','.','.','.','.','.','.
ri ar
14 1
iterator s
20 12
Ġthe ir
24 360
Ġ1000 1
Ġ1000 7
top o
ash a
Ġdx horse
37 7
Ġdy horse
Ġex act
Ġlc s
LE V
34 1163
77 77
Ġpop ulate
FF F
Ġth ing
Ġmy map
Ġ8 6
ost hen
)== (
nx d
40 10
Ġbig gest
8888888888888888 8
8888888888888888 8888888888888888
8888888888888888 8888888
8888888888888888 88888
fa si
"" ^
fj k
Ġque st
sm al
ud a
@@@@@@@@ @@
Ġwe re
66 3
20000 10
************************ *****/
ĠDI GITS
Ġbfs z
nb max
Ġ16 341163
ĠRE VI
To Pos
To Convert
Ġna fasi
Se ll
ĠUN SORT
**************************************** *****/
eb f
ĠRe ader
ĠSH J
ĠGET A
ĠGET S
Ġ300 100
ĠÃ ·
10000000 21
Ġwr ong
ĠREV S
ĠREV II
5000 5
Ġpy thon
Ġact ually
36 999
Ġany where
Ð¾Ð º
binary Exponentiation
split mix
align ed
<<"{ "<<#
/**************************************** ****
ĠData In
ĠData Out
Ġiss ues
âĸĳâĸĳâĸĳâĸĳâĸĳâĸĳâĸĳâĸĳâĸĳâĸĳâĸĳâĸĳâĸĳâĸĳâĸĳâĸĳ âĸĳâĸĳâĸĳâĸĳâĸĳâĸĳâĸĳâĸĳâĸĳâĸĳâĸĳâĸĳâĸĳâĸĳâĸĳâĸĳ
BB BB
============================================ ///
______ /
Ġod ds
TR EE
Ġexist s
pal indrome
'},{'.','.','.','.','.','.','.','.','.'},{'.','.','.','.','.','.','.','.','.'},{'.','.','.','.','.','.','.','.','.'},{'.','.','.','.','.','.','.','.','. '},{'.','.','.','.','.','.','.','.','.'},{'.','.','.','.','.','.','.','.','.'},{'.','.','.','.','.','.','.','.','.'},{'.','.','.','.','.','.','.','.','.
Ã®Ã £Ã®
Ġisp ow
977 5724
526 624
<<"}"; }
Ã¨ Ã²
709 36999
ĠFX NS
Ver tex
Ġdecl ared
è¯ »
///================================ ============================================///
FFFFFFFFFFFFFF F
Mar ia
Ġche mthan
ĠÐ·Ð° Ð¿
Ġsil ver
Ġshok r
ÑĤÐ¸ ÑĤÑĮ
"""""""" """
åĨ į
chem than
ĠAnton Ts
Ġsab otage
Over lap
PA IR
lett er
)): ((
10000000000000 14
ĠLow On
<<'=' <<(
7182818284590452353602874713 526624
ĠBar isal
Iv anova
(': ');
Ġ`"""" ^
ĠAny way
ĠEVER Y
Ġdecrement ing
âĹĲ âĸĳâĸĳâĸĳ
Shah riar
Spark le
Ġmist ake
Ġdereference able
'.','.','.','.','.','.','.','.','. '},{'.','.','.','.','.','.','.','.','.'},{'.','.','.','.','.','.','.','.','.'},{'.','.','.','.','.','.','.','.','.'},{'.','.','.','.','.','.','.','.','.'},{'.','.','.','.','.','.','.','.','.'},{'.','.','.','.','.','.','.','.','.'},{'.','.','.','.','.','.','.','.','.'},{'.','.','.','.','.','.','.','.','.
9775724 70936999
ĠAntonTs ypko
7182818284590452353602874713526624 977572470936999
7182818284590452353602874713526624977572470936999 5
( |)
2 79
5 00000000
5 53
5 17
6 11
6 671
8 49
9 000000000000000000
: *
A ct
B VI
C ut
D anya
F req
F UL
R ect
T ri
V u
b ond
c oup
c ert
e id
g ive
h fjke
j ice
j ib
l sum
m or
m max
m rg
n em
u jk
x min
x Last
x dt
y jf
y alla
z r
{ __
{ ,.
| ((
| __||
æ Ł
ç Ħ
è §
Ġ ze
Ġ æ³¨æĦı
Ġi ma
or rect
Ġl ag
se ven
Ġ1 19
Ġp per
Ġ0 6
Ġc force
ur stan
() ]++;
// \\
out h
out side
Ġt av
Ġb pc
er fer
le ave
Ġx min
ar s
op p
air s
EE R
Ġy t
Ġy ass
Ġk a
as sion
]) ?
ĠM a
ĠM s
Ġg ft
ch n
!= "
]= __
++; }}
Ġe st
Ġe asi
ĠF UL
Ġmax p
10 21
Ġq c
rt fh
is Valid
un imi
ag wan
Ġpush down
Ġit v
Ġ3 0000000
he fro
Ġw b
ĠR un
Ġ// \\
min c
ĠL AST
ĠL UCK
Ġcnt B
Ġst pii
âĸĳ âĹĲâĸĳâĸĳâĸĳ
Ġ|| |
il a
ĠC ARE
ĠD TIME
âĸĳâĸĳ âĸĦâĸĦ
ĠB uffer
Ġcur t
fi che
get parent
Ġ100000000 2
Ġ(! ~
Ġis valid
ĠMAX A
ĠMAX P
53 189
15 00
26 843
10000 33
10000 39
10000 81
uct ion
oc arp
1000 121
In sert
Ġ6 00
Ġ6 11
Ġ6 17
âĸĦ âĸĮâĸĮâĸĳâĸĳâĸĳâĸĳâĸĳ
âĸĦ âĸĪâĸĪâĸĪâĸĢ
âĸĳâĸĳâĸĳâĸĳ âĸĦâĸĢâĸĴâĸĴ
âĸĳâĸĳâĸĳâĸĳ âĸĢâĸĦâĸĳâĸĳâĸĳâĸĳ
Ġmn ie
ha in
Ġcomp osite
Ġcomp ares
==' +')
Ġnxt l
ĉĉĉĉĉĉĉĉĉĉĉĉĉĉĉĉ ĉĉ
77 9
Ġind uction
Ġgr p
Ġseg m
200 3
RO OT
âĸĢâĸĢ âĸĢâĸĦ
48 1
48 411
sh dsh
âĸĮ âĸĳâĸĳâĸĳâĸĳâĸĳâĸĳâĸĳ
Ġpq pll
Ġwrite Double
Ġinput ll
âĸĦâĸĦ âĸĮâĸĮ
Min imum
cr y
)? "\
Ġpc s
Ġal ready
Ġlim N
Ġ"- ";
123 4657
66 6
mon ir
cap tu
1000000 103
Ġ<<" ("<<
ĠComp assion
Ġtc n
nb inf
ĠMACRO S
//////////////////////////////////////////////////////////////// ////
Ġsk monir
DB UG
Ġfd m
SU B
has hes
Ġbl ank
Ñģ Ð¾Ð²
Ġ"! (
the ory
na j
ĠRFOR N
10000000 33
10000000 93
Ġremove bit
vb hy
âĸĴâĸĴâĸĴâĸĴâĸĴâĸĴâĸĴâĸĴ âĸĢâĸĢâĸĦ
Ġ20000 10
fh g
fh ds
uv hefro
ĠDebug ging
Â¦ ï¿½
å° ±
/************************ ****
/************************ *****
ell ow
Ġorig inal
2020 20
xor shift
degree s
FIN AL
Ġ//////// /
84 10497
0123456789 1234657
ÐµÐ½ ÑĤÐ¸ÑĤÑĮ
Task A
Ðĵ Ð£Ð¡Ð
âĸĳâĸĳâĸĳâĸĳâĸĮ âĸĳâĸĳâĸĳâĸĳâĸĳâĸĲâĸĳâĸĳâĸĳâĸĳâĸĳâĸĳâĸĳ
âĸĳâĸĳâĸĳâĸĳâĸĮ âĸĳâĸĳâĸĳâĸĳâĸĦâĸĢâĸĴâĸĴ
Ġstar s
how many
100011 7
Ðł ÐĲÐĳÐŀÐ¢Ð¯Ðĵ
ÑĢÐ¾ ÑģÐ¾Ð²
âĸĦâĸĴâĸĴâĸĴâĸĴ âĸĴâĸĴâĸĴâĸĴâĸĴâĸĴâĸĢâĸĦ
!='-' &&(
decl spec
æī Ģ
ĠNE W
âĸĳâĸĳâĸĳâĸĳâĸĳâĸĳ âĸĢâĸĦâĸĦâĸĦâĸĦ
************************** \
âĸĳâĸĦ âĸĢâĸĢâĸĢâĸĦ
jh fjke
Ġaf fiche
æį ¢
ĠÐ·Ð° ÐºÐ¾Ð¼
Ġads gag
//________________________________ ____
âĸĳâĸĳâĸĳâĸĲâĸĳâĸĳâĸĳâĸĳâĸĲ âĸĴâĸĴâĸĴâĸĴâĸĴâĸĴâĸĴâĸĴâĸĢâĸĢâĸĦ
âĸĳâĸĳâĸĳâĸĲâĸĳâĸĳâĸĳâĸĳâĸĲ âĸĦâĸĴâĸĴâĸĴâĸĴâĸĴâĸĴâĸĴâĸĴâĸĴâĸĴâĸĢâĸĦ
âĸĳâĸĳâĸĳâĸĳâĸĳâĸĳâĸĳâĸĳâĸĳ âĸĦâĸĦâĸĮâĸĮ
Mon ocarp
ĠSEG MENT
11010 48411
shortest Path
ĠHe aders
âĸĦâĸĪ âĸĦâĸĦâĸĦâĸĦâĸĦâĸĦâĸĦâĸĦâĸĦâĸĦâĸĦ
(/ )
Ġbh agwan
foi uvhefro
ĠOptim ization
Ġeh foiuvhefro
ä¼ļ è¯»
nil ai
_________________________________________ //
ĠisE q
ĠTAK ES
ctrx ujk
ĠAp un
âĸĢâĸĦâĸĴâĸĴâĸĴâĸĴ âĸĴâĸĴâĸĴâĸĴâĸĴâĸĴâĸĢâĸĦ
/__\| /__\|
Dev ice
//---------- >
ĠSOR RY
24360 69
ĠÐ·Ð°Ð¿ ÑĢÐ¾ÑģÐ¾Ð²
ĠEVERY THING
Ġmistake s
xdt rtfh
yjf ctrxujk
erfer jhfjke
Ġyass in
Ġgft xdtrtfh
âĸĳâĹĲâĸĳâĸĳâĸĳ âĸĮâĸĳâĸĳâĸĳâĸĳâĸĳâĸĳâĸĳ
ĠCARE FUL
âĸĦâĸĪâĸĪâĸĪâĸĢ âĸĳâĹĲâĸĳâĸĳâĸĳâĸĮâĸĳâĸĳâĸĳâĸĳâĸĳâĸĳâĸĳ
âĸĳâĸĳâĸĳâĸĳâĸĢâĸĦâĸĳâĸĳâĸĳâĸĳ âĸĢâĸĦâĸĴâĸĴâĸĴâĸĴâĸĴâĸĴâĸĴâĸĴâĸĴâĸĴâĸĢâĸĦ
Ġmnie j
shdsh fhds
ĠCompassion ate
vbhy jice
8410497 1101048411
01234567891234657 89
ÐĵÐ£Ð¡Ð ¯
âĸĳâĸĳâĸĳâĸĳâĸĮâĸĳâĸĳâĸĳâĸĳâĸĦâĸĢâĸĴâĸĴ âĸĢâĸĢâĸĢâĸĢâĸĦ
âĸĳâĸĳâĸĳâĸĳâĸĳâĸĳâĸĢâĸĦâĸĦâĸĦâĸĦ âĸĦâĸĪâĸĦâĸĦâĸĦâĸĦâĸĦâĸĦâĸĦâĸĦâĸĦâĸĦâĸĦ
âĸĳâĸĦâĸĢâĸĢâĸĢâĸĦ âĸĳ
ĠÐ·Ð°ÐºÐ¾Ð¼ ÐµÐ½ÑĤÐ¸ÑĤÑĮ
Ġadsgag shdshfhds
âĸĳâĸĳâĸĳâĸĳâĸĳâĸĳâĸĳâĸĳâĸĳâĸĦâĸĦâĸĮâĸĮ âĸĦâĸĮâĸĮâĸĳâĸĳâĸĳâĸĳâĸĳ
Ġehfoiuvhefro erferjhfjke
yjfctrxujk vbhyjice
Ġgftxdtrtfh yjfctrxujkvbhyjice
84104971101048411 497
âĸĳâĸĳâĸĳâĸĳâĸĳâĸĳâĸĢâĸĦâĸĦâĸĦâĸĦâĸĦâĸĪâĸĦâĸĦâĸĦâĸĦâĸĦâĸĦâĸĦâĸĦâĸĦâĸĦâĸĦ âĸĢâĸĦ
Ġehfoiuvhefroerferjhfjke hfjke
" ].
$ "
( [
( ','
( ^)
) ]+
* !
2 18
5 24
6 18
7 97
B ST
C ap
E dd
J Z
K eep
L O
L AST
N ER
N aN
R GB
T w
W HERE
[ ((
] ]=(
b io
c op
d cur
d ud
d inic
e cnt
f puts
h ru
i ke
l er
l ight
m ir
m ert
p mi
r ic
s co
t max
t cnt
t ak
w rey
x lo
y m
y min
z he
| _____|
Ñ Ł
Ġ ä¼ļè¯»
Ĥ Ð¡
st y
Ġ< -
re yt
or row
Ġ( {
Ġm cmf
Ġa lf
Ġp st
Ġp mi
Ġc j
Ġc od
ll oc
ret yw
ret wrey
Ġs ag
Ġs len
Ġs rd
Ġv mi
ac ious
Ġb cc
Ġlong s
][ !
][ "<<(
Ġx o
Ġd z
Ġma ps
Ġma lloc
id ay
ar c
Ġr aa
Ġr fact
el f
Ġy olo
Ġre lease
Ġk on
Ġk St
as z
as um
Ġu char
pr ight
pr ior
ĠM u
ĠM FP
can dy
++; }}}
ad Edd
Ġmod mul
Ġe lev
ĠA CR
Ġmax y
10 100
10 50
is lower
cnt A
//// ///
ĠS o
ĠP CASE
ĠP oly
Ġw an
Ġw ww
Ġw www
ĉĉĉĉĉĉĉĉ ĠĠĊ
ĉĉĉĉĉĉĉĉ ĉĉĉĉĉĉĠĠ
mod Inverse
ĠR uby
Ġ// ----------------
+= *
fs df
fs hdsh
Ġst y
Ġch anged
sum y
tr wt
Ġget Node
Ġget Time
Ġget Distance
ĠC IN
ĠC enter
ĠG OLD
ĠD EC
Ġde stroy
ĉĉĉĉĉĉ ĠĠĊ
]] ++,
Ġun s
Ġun known
âĸĪ âĸĳâĸĳâĸĳâĸĳâĸĳâĸĳâĸĳâĸĳâĸĳâĸĳâĸĳâĸĳâĸĳâĸĳâĸĳâĸĳ
âĸĪ âĸĳâĸĦâĸĢ
Ġsum i
get height
li bs
mx s
Ġ100000000 000000
ex cess
Ġ(! ((
Ġsolve Slow
Ġ4 00000
ĠV ec
âĸĴ âĸĪ
Ġchar s
Ġset pri
es he
Ġread n
ĠE very
mn i
Int er
comp ut
|| !
IO U
Ġbase d
swap s
Ġvv pdd
Ġpar tic
Ġdi agonal
alc ase
av ni
Ġbit c
46 9
Ġsh un
Ġright Rotate
Ġleft Rotate
Ġpoint On
Ġ-> ",
Ġnext t
gr undy
Ġth eta
su mp
Ġon l
Ġroot Node
ros sp
ah hfds
sh djk
Ġdbg m
29 23
Ġyy trwt
high gui
ALL Y
big ger
Ġpc g
my multiset
Ġper p
âĸĵ âķ¬âķ¬âķ¬âķ¬
)<<" ]=
)<<" ]["<<(
Ġà¦ Ń
friend s
Ġme me
Iter ations
ear s
Ġfn u
jk shdjk
Ġ-------------------------------- -----
Ġsd hfs
ĠRE ALLY
Ġvp mi
form er
form str
âĢ ļ
âĸĳâĸĳâĸĳâĸĳâĸĳ âĸĢ
ĠST ART
________________________________ ________________________________________________
Ġwin s
ress Iterations
Di visors
vp dd
Ġ|_| ___/
(". ");
hh hh
Ġ40 5
Ġay o
78 164
Ġinter active
Ġ/\ __\
Ġpal indrome
:", ++
cand idates
wy x
tw reyt
Ġputi ii
Ġign ore
Ġapp lication
Ġsee k
Ġinteger s
READ ER
readInt Array
Ġten ll
GET REE
Ġpass ing
Greater Than
Ð¡Ð ĤÐ¡
Not e
Ġ'/ ';
Ġcreate prime
unk nown
âĸĳâĸĦâĸĢ âĸĪâĸĳâĸĦâĸĢ
Ġgenerate Test
exist s
Ġ200000000 0000000
ĠGr acious
Ġgeti ii
Ñĭ Ð¹
06 28
\:\ /:/
Ġputsi i
Ġputsi ii
Ġ/:/ \:\
(% )
lad der
HASH EMESHOON
Com b
hack er
ĠWATCH R
Ġrule s
ĠMUL T
Sa adEdd
________________________________________________________________ ________________________________________________________________________________
âĸĳâĸĲâĸĪâĸĪ âĸĴâĸĴâĸĴâĸĴâĸĴ
ĠENG Z
Ġasdg ahhfds
ident ity
matic ally
udent s
è¡Į ç¬¦
14159265358979323846264338327950288419716939937510582097494459230 78164
sist ent
]=='< ')
Ġcot u
Ġtenp ure
AE IOU
rub o
åħ¥ æį¢
675 123
ĠInitial ize
---------------------------------- +
1288 629
koko made
ĠGre edy
img proc
çĦ ¶
26843 5456
LAST BIT
ÑŁ ÐĴ
Ġä¼ļè¯» åħ¥æį¢
retyw retwrey
Ġraa and
ĠkSt ressIterations
ĠACR ush
fsdf gk
fshdsh fd
âĸĪâĸĳâĸĳâĸĳâĸĳâĸĳâĸĳâĸĳâĸĳâĸĳâĸĳâĸĳâĸĳâĸĳâĸĳâĸĳâĸĳ âĸĳâĸĳâĸĪ
Ġyytrwt retywretwrey
jkshdjk fsdfgk
Ġsdhfs jkshdjkfsdfgk
twreyt wr
Ð¡ÐĤÐ¡ ÑŁÐĴ
SaadEdd in
________________________________________________________________________________________________________________________________________________ _
Ġasdgahhfds fshdshfd
1415926535897932384626433832795028841971693993751058209749445923078164 0628
Ġä¼ļè¯»åħ¥æį¢ è¡Įç¬¦
Ġyytrwtretywretwrey twreytwr
% =(
' },
) ";
- |
3 50
4 18
5 97
5 19
6 000
6 67
7 61
C NT
E IGHT
I RE
L o
L ose
L imit
M em
P layer
S cr
T L
T RI
T ake
T arjan
U C
U AL
V ii
] --
a ded
b v
b w
b ac
b ak
b pow
c signal
d ak
f it
g m
j ha
k g
k j
k ho
k uda
l od
l ash
m w
o ool
p od
p ci
s mn
t q
t res
x v
y ak
Ñ ī
è ·
int s
st x
re pr
or ient
Ġl q
Ġl ent
Ġm ine
Ġm rk
Ġn ights
++ <
Ġp apa
Ġc ero
Ġs int
Ġs df
// ++--++--++--++--++--++--++--++--
Ġv id
it l
Ġ" $$$
Ġt al
Ġb ob
Ġb ach
le afs
Ġx t
Ġ& [
Ġd sk
Ġd fa
Ġf ur
Ġf at
Ġf mx
Ġma ks
ar ing
ar saw
si x
si kom
**** //
__ ]
__ ){
ti ce
Ġ' ));
Ġ' >'
ut h
)) )%
Ġre ver
ĠM K
ĠM FFT
Ġg onna
Ġin a
Ġin ds
Ġ+= (
Ġe ma
Ġe sta
Ġe ither
ĠF FOR
ĠA del
Ġcin ll
Ġcin all
Ġq len
is C
cnt t
ĠP ref
Ġ3 14
Ġmin Val
Ġmin Value
cur val
ast og
ĠR astog
min Num
Ġo e
Ġo m
Ġo br
tr ip
Ġh ard
Ġget t
Ġget dist
ĠC OME
ĠD ir
ĠD hru
âĸĳâĸĳ âĸĪâĸĪ
ĠB at
âĸĪ âĸĴâĸĴâĸĲâĸĮ
Ġcur R
Ġ5 000001
++-- +--
ĠO T
ĠO jha
Ġ\ ____________
Ġout deg
Ġlen b
ĠU pper
Ġread L
]++; }
solve Slow
/// ****
/// =============
Ġ10000 6
sion s
24 443
)+ ")
Ġend DBG
++--++--++--++-- ++--++
Ġ6 6
Ġ6 0000
list a
Ġbu gs
ĠH ave
Ġdx K
Ġdx Kn
Ġdy K
Ġdy Kn
Ġcheck sqrt
Ġsc fl
ĠK hod
seg m
Ġen tr
Ġauto matically
==' }
==' ['
Ġstart DBG
()- (
Ġnext Vector
Ġcol umns
Ġfl w
UT E
ĠW arsaw
pi es
pi va
no va
vv ld
per fect
500 500
ĉĉĉĉĉĉĉĉĉĉĉĉĉ ĠĊ
//////////////////////////////// ////////
Ġ100000 9
ave en
Ġ") ",
','.','.','.','. '},{'.','
power k
po le
())) &&(
Ġ'-') ){}
âĸĵ âĸĪâĸĪâĸĪ
acos l
Ġrd ll
_| \_\
we has
Ġà¦ ľ
Ġwe k
PI CK
Ġstat istics
UN C
state ment
Ġ12 3456
zero es
)[ _];
ä¸ Ĭ
Ġ". ";
Ġ___ )
qq q
ï¼ Ī
ï¼ ī
var iable
IMP LE
Ġ'* ');
Ġve k
la pping
Ġover lapping
Ġimp ossible
bal anced
Ġrandom Engine
VER SE
(~ )
Ġum ll
Ġlet ters
Ġ\| \
load u
Ġmset n
Ġmset inf
Ġskip Bl
IC K
initial ize
vowel s
Ġ"? ";
++--++--++--++--++--++--++--++--++--++--++--++--++--++--++--++--++--++--++--++--++--++--++--++--++--++--++--++--++--++--++--++-- ++--++--++--++--++--++
]=='# '){
âķļ âķĲâķĿ
cloc ale
âĸĵâĸĵâĸĵâĸĵ âĸĵâĸĵâĸĵâĸĵ
Task C
bucket s
30000 4
Ġmakeit string
ran no
Ġmaxim o
ĠTask C
Ġ================= ==///
Ġ\_| /__
Ġ\_| /__\
Ġï¿½ï¿½ï¿½ï¿½ï¿½ï¿½ï¿½ï¿½ï¿½ï¿½ï¿½ï¿½ ï¿½
Suf fix
Suf fixArray
Cont est
face s
Bi WeightedEdge
Ġrad ians
ĠCase Print
ĠÐ· Ð½Ð°
til ki
ĠSU M
!='-' ));
ifi ed
//---------------------------------------------------------------- ---------------
//------------------------------------------------ -----
Infin ity
bet ter
ĠDig it
jh rth
ĠPr aveen
Ġ'| ')
Ġgol den
Ġ\_______ \
Ġ\_______ \\
681 537
âĸĳâĸĳâĸĳâĸĳâĸĦâĸĪâĸĪâĸĪâĸĪâĸĪâĸĪâĸĪâĸĪ âĸĪâĸĪâĸĪâĸĪâĸĪ
FRE IN
aya wehas
Ġcompile s
joint Set
Ġ/| _\
Ġ1007 681537
wah ayawehas
(;; ){
rew qwe
ĠInc rement
Ġ4026 53189
asaxlaj rewqwe
Â§ ï¿½
Ġeasi er
ÐłÐĲÐĳÐŀÐ¢Ð¯Ðĵ Ð£
rossp oint
Ġseek Eof
dak w
//++--++--++--++--++--++--++--++-- ++--+--
Ġtal ent
ĠRastog i
ĠDhru v
piva sikom
ĠskipBl anks
wahayawehas dakw
//++--++--++--++--++--++--++--++--++--+-- ++--++--++--++--++--++--++--++--++--++--++--++--++--++--++--++--++--++--++--++--++--++--++--++--++--++--++--++--++--++--++--++--++--++--++--++--++--++
" ~
' ),_
( <<
( >>
) _.
0 53
2 32
2 97
2 19
7 48
; "<<
< )
> ';
> ()(
A llah
A PC
B search
C reated
D AT
F wdIter
G A
G O
H E
K arp
L evel
N e
P etr
R C
T oken
V asya
] ++]
b ul
e at
e pr
f Max
i ed
i aa
k os
m os
m ate
m om
m usk
n TOTAL
q p
r ing
r min
r ated
r agetree
s dp
s ni
v ase
z q
Ñ ħ
æ £
è Ģ
Ġ ĉĉĊ
Ġ his
de a
st uff
); )
re za
Ġ( *(
ine ss
Ġl ed
Ġa h
Ġa int
Ġn nn
cl os
Ġp C
Ġp g
Ġp ay
Ġc ate
Ġc mod
Ġc div
Ġc erberus
ll en
() ++;
Ġv bool
ac ab
ac ha
Ġb n
Ġb ld
Ġb la
er mat
Ġf all
Ġf Max
Ġf mi
Ġf loop
Ġf Rand
ĠT EMPMOD
Ġr lt
ma k
Ġfor b
Ġk q
set max
]) %=
ĠM ay
ĠM ST
******** */
Ġin F
<<" /
Ġpair ing
ve ci
88 9
ĠN ow
ĠN OL
sy m
Ġe ff
ĠF wdIter
ĠA nd
Ġmax log
Ġq a
ĠS X
;} )
Ġtr ain
Ġ__ _____________
Ġ3 9
ĉĉĉĉĉĉĉĉ ĉĉĉĠĠ
cur st
bu tilki
ĠR UN
ĠL ower
(){ ;}
Ġtyp ec
ss z
tree s
-> _
]] <=
ĠI ct
Ġto k
Ġto tient
âĸĪ âķĲâķ©
âĸĪ âķĲâķ¦âķĲâķ©âķĲâķ¦âķĲâķ©âķĲâķ¦âķĲâķ©âķĲâķ¦âķĲâķ©âķĲâķ¦âķĲâķ©âķĲâķ¦âķĲâķ©
99 3
pre vi
fr st
fr ame
/* ......
vi de
Ġis Ok
oint ment
ld gjdflg
######## ######
Ġ\ __________
Ġ\ _____
Ġ\ ___________
Ġ\ ______________
18 3
)/ __
________ _\
Ġstr cmp
ĠFOR ALL
14 0
Ġac v
ok er
Ġne cess
24 7
last pos
Max Idx
ĠH anit
]!= '\
Ġmn i
Ġvv st
Ġff gf
go o
16 2
ĠIn fo
Ġprint ers
ME TR
Ġvll v
56 1
reverse Edge
ĠW E
Ġas m
RO VE
per i
Ġ20 21
Ġupper bound
ĠDEBUG P
ie y
17 1
req d
new r
ach ine
Ġsu bs
ill a
59 1
print ers
60 3
Ġno ai
Ġaa ea
Ġ32 5
ION S
Ġal phabet
Ġwh et
Ġà¦ ®
80 7
ĉĉĉĉĉĉĉĉĉĉĉĉĉĉĉĉĉĉĉĉĉĉĉĉĉĉĉĉĉĉĉĉ ĉĉĉĉĉĉĉĉĉĉĉĉĠ
Ġmodular Exp
Ġme ans
dy n
Ġpro ceed
dq r
Ð¾ Ð½
'+ '
[" +
Ġboost IO
ĠST V
gg fh
99999999 99999999
mit ted
ĠRe ach
ov ing
Ġer s
ĠHead s
Ġmonth s
ĠCon struct
>{ ",
Ġarea I
Ġuni verse
Al ready
âķĲâķ¦ âķĲâĸĪ
ĠCom illa
ĠSet s
ĠCON D
Head s
Ġ** */
Ġmo hai
ĠBIT S
Ġmatch es
ao ie
oun ded
Vowel s
Ġmu jahidul
Ġdl m
opcrof t
Ġgive s
ĠFL C
______________ /
AZ Y
children Order
ek h
Ġ36 2436069
Ġ******************************** ***************
//////////////////////////////////////////////////////////////////////////////////////////////// /
30000 9
^^ ^^
Ġtw ice
Ġmakeit binary
ĠDE METR
Ġ"} [
extended Euclid
jdflg jl
Ġminim o
Ġvvv ld
999999999999 9983
Ġwind ow
Ġfld ggfh
LOOP VAR
oper Left
ffs ll
//________________________________ __________
wor ks
ino aoie
rty jl
rty rtyjl
dos h
hot el
mut able
Ġ\________ /
Ġ\________ _/
âķĲâķ¦âķĲâķ©âķĲâķ¦âķĲâķ©âķĲâķ¦âķĲâķ©âķĲâķ¦âķĲâķ©âķĲâķ¦âķĲâķ©âķĲâķ¦âķĲâķ© âķĲâĸĪ
Ġfldgjdflg jhrth
Ġfldgjdflg rtyrtyjl
ĠPrime s
Ġser vers
Ġpartition s
Ġ------------------------------------------------------------------------------------------------ ----------
ĠBi Edge
Ġ107 0000000
cod ing
âļ¡ âļ¡
Ġ...... */
fgh jdflgjl
Ġ<<<< >>>>
ĠÑĩ Ð¸
Ġdisapp ointment
isl am
Ġequi valent
rir am
___________________________________________ //
éĿ ¢
2177 28
Every thing
osthen es
|__|| |__||
æŁ ¥
ĠMu jahidul
Ġ\____________ /
Ġstatistics Tree
Ġoverlapping Area
(<< )
(>> )
ĠNOL INT
âĸĪâķĲâķ© âķĲâķ¦âķĲâķ©âķĲâķ¦âķĲâķ©âķĲâķ¦âķĲâķ©âķĲâķ¦âķĲâķ©âķĲâķ¦âķĲâķ©âķĲâķ¦âķĲâķ©âķĲâĸĪ
âĸĪâķĲâķ¦âķĲâķ©âķĲâķ¦âķĲâķ©âķĲâķ¦âķĲâķ©âķĲâķ¦âķĲâķ©âķĲâķ¦âķĲâķ©âķĲâķ¦âķĲâķ© âķĲâķ¦âķĲâĸĪ
ldgjdflg jl
Ġ\______________ \
Ġffgf ldgjdflgjl
Ġnoai aiu
Ġaaea iey
Ġmohai min
Ġmujahidul islam
ĠDEMETR IO
Ġfldggfh fghjdflgjl
Ġfldgjdflgjhrth rl
" */
" (__
' ]>
' +(
( ;;)
) &(
+ ")
- _
2 20
5 000000
6 99
6 39
8 19
8 47
B AN
B ismillah
C eil
F OUR
I A
K on
K azakhstan
L oc
P DD
R ec
S outh
U B
U m
^ =((
` ---'
a ano
c iso
d pr
f oot
f ant
f uture
g ol
h elper
i ma
j s
l arg
m op
m and
n or
n val
s id
t ank
w ill
x e
y on
Ö ±
Ġ 99824
in ates
Ġi le
Ġm os
Ġm itr
Ġm iss
Ġn op
Ġn os
Ġ1 31
Ġp sz
ur a
ur utan
en ea
() (*
Ġ<< (#
Ġs j
Ġs dp
Ġs itr
Ġv ac
Ġv ct
am ax
<< ','
an u
]; });
Ġt q
Ġt am
con io
yp es
us ze
us sian
Ġd os
Ġd summ
Ġf atal
Ġma v
__ ));
ĠT end
Ġr fr
Ġr ff
Ġr az
ma sh
ol ved
ans b
Ġfor u
Ġan si
---- \
)) ];
)) <<"\
Ġg lobal
ble mn
!= ','
Ġ+= ((
nc nt
me io
Ġe aeiai
ĠA sk
ĠA SS
Ġmax d
max e
10 97
Ġq L
Ġq h
Ġq w
cnt l
ĠS EC
Ġop posite
()) ==
cur l
ort ant
64 4
64 01
ĠR em
err ors
ĠL R
ĠL double
Ġo aeiai
sum l
Ġh ence
Ġget Ans
Ġget Diff
11 000
--; ){
]] ])
Ġun it
Ġun defined
ĠI d
Ġto Add
mx v
/* ------------------------------------------
Ġ10 3
Ġ10 34567891
Ġ5 10
Ġfi re
vi ani
Ġis Valid
rep s
Ġout v
Ġlen s
ri b
ĠU F
12 22
12 51
Ġco deforces
tmp x
Ġpi zza
/// -----------------------------
Ġ[ ])
find it
par v
ab e
ab ove
Ġ1000 333
In s
ĉĉĉĠĠ ĠĉĠĠ
di e
di j
aa ei
Ġcomp ut
ĠY Y
pl ay
Ġ100 271
seg min
sub mission
Ġfast expo
Ġ": (";
==' {'
==' ]'
Ġright t
start Time
sc iss
com ment
100000000 000000000
77 1
Ġtest ing
Ġor i
Ġgr ade
Ġinit ially
Ġroot ed
Ġsub t
Ġsub set
Ġinv Mod
Ġat s
ĠMod Inv
Ġ8 0
Ġ20 16
index es
Ġsy m
Ġsu mp
();} };
)? '
Ġnot e
!! !!!
ik ita
pro blemn
Ġbb p
Ġdepth s
we a
we qwe
ĉĉĉĉĉĉĉĉĉ ĠĊ
tm r
123 123
Ġtop run
CH ECK
Ġed dy
sa ver
Ġlength Sqr
mo vl
qq weqwe
Ġdec ay
End Char
oi ae
ãģ ¯
ãģ Ħ
ãģ Į
Ġ10000000 7
MAT RIX
Ġshow ing
70 3
ple s
Ġ300 300
Ð» Ð°
BIT MASK
Col s
ka viani
ja w
Ġ13 10
bot tom
Ġ**************************************************************** ********************************************************************************************************************************
sha jib
0000000000000000 7
Ġca anu
rat osthenes
å¤ ļ
Ġ': ')
Ġ': '\
ĠSOL UTION
ĠSOL VE
ĠLE V
Ġali reza
Ġtoken ize
Trie Node
ĠBe atMeScanf
book s
Ġ88 675123
âĸĪâĸĪâĸĪâĸĪâĸĪâĸĪ âĸĴâĸĴâĸĲâĸĮ
ĠNOT E
ĠWH EN
ski y
Ġae ou
Ġae aa
Ġgraf o
Ġpff l
aw al
Ġ52 1288629
ÐºÐ¾Ð ¹
ĠAlpha Size
OUR CE
å¹ ³
Ġleg end
Ġbuil tin
Ġkr uskal
âĸĳâĸĳâĸĳâĸĳâĸĦâĸĪâĸĪâĸĪâĸĪâĸĪâĸĪâĸĪâĸĪ âĸĪâĸĪâĸĪâĸĪâĸĪâĸĪâĸĴâĸĴâĸĲâĸĮ
Process ing
134 217728
ĠMU K
==') '
kil k
ARR AY
ÐµÑģ Ñı
combin ator
Ġcalcul ator
943 85
ĠPal usze
Ġlat te
Ġdanc ila
Ġsuggest ed
ien oiae
Ġ86 00000000000000007
Ġlag be
Ġtav an
captu res
Ġpartic ular
Ġsdhfsjkshdjkfsdfgk qqweqwe
ĠKhod a
=='} '
Ġwhet her
Kon rad
aano aaei
<<',' <<
problemn ame
Ġ************************************************************************************************************************************************************************************************ ***********/
ĠPalusze k
ienoiae o
Ġsdhfsjkshdjkfsdfgkqqweqwe h
" });
( ____
( âĢľ
+ ';
, (*
4 56
4 17
5 43
7 000
7 51
7 001
8 24
9 41
= [&](
> --------------------
? ";
A uto
A fter
C F
D T
D er
H ow
I FT
J J
K AT
L C
N eg
P ast
T beg
V DL
W O
W VDL
Z I
\ }\
] })
a war
c ub
d in
d um
d anya
g irls
m obius
n Node
n ance
p ap
q sort
r max
r pos
r abin
s max
v z
v ist
v li
| _
Å ¼
å ī
å Ģ¼
Ġ ĉĉĉĉĉĉ
in h
int l
int types
int eresting
Ġ= ==========
Ġ< ->
re min
Ġi ota
Ġl pi
Ġl lll
Ġm ac
Ġm cnt
Ġm ath
Ġm ethod
Ġa k
Ġn val
++ ])
++ ]));
Ġ1 63
cl ang
Ġ{ });
Ġp I
Ġp ast
Ġp Node
Ġc base
** \
Ġ<< ",
// ....................
ac m
Ġint p
Ġt hi
Ġb low
Ġlong p
][ %
ct or
Ġx d
Ġd om
Ġf lex
(" (%
Ġ* >
__ /
ĠT B
ĠT urn
ĠT ake
Ġr os
ma v
el skiy
hi ya
Ġ' &
od ds
Ġfor mula
Ġ2 17
Ġu lolo
ĠM T
Ġg uy
ĉĠ ĉĠĉ
Ġ, (
Ġin version
"; )
ĠN eed
ĠN urstan
nc ase
Ġe at
Ġe GCD
ĠF riend
ĠF ermat
ĠA rea
Ġmax f
Ġmax arr
max val
ke s
dp t
... ));}
cnt c
ĠS ak
ĠS II
ĠP ath
()) %
()) <'
Ġ__ //
Ġ_ ,
Ġmin arr
min Val
min Value
Ġcnt l
Ġh ld
Ġsz b
>= -
pp ets
ĠG L
Ġde puts
mat ely
ĠI ZI
ĠB ISHAL
Ġcur sum
Ġcur Sum
Ġsum B
Ġz aza
ĠINF TY
Ġse ti
32 19
idx s
âĸĴ âĸĪâĸĪ
ĠMAX F
Ġset prime
im n
Ġrep it
12 2
Ġfr l
ĠE uler
man ent
24 0
top ol
1415926 54
last Id
30 6
Ġen emies
Ġfast mult
=- (
14159265358 9
Ġtot flow
Ġprint Ans
Ġleft t
Ġleft Shift
check min
UT AM
qu i
qu ired
ĠW hat
pi vot
Ġth in
ĠQ l
ob r
Ġmy R
bb c
Ġcl amp
+=( _
Ġ8 7
Ġ8 9
Ġ20 14
Ġcan t
ĠIO I
Ġlow est
Ġdis nance
print ln
27 2
27 3
60 5
ĠMP I
ĠMax d
57 0
St ar
St ep
big Child
fac s
rb tree
â¢Ģ â¡Ģ
sm art
sm elskiy
Ġper manent
49 89
'|| _
del ay
]=' (';
Ġà¦ ¯
80 504
De ep
UN COMMENT
ĠÐ ¾
zero cnt
Ġtop o
dq l
Ġ-------------------------------- ---
Ġbr ave
'&& _
51 32
Ġ___ );
]!=' -'){
ĠST EP
ãģ ¾
Ġdiv Ceil
Se q
Ġlol ik
Ġyes r
Ġcp dd
call able
ĠCO M
âłī âłĽâłĽ
Pr od
Ġman acher
Ġele ms
]=='* '){
Ġ100000000000000000 2
Ġlz y
Part s
å° ĳ
fen v
xi mately
);// %
Ġprin ce
ESS ION
lat ively
Ġimplement ed
resh old
å® ļ
æľĢ å¤§
526 000000
526 5022
ĠWH R
Ġà¦Ĩ à¦®
Ġgeomet ric
vol atile
ĠTh ank
Ġisn an
bet ween
/******** *
Ġ"-> ",
ĠEd itor
direct ed
Rem ove
','.','.','.','.','.','. '},{'.','
ĠXor awar
Ġaz az
å¤§ å°ı
-------------------------------------- ///
prog ression
NNN m
term ine
âĸĳâĸĲâĸĪâĸĪ âĸĴâĸĴâĸĴâĸĴâĸĴâĸĴ
ĠGA UTAM
Ġappro ximately
Match ing
')&& _
Ġcour age
Ġ************************************************************************ /
Ġ|_|\___/ _/
Ġ\_\ _|
ĠQue ue
Ġker ker
Ġquest ion
6671 77216
Ġwan na
ĠpointOn Line
Ġ|_|___/ _|
Ġeff icient
ekh ane
jaw aban
(____ _,
KAT KA
ĠSak hiya
" ]+
" ("+
) ....................
* ';
+ __
2 38
3 00000000
3 0001
5 50
6 180
8 17
8 69
D ays
H and
I EN
L AM
L chs
M L
M ike
N orth
P lace
P aths
R amp
S ESSION
T ail
T oday
U I
U GG
U ME
V S
W f
W as
X B
Y our
Y NW
a ig
b inv
c g
c ube
d ft
d fa
f av
g uess
h k
h val
h ab
h Ã¡ly
m er
m set
n gth
o e
p k
p ay
p ick
p eso
r val
r fact
s ans
s ff
s Tree
t g
w id
x ffff
z ap
z xc
{ -
} _
Ä Ļ
æ ĭ
ç ¼
ç ¦ģ
Ġ ĉĠ
ģ ron
in Cycle
re k
or u
Ġl ark
Ġm obius
Ġa long
Ġa mi
Ġn case
Ġn etwork
Ġ1 11111111
Ġp S
Ġp res
Ġp nl
Ġ0 5
Ġc val
for c
ll egal
Ġs vector
ong s
Ġv o
Ġv ans
it es
ac o
ac tic
ac ale
Ġt cnt
Ġb ab
Ġlong inf
ct if
Ġx h
Ġf etch
si que
ĠT oktama
Ġr u
Ġr set
(); _
nt ially
Ġfor v
Ġan w
Ġy et
)) >=
)) ||(
Ġ; ++
.... ///
Ġk n
set A
Ġans b
]) <<"
LL LL
LL ICK
ch o
]= %
]= *
ed u
<<" ::
Ġ) >
ve red
Ġ: );
push ed
IN EER
Ġ/ '
Ġe sse
ĠF aze
ĠF lash
ĠA I
ĠA CT
put endl
Ġmax C
max K
Ġres r
is Eof
... >&
ĠS av
()) +
Ġconst ant
Ġmin c
he h
mod i
mod Type
sert s
Ġ// __
ĠL n
ĠL int
ĠL ink
') +(
Ġst s
Ġst x
sum c
ak s
Ġh ay
il ity
Ġget Bit
ĠC reate
ĠG imn
ĠD nt
ĠD own
Ġcur len
get ans
gs df
)( -
ĠO ik
Ġ\ /__
Ġ\ __,_|
Ġ", &
ip ip
Ġread ln
12 0001
tmp y
ment s
({ "
/// **
/// .....
/// ....................
/// .............
mn Len
Ġne ar
]==' [
]==' >')
)+ _
Ġinclude s
ĉĉĉĠĠ ĉ
','.','. ','
à¦ ¯
à¦ Ĺ
ĠH ELL
tot b
Ġvv vb
root Node
Ġpar allel
Ġdi vv
Ġsi map
Ġ9 375
Ġvll l
Ġbe at
-------------------------------- -----
UT ER
Ġrb tree
ĠW F
Ġsp in
Ġgr asp
200 4
19 0
ie binv
print Ans
___ **/
ly a
AN Y
)), #
40 4
49 3132
Ġrd a
[' ?
Ġà¦ ¹
Str uct
nn n
39 3
Child ren
Ġpro g
Ġ1000000 1
Ġ1000000 2
Ġ200 2
Ġ200 500
Ġlog x
scan Int
AD ESH
ä¸ ¤
Ġ19 493132
Ġ500 179
mo v
rec eni
Ġvp d
Ġinc ert
ure nces
imum Value
Th ough
Ġte k
<_ ##
Ġdr z
multi Count
ĠRe al
Ġbl k
zi um
rect angle
/************** *
Ġ"! "
OO OO
Ġer ace
gen erate
Ġng acale
DI E
ĠSP L
ĠØ ¨
ĠÃ ģron
ĠCom bi
ĠLine s
ĠDEB UGG
shift s
arp ipip
GL ADESH
Ġprim o
Ġ20000 3
TEST CASE
ĠTo oru
DEP ART
!!! ")
Ġ28 178
ĠCOMP UTER
Lazy SegmentTree
å° ģ
Ġtry ing
quest ion
Ġ'{ '
Ġcub r
................... ///
IS LAM
459 1
BG R
ĠPow ered
ĠBit mask
Ġred uce
/******************************************************** **
ĠBy e
718281828 4
Ġassum e
Ġassum es
Ġrequ ires
Ġ97 80504
Ġseive Gen
oa eu
Ġchain s
Ġci map
aeiou AEIOU
AV ES
Ġey e
ĠSC IEN
cen g
ĠNUM TESTCASE
ĠDef Out
VAL UE
ĠWH ITE
face book
Cor rect
ĠÐ½ Ð°
________________________________________________ ___**/
ĠMO LLICK
DIA G
Ġ"< -
å¯ Ĩ
ĠBL ACK
Ġdefinitely LessThan
Ġdefinitely GreaterThan
BE Y
Ġ179 5265022
ĠSe cond
Ġforab d
ITNO G
HASH IS
Ã¡ zium
Com mon
ĠAs sertsCounter
ĠAs serts
Ġtos sed
OPTIM AL
............. ///
620 8
Ġ"| "
Br idge
Ġflo yd
Ġ450 775
Ð¾Ð» ÑĮ
ĠENG INEER
FRE OUT
==') ')
åı¯ ä»¥
osz Ã¡ly
gu ys
ĠUT IL
æŃ ¢
Ġrout ine
ĠSuf fixArray
hel al
Ġgn arpipip
ĠDeb receni
)+"] ")
rout e
1000000000000 14
Ġcharact ers
Ġphy sique
ĠOver flow
Ġ******************************************************** **/
Ġ\:: /
Ġ"& "
Ġtom orrow
ĠMi hÃ¡ly
coup on
SUB HASHIS
//////////////////////////////////////// //
acha ble
Ġnecess ary
ĠÑĩÐ¸ ÑģÐ»
BAN GLADESH
Ġvac io
ĠASS UME
Ġblow n
Ġapproximately Equal
Ġefficient ly
).................... ///
Ramp age
Wf atal
YNW A
aig are
ntially Equal
Ġesse ntiallyEqual
ĠFaze kas
ĠGimn Ã¡zium
ĠOik awa
Ġ\/__ \:\/:/
iebinv oaeu
Ġ19493132 59
Ġngacale iebinvoaeu
DEPART MENT
ISLAM IC
ĠSCIEN CE
ĠENGINEER ING
Ġgnarpipip aigare
# ..
' ]-
' });
' ;}}
) ]-
+ _
+ '){
. ###
/ **********************
2 26
4 14
5 100
5 22
6 14
6 57
8 33
; ~
C a
D AB
E msawy
F J
F ive
H PP
L s
L im
M atr
M agic
O BEY
P lease
S b
S un
T am
T ag
U H
W conversion
a ab
c X
c rt
c rr
f if
g ad
h old
h gt
i si
i Right
j am
r ch
r no
s num
t an
t idx
t bl
v L
v g
v Int
} ].
³ w
» âĶ
Ã Ļ
Ã ³w
ç ´
Ġ urs
in Q
in stack
de compose
Ġi v
Ġ( ___
on ce
Ġl ll
Ġl and
Ġl pii
Ġn in
Ġn ight
Ġn ice
++ ][
Ġp R
Ġp is
Ġc g
for mation
ll el
en s
en able
en sure
() =='
() /(
Ġ> (),
Ġv size
Ġv sort
ac ja
Ġ" ~
Ġ" ),
Ġ" ')
am ask
Ġt cur
Ġt ax
Ġt arg
Ġb j
Ġb ol
Ġb ak
Ġb ounded
con s
le asure
Ġx v
Ġf k
Ġf me
Ġf ight
(" <
id y
type id
ace Mind
ti ck
sp ort
Ġ2 20
Ġk c
as on
Ġu nc
LL EG
ow ego
Ġin ner
Ġ: (
Ġpr d
Ġ| ____
me et
ĠA SH
ĠA gar
put sp
Ġmax lg
Ġmax Len
Ġq p
of it
//// @
ĠS riram
()) >::
un it
un setbit
cur s
cur len
ge tii
min u
min Len
ĠL A
ĠL CP
Ġcnt S
ck max
Ġst andard
Ġch as
Ġh x
Ġget cnt
Ġget dis
ind s
ap top
orde n
") <<"\
MAX Q
Ġun balanced
ĠB K
ĠB OUND
Ġcur Pos
Ġsum y
lo ok
get p
fr og
Ġz m
mx R
sz ych
/* ###############
Ġ10 11
Ġse s
Ġse lect
to x
to ok
red uce
Ġ7 3
Ġ7 01
Ġis Pal
rep A
rep d
', ';
ta xi
100 11
Ġclass comp
Ġstr ToConvert
Ġnum of
ri minal
ĠU INT
Ġpi u
âĸĴâĸĴ âĸĴ
ĠX IV
/// ...................
/// ==========
ĠE n
ĠE uclid
ĠE msawy
Ġne arest
dist inct
az i
(_ .
Ġsort vd
','.','. '},{'
ST RI
di vl
Ġmn ze
Ġcheck er
]* =-
ha pp
Ġsc ale
55 1
Ġpar llel
ĠK UM
Ġadj List
Ġgo go
Ġ9 6
next s
38 77
ĠIn stitution
It em
che ap
Ġprint nl
31 9
Ġpow e
Ġgr undy
RO F
write p
Ġ8 6400
48 48
Ġrem oved
new best
Ġxx i
our s
Ġtime save
AT ERR
1010 1
Ġreverse Bits
pref etch
57 3
Ġrev fact
âĸĵ âĸĪâĸĪâĸĪâĸĪâĸĪ
_| _____|
]=' +';
Ġà¦ °
Ġ') ');
ĠÐ ¸
ĠSQ N
ĠPrint Case
Ġ50 50
Ġcode s
AA A
Set s
Comp ress
Comp ete
//////////////////////////////////////////////////////////////// ///
Ġqu q
ĠRA I
Ġelement Ã³w
Ġqueue d
2000 50
Ġ'? ');
IMP ROVE
Ġxxx x
Ġve ci
]!=' ?')
ãģ Ļ
Ġ'" ';}
multi map
ĠEX TR
war n
RI AL
ĉĉĉĉĉĉĉĉĉĉĉĉĉĉ ĠĊ
ĠCon tain
DI F
Ġdq ll
Ġni Å¼
)<= ::
ĠÃ ł
CC W
Sub Mask
ele ms
bi h
Pr ofile
Ġostr o
Ġro ll
Ð¾Ð ¹
ĠDist ance
>>{ });
Ġax is
Ġ**************************************************************** ****************************************
Ġ**************************************************************** **********************
chain s
//////////// ///--------------------------------
item s
Part Hash
/************************ *
åĪ ¤
150 5
ĠPA IN
weight s
Par allel
Ġthere fore
EX P
ĠRes ult
Ġcompute LPSArray
Sp eed
ĠBit wise
Row s
äº ¤
åĩ º
âķ¬âķ¬âķ¬âķ¬âķ¬âķ¬âķ¬âķ¬ âķ¬âķ¬âķ¬
Ġ97 15
Ġ********************** /
vot er
30000 7
QQ QQ
Ġ'] ')
Ġctr l
Ġcar i
Ġflip bit
Ġcoll iner
ĠFFT M
ĠMO VE
Weighted FlowEdge
ĠPRE V
gy v
Ġtour ist
ĠWor ld
234 5
EST RIAL
ä¸Ģä¸Ģ ä¸Ģä¸Ģ
ĠHoss am
############### */
Ġmen or
ÑĤÐ¸ ÑĩÐ½
Pe aceMind
Ġzer owego
ä¸į è¦ģ
Ġunt il
Ġ'\" '
Ġ'\" ';}
fli ct
ĠMU OI
ĠChar an
sser tion
hol a
ĠGA IN
ĠRotate CCW
ĠUT P
uev ue
Ġ--------------------- ///////////////--------------------------------
Reverse NumberIterator
Ġmand a
ĠSto res
ĠEMP IRE
//////////////////////////////////////////////////////////////////////////////////////////////////////////////////////////////////////////////////////////////// ////////////
4857 6
zb ÄĻ
numer acja
Ġlic zbÄĻ
format ter
Ġmniej szych
Ġ<- ###############*/
Ġom ega
ĠMUK UL
ÐµÑģÑı ÑĤÐ¸ÑĩÐ½
Ġinversion s
<<":: "<<#
ĠACT UAL
ĠDEBUGG ER
Ġ"<- ",
Ġ"') "
ĠASH ES
ĠAgar wal
ĠSriram ula
/*############### ->
STRI KE
ĠKUM AR
ATERR ESTRIAL
ĠEXTR ATERRESTRIAL
Ġ************************************************************************************** *
ÐµÑģÑıÑĤÐ¸ÑĩÐ½ Ð¾Ðµ
! ");
" ],
" &&
# ',
) _
) }));
- %
0 39
1 53
3 66
3 12345
4 88
4 16
4 48
5 88
8 23
8 67
: ';
< /
= >
> (-
? !
B W
B urn
B oot
C r
D aniel
E uclidean
F oll
J HELPER
L int
L ucky
M D
M is
N i
O cc
R P
S M
S i
S y
S parse
U toD
W indows
\ __
^ \
_ {
a iz
c am
c arp
d raft
i an
j sp
j ed
l ing
m ol
n se
n as
q m
r G
r q
s j
s os
s ad
s un
s low
t ool
t me
u Query
v q
v il
w av
x j
x z
y z
{ '.','.','.','.','.','.','.','.','.'},{'.','.','.','.','.','.','.','.','.'},{'.','.','.','.','.','.','.','.','.'},{'.','.','.','.','.','.','.','.','.'},{'.','.','.','.','.','.','.','.','.'},{'.','.','.','.','.','.','.','.','.'},{'.','.','.','.','.','.','.','.','.'},{'.','.','.','.','.','.','.','.','.'},{'.','.','.','.','.','.','.','.','.
Ñ Ĩ
æ Ģ
é ķ
Ġ ing
Ġ ðŁĴ©ðŁĴ©ðŁĴ©ðŁĴ©ðŁĴ©ðŁĴ©ðŁĴ©ðŁĴ©
in ff
de scr
st upid
re str
Ġ( :
Ġ( ^_^)
Ġl j
Ġl pos
Ġl ie
Ġm er
Ġm max
Ġa ib
Ġn ic
00 3
Ġp F
Ġp se
Ġ0 3
Ġc ta
ur o
() };
Ġs vy
ong ly
// [
Ġv Int
it on
Ġb readth
le ader
end d
Ġf ine
", *
al hot
si er
Ġj e
os h
ĠT oken
Ġr cnt
ma a
hi l
Ġ' ;};
Ġfor pos
Ġfor bid
Ġy d
)) ?
back ing
Ġre versed
um b
Ġk ir
ĠM alhot
Ġg b
Ġg m
Ġ<= '
ch ash
"; */
ĠN ew
ĠN ONE
ĠN EXT
Ġpr oc
Ġpr cont
Ġe sq
long int
Ġmax Count
max A
Ġq pll
dp th
is Good
ĠS AD
ĠP C
ĠP loadyFree
;} );
res ource
un vis
ag ya
Ġit t
Ġ3 10
ist ic
cur one
ĠR ect
ĠR OW
ĠR eturns
ĠR toL
ge s
ĠL node
ĠL toR
') ]
') ++
') ||(
âĸĳ âĸĪâĸĪ
il y
ap s
11 2345
ĠD ij
ĠD toU
ĠD aniel
") ){
Ġcur val
Ġz ub
th ir
mx pos
Ġse l
Ġse eing
to k
to o
to str
*( *
Ġfi sier
co v
Ġpos r
Ġ4 75
ĠV er
ĠMAX LEN
Ġset up
Ġset BufSize
now pos
ĠFOR K
14 80
ĠU p
ĠU toD
Ġread s
buil t
sse s
tmp c
({ });
20 13
ction ary
mn l
97 46
]==' :
1000 20
Ġend x
Ġabs v
58 0
(_ =
Ġdist ans
à¦ ª
à¦ ļ
Ġfind K
Ġvv il
Ġvv li
Ġvv vvl
Ġvv vvb
Ġcomp aring
Ġpar areru
Ġhi m
Ġsi mp
ME MS
RE T
1111 10
Ġnext s
Ġscan l
Ġscan ll
Ġscan ii
Ġscan iii
Ġscan lll
gr ap
qu ad
Ġth ose
link s
Ġmy set
PER ATOR
vv vl
vv vb
Ġbegin ing
new X
new x
new Buf
Ġ"/ ";
Ġdis able
Ġpt data
Ġ100000 2
28 0
Ġsf c
Case No
br acket
]]= '
po si
Ġbuf Read
fa fo
Ġev il
iz ing
49 3
ai se
De lete
Ġme ssage
ui se
ĠFAST INOUT
à§ĩ ,
ĠRE VERSE
Ġfunction al
Ġpo le
Start Point
Bit set
ĠreadInt Table
âĢ ī
move C
ðŁĴ©ðŁĴ© ðŁĴ©
EN ER
Ġsa id
BS Bandme
Di vi
ĠreadChar Array
ĠreadChar Table
ĠIT ER
Ġ2000 100007
Ġwr v
Ġum n
Ġum x
Ġcum sum
36 777216
42 11
Ġprim itive
so me
)| !
ANS WER
SH OW
ðŁĴ©ðŁĴ©ðŁĴ©ðŁĴ© ðŁĴ©ðŁĴ©ðŁĴ©
ell s
Ġcontainer s
Ext ended
ĠStr ings
EX EC
Ġmf pow
AAAA AA
Dig its
ĠreadDouble Array
ĠRa hil
ĠreadLong Array
Ġ987 620
ek stra
ĠâĢ ĺ
ĠLE AVES
Ġko ita
fnd nas
vot es
ĠĠĠ ĉĠ
ĠĠĠ ĉĠĠ
Ġmakeit base
ĠreadString Array
Ġround s
977 4591
Field Mod
Ġsig t
Ġreg ion
Ġ37 97
CR IT
kh okharnikunj
special ization
FFFFFF F
Ġbg m
ĠCase No
Ġ78 978978
Ġ78 9746
vol ume
ðŁĴ©ðŁĴ©ðŁĴ©ðŁĴ©ðŁĴ©ðŁĴ©ðŁĴ©ðŁĴ© ðŁĴ©ðŁĴ©ðŁĴ©ðŁĴ©ðŁĴ©ðŁĴ©ðŁĴ©
887 4989
ĠOn ly
671 9774591
Ġà¦ı à¦°
Ġdm g
ĠSTR ESS
'}},{ {'.','.','.','.','.','.','.','.','.'},{'.','.','.','.','.','.','.','.','.'},{'.','.','.','.','.','.','.','.','.'},{'.','.','.','.','.','.','.','.','.'},{'.','.','.','.','.','.','.','.','.'},{'.','.','.','.','.','.','.','.','.'},{'.','.','.','.','.','.','.','.','.'},{'.','.','.','.','.','.','.','.','.'},{'.','.','.','.','.','.','.','.','.
Ġide al
978978 97
//================================ ====
ĠOne DimDice
MO DD
Ġads fndnas
ĠLazy SegmentTree
PERF CRIT
lu zhi
Ġsor va
339 8874989
Ġdima sh
ĠCompress or
repe at
online judge
ĠCur rent
'<= (_=
Ġà¦¬ à¦²
seti k
Ġcir cles
Ġfresh max
Ġfresh min
204 58
Sl ope
å¿ ĺ
ĠValue Type
Ġhapp en
DIS ABLE
hij ou
ĠTwo DimDice
ĠNeg ative
Ġima ge
Ġrever ce
sni ppets
ĠReach Able
6180 3398874989
)+_ -'
4848 20458
Compress or
Foll ow
aiz u
éķ ¿
ĠðŁĴ©ðŁĴ©ðŁĴ©ðŁĴ©ðŁĴ©ðŁĴ©ðŁĴ©ðŁĴ© ðŁĴ©ðŁĴ©ðŁĴ©ðŁĴ©ðŁĴ©ðŁĴ©ðŁĴ©ðŁĴ©ðŁĴ©ðŁĴ©ðŁĴ©ðŁĴ©ðŁĴ©ðŁĴ©ðŁĴ©
descr iption
Ġnic hijou
Ġsvy azi
ĠMalhot ra
PERATOR S
fafo asp
Ġ987620 51
Ġ78978978 97897897
Ġ789746 6719774591
Ġadsfndnas fafoasp
luzhi led
61803398874989 484820458
# %
# ;
( ^_^)
( <)
) ]--;
. |
. ______,
. __________,
. _______,
1 32
4 64
4 12
5 13
5 25
5 88888
6 8888
6 8888888
6 888888
9 54
: ");
< ';
= ///
> //
A UT
A ssertion
B ic
B ER
B LOCK
C Y
C ause
E rase
F a
F ou
F inal
F UNC
H s
H ET
H LDecomposition
H opcroft
I mag
I YA
I dea
J u
L A
L B
M onth
O PERATORS
P X
R F
R et
R EB
S STR
T ot
T ie
T IL
U sed
Y R
_ ++;
` "
a abb
b ss
b ro
b eta
c nk
c inttypes
d am
f m
f loop
l if
m ll
m min
n V
n ans
n et
n sig
o on
o ing
p sz
p oker
r am
r time
r ats
r Der
s ot
s len
s ongs
t z
t id
t num
t elapsed
u os
v I
x U
x it
y rev
z t
{ "
} );}
Ð ļ
æ Į
Ģ æŁ¥
in ode
in ation
st s
st node
re quired
Ġi mask
Ġ( )(
Ġl um
Ġl oud
Ġm min
Ġn ob
cl ink
00 5
Ġ{ \
Ġc urn
Ġc tm
for up
for sn
en ode
clu de
Ġs ays
ong oing
// |
// ............................
Ġv min
Ġv pt
.. "+
Ġ" *
Ġ" <<"
an h
Ġt g
Ġt ac
Ġt hs
Ġb fr
ct m
Ġx hi
Ġd am
Ġd mk
Ġd lt
end y
Ġf h
Ġf ul
Ġf arthest
(" :
al th
ar ation
__ (#__
type c
op rime
str t
ĠT ip
Ġr For
Ġr fore
Ġr forl
nt er
el ing
Ġy da
)) )-
)) <<(
Ġ; }}
Ġk night
Ġans v
Ġu mp
pr r
âĸ ħ
]) >(
Ġ% %%%%
Ġg or
ch ck
ch ld
Ġ&& __
ĠN g
ĠN err
ĠN TT
Ġpr actic
IN DIA
Ġmod Type
Ġ/ .
line ar
Ġe yes
ĠF O
ĠF ound
ĠA B
ĠA AAAAAA
max L
max prime
dp ar
is P
is on
is Processed
... "+
cnt B
pb c
ĠS l
ĠS qr
ĠS IMPLE
ĠP f
Ġtr an
ag a
Ġ3 37
Ġar ithmetic
Ġar clog
Ġar cnext
Ġar chash
Ġar clink
Ġmin u
Ġw x
Ġw rd
ist i
ĠR B
Ġdp l
err y
Ġcnt A
Ġcnt t
pos In
pos itive
Ġget real
ap us
ĠC I
ĠC NT
ĠG ame
ĠG ulikov
OR KEE
ĠD iff
ĠD RI
") >
ĠI IIIIIIII
â£¿â£¿ âł¿
â£¿â£¿ â¡Ł
ĠB Z
Ġcur H
Ġcur Ans
lo b
ent um
/* -----
Ġis Processed
Ġpos l
Ġ4 5
ĠV lad
ĠO ME
Ġout p
Ġout puts
Ġout File
ĠMAX C
ĠMAX Q
15 77
GS BU
100 271
Ġ", *
Ġrep pr
Ġ] --;
Ġmx ze
Ġpre last
Ġread d
...) ::
edge Cnt
/// ---------------
******************************** ***************/
20 1000
Ġfr st
>( _
ep i
maxn å¤§å°ı
24 3
88888888 81
az m
âł °
âł Ĥ
ab el
â£¿â£¿â£¿â£¿ â¡
Ġdb r
ĠH ET
ĠH BASE
ĠH LDecomposition
]* ((
Ġhe ar
make it
Ġex cess
Ġex ception
Ġsc al
################ #####
read Word
Ġcomp ression
ĠY ear
root direct
pl ots
ĠK OK
Ġ100 9
Ġbit mask
16 16
16 71
ĠIn sert
Ġ": ";
Ġprint L
start x
Ġfl owers
Ġnew Len
100000000 1
Ġpop Cnt
ater restr
Ġsp e
Ġmy cout
mi v
Ġas signed
Ġas fds
Ġat l
________________ ________
________________ ____________
Ġ8 1
48 9
hash s
new Y
Ġforn r
pq min
Count er
................................ ...................
Ġvl ii
Ġver ti
br anch
%% @@
40 96
po ses
Ġnot end
Ġnot prime
â£¿â£ ĩ
NN Y
000000 5
Ġal tern
Ġrd m
del t
ĠZ XC
Ġcomplex ity
ĠJ LOCAL
ĠJ ava
ump s
66 777216
ny b
â¢¿ â£¿â£¿â£¿â£¿
ĠPrint Writer
ks dh
Ġmodul uos
Ġpro j
20000 01
Ġ1000000 7
Ġbr ing
AD AR
Ġ500 100
____________ ,
____________ _.
Scan Reader
Ġsk in
Ġpo ses
IM AL
Ġdif fs
AB S
ĠUN TIL
Ġrun n
400 100
the st
ĠFast Power
ĠSt asz
==" -
ĠCode Hash
Ġfunc iton
Al ways
>>>> >>>>>>
Ġ2000 227
88888 6
Ð¸ Ð¹
ÑĢ Ðµ
####### :
Ġ'(' ){
'][ '
bi edge
ka ida
Op eratorMonoid
âłī âł»
â£¤ â£¶
Ġuti lities
â£¶ â£¤
Tr iple
dj s
Ġbel ie
uc ing
Ġ'+ '){
Ġsw p
Ġ201 3
Ġturn ed
ĠPA GH
âłĪ âł»
union rule
ph ant
Ġopt L
Ġopt R
500000 5
Ġthr ust
___________ .
ä¸ª SB
Print Writer
Ġmis match
SOL VE
ĠâĢ Ķ
Ġ36 00000
ĠON PC
ECT ED
Big mod
ÐµÐ½ ÑĮ
oz yrev
Is Less
inal ity
Var iable
Ġsig ma
show point
adr uple
åº ı
ABC ABAB
Ġtu hla
Ġwon der
ico grap
Ġà¦ķ à¦°
Ġ------------------------------------------------ -
Ġtrail zero
ĠMO DD
Ġextr aterrestr
Ġà¦ı à¦ķ
asi ck
Ġ*** ///
ĠRO ORKEE
Ġdistinguish ing
$$$$$$$$ $$$$$$$$
____________________ _.
%%%%%%%%%%%%%%%% %%%%
%%%%%%%%%%%%%%%% %%%%%%%%%%%%%%%%%%%%
äºĨ æ£
â¡¿âłĭ âłģ
Ġtogg eling
Ġcard inality
mut ex
.________________ __________
))+" .."+
âĸ²âĬĻâĸ²âĬĻ âĸ²âĬĻâĸ²âĬĻ
Ġpreprocess or
)+" ..."+
Ġ'^ ')
ĠAP Util
bab era
628 0
Ġdin am
âłĭ âłģ
Ġcool er
=='(') ++
Connect ed
ĠScan Reader
ĠBin Search
ä½ł ä¸ªSB
arv agya
åĨį å¿ĺ
(',' ));
Cap acity
Ġentr ies
Ġled zero
pap er
qui et
Prod uct
ĠSav ani
ĠÑĩÐ¸ÑģÐ» Ð¾
Ġnin ja
ä¸įè¦ģ åĨįå¿ĺ
Ġdisable s
BSBandme ä½łä¸ªSB
Bic arp
ĢæŁ¥ maxnå¤§å°ı
Ġ%%%%% %%%
Ġpractic ally
ĠIIIIIIIII I
ĠOME GA
GSBU NNY
rootdirect ory
ĠStasz ic
ĠPAGH ADAR
icograp hi
Ġextraterrestr ial
äºĨæ£ ĢæŁ¥maxnå¤§å°ı
ä¸įè¦ģåĨįå¿ĺ äºĨæ£ĢæŁ¥maxnå¤§å°ı
ä¸įè¦ģåĨįå¿ĺäºĨæ£ĢæŁ¥maxnå¤§å°ı äºĨ
& ~(
' "
- ï¿½
/ ~
2 10000
2 58
2 103
4 51
5 46
8 97
> );
A y
A ny
B L
B el
B egin
C i
C arry
C GL
G ame
G ENER
H OR
H ave
H eight
I llegal
L MS
N P
O ther
R l
R untime
T Vector
U MP
V LL
W ork
Z ING
^ "
_ ][
a ho
b ns
d oc
e ma
e lev
f arthest
g left
i inf
j um
j dx
k b
k Max
l ool
n Child
p pb
r az
s us
v ct
w x
y ellow
} /*
¢ Ã¥Ã°
« Ã¥ÃŃ
® Ã²
¯ Ã¥ÃŃ
Ã ¼
Ã ªÃł
Ã ¯Ã°Ã®Ã
ç ®
è ĥ½
í ķ
Ġ yp
Ġ âĸĪâĸĪâĸĪâĸĪâĸĪâĸĪâķĹ
re r
re versed
on y
Ġl am
Ġl val
se cs
se ats
Ġm h
Ġn ap
++ ]='
Ġ1 10000
Ġ1 9999999999999999
cl asses
Ġp ans
Ġp ta
Ġc up
Ġc rr
Ġc rs
for a
() )));
-- ]=
Ġs al
Ġs uper
it al
Ġt ct
Ġt ears
Ġb v
Ġb at
con seq
at om
][ '
ir a
le g
le l
Ġx solve
Ġd od
Ġd sum
Ġf q
(" ----------------
al fa
ar iqul
mp r
ĠT ariqul
Ġr time
Ġr vv
ma ap
(); \
el t
hi a
sp e
sp os
od y
od dpar
Ġfor ce
)) &&(
]) ]=
ch t
can ds
Ġin cr
]= ')';
<<" @
Ġpr ll
Ġ| --
ĠA i
ĠA MA
Ġmax Tree
max I
max xx
10 23
10 28
is ations
ĠS a
ĠS al
ĠS AA
ĠS quare
ĠS arvagya
ĠP ii
ĠP ham
;} \
Ġit h
Ġmin cost
Ġmin Tree
Ġmin Len
........ .
Ġw ow
nd x
min max
min Dist
Ġcnt p
Ġo it
Ġst or
Ġch o
Ġch add
sum mation
tr on
Ġh d
Ġh oc
ĠMOD A
arr C
Ġ(( !
pp ow
Ġget Pos
ĠD ays
ĠD UMP
MAX A
]] %
]] ]--;
Ġto B
Ġto read
len g
all ow
Ġsum odd
Ġsum even
get F
get id
get val
Ġ'\ \
mx f
Ġse gn
Ġ5 21
Ġmem ory
count bit
Ġ(! (*
Ġad a
Ġad y
sk df
ce pies
ĠV an
53 4211
ro z
18 09
26 61
Ġstr amos
es q
es sel
ĠFOR STL
Ġpll ll
ĠU LONG
Ġread ing
12 5
12 00010
Ġco lli
Ġac m
Ġac curacy
>( '
mn b
Ġss wap
Ġ. --.
par u
tag L
ĠH anh
length s
Ġlast i
AC MP
Ġdi ct
Ġ100 1000
sub set
38 44
998 6280
Ġprint clock
check ed
Ġscan ln
ĉĉĉĉĉĉĉĉĉĉĉĉĉĉĉĉ ĉĉĉĉĉ
oot h
sc sc
ĠW OR
com ing
100000000 0000000
ath ly
Ġth ough
ob e
ob ra
]< '
sol d
Ġrem oving
be kid
Ġerr ors
Ġ30 5
Ġrng b
29 5
key s
hor izontal
Ġdo i
br ute
ĠMax Heap
ALL AH
Ġtt m
FILE NO
Ġinsert er
Ġli es
St at
Ġdel ay
Ġ("% .
pw s
47 1
49 0
Ġnormal ization
depth s
Ġà¦ ħ
**************************************************************** ***********/
Ġï¿½ï¿½ï¿½ï¿½ï¿½ï¿½ï¿½ï¿½ ,
Ġï¿½ï¿½ï¿½ï¿½ï¿½ï¿½ï¿½ï¿½ .
VI S
Ġme et
level s
61 53
side s
eve par
ĠMin Heap
Ġ1000000 5
Con an
Ġtwo L
ĠTR vi
ĠTR vii
ĠTR msi
MIN V
Ġlevel s
two L
bin s
bin der
ĠVA MP
Comp ut
Re quest
5555 55
Number s
Th at
gg le
Ġalloc ation
400 1000
ia o
ĠBig Integer
Res ources
FAST INOUT
Ġfiles dat
ĠSH ORT
70 679
KEE P
)&& ((
Ġqq memset
ĠÃ ±Ã²
ĠÃ ¤Ã¥Ã
ĠÃ ®Ã²
Ð¸ Ð½
ÑĢ Ð¾Ðº
IG N
call y
cu bs
sw p
over take
ĠAdd Edge
Ġequal s
Ġnod o
ĠDe athly
enw s
addEdge s
Ġany more
Ġprod ucing
Un signed
short cuts
Ġreq d
Ġoverflow s
cat s
Ġ'_ ')
Be atMeScanf
Ġsome one
Ġdeep en
_## _(
part s
Sp ecial
Ã¥Ã ¯Ã¥ÃŃ
FIN ITE
//////////////////// ///
pe ak
BU FSIZE
vf w
Ã² Ã®Ã
âĸĵâĸĵâĸĵâĸĵ âĸĵâĸĵ
Ġassum ing
vect o
ĠĠĠ ĉĉĉĉĉ
Is Greater
Ġcontain L
Ã®Ã ±Ã²Ãł
YY YY
Ġ30000 7
Ġ200000000 5
131 3
æľĢ å°ı
Sol ver
Ġ228 228
Ġdecl aration
3482 534211
ï¼ģï¼ģï¼ģï¼ģ ...................................................
ande ms
men or
neigh bor
Optim isations
Go al
Ã¨Ã ¿
Ġter ms
ĠALPH A
Mon ster
]=='(' ){
Ġproper ty
Binary Operation
suc cess
zzzz zzzz
ffffffff fffffff
ĠTe chn
Ġbro ken
Ġsuc cess
Dan ik
ĠÑģÑĤ ÑĢÐ¾Ðº
Ġ100011 1222
Bo ard
Ġsam o
Ġcombin ation
Ġmal ta
Ġexact ly
14159265358979323846264338327950288419716939937510582097494459230781640628 6208
Lo op
Ġ314 15
<<"/ "<<
Ġtrain ing
ĠCOM ES
ĠOverflow s
ĠDij ekstra
Ġful fill
ĠâĢĶ âĢĶ
icographi cally
GENER AL
¢Ã¥Ã° ÃªÃł
«Ã¥ÃŃ Ã¨Ã¿
Ã¯Ã°Ã®Ã ¢Ã¥Ã°ÃªÃł
Ġ19999999999999999 97
atom ic
ĠAMA ZING
9986280 3482534211
Ġfilesdat sol
ĠÃ±Ã² Ã¥Ã¯Ã¥ÃŃ
ĠÃ¤Ã¥Ã «Ã¥ÃŃÃ¨Ã¿
Ã²Ã®Ã ª
Ã®Ã±Ã²Ãł Ã²Ã®Ãª
141592653589793238462643383279502884197169399375105820974944592307816406286208 99862803482534211
ĠÃ±Ã²Ã¥Ã¯Ã¥ÃŃ Ã¼
14159265358979323846264338327950288419716939937510582097494459230781640628620899862803482534211 70679
! "<<
! ^^
' @
' ')
' ))%
* __
- ...
3 46
4 46
4 13
6 16
6 38
8 99
9 24
: +
: /__/
= ')
> */
A gas
B uck
C ES
C UR
D on
D if
D ates
G M
H AH
I tr
K NIGHT
K HAH
M K
M et
M ish
O li
P W
P om
P HI
R IT
S K
S imp
S OURCE
T MP
W ave
[ ';
] &&(
a age
b tree
b oo
b oss
d sum
d ml
h c
h jdk
h oba
h umps
i ad
i har
k q
k az
l ch
l ang
m ic
m ssg
n es
n oc
n allt
r dp
s min
s all
t sum
u res
u hn
v aild
y B
} ******/
~ _
® µ
Ð ¶
æ ®µ
ç İ
Ġ âĸĪâĸĪâĸĪâĸĪâĸĪâĸĪâĸĪâķĹ
st ory
Ġ< _
re i
re nce
Ġi c
Ġi pow
or a
Ġl el
se et
Ġm z
Ġm str
Ġm iv
Ġm ssg
Ġa mid
Ġa gh
Ġa ko
Ġa lice
Ġa kt
Ġn V
Ġn id
cl l
Ġp Query
Ġc w
Ġc map
Ġc entr
ll a
ll abs
ur istic
en a
() +(
Ġs chool
// ______________________
Ġv ot
Ġv ist
it o
<< <
Ġt or
Ġt up
Ġt len
Ġt own
Ġt nm
Ġb ul
Ġb templ
at ka
at ively
][ *
][ -
le ap
Ġx e
Ġd ur
Ġf key
(" )
ar ds
si xt
type index
op ed
Ġj skdf
ĠT an
ĠT ima
Ġr dp
Ġr sq
Ġr oman
el o
ans form
Ġfor bits
Ġfor matrix
Ġfor wyx
Ġ2 500
Ġan other
Ġy v
)) ]
Ġre member
um bc
Ġk d
Ġk m
Ġk id
Ġans B
]) >=
Ġg sh
ĉĠ ĉĉĉĉ
ch est
Ġ, '
]= '\
ed Tree
Ġ) "
Ġ) <<
tie s
(), '
ve s
Ġ: ^)
ĠN ET
nc ur
)); //
me an
Ġ/ **
Ġ/ :/__/
Ġe mb
ĠA DEL
max width
Ġdouble C
10 3877
ode l
Ġq ik
rt hr
Ġres olve
is Digit
pb ell
ĠS he
ĠP o
ĠP IN
ĠP AR
ĠP ause
Ġfirst out
Ġ__ (){
ag es
Ġ3 8
Ġ_ /
Ġmin m
Ġmin Time
Ġmin Dist
Ġw orth
mod Mul
bu c
ĠR ED
**************** *****/
**************** **\
Ġval type
min cost
ĠL C
ĠL IS
Ġcnt R
Ġcnt v
ck df
Ġmp s
Ġ"<< __
ig ri
Ġh ad
ĠMOD IK
Ġ|| (
Ġ(( -
Ġget ch
Ġget Cnt
Ġget Hash
Ġget Next
ĠC ODED
ĠG R
]== (
ĠD el
Ġde visors
Ġde termine
double s
ds jks
Ġto Str
âĸĪ âĸĳâĸĳ
lo ool
get int
fr ag
ent a
th y
mx L
/* <<
Ġ10 403
to int
Ġ5 000000
Ġ5 00001
Ġinf n
)% __
Ġ4 31
Ġ4 000000000000000000
Ġ4 270
ĠV ar
ĠO k
ĠO s
ĠMAX LOG
Ġ] ");}
Ġmx d
ĠU ihar
are n
stat s
1000 4
<<' [';
]={ "
fast Scan
par s
ab bc
Ġlo oool
Ġbu c
à¦ ¡
cc al
Ġcheck power
tot a
tot alcase
Ġfind It
Ġfind Parent
ĠY OU
Ġdi k
Ġ100 111
av lj
sub t
<<"= ";}}
Ġfast Pow
ĠIn s
Ġsh ining
================ ==///
))) ++
Ġprime factor
Ġnext SubMask
gr ba
sc oped
ĠW i
ĠW RIT
Ġth u
ob b
Ġmy Power
Point Segment
per t
14159265358979323846 2
Ġ31 1097
Ġ8 3
query Range
ON DS
Ġ20 2
Ġupdate Range
vl ckdf
17 0
do in
new str
new name
/** <
/** ------------------------------------
/** -----------------------------
Ġbin om
vs v
Ġ30 10
Ġ'. '));
Ġyy i
Ġ(* ((
Ġdo in
1010 1010
Ġreverse Edge
mm cz
ls jdfj
St udents
big child
Line Intersection
maxN um
Ġmi j
Ġline ar
cy clic
89 1
47 3
Ġedge Count
log f
âĸĵ âĸĪâĸĪâĸĪâĸĪâĸĪâĸĪâĸĪâĸĪ
ud oprime
Ġwh y
we ep
bad s
Ġupd ation
LI P
Ġmat ter
Ġme io
Le aves
ks dm
Con sole
300 3
bo y
ĠTR EE
87 1
Ġlg put
sl v
à§ĩ à¥¤
)> {
//////////////////////////////////////////////////////////////// ///////////////////////
Ġfx s
FFFF F
ĠMA KE
âĢ ¦
distance s
Ġcand idate
'' -.
Ġford bits
Ġbits ll
Ġ'# '){
Se quence
>>> -------------------------------
Ġ"# ";
647 09
ĠSH IFT
Ġ2000 50
Ġni ma
ys rthr
The se
âĶĢâĶĢâĶĢâĶĢ âĶĢ
âĶĢâĶĢâĶĢâĶĢ âĶĢâĸĪ
Ġcum u
5000 50
?" \
ï¿½ï¿½ï¿½ï¿½ï¿½ï¿½ï¿½ï¿½ ï¿½
Ġeq Max
Ġeq Min
Ġ20000 6
ĠPro ject
RR R
Ġspecial ization
Ġevery where
Ġ111 2103
fre quency
Ġheap ify
//////////// //
bel ow
ĠRead ing
Ġturn s
ANG LE
Ġ{{{ */
3000 5
]=='? '){
ban yak
Ch ris
CO MP
final s
Ġeuclide an
ĠTr iple
ĠON E
Ġrot ated
Ġprintv pair
210 6
PS I
pal in
654 3219
Ġko eu
Task B
åħ ĥ
olog y
cor rect
ĠTask B
ZZ Z
ZZ ZZZ
XXXX XXX
Ġrad ix
Ġ500000 5
ĠSh ift
avail able
å¯ ¹
Ġbucket Offsets
{} ());
Ġdecl eration
ĠNE AL
ues day
------------------------------- **/
æĪ Ĳ
///================================ ==================///
------------------------------------------ **/
âĸĪâĸĪâķĶâķĲâķĲ âķĲâķĲâķĿ
UP D
transposed Edge
Ġ---------------------- >>>>>>>>>>
Ġ"... "
Small er
Element s
ĠCy cle
@@@@@@@@@@@@@@@@@@@@@@@@@@@@@@@@@@@@@@@@@@@@@@@@@@@@@@@@@@@@@@@@ @@@@@@@@@@@@@@@@@@@@@@@@@@@@@@@@@@@@@@@@@@@@@@@@@@@@@@@@@@@@@@@@
Ġ'| ';
prin ce
MB OL
å¹ ´
djk gf
dddddddd dd
dddddddd dddddddddd
rth bd
numb thy
ĠAlex and
ĠâķļâķĲâķĲâķĲâķĲ âķĲâķĲâķĿ
900 6401
cir cles
Ġ------------------------------------------------------------------------------------------------ -------------
Ġgy v
ðŁ¦ĬðŁ¦ĬðŁ¦ĬðŁ¦Ĭ ðŁ¦ĬðŁ¦ĬðŁ¦ĬðŁ¦Ĭ
Ġtip a
WH Y
ĠInverse Mod
å¾ Ħ
Ġhapp iness
Py thon
Ġcast ed
mapp ing
Ġbitput on
Ġbitput off
/**---------------------------------------------------------------- ----------------------
/**---------------------------------------------------------------- -------------------------------**/
Ġnh ap
....* ///
SY MBOL
ĠInter face
flo od
Ġ40000 7
swa pped
ĠTra its
------------------------- **/
fjk dsjks
Tri angle
Ġmeme br
sciss ors
åī į
ĠmyR nd
Hand ler
ĠSPL IT
ç´ ł
Ġtax i
ĠContain s
EXP ECTED
cam pbell
Ġpse udoprime
REB EL
(": (");
makeit string
Ġverti ccal
ksdh fjkdsjks
Ġlam tron
ĠWOR LD
Comput ers
-... -'
Agas a
Mish ka
Oli va
Pom elo
hjdk jdfj
Ġagh ksdm
Ġjskdf ksdhfjkdsjks
Ġgsh ysrthr
Ġemb lace
ĠADEL KHAH
103877 51
igri hjdkjdfj
Ġ10403 641
Ġ4270 2661
ĠUihar u
avlj vlckdf
ĠWRIT EN
mmcz mp
lsjdfj avljvlckdf
Ġ1112103 541
Ġkoeu igrihjdkjdfj
Ġ---------------------->>>>>>>>>> >>>-------------------------------
/**-------------------------------------------------------------------------------------- **/
Ġaghksdm lsjdfjavljvlckdf
Ġjskdfksdhfjkdsjks djkgf
Ġgshysrthr rthbd
Ġaghksdmlsjdfjavljvlckdf mg
" '||
# &
$ #
( <=
( >=
( >)
) <<":
+ ";
+ ',
. "<<
/ >
2 12
3 12
4 58
4 28
5 18
5 48
6 26
6 34
6 0000005
8 40
8 54
@ ')
A FT
A way
B X
B asicInteger
C B
C W
D irection
D CE
E l
H appy
H anit
L c
L TE
M ult
M ST
M ah
N ikita
O URE
O lya
P t
P loadyFree
R c
R s
S hi
T P
V X
V o
V essel
W M
W MMM
W ITH
] !
] }]
] --;}
a void
a uss
b ow
b aa
b ara
c ustom
c fenv
f k
g jdk
h f
j fd
k am
l R
l max
m ine
m str
m uu
n one
o j
o ke
p or
p eek
q ur
q cnt
s uper
t min
u ate
v in
v ing
v pp
w all
w ater
y oko
¦ )
§ ĭ
[...]
