#version: 0.2 - Trained by `huggingface/tokenizers`
Ġ Ġ
č Ċ
ĠĠ ĠĠ
i n
ĠĠ Ġ
in t
d e
ĉ ĉ
ĠĠĠĠ ĠĠĠĠ
Ġ =
s t
Ġ i
Ġ <
) ;
r e
de f
o r
ĠĠĠĠ ĠĠĠ
Ġ (
o n
in e
Ġ c
def ine
Ġ l
Ġ a
Ġ {
Ġ m
s e
Ġ f
Ġ n
Ġ p
+ +
Ġ 1
0 0
c l
Ġ 0
Ġ }
o u
u r
e n
Ġ s
Ġ int
( )
cl u
in clu
inclu de
re t
l l
* *
Ġ v
Ġ< <
ur n
ret urn
st d
- -
ĠĠĠĠĠĠĠĠ ĠĠĠ
Ġ +
Ġ >
on g
/ /
. .
ou t
i t
Ġ t
Ġ b
Ġf or
Ġi f
Ġ -
a c
Ġ "
a m
Ġl ong
< <
] ;
a t
] [
Ġ d
e r
in g
c on
n s
y p
i r
Ġ x
u s
Ġ return
i f
l e
++ )
ĉĉ ĉ
c t
Ġ &
en d
" ,
t yp
Ġm a
( "
Ġ *
a l
i d
K K
am e
e ct
a r
) {
ect or
m p
** **
i z
_ _
iz e
Ġl l
Ġ> >
typ e
Ġ std
: :
Ġ j
Ġ r
00 00
ĠĠĠĠĠĠĠĠ ĠĠĠĠĠĠĠĠ
] .
o p
= =
st r
Ġ T
con st
u e
o s
m a
Ġc out
Ġ= =
Ġ e
type def
a ir
a n
f or
W W
( );
n t
o l
E E
Ġa ns
Ġc in
Ġ re
s ize
us ing
h i
ac e
ac k
t i
Ġ '
s p
ĠĠĠĠĠĠĠĠ ĠĠĠĠĠĠĠ
l se
> >
Ġ y
Ġn ame
o d
u t
Ġ 2
i o
e mp
sp ace
# #
-- --
at e
str ing
Ġ u
e g
Ġname space
] ,
) )
(" %
o id
Ġ k
b ack
end l
us h
Ġ w
Ġ ;
u m
.. ..
ĠĠĠĠ Ġ
Ġ g
se t
Ġ M
Ġma in
ĉĉ ĉĉ
a s
â ĸ
] )
eg in
Ġv ector
Ġ %
ir st
hi le
b egin
b it
Ġ< =
a ns
L L
b le
Ġ in
o w
c out
v ector
Ġ ,
st re
c an
emp l
stre am
Ġ ++
con d
! =
**** ****
se cond
it h
Ġp r
empl ate
c h
D D
i i
ou ble
Ġp air
c in
] =
x t
bit s
<< "
std io
++ .
Ġ+ =
std c
p r
can f
Ġ //
] );
Ġe lse
Ġ )
Ġ& &
a se
Ġc on
ti e
KK KK
< =
v oid
t emplate
e d
) ,
() ,
v e
" ;
i g
++ ;
o ol
p air
Ġ :
Ġ F
int f
8 8
Ġ N
en ame
as s
e t
Ġ endl
Ġre s
n c
Ġ |
) );
Ġ /
Ġw hile
i s
Ġ q
Ġm od
al se
p ush
Ġ čĊ
I N
¿ ½
ï ¿½
at or
Ġ A
Ġd ouble
y nc
i m
w ith
l ine
er ator
a d
Ġ !=
Ġma x
s ync
op en
Ġs canf
) .
Ġ S
Ġ o
1 0
o de
re open
---- ----
ma x
k e
Ġ P
f irst
r t
n d
p ut
EE EE
Ġcon st
e lse
.. .
â £
// //
p b
re e
WW WW
Ġa r
Ġ op
++) {
ï¿½ ï¿½
Ġc h
Ġt r
Ġf irst
## ##
ut o
M M
; }
Ġd p
Ġ __
Ġi t
b ase
() )
l ong
a g
O D
= (
Ġ _
Ġp ush
Ġm in
Ġ> =
Ġ 3
Ġ h
A X
Ġ R
typ ename
o t
Ġc nt
i c
q ue
u l
Ġpr intf
.... ....
b ool
ch ar
Ġ st
e m
c nt
Ġ #
cl ass
} ;
i st
d p
Ġ second
o f
__ __
u n
( (
Ġi os
0000 0000
ma p
; ;
Ġv al
w hile
Ġp b
ĠĠĠĠĠĠĠĠ ĠĠĠĠĠĠĠĠĠĠĠ
' ;
e s
se rt
t in
Ġma ke
a st
m od
or t
t xt
Ġ L
6 4
Ġv oid
a uto
Ġm p
******** ********
o m
er r
f alse
, ,
i on
+ =
ig n
-- )
f s
â£ ¿
' )
ol ve
c k
() {
G G
âĸ ĳ
Ġ" <<
in line
c ur
Ġs z
b u
a k
ĠM OD
m in
re s
ĠĠĠĠĠĠĠĠĠĠĠĠĠĠĠĠ ĠĠĠĠĠĠĠĠĠĠĠĠĠĠĠĠ
Ġ( (
Ġ| |
Ġ D
v al
t r
00 0
Ġ C
== ==
Ġg et
> =
Ġ de
ĠĠĠĠ ĠĠ
Ġ G
DD DD
", &
p p
i l
Ġs um
() );
Ġt yp
Ġa ll
Ġop erator
" );
Ġc ur
or de
a p
p os
IN F
g e
O R
1 1
] ==
c d
in d
ou nt
-- ;
n ode
, -
Ġ string
ign ed
Ġ I
Ġl d
end if
e xt
" )
ĠĠĠĠĠĠĠĠ Ġ
tin ue
Ġtr ue
at h
ar r
re ak
io stream
que ue
ll d
l o
im e
88 88
Ġp ii
Ġf reopen
Ġ B
Ġs ize
- >
M AX
] ]
s um
Ġm id
h e
Ġm em
Ġt o
f reopen
Ġa d
Ġ z
âĸĳ âĸĳ
ti m
E P
ith m
â£¿ â£¿
g or
ĉĉ ĉĉĉ
p d
gor ithm
Ġb ool
Ġ" ;
âĸ Ī
Ġ ?
9 9
d s
Ġf alse
al gorithm
Ġs olve
Ġar r
ĉ čĊ
s canf
t ree
Ġ se
v er
Ġ' \
l en
a ll
pr intf
g s
ns igned
c m
] -
n um
d ouble
Ġre p
b s
Ġ INF
en t
i x
Ġ1 00000000
ow er
ag ma
pr agma
KKKK KKKK
//// ////
E S
p op
g et
t h
Ġtyp ename
N O
Ġ out
& &
Ġstd in
p re
e st
Ġ ret
Ġ1 0
Ġs ort
A R
Ġ 5
Ġc l
s z
* (
Ġ LL
o stream
Ġch ar
Ġi s
re d
f f
Ġd fs
Ġu nsigned
Ġ 7
t o
++ --
] +
Ġp os
Ġin f
Ġv i
ĠF OR
( !
-------- --------
u b
ĠĠĠĠĠĠĠĠ ĠĠĠĠ
Ġ- =
o mp
Ġ( !
f r
) %
++-- ++--
l d
a y
Ġ V
Ġcon tinue
ou nd
Ġ set
U LL
Ġ \
m x
Ġc err
Ġin line
i os
o int
MM MM
ĠĠĠĠĠĠĠĠ ĠĠ
Ġ );
/ *
c ount
f t
ĠG C
Ġmem set
u ll
in put
3 2
Ġt ree
", "
Ġ os
Ġb reak
Ġi d
e x
) (
if def
h t
pd ate
#### ####
); }
s k
ĠGC C
p s
Ġg cd
Ġ O
s s
' ,
in sert
Ġ 4
orde red
ĠĠĠĠ čĊ
Ġ --
âĸĪ âĸĪ
Ġm x
cm ath
Ġ" \
ĠM AX
âĸ Ĵ
5 3
v i
Ġp re
ï¿½ï¿½ ï¿½ï¿½
t a
l i
Ġf i
Ġ str
1 8
* /
) /
ig ht
" <<
m id
1 5
G S
id x
c stdio
Ġ100000000 7
1 00
Ġf r
an d
Ġ" ,
st ack
Ġcl ass
, &
Ġn um
r o
Ġstd out
bu g
Ġl en
2 6
ar t
p ii
N ULL
f i
n ow
Y ES
____ ____
u ct
Ġad d
ĠĠĠĠĠĠĠĠ ĠĠĠĠĠ
size of
1 0000
i p
Ġre ad
........ ........
ĠP I
c e
a x
b ound
EEEE EEEE
[ ]
Ġ U
o st
ĠĠĠĠĠĠĠĠĠĠĠĠĠĠĠĠ ĠĠĠĠĠĠĠ
se d
==== ====
t y
Ġ ]
( -
// #
f l
Ġp ll
> &
' .
it y
ĠA r
h pp
1 4
... )
out put
1 2
@ @
Ġ Ċ
v is
AR GS
o c
] ++;
u er
Ġp i
Ġop tim
m ent
e ck
MAX N
ĠĠĠĠ ĉ
s se
S E
it e
;; ;;
Ġ X
a re
Ġ .
( {
V A
c string
hi s
Ġ E
orde r
Ġu ll
Ġt mp
uer y
Ġ !
ĠR EP
âĸĴ âĸĴ
O C
Ġoptim ize
; ++
e c
Ġt emplate
it erator
w ap
Ġma p
**************** ****************
ac t
Ġa c
2 0
,, ,,
er ase
Ġs q
Ġm ul
ct ion
Ġ [
Ġn e
Ġl e
Ġs s
() .
std in
Ġ1 0000
ver se
> (
} );
Ġsize of
:: ::
Ġp ut
] ){
a bs
' );
Ġi i
Ġ* /
Ġde bug
u p
IN E
as sert
WWWW WWWW
M OD
str uct
3 3
t mp
li b
> ,
on t
9 7
bu il
Ġval ue
s ort
emp ty
c err
re p
Ġn ode
L INE
e p
g n
ma n
Ġb u
GG GG
Ġt emp
un ordered
Ġv is
Ġe ps
Ġt he
std lib
// /
Ġa uto
st at
Ġo f
cl e
max n
D G
]== '
u pdate
at a
â ķ
pre c
a z
tim e
DDDD DDDD
is ion
fr ont
', '.
Ġa nd
Ġ* =
at r
1 000
Ġe x
Ġs c
o k
cl o
<< '
Ġ% =
bit set
Ġl o
) -
Ġar g
<< (
prec ision
Ġd ist
2 4
) +
WW W
f ind
Ġ end
I nt
ul t
Ġm n
//////// ////////
g cd
io man
ioman ip
8888 8888
]= {
Ġ( "
Ġ ^
( ...)
m em
> ;
âĸ Ģ
â ł
o re
Ġad j
m n
Ġa bs
( __
++--++-- ++--++--
5 8
ĠĠ čĊ
Ġac os
Ġ1 000
g th
std out
â£¿â£¿ â£¿â£¿
Ġo k
( _
a b
Ġ"<< #
un ction
re size
Ġ include
Ġd b
EE E
J U
on e
) *
E R
b reak
<<" \
Ġl ast
atr ix
A L
Ġf ast
DG E
t op
JU DGE
N LINE
Ġv ec
< (
ve c
pp er
buil tin
Ġb ase
Ġ 6
an ge
E B
d ist
Ġ H
15 9
it s
Ġ' ;
c stdlib
t emp
Ġ define
l ist
con tinue
Ġo stream
r and
) *(
are nt
14 159
Ġc om
ma sk
c omp
ĠĠĠĠĠĠĠĠ ĠĠĠĠĠĠ
d fs
p tr
clo ck
14159 26
) <<
Ġ/ =
r ite
-- ){
| |
de x
t his
x x
lo ck
n def
e ad
KK K
Ġtyp e
r r
I n
n ame
Ġf l
Ġa s
p ar
i e
â ¢
','. ','.
Ġt h
gn u
M ax
ad d
as h
4 3
es s
Ġch eck
Ġg o
ar gs
ĠO NLINE
âĸ Ħ
S T
à ¦
if ndef
âĸĳâĸĳ âĸĳâĸĳ
r begin
Ġp ar
t ag
Ġid x
de que
ine r
tr ue
] !=
Ġs wap
Ġt ot
ta iner
2 2
Ġ hi
cle ar
1415926 53
Ġd x
EP S
ĠMAX N
> ::
( '
s i
Ġc omp
Ġv v
3 7
n e
ix ed
s olve
i or
Ġd y
s stream
MMMM MMMM
} ,
Ġf ind
3 0
Ġf f
5 0
ĉĉĉĉ ĉĉ
Ġq uery
] *
c ol
ct ime
Ġd i
az y
le x
ior ity
p l
Ġput s
Ġs h
OC AL
SE C
Ġe d
len gth
Ġn ow
U G
Ġ Y
Ġu n
d i
Ġb it
Ġ ){
<<" :
Ġ K
pb ds
- =
5 5
c c
i stream
######## ########
f unction
(), (
A C
con tainer
/ =
f ast
in k
0000 5
p ow
t t
Ġpr int
Ġ} ;
ic s
n ull
al c
ad j
l ast
a a
Ġ en
Ġ1 00
u ti
ch r
ĠL OCAL
p ll
ist ics
L E
EB UG
b er
I O
at ion
Ġu pdate
h s
ar get
stat istics
Ġ ++)
ass oc
n g
p ol
ĠI n
a v
c assert
Ġ ĉ
Ġ EPS
Ġ 9
ma ke
Ġn ext
op erator
d d
: .
... );
â ¡
ĠAr gs
le ft
Ġc ount
<<" =
]- '
1 6
KKKK K
__ )
r ow
Ġar gs
3 8
Ġst art
e l
Ġ{ }
s ub
Ġc ol
g h
pop count
on o
ĠĠĠĠĠĠĠĠĠĠĠĠĠĠĠĠĠĠĠĠĠĠĠĠĠĠĠĠĠĠĠĠ ĠĠĠĠĠĠĠĠĠĠĠĠ
ro ot
Ġ ï¿½ï¿½ï¿½ï¿½
<< #
99 8
Ġmax n
ĠAr g
Ġv ll
val ue
= -
Ġn xt
Ġt arget
141592653 58
Ġp oint
Ġ" :
ĉĉ čĊ
re nd
pol ic
== '
Ġl ower
4 6
in f
I t
p t
o ot
<<"= "<<
Ġp ower
i ve
ĉ Ċ
Ġse g
Ġget char
Ġb e
Ġle ft
ĉ ĠĠĠ
Ġ( )
ll i
Ġr ight
h a
] +=
re ad
l im
Ġin it
er ic
]) );
m t
Ġsq r
u sed
Ġ W
14159265358 97
Ġne w
998 24
Ġp arent
3 1
5 6
function al
Ġg r
l ic
F OR
il d
M E
S ize
======== ========
99824 43
Ġs can
1415926535897 9
9982443 53
yp e
ar y
() -
Ġfor n
Ġ Q
)) )
polic y
t ot
w er
Ġh e
if f
11 11
3 4
Ġn ull
Ġl ess
Ġp ow
@@ @@
] ];
<<"="<< (
ex pr
Ġin d
Ġre verse
Ġ ...
m ul
Ġv ii
ĠĠĠĠĠĠĠĠĠĠĠĠĠĠĠĠ Ġ
type of
Ġ- >
se g
g es
Ġr b
ĠS Z
hi ld
l f
] ].
Ġ using
R E
er o
Ġu sed
Ġs p
---------------- ----------------
U T
ĠĠĠĠĠĠĠĠĠĠĠĠĠĠĠĠĠĠĠĠĠĠĠĠĠĠĠĠĠĠĠĠ ĠĠĠĠĠĠĠĠĠĠĠĠĠĠĠĠĠĠĠĠĠĠĠĠĠĠĠĠĠĠĠĠ
Ġf act
Ġres ult
Ġy ou
ub lic
n ext
in v
IN T
i que
chr ono
[ ]={
Ġ>> =
Ġp f
ĠI O
Ġfr om
ĠĠĠĠ ĉĉ
n xt
Ġp op
num eric
Ġbu ild
Ġm y
- '
l ow
Ġr oot
s c
(" -
Ġas sert
c om
] >
ĠĠĠĠ Ċ
7 7
KKKKKKKK KKKKKKKK
Ġ/ *
r ight
1 99
p oint
q u
f stream
Ġt est
R T
g o
Ġpr iority
Ġ or
âĸĪâĸĪ âĸĪâĸĪ
] <<"
st art
14159265358979 32
Ġin v
at er
+ (
ĠĠĠĠĠĠĠĠĠĠĠĠĠĠĠĠ ĠĠĠĠĠĠĠĠĠĠĠĠĠĠĠ
fl ag
F F
, ;
] --;
I I
] ))
l ink
ch eck
Ġf ixed
o b
Ġ ::
Ġs ub
im es
Ġs ol
Ġma sk
o ve
l ace
ap h
Ġ on
M atrix
null ptr
or m
up le
n o
s q
le ment
% =
p i
Ġtr ace
f act
ul ar
re ater
ma in
d ata
m ath
0 1
( *
ĠM od
ed ge
Ġu pper
) ){
b b
Ġsq rt
t est
a h
Ġre m
d is
1415926535897932 38
] <
Ġl cm
2 00
P ER
a il
r os
Ġde p
u ff
M P
Ġe mp
s igned
Ġd o
+ =(
Ġa t
pr ime
, (
M od
Ġc an
Ġfl ag
N ode
199 37
R O
Ġv vi
, +
R EP
- (
(" \
put s
Ġw rite
Ġd is
Ġ 998244353
Ġc ost
OC K
mem set
L OCK
Ġl ow
Ġm d
() ){
* =
g r
141592653589793238 46
I T
Ġpre f
Ġp q
] ][
Ġtype def
Ġ3 1
d ig
Ġset precision
N o
________ ________
ĠD EBUG
Ġ 8
âĸĴâĸĴ âĸĴâĸĴ
un ique
a ble
at ch
d ge
' ){
I LE
Ġm s
ĉ Ġ
s wap
10000 5
++--++--++--++-- ++--++--++--++--
Ġc lock
Ġpr ime
p er
âĸĢ âĸĢ
Ġ2 0
LOCK S
O N
ex p
y y
[ (
get char
ĠĠĠĠĠĠĠĠ čĊ
Ġp a
7 9
u int
4 8
Ġ ordered
M X
p a
p ublic
ar k
0000 0
ii i
Ġu int
v v
ĠA LL
o o
Ġv s
s in
re m
i ll
~ ~
]= (
lo op
q uery
Ġx x
Ġp t
ĠĠĠ čĊ
Ġu p
**** **
P oint
]] ++;
& (
Ġb egin
1 9
1 00000000
eg er
Ġq ue
Ġmul ti
it ed
Ġ' <<
b e
ti on
Ġcom ment
V al
Ġ err
Ġ) ,
5 00
av x
od d
c ost
l ity
1 7
D E
W K
, _
h ash
h ar
j j
at ive
)<< ",
fr om
in dex
)) );
v l
l y
o ch
Ġp w
or y
O fast
link er
a ve
comp lex
v en
); ++
Ġv er
de p
an g
) :
ep och
sin ce
Ġ( ((
cur r
Ġex it
rand om
Ġ" /
]) ,
2 3
re q
//////////////// ////////////////
- ')
GGGG GGGG
w o
Ġb in
/ **
s h
w rite
ac h
s u
Ġp p
Ġdb g
Ġit er
ar g
Ġt his
Ġans wer
++ ]
m ark
Ġ10000 0
Matrix Size
Ġs f
Ġr all
uti lity
Ġc alc
10000 0
>> (
] ])
ac ro
ou r
Ġb est
ĠIO S
sub str
), (
Ġ^ =
5 9
Ġ// /
2 8
l azy
Ġt m
st ead
Ġk e
ow n
Ġin put
It erator
he ap
Max MatrixSize
âĸ Į
Ġne ed
A S
Ġ++ ;
Ġst at
Ġc mp
Ġn o
Ġd ata
in it
P os
c a
T ime
ve l
arr ay
l ower
Ġpre v
Ġ" )
.... .
2 7
Ġo o
ĠP oint
Ġl b
Ġr hs
string stream
r k
Ġv l
const expr
ĠI nt
Ġ3 0
Ġy y
Ġll i
Ġa a
s im
6 0
v s
Ġ( *
t e
Ġr ng
Ġput char
++ ,
T ES
ros s
A T
m at
C har
Ġ2 6
name s
','.','. ','.','.
99 99
__ ,
ĠĠĠĠĠĠĠĠĠĠĠĠĠĠĠĠ ĠĠĠĠ
stat ic
ne w
âķ Ĳ
stead y
ĠM ax
bu f
Ġ" ]
i v
ĠĠĠĠĠĠĠĠĠĠĠĠĠĠĠĠĠĠĠĠĠĠĠĠĠĠĠĠĠĠĠĠĠĠĠĠĠĠĠĠĠĠĠĠ ĉ
Ġl azy
................ ................
c o
__ _
) ==
ĠPI I
2 9
Ġ' .
Ġw h
m s
Ġt t
mem ory
ĠĠĠĠĠĠĠĠĠĠĠĠĠĠĠĠ ĠĠĠĠĠĠĠĠĠĠĠ
---- --
d b
Ġstat ic
C RT
le ss
empl ace
C ase
C ount
Ġemp lace
Ġt l
U RE
Ġb ig
## #
Ġin dex
1 3
er ge
KKKK KKK
Ġn ot
ĠM P
h or
Y es
Ġi stream
Ġm t
ke y
p ower
ĠD B
', '
T ree
ay s
u st
SEC URE
t ex
Ġde l
" .
ĠP B
; .
or d
2 00005
Ġr ange
Ġu pd
m i
Ġfi ll
Ġg c
Ġcur r
Ġre v
fi le
pre f
s ol
Ġa n
Ġf in
t f
T ype
Ġt ime
an ce
e lement
Ġbu f
Ġed ge
] ]=
ii ii
ic e
<= (
>> =
t uple
lo at
loop s
( ;
Ġc c
Ġn orm
c r
Ġb y
Ġs u
Ġl i
Ġl ine
sq rt
################ ################
)) %
A N
âĸĦ âĸĦ
A LL
n x
Ġarr ay
}, {
t er
Ġs i
Ġma rk
% %
Ġin sert
Ġex p
Ġ" [
ĠĠĠĠĠĠĠĠĠĠĠĠĠĠĠĠ ĠĠĠĠĠ
ar d
i end
pop cnt
r ime
re verse
Ġm k
O F
â Ķ
(); }
c alc
dig it
Ġc o
Ġ' ,
ĠM X
ro ll
E dge
ĠĠĠĠĠĠĠĠĠĠĠĠĠĠĠĠ ĠĠ
t l
S Z
Ġp s
O ut
/ ********************************
m d
u nsigned
)) ,
c p
Ġr r
Ġ| =
10 10
DD D
Ġfi le
mul ti
m mx
ĠF I
fl ush
ss se
;;;; ;;;;
un roll
Ġ( ;
i al
ab m
I Z
if t
GG G
âĶ Ģ
M in
K E
4 0
p q
an k
,,,, ,,,,
ar ch
A rr
l n
ma ll
âķ ¬
F S
hi gh
88888888 88888888
]) %
DDDDDDDD DDDD
5 7
] %
N IN
b r
b est
AR NIN
Ġdep th
E T
Ġm i
Ġr and
W ARNIN
l s
WARNIN GS
] <<
T T
cl im
Int eger
Ġ ĉĉ
Ġp c
un e
F ILE
Ġth row
Ġd iff
de r
Ġnum ber
Ġit erator
uti on
Ġf ore
Ġu b
WWWW WWW
clim its
> =(
S t
) ?
] >=
= "
ut hor
fl ow
lim its
f ixed
r a
O UT
set precision
A ST
\ \
Ġr ow
max N
Ġb s
34 56
MMMMMMMM MMMMMMMM
Ġ one
IZ E
! !
à §
Ġname s
n ative
Ġ' );
WWWW WW
L ine
d iff
EEEEEEEE EEEE
Ġ. ,;
******** ******
Ġstr uct
m m
â£¿â£¿â£¿â£¿ â£¿â£¿â£¿â£¿
Ġed ges
b y
d x
pre v
ĠĠĠ ĉ
Ġ" ";
ĠF or
E C
â£¿ â£
t une
Ġn eg
Ġtot al
: //
on ent
u se
2 1
] <=
D EBUG
Ġ3 2
Ġgr aph
Ġ{ -
KKKK KK
" "
âĸ Ĳ
000 10
ĠĠ ĉ
Ġp er
Ġr t
Ġz ero
N N
si ble
* -
pr int
Ġpr imes
<<' \
i k
Ġ( __
it r
de bug
Ġa re
Ġ10000 5
Ġhi gh
N U
Ġde b
f j
ct ype
Ġ(" %
âķ¬ âķ¬
ĠV I
r c
ĠC LOCKS
IO N
for n
Ġt a
Ġcom ma
Ġ INT
AC K
2 5
2 64
Ġs ync
Ġ- *-
â¢ Ģ
, "
he ad
Ġb b
10 1
8 9
11 1
ĠIn put
ob j
ON G
:: :
p arent
() ))
Ġg en
Ġ ~
Ġa l
Ġh ash
' ]
; --
Ġque ue
O G
r int
Ġ" %
4 7
Ġï¿½ï¿½ï¿½ï¿½ ï¿½ï¿½
on oid
buil d
(" ");
, .
it er
de g
ST ACK
Ġb o
lo g
Ġg reater
Ġ100000000 0
Ġ Z
as k
res ult
P B
u d
r b
Ġ. :
Ġ à¦
<< -
10 5
Ġ" ("
Ġr d
Ġout put
c hild
0000 00
!= (
Ġ' -')
ent er
' s
r y
Ġw ith
b ig
c y
k k
)); }
Ġmod ular
14159265358979323846 264
W KK
Ġlo op
ĠP R
âĸ ĵ
f a
ĠĠĠĠĠĠĠĠĠĠĠĠĠĠĠĠĠĠĠĠĠĠĠĠĠĠĠĠĠĠĠĠĠĠĠĠĠĠĠĠĠĠĠĠ ĉĉ
Ġscan i
Ġl im
4 9
A ME
f ac
' ||
ĠN ode
R ange
r s
@@@@ @@@@
b o
max i
-- ,
ac os
Ġe l
Ġcomp lex
[ '
Ġm at
popcount ll
D EEEE
Ġnorm al
Ġw e
( #
u x
pr iority
Val ue
("% .
]= '
Ġhe ll
6 7
ac tion
) ]
[] (
_ |
Ġo th
c es
#### #
Ġs m
ĉĉĉĉ ĉĉĉ
a f
) &
) <<"
, :
N D
n y
p o
] ],
a in
14159265358979323846264 33
} }
de d
u pper
Ġ" -
WWWWWWWW W
Ġ J
Ġv pii
Ġcl r
Ġde g
P II
i re
ol d
g reater
ĠĠĠĠ ĉĉĉ
or s
L ong
r i
Ġb fs
** /
Ġmax i
Ġe b
Ġe xt
t c
Ġm acro
op e
O W
.... ..
w e
âł Ģ
âĶĢ âĶĢ
ĠĠ Ċ
Ġp ath
um ber
_ (
Ġc t
ak en
he re
8 0
d o
Ġ `
Ġc ase
m on
a i
N AME
S tr
Ġt op
In put
E D
n eg
__ ;
ĠĠĠĠĠĠĠĠĠĠĠĠĠĠĠĠ ĠĠĠĠĠĠĠĠĠĠĠĠĠĠ
ble m
ed ges
Ġ odd
it ion
Ġch k
Ġfr iend
******************************** ********************************
ĠP T
âĸĳâĸĳ âĸĳ
de rr
12 3
h o
vis ited
r g
an t
00000000 0
Ġv c
ĠĠĠĠĠĠĠĠĠĠĠĠĠĠĠĠĠĠĠĠĠĠĠĠĠĠĠĠĠĠĠĠ ĠĠĠĠĠĠĠĠĠĠĠĠĠĠĠĠ
ĉĉĉ čĊ
(); ++
Ġï¿½ï¿½ï¿½ï¿½ ï¿½ï¿½ï¿½ï¿½
s m
re v
) ((
ĠĠĠĠĠ čĊ
/ (
L I
t m
re nt
() ),
NO TES
Ġun ordered
Ġ order
ar a
qu al
ce pt
C T
Ġp l
E M
5 4
Ġm erge
Ġm e
Ġsh ift
âķĲ âķ
& ...
c mp
Ġ1 1
() ==
ĠĠĠĠĠĠĠĠĠĠĠĠĠĠĠĠĠĠĠĠĠĠĠĠĠĠĠĠĠĠĠĠĠĠĠĠĠĠĠĠĠĠĠĠĠĠĠĠĠĠĠĠĠĠĠĠĠĠĠĠĠĠĠĠ ĠĠĠĠĠĠĠĠĠĠĠĠĠĠĠĠĠĠĠĠĠĠĠĠĠĠĠĠĠĠĠĠĠĠĠĠĠĠĠĠĠĠĠĠĠĠĠĠĠĠĠĠĠĠĠĠĠĠĠĠĠĠĠĠ
i es
p w
u mp
ĠP rint
:::: ::::
s y
} ";
) <<"\
name space
b l
arr y
Ġn l
Ġb r
is digit
3456 7
Ġoth er
] ]);
c ctype
Ġ' )
AC RO
f in
Ġf ac
,, ,
Ġ"] ";
88 8
ĠF AST
e k
Ġh tt
ma g
Ġse c
6 6
P I
Ġmod int
1415926535897932384626433 8
m y
Ġf o
u pd
ĠS Q
tex s
U N
Ġ Ð
Ġd ig
Ġ ][
Ġp dd
100000000 7
Ġmulti set
â¢ ¿
Ġw as
Ġ> ::
Ġh ead
) >>
T S
Ġc ross
ĠĠĠĠĠĠĠĠĠĠĠĠĠĠĠĠ ĠĠĠĠĠĠĠĠĠĠ
Ġ"[ ";
100 5
ut e
Ġr nd
p ath
;; ;
ĠL INF
b j
re st
ot h
Ġke y
It er
ta il
multi set
c s
f loat
h ite
Ġ ];
pr o
Ġvis ited
b ad
Ġt c
ie ve
cl z
................ ........
e ar
j k
Ġmod ul
) <
ĠV ector
di sp
u nc
im er
3 9
[ ++
de l
Ġ1 2
Ġl st
Ġb ound
-------- ------
n od
ĠĠĠĠĠĠĠĠĠĠĠĠĠĠĠĠ ĠĠĠĠĠĠĠĠĠĠĠĠĠ
Ġcon t
C hild
E K
WWWW W
ĠL D
w w
Ġf n
Ġle vel
Ġbin ary
Ġ& _
Ġ( _
ne ed
col or
Ġf abs
ĠC omp
6 8
c pp
se arch
00000000 00
ĠĠĠĠĠĠĠĠĠĠĠĠ čĊ
iv ate
6 1
w t
ĠM in
ĠM onoid
Ġ") ";
ĠĠĠĠĠĠĠĠĠĠĠĠĠĠĠĠ ĠĠĠĠĠĠĠĠĠ
Ġs ign
Ġv ar
ex it
âĸĳâĸĳâĸĳâĸĳ âĸĳâĸĳâĸĳâĸĳ
X X
r action
Ġn d
ĠĠĠĠĠĠĠĠĠĠĠĠĠĠĠĠ ĠĠĠĠĠĠĠĠ
Ġgo od
Ġl oc
Ġit r
10000 00
1000 10
14159265358979323846264338 32
)+ (
== -
atch er
Ġn x
================ ================
' \
A ns
n n
Ġs d
Ġr i
Ġth at
Ġac c
disp atcher
c ase
ĉĉ Ċ
ĠM EM
A SE
V I
& ]
(# __
d y
Ġf a
Ġt uple
Ġ<< "
ip le
s on
Ġh ave
ĠDB N
EEEEEEEE EEEEEEEE
Ġ} );
2 0000
Ġs y
AS K
Ġ" {
or k
our ce
om e
Ġlen gth
C LOCKS
Ġt wo
F or
Ġe ven
Ġ ].
Ġ --------------------------------
Ġt p
db g
P rime
ul ate
f ore
Ġlo g
Ġv b
p ha
er se
d f
ĠN ULL
;} }
S um
L e
Ġ10000 00
Ġ2 00
100 1
++--++--++--++--++--++--++--++-- ++--++--++--++--++--++--++--++--
e w
Ġc y
Ġerr or
I ME
com ma
ass ign
Ġo ff
c ap
w as
**** *
ð Ł
() +
Ġu se
GGG DDDDDDDDDDDD
1415926535897932384626433832 79
Ġo bj
ĠD I
dep th
; :
C on
t u
**************** ********
ĠD FS
Ġ5 0
Ġstr len
Ð µ
Ġ1 5
ĠO O
); (
stdin Pos
6 9
is h
3 00
Ġs in
ĠL ong
ĠL OG
tot al
âłĢ âłĢ
Ġc ode
Ġd d
] :
[ ],
Ġre c
ĠP LL
cl type
Ġv pll
Ġarg c
' t
se c
op y
), &(
' &&
L G
t p
st em
I L
Ġmin i
ĠG et
f req
Arr ay
st derr
Ġhe re
Ġ[ &]
) ++)
Ð ¾
", (
&& (
C H
A D
ĠR E
Ġmul t
ire ction
Ġl g
Ġo st
NU M
Ġf st
eg ment
Ġdel ta
++ ++
ĠT R
Ġstring stream
Ġnode s
$ $
KKKKKKKK KK
EEEEEEEE EEE
se r
0 7
I mp
fi ll
c ast
Ġa b
Ġar a
4 1
an c
Ġq u
Ġ ĉĉĉ
ĠĠĠ ĉĉ
33 33
[ {
Ġcol or
Ġp tr
Ġtr iple
) [
ĠA ns
0 9
e ps
m acro
Ġpr o
put char
Ġde c
z ero
v ll
] >>
ä ¸
Ġs k
Ġfor r
Ġ ----------------
]= -
ĠE OF
Ġc hild
Ġm atrix
â¡ ¿
Ġb ad
EE D
6 3
M IN
Ġï¿½ï¿½ï¿½ï¿½ ï¿½
4 4
12 8
l st
Ġ" .
K W
L GG
Ġmax N
Ġr ank
Ġ__ _
Ġ"<< (
' +
m e
s ign
re al
ĠT ail
ĠM atrix
8 7
<= '
.... ...
u i
Ġi ii
min i
Ġ2 00005
ĠM IN
CT ION
le vel
Ġ! (
[ ])
m sk
Ġd if
Ġs pl
1111 1111
P ower
q r
Ġall oc
5 1
E x
Ġ1 9
d own
l int
pr imes
ĠS olve
â£ ¯
Ġ ++){
e re
i j
i le
r d
Ġ ULL
ate d
ist er
âĸĪâĸĪ âķ
[ "
Ġta ke
Ġp d
ĠA ll
Ġbound s
d ir
g ister
Ġs gn
A A
Ġf printf
ĠĠĠĠĠĠĠĠĠĠĠĠĠĠĠĠĠĠĠĠĠĠĠĠĠĠĠĠĠĠĠĠ ĠĠĠĠĠĠĠ
ĠFOR E
Ġhtt ps
in p
Ġf unction
Ġin c
ĠA uthor
ĠĠĠĠĠĠĠĠĠĠĠĠĠĠĠĠĠĠĠĠĠĠĠĠĠĠĠĠĠĠĠĠ ĠĠĠĠĠĠĠĠĠĠĠ
ĠU n
Ġm m
ĠF ILE
ic k
Ġ'. ')
s mall
num ber
lock ed
Ġw ill
' },{
]- =
- =(
c ross
} };
ans wer
Ġ5 00
)) /
... );}
â£ ·
â£ Ł
Ġq r
ĠV A
Ġyou r
iz ation
EE K
fj t
S IZE
Ġf req
e f
e ed
&& ...
() (
",& (
hite space
ï¿½ï¿½ ï¿½
f st
Ġk ol
Ġre st
Ġbo ost
Ġ IN
^ =
_ ,
Ġc r
Ġh as
pl y
"; }
2 00000000
> ());
re f
Ġmem o
Ġ( -
Ġl ca
+ '
() ->
si de
DE F
M N
M ul
st ate
Ġ1 7
e v
m o
go od
Ġst ep
Ġ" );
Ġ6 0
] /
b in
Ġ{ {
Ġp pb
Ġ1 23
Ġn y
]== '.
t wo
Ġ1 6
ĠD irection
ĉ ĠĠĠĠĠĠĠ
à§ ĩ
S et
ĠM ACRO
Ġvalue s
ã Ģ
if y
) >
[ *
() <<
val c
Ġre set
Ġse p
________ ____
() >
Ġarg v
Ġ', ');
) =(
Ġsu f
ver s
s can
1 10
Ġm ove
//////////////////////////////// ////////////////////////////////
n k
u ck
Ġd ir
ĠĠĠĠĠĠ čĊ
Ġfl ow
W KKKKK
Ġf x
Ġv d
jj i
ï ¼
Ġp o
ĠR A
Ġ stream
Ġn args
100 100
se nt
ĠF raction
Ġs l
) ];
Ġc ap
Ġe lement
Ġin s
ĠS T
i de
l b
C omp
âĸĪâĸĪ âĸĪ
V EC
Ġb ack
ĠC L
el per
d if
n b
Ġp ublic
nc e
ĠMod ular
2 000
s l
Ġx y
d q
or ary
O L
P P
os sible
FF FF
UN CTION
) =
e ven
!= -
> ();
Ġc k
Ġl ist
Ġ> (
ĠT T
I M
Ġs uff
Ġ* (
=( (
Ġs cl
Ġr s
for m
Ġl n
<< *
55 55
Ġ --)
Ġ --;
Ġd own
S can
Ġc and
b lock
ĠĠĠĠĠĠĠĠĠĠĠĠĠĠĠĠ ĉ
ver t
] &&
-- -
st ep
Ġ[&] (
r ange
Ġc e
ol ution
U SE
Ġv p
Ġfor i
Ġr is
: "
Ġb l
ĠS P
Ġ' ?
â£¿ â¡
bu ff
C nt
]== -
Ġ& =
St art
Ġspl it
Ġd one
Ġsh ort
r aph
u re
al tu
Ġu i
P ow
T est
Ð °
ĉ Ġĉ
Ġre f
Ġget Char
per m
Str ing
' ]++;
Ġs a
]!= -
w ard
0000 000
Ġf y
ĠIn f
Ġbig mod
Ġf to
Ġmax im
12 34567
âĸĢ âĸĦ
B it
V ector
su f
Ġ" }";
s a
Ġi o
Ġf d
str i
)/ (
Ġread Int
_ ;
Ġ( ~
Ġtr ans
t int
SE RT
E nd
10000 1
q q
v ar
Ġ> ;
Ġt e
Ġe v
Ġk k
Ġstr chr
Ġdi v
I MP
Ġ{ };
Ġf flush
Ġb lock
ir cle
ĠM A
AC E
Ġke k
Ġs ieve
Ġ10000 000
ĠĠ ĉĉ
Ġ; }
Ġpow mod
âĸĵ âĸĵ
` `
Ġl p
Ġv a
Ġx xx
Ġj j
## ~~
Ġw ork
ĠR e
u cl
Ġc arry
ta in
S U
test s
%% %%
Ġ us
Ġs rand
Ġ erase
â Ģ
Ġfor d
ing le
Ġ' *
ta ble
Ġd q
ĠĠĠĠĠĠĠĠĠĠĠĠĠĠĠĠ ĠĠĠĠĠĠĠĠĠĠĠĠ
T h
l vl
Ġl ol
tr i
'},{ '.
Ġmodul us
in c
ct z
ha ve
A B
] <<'
l c
en tr
it t
un locked
]] --;
Ġfore ach
T o
j ti
Ġi mp
WW K
WW KK
KKKK W
## _
i a
l g
++ ]=
Ġb its
ĠF F
tr ie
âĸĳâĸĳâĸĳâĸĳ âĸĳ
]!= '
ðŁ Ĵ
c xx
y a
ðŁĴ ©
= '
W hitespace
Ġd r
F UNCTION
s rand
hi ch
In verse
Ù İ
Ġn n
Ġd ot
; (
ĠĠĠĠĠĠĠĠ Ċ
re c
' '
, ...)
m atrix
re gister
H elper
Ġm on
Ġr c
Ġw in
val s
gr aph
Ġt in
clo se
l ca
Ġr g
________________ ________________
ĠT ime
ow el
ĠLL ONG
2 00000
] ?
u k
} //
Ġn a
Ġv e
exp onent
ã ģ
<<" [
Ġpref ix
Ġver texs
ti c
ere nce
Ñ Ĥ
++ ];
Ġgr id
D B
e bug
ĠS IZE
D L
m k
Ġc s
Ġl s
Ġa ux
Ġr un
I D
ĠF ast
---- -
i mag
Ġs mall
Ġo ver
Ġe printf
Ġ' #
Ġch r
val id
22 8
d one
=" ";
ðŁĴ© ðŁĴ©
< _
st ore
Ġs out
Ġpr v
] *(
n om
â£ »
â£ ½
;;;; ;;
Ġth an
r u
Ġf altu
Ġ' "
Ġw r
>= '
( ++
U L
Ġm ii
ap sed
() ));
R e
l p
Ġch ange
ot ate
orary Node
Ġwh at
r ng
<<" -
er s
Ġd su
)) *
, __
^ (
u f
def or
GGGGGGGG GGGGGGGG
defor ces
) <(
KKKKKKKK KKKKKKK
WWWWWWWW WWW
DDDDDDDD DDD
EEE K
ĠĠĠĠĠĠĠĠĠĠĠĠĠĠĠĠ ĠĠĠĠĠĠ
AS SERT
E MP
c b
n l
n r
u u
]; }
ĠN umber
Ġc enter
Ġf oo
Ġ> ,
ĠT he
ĠMod Int
)- (
d ot
k ol
Ġl vl
Ġt ail
>> ;
Ġst ack
dist ance
] ]==
Ġa sk
Ġb eg
Ġop t
e ing
ar ge
à¦ ¾
ĠTR ACE
AR Y
di v
/******************************** ****************
S S
Ġs iz
ĠU N
cp y
m ove
ĠĠĠĠ ĉĉĉĉ
ĠĠĠĠĠĠĠ čĊ
Ġtest s
Ġmulti ply
% (
Ġf loat
: ..
E N
Ġc opy
ang le
P ro
e y
o v
ĠĠĠĠĠĠĠĠ ĉ
ou p
ĠB ig
Ġp at
<< ",
Ġst ate
ĠD P
ĠE X
M AT
n ect
** *
Ġpii i
Ġfile s
âķ¬âķ¬ âķ¬âķ¬
P T
Ġi iii
if stream
arg v
Integer Range
9 8
A dd
Ġp li
Ġw hich
Ġ(! (
t s
Ġ( );
RO W
âĸĢâĸĢ âĸĢâĸĢ
Ġrand om
" [
F L
S e
ut ation
******************************** ********
9999 9999
Ġ ĉĉĉĉ
Ġmod num
:: .
Ġinf o
ĠGC D
Ġpre calc
D ata
un def
Ġcom b
P UT
Ġ2 000000000
ĠFOR D
Imp ossible
he ll
b a
g g
t ti
v ii
Ġl hs
Ġf ir
Ġs o
ff ff
Ġsol ution
de c
Ġon es
" ]
D ist
N umber
ĠI t
Ġfact or
T ASK
n ax
][ (
res s
]] ]]
c x
l a
al pha
um ulate
EEEE EE
Ġmin im
oo se
************** /
Ġf ound
EEEE E
Ġval id
Ġis Prime
Ġpoint s
L D
== (
Ġdi vi
pl us
= *
O ME
50 5
erse ct
4 00
> '
m erge
w ays
w r
Ġi sp
Le ft
< '
ĉĉ ĠĠĠ
Ġd or
MM M
ĠI ter
e b
l ft
Ġg ot
ĠSQ R
2 56
= _
Ġï¿½ï¿½ï¿½ï¿½ï¿½ï¿½ ï¿½
> (),
m int
ft er
b t
l ol
} */
" ),
Ġconst expr
Ġcur rent
lo c
err or
node s
:::: :
(' \
ĠE ND
): (
Ġl c
500 5
','.','.','.','. ','.','.','.','.
ek s
p c
Ġw here
ĠS t
Ġval s
Ġdist ance
L en
str a
Ġy es
Ġc n
ĠR ep
Ġchr ono
A r
V ER
ĠN ame
4 5
R ead
Ġf s
>> >
ĠE nd
( &
i pper
Ġ @
);++ (
( ')
[ _
o g
Ġmax x
,,,, ,,
pa use
I d
a der
inv d
pr od
Ġq q
| (
Ñ ģ
Ġ [](
); --
]) +
> ()
C A
I G
bu tion
â£¿â£¿â£¿â£¿ â£¿â£¿
/ **************
E G
f abs
ol ower
uff er
100000 5
s rc
Ġ **************/
Ġ<< (
pr ot
==' -')
s x
Ġ open
ion s
Ġ~ (
de cltype
IN ES
#### ##
MAT H
ac ti
Ġ" !
le ar
ĉĉĉĉ ĉĉĉĉ
~~ ~~
ĠCL R
s iz
Ġbu g
DEF INES
O ne
[ __
// *
Ġ" #
(){ }
f ir
w ar
0000 1
Ġin p
@@@@@@@@ @@@@@@@@
Ġ"{ ";
Ġl ink
Ġll d
ha ust
Ġwh o
pro blem
c enter
q l
w a
uer ies
Ġsc n
Ġdi ag
Ġf unc
ou ld
f n
g er
int er
re ct
Ġq l
ce il
Ġcount er
bb bb
D K
t he
Ġi st
ĠG ET
haust ed
D ouble
b as
Ġma s
(" /
WWWW WK
,,,, ,,,
WWW KK
WWW KKK
Ġsh ow
Ġ... :.
âĸĴâĸĴâĸĴâĸĴ âĸĴâĸĴ
n a
pr ivate
Ġn cr
pr v
OR T
stri bution
__ );
* =(
Ġs nd
Ġ++ __
++; }
Ġgo a
Ġare a
12 34
ie ld
pref ix
b al
), _
ff l
prot ector
& -
B S
(! (
ec ial
Ġl f
en ded
ĠĠĠĠĠĠĠĠĠĠĠĠĠĠĠĠ ĠĠĠĠĠĠĠĠĠĠĠĠĠĠĠĠĠĠĠ
Ġ"[ "
sy stem
7 2
D EB
O O
n m
v c
le te
(( (
Ġ100000000 0000000000
ĠH ead
Ġgen er
'},{'. ','.','.','.','.','.','.','.','.
Integer Iterator
Ð ½
Ġn i
Ġ1 8
Ġt aken
ak h
|| (
Ġre al
Ġpr ivate
ĠN IL
ĠR FOR
[ --
ç ļ
Ġn r
le ct
al f
Ġ2 9
Ġpr i
Ġtemp oraryNode
Ġmon th
çļ Ħ
) !=
Ġs im
IMP L
B C
Ġc p
Ġmod Mul
Ġ100000000 9
ĠĠĠ Ċ
set f
ĠO UT
:::: ::
:::: :::
Ġ-------------------------------- --------------
if orm
ĠS et
64 7
ge eks
pl ic
big mod
Ġa m
Ġn g
le v
ag e
âł Ľ
9 0
Ġt y
Ġ2 5
max x
Ġun i
di stribution
B uffer
w in
or g
Ġp ld
â£ ¾
ver y
az u
200 5
ĠAll ah
H ash
s uff
Ġ er
== "
of f
ĠC ode
"," <<
Ġexp onent
Ġce il
( *(
d ay
o in
ĠF irst
Ar gs
: \
h ing
ĠN O
l t
n w
s nd
} )
Ġm sk
Ġb p
ĠS H
ĠC on
Ġ-- >
Ġbu ff
6 5
h as
m ult
ĠA dd
/ __
F N
Ġ def
Ġ ï¿½
um ent
,,,,,,,, ,,,,,,,,
)? (
3 5
<<" ]
Ġ{ +
Ġt able
7 0
} });
Ġt s
Ġbin pow
' :
D P
E L
Ġrem ove
Ġacc umulate
ĉ ĠĠ
Ġn w
ĠĠĠĠĠĠĠĠĠĠĠĠĠĠĠĠ čĊ
Ġtr ie
Ġor d
âĸĦâĸĦ âĸĦâĸĦ
K EE
Ġr a
of stream
uk azu
i w
Ġ Ø
Ġsol ver
Ġtrans form
Ġde que
Ġvv ll
> {
ac c
10 24
âł ĺ
B y
Ġi m
Ġnull ptr
entr oid
D EE
D EEE
O per
P C
W KKKK
() ]
ĠT args
Ġmod ify
Ġtr i
WWWWWWWW WWWW
âĸĦ âĸĢ
9 3
ĠP Q
ĠI T
CH AR
Ġ---------------- ----
y es
se q
Ġs ame
ĠT ree
M S
] });
v a
Ġc um
en ti
mod ular
ĠĠĠĠĠĠĠĠĠĠ čĊ
Ġseg ment
) &&
A nd
n er
Ġ# __
ĠL ine
ĠG od
read Type
âĸĪâĸĪâĸĪâĸĪ âĸĪâĸĪâĸĪâĸĪ
Ġbig int
oth er
3 00005
b eg
__ (
33 7
TES TS
) ][
e ld
Ġm int
Ġ| _|
ds u
Ġel apsed
##~~ ##~~
Ġ( '
Ġc all
Ġll ong
Ġread Char
co deforces
â¢ ¸
FILE NAME
141592653589793238462643383279 5
6 2
; //
m q
o i
Ġf ft
Ġin verse
Ġ4 8
arg c
m ode
ĠD EB
Ġat an
gr id
Ġmod Inverse
ĠD ice
Ġdi vis
bo ost
ĠĠĠĠĠĠĠĠĠĠĠĠĠĠĠĠĠĠĠĠĠĠĠĠĠĠĠĠĠĠĠĠĠĠĠĠĠĠĠĠĠĠĠĠĠĠĠĠĠĠĠĠĠĠĠĠĠĠĠĠĠĠĠĠĠĠĠĠĠĠĠĠĠĠĠĠĠĠĠĠĠĠĠĠĠĠĠĠĠĠĠĠĠĠĠĠĠĠĠĠĠĠĠĠĠĠĠĠĠĠĠĠĠĠĠĠĠĠĠĠĠĠĠĠĠĠĠĠ ĠĠĠĠĠĠĠĠĠĠĠĠĠĠĠĠĠĠĠĠĠĠĠĠĠĠĠĠĠĠĠĠĠĠĠĠĠĠĠĠĠĠĠĠĠĠĠĠĠĠĠĠĠĠĠĠĠĠĠĠĠĠĠĠĠĠĠĠĠĠĠĠĠĠĠĠĠĠĠĠĠĠĠĠĠĠĠĠĠĠĠĠĠĠĠĠĠĠĠĠĠĠĠĠĠĠĠĠĠĠĠĠĠĠĠĠĠĠĠĠĠĠĠĠĠĠĠĠ
g t
p le
ĠT IME
ta ke
Ð Ĳ
Ġ ....
(" .
Ġlim it
ĠRE V
]=='. ')
' ;}
T r
ĠS egment
8888 888
Ġloc al
// }
Ġd im
Ġ3 00
" :"
I dx
t x
Ġv pi
Ġd ay
âķĲâķ ¦
âķĲâķ ©
re n
>> >>
ver sed
ver texs
Ġ6 2
âķĲ âķĲ
e ap
;} ;
AN D
Ġsk ip
14 7
D es
E j
Ġ2 000
Ġo stringstream
99 7
Ġread Type
Ġfl ush
MMMMMMMMMMMMMMMM MMMMMMMMMMMMMMMM
; \
S egment
ĉĉĉĉ čĊ
ĠR OF
........ .
ĠU pdate
uff le
ĠDB G
perm utation
, ;;
h od
) <=
ĠC om
ill ah
5 10
Ġ Ã
Ġa ct
Ġd Power
Ġx s
lo or
22 22
################################ ################################
U se
Ġl ft
Ġp il
str len
Ġget line
mem o
' ];
R ight
Ġn s
ĠT ES
Ġw t
]) -
8888 8
he ck
) //
S olve
p x
Ġ<< =
ĠS ET
Ġpre sent
a pp
Ġa ng
D i
t j
ar n
Ġh o
Ġdb l
fact or
Ġchk max
I E
e q
on enti
Ġ++ _
8888 88
N um
U E
n ight
o stringstream
s ame
Ġs x
+= "
OR ARY
EMP ORARY
P r
n ost
v vi
Ġn Value
Ġfast IO
sq r
' ))
A M
r hs
Ġ" "
ffl ush
Ð ¸
Ñ Ģ
Ġl int
O f
y s
Ġ ero
Ġd c
ĠM S
ch ange
Ġst k
res olution
Con tain
g c
Ġr o
ĠS L
EEEE EEE
Ġemp ty
ĠĠĠĠĠĠĠĠĠĠĠĠĠĠĠĠĠĠĠĠĠĠĠĠĠĠĠĠĠĠĠĠĠĠĠĠĠĠĠĠĠĠĠĠĠĠĠĠ ĉ
) >=
2 88
W KKKKKKKK
a uthor
Ġa aa
++ );
WW KKK
EEEEEEEE EE
Ġ. :.
WWWWWWWW WW
DDDDDDDD DD
Ġ... ,.
KKKKKKKKKKKKKKKK KKKKKKKK
Ġon ly
tf LGG
40 3
â¢Ģ â¢Ģ
ser ve
//* //*
d a
e i
x y
Ġp ol
Ġen able
Ġdiag nost
Ġdiagnost ic
D I
Ġvv l
Ġ100 100
cept ed
++++ ++++
m l
Ġf ix
Ġt imer
Ġ2 00000
2 00010
M ode
P LL
n p
n ot
Ġn od
con j
ĠS S
Ġ\ \
141592653 59
Ġl et
id ul
Ġpr Contain
ĠC O
ĠPR INT
e ded
(" <<
ĠP ro
âķĲâķ¦ âķĲâķ©
Ġl num
oc ess
(_ )
war ukazu
'},{'.','.','.','.','.','.','.','.','. '},{'.','.','.','.','.','.','.','.','.
f ound
s d
ith ub
ER O
* )
c arry
Ġ' -'
Ġpre c
Ġchk min
O NLINE
i se
Ġc lear
Ġt out
Ġin i
Ġch oose
ab c
) ].
A H
Ġ **
Ġc al
Ġa p
){ }
ĠA l
In dex
âĸĪâĸĪâķ ĳ
ĠĠĠ ĉĉĉ
ĠF IN
Ġex hausted
ation s
C C
w ho
Ġn p
Ġd ud
Ġans w
Ġarg ument
MX N
Ġ1 4
+= '
âł ¹
lim it
48 3
Ġver tex
ĠFI LL
Ex p
c um
m atch
Ġf en
ĠS ORT
Ġ'? ')
A l
C M
ĠB IT
( ~
Ġd s
Ġj t
Ġr ge
Ġpr od
Ġsy stem
141592653589793238462643383279 50
L OG
#### ###
Ġ1000 10
sc ore
main ing
Arr ays
P ath
Ð »
re ase
ĠG raph
all y
;;;; ;;;
Ġnumber s
L ast
g ithub
Ġa y
Ġm ll
ĠC ON
Ġvi ew
h h
l hs
re ate
Ġre pd
)) ))
fr iend
f un
Ġ' ('
Ġch min
Ġ100000 5
] ->
in verse
Ġ" ")
Ġe ach
(( *
ĠE dge
- ');
H ead
Ġc x
Ġc or
Ġ* __
In it
Ġxy Point
= %
] %=
a o
<< __
ĠT s
ke k
ĠB U
acti ve
R es
p y
Ġ& (
Max n
################################ ################
erse ction
versed IntegerRange
S ingle
Ġint er
Ġre sp
ch k
Ġde cltype
18 28
ĠInt eger
Ġho ge
E qual
o ver
Ġs w
Ġs fl
Ġ4 0
AT E
P air
in s
Ġs b
Ġe q
Ġ/ \
cur rent
Ġrep lace
V AR
r un
Ġch max
he ight
Ġs ource
Ġt imes
ĠĠĠĠĠĠĠĠĠĠĠĠĠĠĠĠĠĠĠĠĠĠĠĠĠĠĠĠĠĠĠĠ ĠĠĠĠĠĠĠĠĠĠĠĠĠĠĠ
Ġ\ |
t olower
Ġ( #
Ġt im
Ġt ag
le t
ĠT H
Ġe qual
)) .
â¢ »
==' \
onenti ation
' ][
f p
Ġ ..
define d
Ġpr op
ĠP i
Ġisp rime
8 6
R I
Ù Ħ
Ġ 64
Ġp y
ĠI I
ĠB ASE
8888888888888888 88888888
S ub
b fs
Ġ ...)
Ġp x
ma s
Ġle v
del ta
F ind
v p
Ġ) :
â£ Ĩ
Ġsort ed
Ġne ver
â£¿â£¿â£¿â£¿â£¿â£¿â£¿â£¿ â£¿â£¿â£¿â£¿â£¿â£¿â£¿â£¿
[ ]=
z z
Ġm set
Ġf ail
Ġs igned
E DD
I R
W EEEEEEEEEEEE
KK E
KK W
WW KKKKK
Ġ2 56
Ġpr im
<<" )
Ġ. ::.
WWW K
Ġsh ould
tf GGGDDDDDDDDDDDD
Ġ.: ;
f o
Ġ2 3
Ġth r
, `
h ome
n u
in i
le m
.... :
Ġ% .
ĠD ebug
10000 01
di vi
âĶĢâĶĢ âĶĢâĶĢ
G L
s valc
x s
Ġm o
Ġd t
Ġpre p
20 3
aa aa
sub tree
right Child
7 8
C ol
] ^
k a
n orm
r ank
v b
Ġf out
ĠF ield
ĠP F
5 000
c all
v ed
Ġ ï¿½ï¿½
se eing
ar p
Ġre q
Ġg e
Ġo str
Ġz ipper
Ġan y
Ġrt n
14159265358979323846264338327950 288
Ġm atch
---------------- --------
Ġsc ore
Ġcol s
Ġsf ll
20000 1
147 483
Ġmod inv
ĠC H
3 6
T N
f unc
Ġi stringstream
Ġp al
ll int
// ~
Ġfor it
ĠF T
ĠN L
fi eld
are a
Ġg i
Ġnum eric
left Child
Ġcase s
O U
Ġre l
Ġw ays
min us
10000 000
100000000 0
Input Iterator
C D
c ode
t aken
Ġf t
Ġb al
!= '
]); }
____ _
ent s
' ));
A rg
c u
t d
st k
Ġl ps
seg ment
db l
Ġ ****************
re serve
Ġ( &
Ġp e
Ġb et
Ġ- (
__ <<":
ĠF ind
lo ad
Ġlb nd
ucl ide
i mp
o se
**** */
Ġu id
Ġu ti
Ġub nd
4 2
; )
] &
Ġs rt
Ġ') ';
+ "
Ġp ob
ĠT imer
Ġpos sible
à¦ ¿
ĠRA Iter
? -
F I
Ġ **/
Ġb ind
<< ","<<
Ġre pr
<<" ("<<
Ġcon nect
Ġfast io
NN NN
Ġalloc ate
? "
O p
S z
T he
V s
b i
Ġ []
Ġc d
ĠL B
âł ī
1415926 5
Ġmodul o
buff er
147483 647
, '
D iv
Ġs ll
Ġt b
Ġtr av
Ġ', ',
Ġdig it
, :.
5 00005
â£ ¤
ĠR REP
======== ====
ah man
ÐĲ Ð
: /
_ )
d r
ĠT N
Ġvis it
Ġdefine d
[]={ -
âĸĴâĸĴâĸĴâĸĴ âĸĴâĸĴâĸĴâĸĴ
) ++
h en
Ġpair t
â£ ¶
Ġld b
)+ '
"" ""
plic it
ĠTES TS
5 2
s ource
t ar
Ġ old
ĠI s
ĠFOR N
Ġhe ight
j a
k i
r nd
re ated
........ ..
count er
Ġ4 2
up id
Ġms g
af e
ww w
Ġpro blem
âķĲâķ¦âķĲâķ© âķĲâķ¦âķĲâķ©
I C
j ect
or ds
Ġl a
Ġd a
er t
. \
Ġa x
Ġh a
ĠR est
Ġ"; __
ĠO f
Ġoptim ization
SE T
Ġend s
â¡ ĩ
Ġper m
" >
D FS
T able
c n
Ġa pp
() <
######## ##
Ġsc i
Max N
) |
j t
Ù Ĳ
DDDD D
]] ){
ï¿½ï¿½ï¿½ï¿½ ï¿½ï¿½ï¿½ï¿½
M ACRO
r x
Ġ ------
// .
Ġt i
Ġ2 0000
]) ){
10 3
({ {
si ve
Ġsp ecial
gr am
1234567 89
: ",
S h
e qual
g ot
k top
Ġa nc
it ch
ĉĉĉ Ċ
()) -
99 9
cc cc
Des ktop
F irst
a ux
n i
q ry
Ġmin n
ï¼ ģ
G i
b x
l z
u g
Ġj ud
00000000 0000000000
B IT
G NU
w ay
Ġa fter
Ġf b
ĠR es
f h
al k
pp ed
ĠO ut
and ard
Ġ. ,
Ġle ad
Ġsh a
Ġun ion
f ix
p f
r ope
Ġm ode
], &
Ġh ow
AC H
Ġ'. '
M onoid
w ik
| =
Ġm l
Ġ2 2
max l
ĠD ist
âł »
ĠH OME
Ġdi vs
77 72
Ġ(~ (
u v
Ġv ld
it f
Ġ& ...
]) *
Ġmem cpy
Ġhe ap
dig its
) &&(
T IME
c ut
Ù Ĵ
Ġ ï¿½ï¿½ï¿½
Ġl z
KK WWWW
Ġll inf
GG DDDDDDDDDDD
Ġ10000 1
WWWWWWWW WWWWWWWW
âł ¿
Ġun ique
Ġ.: ,:
7 1
F low
d g
mod ul
000 1
ĠG cd
]+ (
ie v
à¦ °
Ð¾ Ð
F T
R ep
Ġn b
Ġpr ob
Ġprint Single
Ġ'. ';
Ġwh en
34567 89
R R
e ll
f d
g en
Ġ1 3
pos s
vis it
97 8
Ġrow s
Use rs
ĠR D
rem ove
Ġpw r
Ġmk p
âłĢâłĢ âłĢâłĢ
' ]=
Ġ endif
ou pper
Ġb ot
Ġy ear
li p
AN G
jk stra
d le
Ġi mag
Ġe very
Ġre maining
ti ces
ĠM D
ĠV s
ĠV VI
<<"[ ";
ĠCON T
7772 16
: %
P RO
Q uery
_ .
f ail
on es
() &&
........ .....
____ ___
ĠC P
get line
Ġcl k
(' -');
ãĢ Ĳ
ãĢ ĳ
GNU C
= __
Ġc b
it ive
>> {
Ġ6 3
qu are
sh ort
Ġim ie
G et
] <<"\
i us
y ear
Ġ JUDGE
Ġa v
Ġ1 11
Ġ2 1
ig h
Ġst upid
ï¼ Į
8 2
r om
Ġc a
er os
Ġre size
ĠP ower
ĠB S
' ].
H T
h am
k y
x b
z i
Ġ< >
Ġa ss
en ce
for i
]] +
s f
Ġ) );
Ġpoint er
â£¿â£ ·
arn ing
i sp
11 1000
Ġse en
]==' *
Ġext ended
Ġsuff ix
Ġover flow
æ ķ
Ġl t
Ġl arge
Ġd j
Ġun ite
Ġ": "
Ġsp eed
ĠSH OW
( --
, *
1 33
e e
i able
m itr
se en
Ġp art
ac he
op tim
ĠT o
Ġy s
Ġ10 5
az e
Ġsc c
500 1
» ¿
ï »¿
Ġ stre
Ġse q
TES T
bin ary
ĠOut put
Q UE
ou n
ur s
Ġd on
ĠA N
ĠA c
ind x
Ġelement s
Ġ ****************************************************************
Ġf loor
ou gh
ĠR I
sh ift
]<= '
Ġï¿½ï¿½ï¿½ï¿½ï¿½ï¿½ï¿½ï¿½ ï¿½
l x
{ {
ĠO F
________ __
inf o
Ġfin ish
Ġcy cle
Ġ'* ')
Ġgener ated
b te
r p
t oupper
Ġ' +
ag ate
Ġcomp are
ĠComp are
ucl id
O M
d j
v x
st andard
Ġs rc
ĠT r
Ġw a
ĠM ore
ĠP OW
ck et
æķ °
9 4
: ...
e am
Ã ł
Ġp hi
ter n
54 77
) >::
8 1
A ll
A lex
s w
Ġv r
Ġw arning
Ġq ueries
Ġst m
}; //
ĠAc cepted
. "
7 3
D EP
G raph
T O
p at
x a
Ġs on
Ġt urn
ĠC heck
58 07
âĸĪâĸĪâĸĪâĸĪ âĸĪ
uck y
prod uct
Exp onentiation
4 99
B LE
t K
t empl
æ ľ
Ġ' _
om et
âĸĴ âĸĦ
22 337
14159265358979 3
68 5477
203 685477
22337 203685477
D mitr
J Helper
T H
v t
w ord
en i
ti i
Ġ2 4
Ġbit set
ĠJ Helper
ey Dmitr
Alex eyDmitr
AlexeyDmitr iev
t urn
Ġm si
Ġx r
Ġr rep
Ġ' (')
]) /
ĠS ize
;;;; ;
à¦ ¨
row s
ah idul
dis able
exp o
]>= '
Th an
c at
j d
t v
Ġl inf
Ġ} */
ti ent
Ġw ay
ĠS um
ff f
Ġlo ok
Ġ100 5
ĠInput Iterator
cy cle
41 97
DB G
Ġskip Whitespace
W ord
Ġ ************************
Ġp fl
Ġd ump
ĠF R
is s
Ġget int
ave s
S H
w ick
Ġ ))
is Whitespace
ĠS eg
Ġit n
!! !
14159265358979323846264338327950288 4197
22337203685477 5807
) ^
i an
k en
Ġf e
Ġj oin
Ġ2 8
Ġ| \
Ġrep i
Ġ\ /
FF ER
IT E
) <=(
v y
Ġn c
ou s
ul er
ĠINF LL
MMMM M
ĠO p
Data End
b c
c std
t k
for ward
---------------- --------------
Ġinit ial
iiii iiii
L ONG
Ġu map
Ġsp ace
br ur
Ġhell o
sl ope
ĠCom mon
& (-
P R
R oot
h an
h alf
Ġ< (
at an
Ġmod Pow
18 0
Ġ10000 01
Ġpow w
sol ver
Ġsi de
D ice
b g
q s
Ġu max
ĠĠĠĠĠ Ċ
Ġst ore
ĠĠĠĠĠĠĠĠĠĠĠĠĠĠĠĠĠĠĠĠĠĠĠĠĠĠĠĠĠĠĠĠ ĉ
âĸĳâĸĳ âĸĮ
pd d
Ġ100000000 000000000
//////// ////
ay er
ant s
Imp l
ðŁĴ©ðŁĴ© ðŁĴ©ðŁĴ©
P RE
s Count
è ¿
Ġ .....
Ġ *****
re ader
Ġn C
ath er
aa a
Ġdo es
init ial
................................ ..
Ġwe ight
Ġhtt p
ï»¿ #
: .....
K WWWWWW
L GGGDDDDDDDDDDDD
P OW
() %
Ġ" ?
WW KKKK
Ġw atch
LL GGDDDDDDDDDDD
Ġo cc
EEEE D
00000000 00000000
DDDD DD
KKKKKKKK KKK
ĠV L
Ġread Array
20 10
;;;;;;;; ;;;;;;;;
WWWWWWW KKKKK
h at
v owel
ĠU B
........................ ..
vers ity
S A
Ġf p
Ġr v
== =
Ġy n
Ġg l
Ġun z
ĉĠ ĉĉ
AN S
e ight
o ll
de n
Ġ{ "
Ġf il
Ġb i
**** /
Ġu min
Ġq ry
Ġ# "
un used
ĠL S
LI B
PP L
s dbg
Ġl in
am p
if ul
ĠD i
Ġex plicit
-------------------------------- --------------------------------
****** /
Ġnot hing
Ġrel ax
C ircle
n v
p nt
Ġm u
Ġp nt
Ġr it
Ġ2 00010
th ing
ĠFOR R
ER E
Ġpow m
Ġor ig
ho ge
o red
p v
Ġp u
Ġd f
ti Test
ĠS tr
ĠR ead
ĠL G
tim er
Ġread Impl
ĠAr r
(_ ,
Ġinit Arrays
Ġsub m
number s
ĠSegment Tree
G CD
Ġt x
Ġll u
Ġg g
ĠA R
Ġ5 000
ĠX XX
Ġvv ii
cy c
$$ $$
ĠEnd l
Ġpol y
; _
E OF
s o
} ]
ĠĠĠĠĠĠĠĠ ĠčĊ
Ġt Start
id th
"<< __
In v
Ġfact d
IG HT
" +
S top
e ach
f c
Ġc os
cl r
it a
ing s
Ġ2 01
ĠD L
ĠD ata
ĠMX N
ra w
à§ į
Ġdig its
A K
F raction
f re
can d
Ġtr y
val array
ver tex
12 3456
3333 3333
Se arch
ĠCO MP
) ]);
B its
D S
T eam
l in
de v
++ ]);
Ġ3 3
ĠL cm
Ġde ep
di vs
Ġbit maxl
ĠUn i
8 3
= {
g on
n Value
Â ¦
Ġ ##
Ġi gn
Ġl cp
Ġf io
le af
Ġ& );
bu w
il on
â£¿â£¿ â£¿
MMMM MM
ĠIn it
%%%% %%%%
A t
f valc
re am
]) *(
ch ain
>= _
Ġeps ilon
Ġ(" .
Ġext gcd
dec ay
h ull
s v
re ction
0000 01
ĠA pp
ĠP L
get num
" ){
) >(
O K
T imer
i b
ĉĉ Ġ
Ġp uti
Ġv t
Ġb x
sp l
ĠĠĠĠĠĠĠĠĠĠĠĠĠĠĠĠĠĠĠĠĠĠĠĠĠĠĠĠĠĠĠĠĠĠĠĠĠĠĠĠĠĠĠĠ čĊ
Ġlow bit
sh uffle
ä »
de tail
Ġ" +
ĠT EMPORARY
Ġ' ||
Ġu li
ĠP RO
Ġit em
âĸĪâĸĪâĸĪâĸĪ âĸĪâĸĪâĸĪ
Ġmaxim um
Ġsmall est
Ġbuff er
n pos
w b
Ø ±
Ġm ore
Ġr x
hi m
Ġto Int
ĠLL D
IO S
value s
ĠUni versity
D ebug
K i
O S
se lf
Ġf un
Ġp v
Ġ2 147483647
is m
10 2
ĠD A
Mod Int
ik aze
ĠPrint s
ä¸ Ģ
9 5
: ;
b ute
f b
k ikaze
t sc
un iform
Ġinf ll
32 1
Ġcomp ute
Ġco ef
ï¼ģ ï¼ģ
' );}
) --)
: \\
; ,
P art
de nom
Ġr n
cond ition
Ġpr in
Ġpos ition
di vis
Ġscan I
Ġscan L
RE C
Ġpt s
...... :
jk l
Ġ{{ {
wr iter
ism illah
' re
G D
c as
m r
å °
Ġ ort
Ġs it
Ġ" =
er c
id s
set s
ĠF A
-------- -
... (
tr a
ĠV V
Ġneg ative
# .
3 00000
S eg
t arget
os ite
<<" {
Ġcon tainer
ĠP A
sort ed
âł Ļ
ĠH ash
el p
polic ies
" ))
å Ī
Ġu f
ĠF J
Ġroot s
' ll
) >>(
3 000
V owel
d ing
i red
w y
ï ¹
ĠĠ ĉĉĉ
Ġc u
Ġpair s
ĠP ER
Ġst derr
ĠC h
Ġto o
Ġmul mod
ng ine
E xt
O r
d st
f en
j ump
se s
OD E
Ġde lete
Ġcl z
"<< #
one y
add Edge
11111111 11111111
over flow
/ =(
/ ************************
T aken
n ex
Ð ¡
å Ĳ
Ġp ss
cl es
er active
ĠT C
as df
Ġz ip
15 0
â¡ Ħ
âĸĮ âĸĮ
___ (
] ++,
_ [
n Time
Ġint eger
Ġ* _
an ges
for geeks
im um
10 11
Ġ_ .
tr ace
est or
######## #
pt s
ĠMA IN
ĠApp ly
G cd
O n
T Y
W IN
} ),
00 1
() ];
Ġt ab
Ġ' {
ĠM DL
ĠL CM
Ġget s
++-- ++
Ġthe re
OUT C
++--++--++--++--++--++--++--++--++--++--++--++--++--++--++--++-- ++--++--++--++--++--++--++--++--++--++--++--++--++--++--++--++--
geeks forgeeks
) ||(
C L
u le
Ġm ust
Ġn u
ur ation
Ġd l
Ġr otate
Ġy yy
Ġw ant
ĠM ove
]) ==
min n
Ġvii i
point s
___ /
Ġ'" '
erc iful
F R
z e
Ġ DD
Ġc ub
Ġma g
)) -
pr im
<= _
erator Monoid
ĠL ONG
"<< (
ĠE x
Ġmap a
âĸĳâĸĳâĸĳâĸĳ âĸĳâĸĳâĸĳ
â¡ Ī
Ġwrite Char
LI M
Ġdec rease
Ġref lect
tri bute
DEP REC
k v
Ġp ot
at tribute
Ġr mq
Ġw ord
Ġ| __
Ġ3 00005
Ġld ouble
tim es
pre sent
Ġnum s
ĠQ uery
ĠUn ique
ĠSP EED
L OCAL
W ith
b akh
Ġm rand
Ġcon vert
ĠF ord
ĠA BC
que st
100 500
Ġadd Edge
................ ....
pol y
;;;;;;;; ;
ĠĠĠĠĠĠĠĠĠĠĠĠĠĠĠĠĠĠĠĠĠĠĠĠĠĠĠĠĠĠĠĠĠĠĠĠĠĠĠĠĠĠĠĠĠĠĠĠ ĉĉ
Ġang le
2 55
M ap
l arge
r at
in ic
-- .
Ġr f
Ġpr ocess
tr ans
Ġstdin Buffer
oc c
20 5
stdin Buffer
1111 11
UT ION
Out put
ĠFI X
ĠUn ion
b ot
f up
k o
n max
Ù ĳ
ĉ ĠĠĠĠĠĠĠĠĠĠĠ
Ġ EE
Ġs ome
Ġif stream
Ġh elp
ĠI F
âł Ī
Ġsub tree
s ieve
in ary
Ġs max
Ġint ersection
Ġv it
ĠM N
ĠN N
point er
C ost
P ar
S quare
l cm
n ep
de nt
se ed
Ġs r
os ition
nt ime
ĠM ul
OD O
Ġh h
Ġun iform
yy o
Ġal pha
Pro ject
ĠAN S
W EE
o x
s ha
z a
Ù ħ
Ġd ays
__ <<"
)) &
ĠD F
ĠO I
Ġne eded
Ġli ke
E i
E KE
E ND
G EE
K D
W KKKKKKKKKKKKKKKK
d at
w ork
de lim
Ġm f
Ġf DEEEE
Ġint ersect
.. ;
con t
end s
KK WWW
DD f
IN G
WWWW WKK
ĠC ount
KKKKKKKK KKKK
EEEEEEEE E
fl g
WWWWWWWW KKKKK
DDDDDDDD DDDDDDDD
âł ģ
KKKKK WWKKKKK
Ġinv fact
jj t
KKKKKKK WKK
WWWWWWW KKKKKK
EEEEEEEEEEEE EEE
Ġel if
we en
Ġï¿½ï¿½ï¿½ï¿½ï¿½ï¿½ï¿½ï¿½ ï¿½ï¿½
WWWWW KKKKK
LGG DDDDDDDDDDDD
,,,,,,, ;;;;
Ġ.... ::::
tj LLGGDDDDDDDDDDD
ĠPro blem
B e
T wo
q rt
s n
t w
); //
Ġl son
-- (
Ġb a
Ġr son
........ ...
num s
ĠMEM S
<<") ";
_ ##
clu ding
er ation
for r
Ġ// //
Ġh s
ĠINF L
âķĲâķ Ŀ
ĠLOG N
Ġmaxim ize
+ ".
B uf
G en
M at
U M
Z ERO
f ull
ĉ ĠĠĠĠĠ
it em
Ġq pow
-------- --
Ġst eps
AR T
ĠV P
................ ...
ost m
av y
, {
U n
f oo
j ud
l r
l cp
al ign
ĠM at
ĠF L
Ġq s
mod ify
ĠC ASE
]={ };
ĠIn cluding
200 100
write Char
Ġ'# ')
) ],
M A
S ort
a ult
x r
§ ÙĦ
Ã ¥
Ġv x
Ġr ad
ĠT ODO
ĠL CA
Ġis in
20 20
Ġver tices
ĠUN I
ĠØ §ÙĦ
[ -
p h
s cc
w d
Ġn ax
ir d
Ġre cur
Ġre pp
ut u
)) ==
et a
mod int
Ġse eing
]==' #
ĠEND L
zi pped
' ])
< >
F AST
I S
L ist
c i
e le
l ag
st dex
Ġb as
__ ),
op cr
Ġg ive
Ġpr nt
Ġpr ln
Ġld bl
Ġsh ahidul
Ġmove s
Ġcomb ine
ĠIt erator
stdex cept
opcr of
5 77
E X
F act
L i
N ame
a ei
f mt
o ice
Ġmod Int
Ġall r
Ġle af
âķ ļ
âĸĢ âĸĴ
:. :.
multi precision
Ġ'" ';
Ġmag ic
- ';
~ (
in side
Ġa to
Ġ} }}
ou ps
Ġb c
Ġ== >
Ġ2 7
Ġu set
Ġget bit
and om
................ .
à¦ Ł
tic al
Ġminim ize
ĠĠĠĠĠĠĠĠĠĠĠĠĠĠĠĠĠĠĠĠĠĠĠĠĠĠĠĠĠĠĠĠĠĠĠĠĠĠĠĠĠĠĠĠĠĠĠĠĠĠĠĠĠĠĠĠĠĠĠĠĠĠĠĠĠĠĠĠĠĠĠĠĠĠĠĠĠĠĠĠĠĠĠĠĠĠĠĠĠĠĠĠĠĠĠĠĠĠĠĠĠĠĠĠĠĠĠĠĠĠĠĠĠĠĠĠĠĠĠĠĠĠĠĠĠĠĠĠĠĠĠĠĠĠĠĠĠĠĠĠĠĠĠĠĠĠĠĠĠĠĠĠĠĠĠĠĠĠĠĠĠĠĠĠĠĠĠĠĠĠĠĠĠĠĠĠĠĠĠĠĠĠĠĠĠĠĠĠĠĠĠĠĠĠĠĠĠĠĠĠĠĠĠĠĠĠĠĠĠĠĠĠĠĠĠĠĠĠĠĠĠĠĠĠĠĠĠĠĠĠĠĠĠĠĠĠĠĠĠĠĠĠĠĠĠĠĠĠĠĠĠĠĠĠĠĠ ĠĠĠĠĠĠĠĠĠĠĠĠĠĠĠĠĠĠĠĠĠĠĠĠĠĠĠĠĠĠĠĠĠĠĠĠĠĠĠĠĠĠĠĠĠĠĠĠĠĠĠĠĠĠĠĠĠĠĠĠĠĠĠĠĠĠĠĠĠĠĠĠĠĠĠĠĠĠĠĠĠĠĠĠĠĠĠĠĠĠĠĠĠĠĠĠĠĠĠĠĠĠĠĠĠĠĠĠĠĠĠĠĠĠĠĠĠĠĠĠĠĠĠĠĠĠĠĠĠĠĠĠĠĠĠĠĠĠĠĠĠĠĠĠĠĠĠĠĠĠĠĠĠĠĠĠĠĠĠĠĠĠĠĠĠĠĠĠĠĠĠĠĠĠĠĠĠĠĠĠĠĠĠĠĠĠĠĠĠĠĠĠĠĠĠĠĠĠĠĠĠĠĠĠĠĠĠĠĠĠĠĠĠĠĠĠĠĠĠĠĠĠĠĠĠĠĠĠĠĠĠĠĠĠĠĠĠĠĠĠĠĠĠĠĠĠĠĠĠĠĠĠĠĠĠĠ
Ġsha red
ĠArr ay
; */
] };
c os
i q
p ot
t b
t ask
x D
Ġ ],
Ġ ent
Ġt en
(), ::
â¡ ·
ĠInput Iter
Ġcross Oper
float field
ĠSt art
bas ic
By One
tra its
#. #.
Ġdecrease ByOne
" };
5 00000
? ?
N C
f u
s b
t em
Ð º
Ġpr l
//// //
ĠB it
ES S
Ġis s
/******************************** ********
Ġdivis or
Ġign ored
L ower
` .
f ul
r ary
Ġs ay
Ġ& ,
ch e
}; ///
ak i
Ġse arch
]==' ?
(' -'
Ġpop cnt
Rep lace
7 5
D ig
L azy
w here
y k
Ġp ass
Ġv y
(), "
ĠN ot
Ġse ive
Ġgcd Ext
rg t
Ġshort est
Oper ation
('-' ),
4 59
a use
d ump
Ġp ull
Ġr file
Ġw file
âĸĳ âĸĲ
________ _,
â¡ Ģ
Ġcount Bits
Ġgr oup
ahman ir
ĠOp eratorMonoid
) ||
C ode
f LL
r v
s r
Ġf read
Ġs min
Ġj ump
Ġre d
Ġmem s
Ġrep e
ĠLL INF
Ġread Double
................................ ....
clz ll
âĸĳâĸĳâĸĳâĸĳâĸĳâĸĳâĸĳâĸĳ âĸĳâĸĳâĸĳâĸĳâĸĳâĸĳâĸĳâĸĳ
bt empl
499 6
sCount er
9 6
a ke
j an
Ġn ex
Ġk now
ab el
50 1
read Int
AS H
AA AA
A Y
r otate
u y
in ator
Ġb ut
__ ,_
ĠM M
ĠS C
ĠO K
Ġgo al
50 10
19 8
iiii ii
âĸĲ âĸĳâĸĳâĸĳ
we ight
256 000000
) <<(
c entroid
Ġ YES
Ġf re
Ġp h
00 7
__ |
Ġw w
ĠF args
Ġfi b
cc c
Ġstart s
RE AD
TT Y
Th xD
ĠNumber Iterator
@@@@@@@@@@@@@@@@ @@@@@@@@@@@@@@@@
################################################################ ################################################
PRE TTY
ThxD em
0 33
u dge
Ġm ost
Ġs fi
Ġ<< '\
// ++--++--++--++--++--++--++--++--++--++--++--++--++--++--++--++--++--++--++--++--++--++--++--++--++--++--++--++--++--++--++--++--
Ġb oth
ch ed
IN PUT
ĠS F
ĠP ow
lo se
Ġse e
++--++-- ++--++
Ġ", "
++--++--++--++-- ++--++--++--++
++--++--++--++--++--++--++--++-- ++--++--++--++--++--++--++--++
ms g
âĸĪâĸĪâķ Ĺ
ismillah ir
ĠFIX ED
//++--++--++--++--++--++--++--++--++--++--++--++--++--++--++--++--++--++--++--++--++--++--++--++--++--++--++--++--++--++--++--++-- ++--++--++--++--++--++--++--++--++--++--++--++--++--++--++--++
' ),
9 1
w h
y b
Ð Ķ
Ġd st
Ġin side
pr op
ĠA bs
â£ §
Ġh ull
Ġmp ow
Ġadd mod
10000 10
Ġle f
comp ute
Ġdi rection
Ġbe fore
Ġdis c
te am
) ])
7 1828
Ġa for
pr i
ĠN o
ĠS OL
Ġpb ds
Ġis digit
Ġvv vi
200 1
************** *
Ġbl ack
Ã¥ Ã
d uration
u c
Ġ od
Ġi l
Ġf pow
Ġb t
le ase
ĠĠĠĠĠĠĠĠĠĠĠĠĠĠĠĠ ĉĉ
ĠT ASK
ate s
Ġg t
Ġin dist
ĠA kikaze
Ġit s
ĠI S
Ġpos s
ĠO M
Ġdb gs
Ġprint array
II II
Ġext ra
ef ine
<<"] ";
AND OM
ĠBU FFER
' -'
S p
_ ^
m b
Ġi end
if e
Ġ| /
()) :
Ġget F
Ġprint s
+=( (
âĸĴâĸĴâĸĴâĸĴ âĸĴ
ization s
Ġref erence
ĠFast Read
) >=(
r ig
u al
x c
ã Ĥ
re ge
Ġa i
Ġ} ,
Ġt d
Ġj ust
â£ ¦
12 7
Ġ10000 10
ĠĠĠĠĠĠĠĠĠĠĠĠĠĠ čĊ
dd dd
Ġindex ed
Ġscl l
problem set
MS C
modul o
rege x
) ]=
C y
D e
t ut
u ild
Ġ âĢ
() !=
iz er
____ __
ĠĠĠĠĠĠĠĠĠĠĠĠĠĠĠĠĠĠĠĠĠĠĠĠĠĠĠĠĠĠĠĠ ĠĠĠĠĠĠĠĠ
________ ___
Ġex ist
Ġcom mon
Ġbit count
55 5
__, __
total Count
U R
U pper
b ur
q ueries
Ġn m
Ġ1 10
Ġs afe
Ġe s
ve x
im ie
count s
141592653 6
Ġev ents
âĸĳâĸĳâĸĳâĸĳâĸĳ âĸĲ
' -
L ANG
int ersect
Ġif ndef
__ ((
ĠN um
]- (
Ġset In
Ġset Out
Ġbit num
FFFF FFFF
ward Iterator
Ġdivis ors
DEPREC ATE
C O
R ITE
` ,,
Ġp sum
Ġp si
() /
Ġt v
pos sible
]] ]
Ġ10 10
Ġset bit
â¢ ¾
Ġind x
ä¸ ª
âĸĪâĸĪâķ Ķ
Ġdivi de
//*//* //*//*
abc def
__,_ |
' m
A Z
L ess
] ||
c al
è ¡
Ġs g
ĠĠĠĠĠĠĠĠĠĠĠ čĊ
Ġt ar
Ġ" ;}
an e
Ġans s
ed g
ĠF W
ĠA ND
... ,
Ġh or
ĠI f
Ġread N
-' ){
Ġon bit
C h
R ow
g hi
s ave
Ð £
å ı
in ite
Ġl r
Ġm is
Ġf ree
Ġp queue
Ġv out
Ġt ask
Ġr ll
ĠD S
Ġ10 1
ĠV EC
20 1
function s
pro gram
Ġchild ren
1024 000000
xy z
Ġ'{ ';
) ->
L ES
S N
l v
p art
Ã ®
å ¤
Ġreturn s
ĠT ask
Ġ2 27
ĠF RE
Ġmod pow
Ġo t
ĠR a
ĠR ed
wer ty
ĠRe versedIntegerRange
plus plus
ĠInteger Range
dev ice
R est
r l
Ġ( _|
Ġp lace
() ).
le f
ĠM p
ĠG NU
ĠB inary
Ġ100000000 00000000
ex cept
ost ate
ME M
ĠÐ ¿
Ġ"{ "
Ġoff set
qr st
uv w
Ġ'+ ')
" :
G reater
N max
j i
ä º
å ĩ
Ġi ceil
Ġt w
op qrst
]= ++
et urn
... >
Ġ_ `
Ġ(( *
Ġto String
mn opqrst
Ġno except
Re versedIntegerRange
âĸĦâĸĢ âĸĴâĸĴ
jkl mnopqrst
Ð¡ Ð
abcdef ghi
abcdefghi jklmnopqrst
7 6
8 5
B G
i G
p e
r ad
-- -'
<< ((
Ġx b
Ġe uclide
Ġu l
)) +
)) ,(
ĠA DD
â£ ł
ĠL e
Ġstdin Pos
Ġstdin DataEnd
ĠO N
)){ }};
fin ish
Ġte am
itt le
Ùİ Ùĳ
Ġprop agate
ĠTimer Start
uvw xyz
! (
D iff
M ask
de dge
Ġc pp
ll ow
ma il
Ġre max
Ġ' :
ĠD SU
all ah
Ġfr r
left Count
Ġexp o
St ack
================================ ============
Ġ<<" \
tK arp
opcrof tKarp
################################################################################################################ #
abcdefghijklmnopqrst uvwxyz
) };
2 15
s g
ll ong
Ġb ar
ac ity
ir l
Ġr sz
-------- ----
Ġ__ __;
Ġmin us
Ġ7 7
({ -
Ġal gorithm
Ġal ways
bl ack
ple Test
Ġthr ust
! \
F ile
N T
p n
u nd
v f
å Ľ
Ġy a
.... ,
DD i
ĠB R
Ġmx s
Ġread Long
Ġof stream
Ġfast er
200 200
ĠFAST IO
For ce
Ġab c
[_ ]
': '
initial izer
: ,
B U
D EEEEEEEEEEEE
G WWWKK
K G
K WW
K EEEEEEEE
L GGGG
P E
W EEEEEEEE
W EEE
W KKK
W KKKKKKK
m ix
t or
t GG
x f
in file
Ġ1 80
out file
Ġt ie
KK G
KK i
WW EEEEEEEEEEE
EE L
EE f
od o
Ġk o
Ġw or
ble ms
DD WWKK
EEEE ED
... */
WWWW K
Ġch ain
tr ol
/* ...
EEEEEEEE EK
,,,, ,;
DG f
EEE WEEEEEEEEEEEE
KKK WWW
KKKKK WWWWWWWWW
KKKKK WKKKKK
Ġ... ,:
[]={ +
KKKKKKKKKKKKKKKK KKKKKKKKKK
KKKKKKKKKKKKKKKK KKKKKKKKKKKKKKK
be ki
................................ .
DDDDDDDDDDDD DDD
WWWWWWW KKKK
WWWWWW KKKKK
::: ..
Ġ.: ,;
DEEEE E
DEEEE KKKKKKKKKK
,,, :.
EEEEEEEEEEEEEEEE E
ij LGGGDDDDDDDDDDDD
rd v
GGGGGGGGGGGGGGGG GGGGGGGG
EEEEEE DDf
DEEE KKKKKKKK
Ġ.:. ,:
itf GGGDDDDDDDDDDDD
Ġ..... :::..
ĠMul tiTest
ĠOI mode
D own
r mq
de t
Ġl x
set fill
ĠS FL
ĠP FL
Ġit os
ĠH eap
Ġcomp onent
Ġ9 87
16 93
................................ ......
3 00010
M I
V E
f ll
o od
Ġ' /
>> &
ul ation
Ġ# %
un ite
map a
(- (
pl ace
Ġ100 1
Ġdo Replace
neg ative
........................ .....
Sh ort
pleTest Mode
A uthor
I f
a de
d ul
h ost
Ġ inclu
Ġf write
Ġe le
as d
pair s
ĠS ort
ĠĠĠĠĠĠĠĠĠĠĠĠĠĠĠĠĠĠĠĠĠĠĠĠĠĠĠĠĠĠĠĠ Ġ
ĠB e
]] -
Ġsub mod
ĠRE AD
Ġfunction s
Ġbet ween
ham dul
141592653589793238462643383279502884197 1693
hamdul illah
1415926535897932384626433832795028841971693 99
8 4
B R
e ve
f tree
f align
q x
s DEB
Ã ²
Ù ı
re a
Ġs ave
Ġb an
al i
Ġr p
Ġr nk
ĠA BS
â£ Ģ
Ġ3 6
fs ched
()); }
]] >
Ġz z
)( __
======== ==
bb b
Power Of
____________ __
PowerOf Two
f e
k s
m erciful
x po
Ġ ****************************************
Ġ 997
() *
op le
ĠS p
ign ore
mx N
Ġpower mat
Ġmy rand
Mod Matrix
Ġfin al
ĠZ ERO
âĸĵâĸĵ âĸĵâĸĵ
âķ¬âķ¬âķ¬âķ¬ âķ¬âķ¬âķ¬âķ¬
divi der
" ).
' ==
2 000000
Ġfor t
con nect
(" {
Ġr ot
ĠD OU
ĠC reated
âĸĳâĸĳ âĸĪ
]+ =(
ï¿½ï¿½ï¿½ï¿½ ï¿½ï¿½ï¿½
ta b
Ġsc f
ĠMax n
5555 5555
DB N
TASK NAME
Ġam ount
ĠDOU BLE
] --,
a fter
c opy
f out
i stringstream
n ik
in al
Ġw alk
is alpha
Ġh alf
ul i
Ġst op
Ġ(" -
Ġnext Int
ca le
Ġthr ough
A P
N ot
T t
f ma
m v
r nk
Ġc reate
Ġr l
op t
ĠĠĠĠĠĠĠĠĠĠĠĠĠĠĠ čĊ
LL L
ic es
pos ition
lo cale
ĠB y
â£¿â£¿ â£·
&& !
Ġis Square
Ġ4 7
Ġ4 00
Ġfr action
up er
â¢ ¯
MMMMMMMM M
Ġ"] :",
EC T
â£¿â£ ½
â£¿â£ Ĩ
(""); }
âĸĳâĸĳâĸĳ âĸĢ
Se cond
]]]] ]]]]
â£Ĩ âł¹
âłī âłī
wik i
Lower Case
P ref
_ \
w ise
Ġl ife
en wick
Ġt ut
er al
ar th
ĠT ype
os s
Ġre min
Ġy b
et ch
/* !
33 3
In Out
go al
])) );
gr oup
ĠMax N
Ġline s
/******************************** ************************
ĠFor wardIterator
Ġbo ard
Ġnormal ize
Ġck max
Ġimp lement
Ġrandom Integer
spl it
71828 1828
. _
7 4
V ec
Y NC
b rr
c plusplus
d h
d t
d im
f open
r all
s rt
Ġ ĉčĊ
Ġc m
Ġm st
ret ty
at s
Ġma y
Ġg a
ĠL E
ff t
Ġset IO
Ġmx n
Ġas sum
Ġ9 223372036854775807
Ġ'# ';
ĠBig mod
ĠPower Mod
Upper Case
} ");
ĉ ĠĠĠĠĉ
st eps
or ig
Ġl y
Ġf lip
Ġn j
Ġd v
Ġre qu
Ġg p
... ));
Ġh and
//////// /
ĠFOR d
âĸĴ âĸĲ
Ġfr u
Ġread Integer
ĠE Q
ST R
37 510
Ġprint v
OUT PUT
Ġio i
Ġrg t
Ġmultiply Mod
Ġminim um
Ġgot o
1234 5
ĠFT B
quest ions
141592653589793238462643383279502884197169399 37510
A head
H eap
T R
t ext
t nm
Ñ ĩ
ç Ĥ
Ġ âĸĪâĸĪâķĳ
); */
Ġl v
Ġm stream
Ġv li
Ġt k
Ġb f
Ġy o
ĠM ap
pr ocess
is Prime
10 9
of ile
get s
th an
par ator
Ġcount s
deg ree
Ġ12 3456789
ĠFORE ACH
ĠFA IL
çĤ ¹
. )
G LI
U pdate
Ñ Į
Ġ 99999999
Ġc tr
Ġn v
** */
Ġv pl
Ġu u
ĠL ast
res h
Ġmid dle
88888888 8
Ġzero es
child ren
================================ ==
Ġoff bit
Comp lex
block s
ĠFast IO
ĠBig Mod
Ñģ ÑĤ
Ġ|_| \
]=='* ')
) ]++;
/ ****************
B l
U p
o y
x i
| =(
Ñ ĥ
st ants
][ __
le yk
Ġ* )
ue ue
â£ Ħ
........ .......
ast er
ĠĠĠĠĠĠĠĠĠĠĠĠĠĠĠĠĠĠĠĠĠĠĠĠĠĠĠĠĠĠĠĠ ĠĠĠĠĠĠĠĠĠĠčĊ
ĠB FS
)% (
', ');
ĠMAX K
1000 5
âĸĳâĸĳâĸĳâĸĳ âĸĲ
1415926535897932 3
Ġwrite Word
23 53
Ġct z
eed Force
Ġck min
Ġha leyk
0 3
2 10
N ext
P S
_ );
u a
Ġ 97
st a
re ment
Ġ( ){
ac ent
ct r
ĠĠĠĠĠĠĠĠĠĠĠĠĠĠĠĠ ĠĠĠĠĉ
Ġre gister
Ġg re
et hod
Ġde n
Ġfast power
@@@@ @@
Ġmark ed
Ġfactor ize
BC XX
omet hing
GLI BCXX
6 64
T EMPORARY
Y n
] }
b X
g i
l and
r in
r ound
ķ Ð
Ġc cc
Ġm ed
Ġf ather
Ġs ink
Ġx or
Ġma xt
ĠC C
ext ra
ĠĠĠĠĠĠĠĠĠĠĠĠ Ċ
ĠV al
Ġread Ahead
ha h
Ġwrite ln
------ -
},{ -
Ðµ Ð½
Ġtake mod
âłĽ âłĽ
Ġlocal host
Segment Tree
++++++++ ++++++++
ĠInteger Iterator
Ġevery thing
iable s
eturn s
4 20
6 54
F IN
F unction
M y
e ff
l op
v pii
w hite
x or
Ġ ********************************
in ity
Ġn il
Ġs ig
() <=
am ple
mp le
Ġr y
Ġr ig
Ġe kv
Ġ' [
], -
)) !=
Ġ&& ...
Ġ/ :/
ĠA IM
10 7
ĠP os
Ġ__ ___
ĠD C
Ġz et
Ġ\ __
Ġth en
Ġfact ors
âĸĢâĸĢ âĸĢ
****** */
Ġstruct ure
po z
fin al
____________ ___
Ġ'# '
Ġstack overflow
Ġconnect ions
isp rime
Z ero
f ree
j oin
o z
s ingle
on ly
Ġc nk
Ġb ra
Ġ" ="
(); (
Ġis PowerOfTwo
<<( #
âł ĩ
141592653 5
ary anc
ref erence
Ġback s
/************************************************ */
ĠEX IT
Ġprim os
TY PE
Ġinclu sive
E of
E LE
M Q
j f
o a
Ð ĵ
Ø Ń
Ġa max
Ġa min
Ġf nd
Ġf up
.. ,
id o
00000000 1
Ġz eros
]==' (')
Ġbo x
//////////////////////////////////////////////////////////////// ////////////////////////////////
Ġ'* '
ĠTH E
__<<": "<<__
Ġass ign
3 60
E Q
b log
g ain
m ed
Ġ( ));
on al
Ġa mt
Ġs omething
Ġt int
Ġma n
:: :.
Ġk ill
set w
ĠM MM
ĠM AT
ĠM ain
as g
... :
____ __,
,, ;
ĠB G
sum m
14159265358 98
66 66
........................ .......
0000000 1
,,,,,,,,,,,,,,,, ,,,,,,,,
......... :
<<"{ ";
3 0000
: -
> )
C K
C ON
C PPL
S OL
b an
c st
c hi
l at
z et
Ġp lld
Ġs ii
Ġr k
ĠN X
Ġ__ __
') *
Ġto ken
Ġinf i
@@ @
xx x
Ġcomp ress
<<": "
Ġcount bit
qu ence
ĠSP CPPL
Ġ10000000 21
åĽ ŀ
0 123456789
G ET
J K
] ^=
_ /
} "<<
Ġ 88
ĠĠĠĠĠĠĠĠĠĠĠĠĠĠĠĠ ĠĠĠĠčĊ
const ant
Ġe e
Ġe lem
Ġk b
Ġcon tain
ĠA L
-------- -----
Ġst ar
cnt r
Ġget Sum
]] !=
ĠINF INT
ĠV AR
100 10
ce ll
â¢ ¹
Ġseg tree
right Count
Ġwrite Int
Ġdeg ree
âĢ Ļ
, ',');
/ |
2 14
M DL
^ ^
l ucky
() >=
Ġv il
// {
er m
Ġx l
Ġre ach
is y
ĠP r
AR E
Ġpll l
20 97
di ct
16 777216
read N
Ġnorm mod
Ġta j
efine s
& )
< >,
x l
å ħ
Ġ 9999
Ġ" '
ti al
Ġ' >
("% "
ĠM Y
Ġh are
Ġmake it
ĠL ang
to tient
vi ky
Ġcom e
comp osite
Ġvv b
Ġed g
14159265358979323846 26
27 1
/************************************************ ******/
è¿ Ķ
ĠnC r
]=='? ')
* =-
6 00
G R
c ore
t om
Ø ³
de m
Ġ= >
Ġs lld
Ġb ec
Ġb rr
ac a
yp ot
Ġma ny
ol og
sp f
DD E
Ġmax c
ĠS I
ĠR ES
ĠC SE
Ġsort a
Ġpos itive
Ġread String
Ġle ast
Ġvv pii
Pos sible
Ġco ll
Ġdiff erence
case s
Ġpro blems
'},{'.','.','.','.','.','.','.','.','.'},{'.','.','.','.','.','.','.','.','. '},{'.','.','.','.','.','.','.','.','.'},{'.','.','.','.','.','.','.','.','.
Ã® Ã
, ``
> "
c f
f name
g mail
j l
p al
p li
s sert
v d
v r
st op
it es
Ġd ad
end ido
]= "
Ġ) \
ĠL IE
Ġsum s
Ġ5 5
â¢ ·
ST ART
pow mod
root s
200 2
be fore
itt en
â£» â£¿â£¿
EN T
suff ix
eight ed
â¡Ī â¢¿
ĠgcdExt endido
ĠBinary Operation
) !=(
0 8
G IC
Y Y
Y ou
i N
l as
n j
p tion
x ff
} ));
ĉ ĠĠĉ
re ap
Ġc ps
Ġa li
Ġa ug
Ġm b
Ġn t
() <<"\
-- '
// /*
Ġr ound
hi p
)) ){
Ġg ll
]) //
ans w
he lp
all oc
Ġcl one
ce ption
ĠInt eractive
Ġwh ite
ĠFor E
bo ard
Ġ` "
:::::::: :
Ġgener ate
ĠAR Y
aei ou
. :
E n
P arent
c v
Ġc i
Ġc ar
Ġs v
Ġs ff
-- ->
Ġe y
Ġy Last
second s
line s
ĠS A
ĠS olution
Ġ_ |
64 000000
ĠB ang
Ġarr i
atr i
à¦ ²
Ġ9 000000000000000000
ĠW RITE
ĠPR Id
â¡¿ âł
UL O
( ==
? (
A V
D is
T OR
f il
g ap
r sz
s gn
v ot
Ġc entroid
Ġc present
Ġint t
-- >
Ġt u
Ġd at
er ing
id ge
__ ))
Ġll int
Ġe uler
)) <
ĠN UM
base d
Ġh t
Ġh am
ĠĠĠĠĠĠĠĠĠĠĠĠĠĠĠĠĠĠĠĠĠĠĠĠĠĠĠĠĠĠĠĠ ĠĠĠĠĠĠĠĠĠĠĠĠĠĠĠĠĠĠĠĠĠĠĠ
ĠD E
11 00
ĉĉĉĉĉ čĊ
ĠH ERE
lic e
-------------------------------- ----
Ġtotal Count
df n
Ġ500 5
Dig it
(== )
& =
O P
R d
W rite
c ess
v ir
Ġfor mat
er a
Ġr w
as ing
Ġcon v
ed ia
ĠR ALL
ip edia
97 7
ab a
à¦ ®
Ġ((( (
300 5
!=' -')
Ġ------ -
denom inator
Ġtaj ir
è¿Ķ åĽŀ
' ]--;
C ur
I s
_ -
e tic
v ect
v pll
z x
Ø ¨
Ġt our
Ġt olower
Ġ" }
um n
ĠP ll
Ġtr a
Ġh ar
Ġcnt r
un ion
ĠB UG
ithm etic
ĠO FF
Ġ1000 111000
âĸĳâĸĳâĸĳâĸĳ âĸĮ
Ġvv pll
hs h
38 9
Ġpp f
Ġ'? '
divi de
wik ipedia
optim izations
Ġpoly gon
asdf asdf
Cy cle
( !=
5 00010
F r
L CA
M ay
] )))
k ing
k night
x p
¦ Ĭ
ĉĉ ĠĠ
Ġc lose
() <<"
// --------------------------------
Ġlong est
ĠT L
Ġ// ~
Ġ) .
ĠV PII
Ġset w
100 3
','. ','
po sed
Ġcy c
ðŁ ¦Ĭ
ĠAl hamdulillah
Ġcor rect
uclide an
(!= )
V ar
c W
h y
t I
Ġc ut
Ġb g
ĠĠĠĠĠĠĠĠĠĠĠĠĠĠĠĠ ĠĠĠĠĠĠĠĠčĊ
an ces
ĠS c
Ġ3 00000
un i
Ġde q
ĠMAX M
Ġ. '
30 5
Ġor g
29 3
Ġls b
<<", ";
ffff fff
inter val
OO P
##~~##~~ ##~~##~~
Ð£ Ð¡Ð
B reak
G T
N ew
_ <
f G
æ Ĺ
Ġ our
Ġ âķļ
Ġp n
Ġk hod
as u
]) .
Ġcon d
ĠA A
ĠĠĠĠĠĠĠĠĠĠĠĠĠĠĠĠĠĠĠĠĠĠĠĠĠĠĠĠĠĠĠĠ ĠĠĠĠĠĠĠĠĠĠ
ĠC U
ĠC ODE
âĸĪ âĸĮ
88888888 888
à§ ĭ
~~~~ ~~~~
da u
0 45
D ec
G f
S P
Z Z
e a
e lem
p as
æ ĺ
Ġc as
Ġc ache
Ġf etch
(" ?
Ġr ch
Ġ' ]
un k
âĸĳ âĸĦâĸĢ
bu cket
ĠD FOR
ĠC ac
Ġget Max
il n
Ġsort d
Ġ4 09
ĠE ngine
âĸĴâĸĴ âĸĴâĸĦ
lib rary
//////////////// //////
Ġfast InOut
22 2
Ġbe li
&( ~(
!! !!
ĠTimer Stop
jump s
trol IO
ĠEngine ering
& >::
) \
_ ];
l h
Ð ¼
Ġ= ================
Ġl op
Ġs cd
Ġt G
:: ..
Ġe qu
WW EE
LL AH
â£ ¼
;} };
Ġcnt bit
ĠC alc
lo ve
Ġsort ing
Ġis Le
Ġ\ _|
vi ous
58 2097
â¢ ł
ĠW A
Ġï¿½ï¿½ï¿½ï¿½ï¿½ï¿½ï¿½ï¿½ ï¿½ï¿½ï¿½ï¿½
â£¿â¡ ĩ
Ġfd to
Ġimp l
move s
Buf Size
Ġcpp str
14159265358979323846264338327950288419716939937510 582097
' ve
( ...);
. ;
D f
G B
b ar
c or
c ar
h er
w hitespace
ĉ ĠĠĠĠ
Ġb lo
le s
Ġ' <
Ġ' -';
Ġ2 00001
Ġ++ (
... ;
Ġ3 0000
Ġst ay
Ġst uff
Ġmp p
Ġget num
Ġde s
Ġsize s
ver tical
Ġrep s
)( '
======== =
..... ,
AT CH
Ġbuf Size
KE K
Ġà¦ Ĩ
49 44
Ġbinary Search
ref lect
sd k
Ġunz ipper
14159265358979323846264338327950288419716939937510582097 4944
* ((
5 0000
: .............
: .................................
; ................................
; ,.
D KK
D EEEEEEEEEEE
G DDD
K EEE
K DEEE
N AN
U U
W KKKKKK
f D
i DD
k l
q e
Ð ŀ
ç Ľ
st an
Ġf Read
Ġf Write
cl oc
Ġv int
Ġb st
ĉĉĉ Ġ
KK EK
:: ,
:: ,,,,,,,;;;;
ĠĠĠĠĠĠĠĠĠĠĠĠĠĠĠĠ ĠčĊ
WW KKKKKKKKKKKKKKKK
WW KE
WW EEEEEEE
EE KK
EE DDDD
EE KKWWWW
DD L
DD DG
Ġ: ,;;
ĠP O
EEEE EED
WWWW KKKKKKKWKK
=( __
Ġh sh
ĠC ont
ĠC Tr
DDDD DDD
Ġis vowel
ĠO P
Ġ", ++
Ġ. ;
Ġ. :::
WWWWWWWW WWWWWW
WWWWWWWW WWK
GGGG DDDDDDDDDDD
GGGG GL
DDDDDDDD D
WWW KKKKKKKKKK
WWW KKKKKKKKKKKKKKK
//////////////// ///
KKK WWWWWWWW
KKK WWK
inv fact
KKKKKKKKKKKKKKKK W
KKKKKKKKKKKKKKKK WKKKKKKKK
DE i
WK E
iv o
tf GGGGDDDDDDDDDDD
St amp
WWWWWW KKKKKK
EEEEEEEEEEEE E
," /
WKK WK
WWWWWWWWW GWWWKK
...... ,
...... ;
ED i
KW EK
ij LG
'},{ '
WKKKKK i
Ġpat tern
ĠEX P
DEE KKK
Ġact ive
Pair s
111000 111
æľ ī
ĠfDEEEE EE
WWWWWWWWKKKKK i
WWWWWKKKKK WWWWWWWWWWWW
Ġ....:::: ..
Sort Comp
è¡ ¨
GGGGGGGGGGGGGGGGGGGGGGGG GG
Short est
Ġ.::: ;:
0 2
F ield
I nc
M x
R eturns
g l
Ġ ####
re sp
Ġ( &...
Ġr FOR
Ġe ver
Ġ' }
as y
im al
Ġmin heap
Ġsum m
he st
Ġfr ont
ec ution
ĠY ou
vv l
Ġ100000 3
................................ ................................
calc ulate
VEC TOR
'},{'. ','
âĸĳâĸĳâĸĳâĸĳâĸĳ âĸĮ
459 045
718281828 459045
Ġ1000111000 111000111
718281828459045 2353
, --
; ,,
B O
C heck
I ns
Q ueue
T C
t am
Ġ ****
de ep
Ġ0 123456789
Ġv ect
Ġv ull
Ġfor up
Ġx a
Ġ2 00000000
Ġ, &
Ġ| _
ĠP ref
ĠR and
ĠC an
pp ort
VA L
1000 11
âĸĢ âĸĪâĸĪâĸĪâĸĪâĸĪ
)* ((
Ġas d
cc ess
âĸĪâĸĪâĸĪâĸĪ âĸĮ
fact ors
âĸĢâĸĢ âĸĳâĸĳâĸĮ
mark ed
âĸĦâĸĦ âĸĳâĸĳâĸĮ
," %
Ġsd k
Ġ200 100
âĸĪâĸĪâĸĪ âĸĮ
itt ing
tic ulation
âĸĢâĸĢâĸĢâĸĢ âĸĢâĸĦ
Ġcor ner
âķĲâķ¦âķĲâķ©âķĲâķ¦âķĲâķ© âķĲâķ¦âķĲâķ©âķĲâķ¦âķĲâķ©
jd flg
577 215
âĸĲâĸĳâĸĳâĸĳ âĸĦâĸĦâĸĳâĸĳâĸĮ
ÐĶ Ð
âĸĢâĸĢâĸĢ âĸĴâĸĴâĸĴâĸĴâĸĴâĸĴ
alloc ator
Ġ409 6
577215 664
E ven
M Y
b st
f ig
k t
p ur
v ent
Ġ( --
Ġa gain
Ġf c
Ġn max
ĠF ix
Ġ3 7
ĠG en
Ġset fill
Ġmx m
12 0
1000 100
ab b
ĠH opcroftKarp
Ġvv v
30 7
inf uck
Min Val
Ġbs r
bo x
Ġ') ')
Ġ(_ )
ser ved
rd tsc
optim ize
Ġunz ip
================================== +
Ġbra infuck
. ,
> ())
C E
C P
[ ";
c oun
k th
r ht
w itch
å º
Ĳ ¹
de lete
Ġp red
// '
Ġb el
Ġr ai
ti l
<<" ?
ĠS LL
Ġmp ii
om in
') ';
Ġbool alpha
Ġ", ";
)<< ","<<
xx xx
IT Y
Ġpa use
ðŁ Ĳ¹
<<"] \
Ġuti lity
ðŁ¦Ĭ ðŁ¦Ĭ
æĺ ¯
G N
P rint
a ut
b p
c z
r n
r im
Ġa o
Ġfor l
Ġr an
Ġw on
Ġin stead
ch oose
ii iii
Ġq e
Ġsecond s
sum s
Ġinf l
Ġmn m
Ġas df
22 9
1111 1
com b
âĸĪâĸĪâĸĪâĸĪ âĸĪâĸĪ
ĉĠ ĉĉĉ
Ġfo llow
Ex ecution
stri ct
Ġte ll
AB C
Ġuti ls
Ġstre e
ĠSeg Tree
1 31
: `
C out
O k
W hen
[ !
] /=
b es
c en
c begin
m u
n YES
â ĺ
å ®
Ġi str
Ġi ds
re ach
Ġc ircle
ame ter
ĠF r
ĠN ext
ĠS witch
â£ ŀ
Ġar y
Ġ_ =
â£¿ â¢Ģ
min x
ĠD O
MAX L
all a
Ġset max
Ġmx x
oc al
Ġsc s
â¡ Ĩ
34 9
Ġà¦ ķ
bo ok
ope Timer
â£¯ â¢¿
Ġsl ope
â£½ â£»
MMMMMMMMMMMMMMMMMMMMMMMMMMMMMMMM MMMMMMMMMMMMMMMM
â¢Ģâ¢Ģ â¢Ģâ¢Ģ
â£¶ â£¶
Ġav ail
Ġsubm itting
divis ors
ĠPA IR
â£§ âłĺ
Ġ227 420
ĠSc opeTimer
Ġ227420 978
C R
G E
Q Q
c id
i ent
m iss
n NO
r ot
s hip
de st
Ġl w
Ġf w
Ġt xt
type s
ĠT ry
Ġcin i
Ġre ct
]) !=
pr ob
), -
Ġq y
()) *
ĠC ost
Ġde t
ĠB uild
)% =
fi b
******************************** *****
ST L
Ġen i
100000 6
28 7
Ġneg a
ĠMA GIC
æľ Ģ
ethod s
' ]);
1 79
5 26
V L
c ircle
d ges
j e
z eros
æ ŀ
<< =
ĠF o
ĠC ircle
ĠI D
ĠI L
ĠO L
Ġ[ "
/// --------------------------------
Ġ^ _^
Max Val
ĠK night
Ġbe f
Ġright s
ha ha
uff ix
Ġmodular Exponentiation
}} }
XX XX
ĠFF T
Ġlarge st
sw itch
4 97
: ";
B B
X Z
_ =
d ate
h ow
p ass
p retty
re set
Ġ( ),
Ġm il
Ġm oney
Ġp of
Ġd ust
Ġre served
Ġw l
ĠM em
ch u
Ġmod Add
ic o
Ġ7 2
Ġ\ :\
à¦ ķ
Ġmulti map
AT ION
element s
Ġsu ma
ter s
Ġpl us
Ġ"{ }";
anc estor
ĠNO T
å° ı
divide nd
M ove
M ain
l m
p ull
r on
r it
r an
t ms
y o
ĠĠĠĠ ĉčĊ
Ġm om
Ġv ir
ac b
con test
__ )(__
sp eed
ĠM x
<<" }";
Ġmax heap
ĠP DD
10000 2
read y
ĠW H
199 9
Ġdo ing
Ġtop olog
Ġ200 5
âĸĢâĸĦ âĸĳâĸĳâĸĳâĸĳ
ĠBig Int
ĠDebug ger
Ġbet ter
PRO G
ĠPRO GR
]=='# ')
âĸĳâĸĳâĸĳâĸĳâĸĳâĸĲ âĸĳâĸĳâĸĳâĸĳâĸĳâĸĳâĸĳ
L et
O I
T p
d n
m st
r ge
v iz
Ð ł
ĉĉ Ġĉ
-- ;}
Ġb te
ĠT emplate
ĠF lag
ĠS h
Ġo c
Ġo i
ĠC ase
ĠC opy
ĠE LE
Ġne p
ST D
-= '
Ġmulti pleTestMode
su ma
AT OR
EC K
Ġdeb arr
Ġpo z
ĠRA H
FFFF FF
Debug ger
C ont
W E
W I
¦ ģ
Ð ´
æ Ħ
Ħ ï¹
ĠĠĠ ĉĉĉĉ
Ġ= {
st ar
Ġi sz
Ġc reated
// */
at ing
Ġin q
Ġmod inverse
max v
Ġ__ _____
Ġh rs
Ġst t
ĠG r
ge ti
Ġ5 55
Ġ-- ){
Ġadj list
Ġ6 1
Ġcheck Mod
Ġon line
Ġcan h
29 07
ord in
Ġco ords
1010 101
ls o
Ġdeb pr
Ġgen erator
ĠDirection s
888888888888888888888888 8
cu oi
â£¤ â£¤
Ġstre ss
{{ {
Ġfil ename
ï¹ Ħï¹
Ġcub e
Yn B
Ins ide
æĦ ı
ï¹Ħï¹ ĥ
* >
2 30
4 00000
W atch
_ ((
f x
p hi
r ate
| !
Ã ¨
Ġ ol
Ġm ex
Ġn inf
Ġp fs
// _
Ġfor ward
op s
Ġe m
ol y
Ġre n
stre ad
ĠF IO
nc r
Ġ| .
Ġst able
âĸĳ âĸĪ
Ġde nom
Ġ7 98
Ġset base
Ġpre compute
now n
Ġoptim iz
ĠX OR
Ġbu cket
1000 1
si der
ĠK MP
LE N
Ġhe art
mul a
Ġ"] "
Ġà¦ ı
20000 2
anc ed
inter cept
RI X
/************************ ***
ĠisLe ap
B ase
C or
D el
W all
e uclid
r ahman
s ink
u ary
x cross
Ġ{ },
Ġm ish
Ġf pi
Ġn pq
std int
std ata
Ġb ip
Ġfor m
Ġfor do
ize d
Ġr m
ĠT O
(); *
"; }}
ĠF unction
is space
Ġmod Div
10 198
ĠP DE
put nb
Ġ3 60
ĠL azy
ĠD fs
]== ')
ĠI R
Ġ? ??
Ġ100000000 5
Ġ100000000 0000
Ġ10 11111111
Ġread in
az fast
atr on
Ġvv ld
Ġbit on
Ġbit off
Ġemp b
gr ade
Ġsf d
te stdata
ln b
St ream
à§ ģ
Ġ~ /
)(( ((*
cs lnb
del rahman
Ġobj ect
Ġqu it
Ġxy Line
SS I
ov ed
acti ce
ĠCon tainer
norm fac
lz y
ĠSHOW VECTOR
SOL UTION
ssert sCounter
Ġaug ment
141592653589793238462643383279502884197169399375105820974944 59
Ġoptimiz a
Ġmish atron
2 50
? '\
A dj
H I
H ERE
X Y
l ittle
r al
w idth
Ġi x
Ġc st
Ġc op
Ġn th
Ġint o
Ġ" []
Ġd w
ĠT h
nt on
>> ,
Ġk th
ĠF enwick
is whitespace
Ġmod Sub
00000000 000
ĠL IM
Ġto str
fr ac
MMMM MMM
Ġlen a
'. ';
43 1
ST AN
el s
Ġgr af
100000000 0000000000
sh ow
Ġfin p
Ġsu re
8888888888888888 88
Ġ` .
Ġtop r
ĠÐ ·
Ġ50 5
Ġalloc ator
var i
çļĦ å
Tr ie
Ġge ti
dbl cmp
!!! "
ĠSp eedForce
ðŁĲ¹ ðŁĲ¹
Ġary anc
" \
+ --
+ ",
> ((
A rea
R ed
S Q
T args
c ent
d v
ĉ ĠĠĠĠčĊ
Ġ Â
ĠĠĠĠĠĠĠĠ ĉĉ
Ġl as
it or
Ġt re
Ġb akh
:: _
Ġe f
)) ][
Ġw idth
set base
]) ]
can t
Ġ// ////
Ġ// /////////
et ree
Ġq i
Ġo v
ĠP RE
Ġar ticulation
ag etree
ĠC o
ĠC nt
Ġ5 00000
Ġinf LL
mx m
Ġstr a
Ġ! !
Ġth ree
Ġvv d
pl ayer
ON E
be long
Ġtime Stamp
/******************************** ******
Ġrd tsc
ire ct
Ġpd queue
Ġce ll
acc ess
ĠIterator Type
CON STAN
Ġcanh azfast
5 12
C rt
D bg
K night
Y ear
d l
f printf
i y
q werty
r m
ä ¼
de q
Ġi a
Ġc are
Ġa uthor
Ġf open
Ġp as
en cy
() :
Ġr loop
ĠT his
ĠT IE
an o
sp ot
Ġg u
ĠM ASK
ĠS W
ĠP air
ĠL og
**************** *****
Ġse ed
Ġ7 8
sk ip
88888888 88
Ġpow s
II I
Ġ'. ');
print Line
Ġ-------------------------------- ----------------
11111111 111
ru ntime
Ġprec ision
Ġge omet
Ġ'|| *
Bl ack
Crt Dbg
CrtDbg Break
+ ((
7 09
I K
N MAX
P tr
R a
S PC
U ONG
e uclidean
f nd
q t
s at
u nt
{ '
Ù Ĩ
Ġc at
Ġc oun
Ġ1 14
Ġs n
Ġs main
ar ithmetic
type cast
sp ar
Ġ3 000
ĠR ANDOM
em s
ĠINF F
ĠV S
Ġ-- ++--
100 2
Ġtmp v
Ġac cepted
Ġsh uffle
Ġtest Case
ĠJ ew
mon ostate
**************************************** **
0000000000000000 00000000000
1111111111111111 11111111111
ĠØ§ÙĦ Ø±
ĠSOL UONG
ĠCopy right
ĠJew el
J un
L f
S YNC
T ask
} ]=
} ;}
Ñ ĭ
Ù Ĭ
Ġ ######
Ġ ---------
Ġ" ");
__ );}
ĠT p
Ġre unique
sp ecial
Ġ2 39
ĠF X
88 1
ĠN AME
ĠP PII
Ġtr ail
Ġ3 20
;; )
ort h
ĠD ate
ĠC F
ĠC MP
Ġread Line
Ġpi e
Ġull i
ĠH ASH
temp oraryNode
à¦ ¤
à¦ Ľ
lim N
ĠMod Inverse
ĠALL AH
Ġ', ')
ĠPR S
ĠPrint V
ĠÐ ½
Ġspl ay
________________________________ ________________
/__ /
<<") ";}
Ġ**************************************************************** *************************************
fc se
rad ius
Ġ'[ ';
æĹ ¶
ĠPROGR AM
1 37
9 223372036854775807
: ......:
; :.
D an
F rom
b el
ä ½
Ġ ])
ĳ Ðŀ
Ġi dent
re l
Ġc ans
Ġc sum
Ġn ok
Ġp lease
Ġ1 123456
Ġb id
al go
ĠĠĠĠĠĠĠĠĠĠĠĠĠĠĠĠ ĠĠčĊ
Ġ2 28
Ġ) %
ĠF OUT
ĠN E
ĠS ync
â£ ´
Ġcnt s
ĠĠĠĠĠĠĠĠĠĠĠĠĠĠĠĠĠĠĠĠĠĠĠĠĠĠĠĠĠĠĠĠ ĠĠĠĠĠĠĠĠĉ
Ġget v
th ird
Ġ7 77
ĠFOR IT
Ġstr i
ĠĠĠĠĠĠĠĠĠĠĠĠĠ čĊ
10000 9
:::: .
âł ¸
(' <<
à§ Ł
**************************************************************** ****************************************************************
bbbb bbbb
bbbb bbb
cstd int
Ġ|_|\ __,_|
blog spot
SPC PPL
# ';
4 00005
E uclid
L S
T ION
W e
q we
Ġ OR
re g
Ġa tr
Ġm it
Ġn dp
Ġ> &
yp ow
Ġx i
Ġx Last
Ġw ar
ĠM B
ow ed
Ġmax v
ĠS e
ag ic
=( *
ĠĠĠĠĠĠĠĠĠĠĠĠĠĠĠĠĠĠĠĠĠĠĠĠĠĠĠĠĠĠĠĠ ĠĠĠĠĠĠĠĠĠĠĠĠĠĠĠĠĠĠĠ
Ġget Min
Ġset Bit
Ġ-- -
Ġread Table
ĠU S
Ġne igh
<<' ('<<
//////////////// ////////////
AL T
par ity
ang ed
âĸĵ âĸĪ
ĠComp ut
ãĢ Ĥ
Ġsmall er
Ġng y
Ġdef ault
Ġra and
Ġbot tom
âĸĮâĸĮ âĸĳâĸĳâĸĳâĸĳâĸĳ
Ġato i
intersect ed
ĠLe ft
' };
* )&
0 6
F ree
H OME
I l
] <<(
f y
l is
Ñ ı
Ġ= ================================
def ault
Ġ{ //
Ġm v
Ġf ull
Ġf uck
cl k
Ġd out
ect ed
ĠĠĠĠĠ ĉ
ĠM O
ĠF ill
ot a
ĠL et
________ _
Ġ. '.
Ġput num
Int ersect
Ġmn x
]={ -
read th
Ġprime list
Ġbuf At
\\ \\
ĠComp lex
Ðµ ÑĤ
DEF INE
Dist ance
VER S
bal ance
ÑĢ Ð¾
Al go
tar un
ðŁĴ©ðŁĴ©ðŁĴ©ðŁĴ© ðŁĴ©ðŁĴ©ðŁĴ©ðŁĴ©
ĠDi jkstra
Or der
Un ion
Ġimplement ation
654 321
Ġfetch er
# $
' ],
( ';
) [(
9 000
B lock
b k
f loor
h f
h our
Ø §
); ;
Ġl es
Ġa nt
.. /
it ies
us k
str chr
ĠT A
ue ss
Ġe sp
Ġre calc
Ġw ind
Ġ: )
Ġop eration
Ġmin x
mod inv
Ġsz e
ĠD X
Ġall rev
ext ended
Ġse gs
fr q
oc ol
88888888 88888
comp ress
par se
âĸĦ âĸĴâĸĴâĸĴâĸĴ
Ġdi sp
fast io
Ġke ep
Ġ") \
Ġsu ch
Ġext r
Ġorder set
âĢ Ķ
DI A
aaaa aaaa
Ġextended Euclid
Ġ100000000000000000 7
ĠUNI VERS
Ġbeli eve
SSI BLE
Ġaugment ing
ĠUNIVERS ITY
2 000000000
D C
F args
O dd
T OC
] <<'\
f lip
s ion
s fl
t out
~ !
Ð Ĺ
ļ ÐĲÐ
Ġa ut
se p
++ /
Ġ" <
:: ...
for u
Ġw y
ĠM int
pr ice
ve cin
ĠF low
ĠP H
â£ Į
un setf
ĠB i
MAX M
Ġ10 24
Ġex gcd
MMMMMMMM MM
av g
â¡ Į
seg tree
Ġ(* __
co ver
â£¿â£ §
â£¿â£ ¾
â£¿â£ Ł
â£¯ â£Ł
â£Ł â£¾
â£¿â¡ ½
SU CC
EMP L
/************************************************ /
>>>> >>
2222 22
!=' -'
Ġconnect ed
â¡ĩ â¢¸
Ġputi i
ĠPRO TOC
ofile Idx
ĠRES ET
ï¹Ħï¹ĥ ï¹Ħï¹ĥ
SUCC ESS
ĠPROTOC OL
B ASE
C N
O SSIBLE
P Q
l ans
n ing
o ok
Ð ²
é ĩ
Ġi q
Ġ( ::
Ġa e
Ġp m
Ġp ls
Ġp uu
(); )
Ġ2 50
Ġk mp
Ġpr f
ch ool
88 7
()) !=
ag onal
Ġh ope
ĠL i
ĠĠĠĠĠĠĠĠĠĠĠĠĠĠĠĠĠĠĠĠĠĠĠĠĠĠĠĠĠĠĠĠ ĠĠĠĠĠĠĠĠĠĠĠĠĠĠĠĠĠĠĠĠĠ
ĠD inic
tr y
ĠĠĠĠĠĠ ĉ
"); }
OR Y
ss s
Ġpre vious
ĠU L
'. ')
33 6
Ġthe y
Ġlo ve
Ġdist ances
())) ))
ĠDI S
Ġab delrahman
Ġdec imal
sl am
ctz ll
ose n
cccc cccc
Ġinitial ize
ĠAR G
Ġ201 9
ķÐ ľ
Ġtoken s
fil ename
Ġstri ct
4 01
A MP
E mr
N Q
m ost
å ¯
Ł Ð£Ð¡Ð
in ct
Ġn pair
Ġn om
() ].
ll l
<< _
Ġd m
if ic
id ges
__ <<
sp ec
Ġu c
back s
Ġg od
ĠF ile
Ġo set
ĠĠĠĠĠĠĠĠĠĠĠĠĠĠĠĠĠĠĠĠĠĠĠĠĠĠĠĠĠĠĠĠ ĠĠĠĠĠ
ĠD efines
ĠĠĠĠĠĠ Ċ
ĠB L
Ġ5 0000
/* #
ĠO n
15 1
Ġle aves
ie l
Ġcheck Bit
si mple
ĠW e
Ġgr oups
79 1
Ġgc dex
my Cout
Ð¾ Ðµ
Ġreset Bit
ĠRe set
EG IN
ĠCon stants
/__ \
reate st
ÐĲÐ ŁÐ£Ð¡Ð
ĠUnion Find
Project s
sha red
Ġwor ld
Ġbec ause
ļÐĲÐ ķÐľ
Emr ul
ÐĲÐŁÐ£Ð¡Ð ļÐĲÐķÐľ
" (
" ));
E ngine
O ff
T emplate
U I
V EN
W r
c sc
c ache
e of
g y
m oney
t ps
v ol
{ \
Ġ 99
Ġ} }
Ġ" >
Ġre ally
Ġu pp
Ġu ax
eg a
)) *(
ĉĉĉĉ ĉĉĉĉĉ
ĉĉĉĉ ĉĉĉĉĉĉ
Ġ// __
IN IT
Ġch unk
........ ....
em z
ion Projects
') +
ĠD R
lo bal
ĠB INF
ĠB IG
Ġout dist
32 7
ht tps
18 7
âķ Ĺ
Ġlo gn
Ġcomp s
av a
Ġwrite p
Ġ100000 6
hor se
ALL OC
8888888888888888 888
=" ",
Ġà¦ ¸
Ġ19 00
small er
]=='. '){
âĸĪâĸĪâĸĪ âĸĢ
IMP OSSIBLE
Ġ'-' ){
ĠĠĠĠĠĠĠĠĠĠĠĠĠĠĠĠĠĠĠĠĠĠĠĠĠĠĠĠĠĠĠĠĠĠĠĠĠĠĠĠĠĠĠĠĠĠĠĠĠĠĠĠĠĠĠĠĠĠĠĠĠĠĠĠĠĠĠĠĠĠĠĠĠĠĠĠĠĠĠĠĠĠĠĠĠĠĠĠĠĠĠĠĠĠĠĠĠĠĠĠĠĠĠĠĠĠĠĠĠĠĠĠĠĠĠĠĠĠĠĠĠĠĠĠĠĠĠĠĠĠĠĠĠĠĠĠĠĠĠĠĠĠĠĠĠĠĠĠĠĠĠĠĠĠĠĠĠĠĠĠĠĠĠĠĠĠĠĠĠĠĠĠĠĠĠĠĠĠĠĠĠĠĠĠĠĠĠĠĠĠĠĠĠĠĠĠĠĠĠĠĠĠĠĠĠĠĠĠĠĠĠĠĠĠĠĠĠĠĠĠĠĠĠĠĠĠĠĠĠĠĠĠĠĠĠĠĠĠĠĠĠĠĠĠĠĠĠĠĠĠĠĠĠĠĠĠĠĠĠĠĠĠĠĠĠĠĠĠĠĠĠĠĠĠĠĠĠĠĠĠĠĠĠĠĠĠĠĠĠĠĠĠĠĠĠĠĠĠĠĠĠĠĠĠĠĠĠĠĠĠĠĠĠĠĠĠĠĠĠĠĠĠĠĠĠĠĠĠĠĠĠĠĠĠĠĠĠĠĠĠĠĠĠĠĠĠĠĠĠĠĠĠĠĠĠĠĠĠĠĠĠĠĠĠĠĠĠĠĠĠĠĠĠĠĠĠĠĠĠĠĠĠĠĠĠĠĠĠĠĠĠĠĠĠĠĠĠĠĠĠĠĠĠĠĠĠĠĠĠĠĠĠĠĠĠĠĠĠĠĠĠĠĠĠĠĠĠĠĠĠĠĠĠĠĠĠĠĠĠĠĠĠĠĠĠĠĠĠĠĠĠĠĠĠĠĠĠĠĠĠĠĠĠĠĠĠĠĠĠĠĠĠĠĠĠĠĠĠĠĠĠĠĠĠĠĠĠĠĠĠĠĠĠĠĠĠĠĠĠĠĠĠĠĠĠĠĠĠĠĠĠĠ ĠĠĠĠĠĠĠĠĠĠĠĠĠĠĠĠĠĠĠĠĠĠĠĠĠĠĠĠĠĠĠĠĠĠĠĠĠĠĠĠĠĠĠĠĠĠĠĠĠĠĠĠĠĠĠĠĠĠĠĠĠĠĠĠĠĠĠĠĠĠĠĠĠĠĠĠĠĠĠĠĠĠĠĠĠĠĠĠĠĠĠĠĠĠĠĠĠĠĠĠĠĠĠĠĠĠĠĠĠĠĠĠĠĠĠĠĠĠĠĠĠĠĠĠĠĠĠĠĠĠĠĠĠĠĠĠĠĠĠĠĠĠĠĠĠĠĠĠĠĠĠĠĠĠĠĠĠĠĠĠĠĠĠĠĠĠĠĠĠĠĠĠĠĠĠĠĠĠĠĠĠĠĠĠĠĠĠĠĠĠĠĠĠĠĠĠĠĠĠĠĠĠĠĠĠĠĠĠĠĠĠĠĠĠĠĠĠĠĠĠĠĠĠĠĠĠĠĠĠĠĠĠĠĠĠĠĠĠĠĠĠĠĠĠĠĠĠĠĠĠĠĠĠĠĠĠĠĠĠĠĠĠĠĠĠĠĠĠĠĠĠĠĠĠĠĠĠĠĠĠĠĠĠĠĠĠĠĠĠĠĠĠĠĠĠĠĠĠĠĠĠĠĠĠĠĠĠĠĠĠĠĠĠĠĠĠĠĠĠĠĠĠĠĠĠĠĠĠĠĠĠĠĠĠĠĠĠĠĠĠĠĠĠĠĠĠĠĠĠĠĠĠĠĠĠĠĠĠĠĠĠĠĠĠĠĠĠĠĠĠĠĠĠĠĠĠĠĠĠĠĠĠĠĠĠĠĠĠĠĠĠĠĠĠĠĠĠĠĠĠĠĠĠĠĠĠĠĠĠĠĠĠĠĠĠĠĠĠĠĠĠĠĠĠĠĠĠĠĠĠĠĠĠĠĠĠĠĠĠĠĠĠĠĠĠĠĠĠĠĠĠĠĠĠĠĠĠĠĠĠĠĠĠĠĠĠĠĠĠĠĠĠĠĠĠĠĠĠĠĠĠĠĠĠĠĠĠĠĠĠĠĠĠĠĠĠĠĠĠĠĠĠĠĠĠĠĠĠĠĠĠĠ
ĠRa him
Ġbel ow
ÐĹ ÐĲÐŁÐ£Ð¡ÐļÐĲÐķÐľ
) });
0 4
4 43
C EP
c se
f as
g ht
h p
de cl
st er
se l
Ġf valc
Ġp DD
Ġt ext
Ġb k
Ġb sh
if i
(" !
al a
ĠT emp
Ġe pr
], (
ans s
Ġh v
ot al
ĠL INE
ĠC hi
NO T
Ġis Arr
Ġis Inside
14 9
ĠE ACH
22 7
Ġvv s
Ġprint a
oth ing
ĠĠĠĠĠĠĠĠĠĠĠĠĠĠĠĠĠĠĠĠĠĠĠĠ ĠčĊ
ĠDI C
]=='. '
ĠMA JK
200000 5
Len gth
plic ative
app y
133 1
ĠEx it
ĠIF D
Gen eral
ĠgetF aster
) <<'\
0 5
2 11
M AST
[ %
b W
b oth
d c
f ace
k an
m f
o res
r is
t ing
w atch
y i
Ġ oup
Ġc ent
Ġl is
() %(
-- ;}}
Ġt Mod
at tern
ing h
ĠM y
as i
Ġmax a
ĠS ol
Ġop er
Ġ3 50
ĠR ight
ĠR IGHT
Ġde cl
ĠB EGIN
Ġ100000000 0000000
Ġret if
ex ist
53 7
Ġfi ve
18 9
Ġnum erator
Ġfl g
Ġvv c
ng y
ĠW or
RO LS
Ġpc i
ĠFor a
67 3
mon th
Ġev ent
<<"[ "<<
Ġover load
off set
Ġdef inite
Ġprod uct
Ġpe ople
ĠCONT ROLS
ĠâĢ ĵ
/******************************************************** */
cW Ej
ĠÂ ©
ĠPH ASE
MAST ER
Ġdefinite ly
* ()
> -
B E
U S
] |=
a w
b d
g jdflg
j o
l apsed
p u
t ed
v o
ã ĥ
æ ī
int eg
Ġm pr
Ġf ace
Ġf ld
Ġf Min
Ġ1 79
Ġs arth
Ġt em
Ġr agetree
Ġg s
ĠM r
Ġpr s
Ġpr ice
im it
ad dedge
Ġst i
ĠC PP
Ġget sum
Ġse parator
Ġis n
omp osition
18 1
ab br
Ġcheck max
Ġgo ing
âĸĳâĸĳâĸĳâĸĳ âĸĳâĸĳ
cc w
Ġless Than
Ġmy land
100000000 9
be f
************** */
Ġgen rate
67 1
âĸĳâĸĳâĸĳâĸĳâĸĳâĸĳâĸĳâĸĳ âĸĳâĸĳâĸĳ
Ġacc ess
Ġcy cles
CA KE
ĠTr ie
ĠUNI QUE
âĺ ģ
ĠMem ory
ĠComput er
EMPL ATE
Ġsarth ak
& !
2 34
4 000
? ""
H EL
I nd
a le
e u
n C
q y
è ¯
é Ĺ
Ġ ĉĉĉĉĉ
Ġi max
Ġf an
Ġp LL
Ġt odo
am b
ue s
Ġy r
Ġy alla
Ġ2 000000000000000000
Ġu in
Ġw ords
ĠA LI
ĠA dj
Ġmax L
Ġo or
(( __
ĠĠĠĠĠĠĠĠĠĠĠĠĠĠĠĠĠĠĠĠĠĠĠĠĠĠĠĠĠĠĠĠ ĠĠĠĠĠĠ
ES T
---------------- ---
Ġdebug a
up grade
Ġbase s
Ġprint ln
34 82
Ġ:: :
Mod ular
13 9
Ġtake s
`` `
tri angle
Ġwa it
------------------------------ -
divis or
CONSTAN TS
" ^
( %
) ^(
3 00001
4 11
? ),
B ig
G W
I F
I AB
M id
W N
h fj
l abel
se ive
Ġp pp
Ġfor ab
<< ')';
ar c
Ġre z
Ġ++ ]
Ġpr sp
<<" !
ĠF S
ĠF ac
rt h
;; ..
ĠMOD ULO
ĠB B
num erator
Ġ5 00005
Ġis Vowel
ĠV II
15 7
12 1
97 3
stat us
ĠĠĠĠĠĠĠĠĠĠĠĠĠĠĠĠĠĠĠĠĠĠĠĠĠĠĠĠĠĠĠĠĠĠĠĠĠĠĠĠĠĠĠĠ ĉĉčĊ
Ġpower k
ĠW IN
sc n
Ġver dict
;;;;;;;; ;;
;;;;;;;; ;;;
()), ((
ev ents
ĠCL own
Ġblock s
ĠEX CEP
DI RE
Ġprep are
Col or
IC PC
Ġrad ius
ĠFRE IN
IAB LES
ĠEXCEP TION
* ";
- ()
6 97
: "<<
D IM
E dges
M e
N G
P i
b order
d ad
æ Ī
ĉ ĠĠĠĠĠĠĠĠĠĠĠĠĠĠĠ
Ġc z
Ġm ypow
Ġn tt
Ġp pl
++ (
Ġb all
Ġfor get
Ġr u
== ///
ĠP attern
Ġdp p
Ġ3 5
ds h
th ree
Ġ5 2
ĠE ps
/// ================================
Ġfast pow
ĠH ere
comp onent
In fin
Ġfind Set
ĠK AZ
inf inity
-------------------------------- ----------
RT IME
01 7
IT NO
________________ _____
OW N
ĠComp ress
ĠIN PUT
Ġscl n
ĠNo isy
âĸĪâĸĪâķĶ âķĲâķĲ
ĠLE FT
//-------------------------------- ----------------
ĠCU RTIME
ĠFix Point
ĠFunction s
ĠCo deforces
spar se
HEL PER
DIRE CTION
4 24
C AT
C entroid
M on
S olution
e ver
g k
j udge
l ad
l ps
w ant
Ġ Ñģ
Ġi map
Ġ( %
Ġc hi
Ġn on
Ġ1 28
Ġt os
Ġb ag
Ġd raw
__ \
ĠT TT
Ġe rep
an y
hi k
)) ^
ĠA re
ĠS E
ĠP b
Ġch ocol
Ġst od
ĠB Y
âĸĪ âĸĢ
th read
Ġis Left
ĠĠĠĠĠĠĠĠĠĠĠĠ ĉ
######## ###
Ġ4 1
ce v
Ġpar y
Ġdi jkstra
AC M
998 3
Ġhe avy
Ġinv General
ĠÐ ´
************************ **
Ðµ ÑĢ
irection al
Ġyour self
vers ion
Ġcap acity
Ġro ad
xy Line
ĠRes ult
ä» £
Ġitem s
ĠPER F
ĠNot e
FFFFFFFF FFFFFF
irl ing
ĠCont est
Ġchocol ate
. );
2 53
: (
= "<<
L OOP
N TS
P re
U P
W alk
] |
b id
o tient
p m
p Out
Ġ ***
int t
Ġl az
Ġa ft
Ġs ong
Ġs he
Ġv owel
Ġt st
(" ")
Ġ; .
Ġop s
Ġh ai
ind rom
Ġpii ii
Ġis space
Ġis Eof
Ġ] ++;
ĠE B
ep ic
ĠH H
col ors
77 7
Ġtest Num
Ġindex ing
1010 10
pw r
Ġlog f
Con st
tu al
Ġsin ce
bin pow
--- \
cut s
modul us
ï¼ģï¼ģ ï¼ģï¼ģ
åĪ Ĩ
Ġ'} ';
ĠisLeap Year
, ++
3 58
9 2
] ++
Ã ¡
è ¾
Ġi ota
or n
Ġm ix
Ġs ingle
() ][
Ġv cd
it i
str cmp
ue l
Ġ' !
ed y
ĠF rom
Ġ| ___/
ĠS ub
... ){
om ial
âĸĳ âĸĦ
ĠD o
]== ...
ind r
Ġread Vector
stdin DataEnd
GGGG GG
à¦ ¶
col s
ĠIn v
ĠIn dex
Ġstart ing
Ġparent s
Ġsol v
19 3
Ġcc w
]=' #';
fin dp
Ans wer
MIN GW
ĠTime Start
ĠTime End
ĠCon trolIO
ĠUpdate Max
2222 2
Ġlead ing
Ġmode xpo
cstd def
ANS I
Timer Stop
ĠVAR IABLES
Ġali ve
Ġ================= ==========
bes me
STD IO
Ġident ity
lapsed Time
ä»£ è¡¨
' ?
, %
< !
H ASH
b et
o Set
p il
s it
Ñ Ī
â Ĭ
è ¦ģ
de sh
ĉĉ ĠĠĠĠĠĠĠ
Ġ= (
Ġ{ '
Ġp in
Ġs cin
Ġif ac
){ //
Ġr at
an de
an ized
ti ll
ĠM erge
Ġ: ;
Ġ| ";
Ġq x
max m
ke ep
Ġ_ ##
ĠD e
ĠD EG
ĠI slam
]] ].
ES H
ĠO ne
________ __,
az akh
Int eractive
mn m
à¦ ĩ
Ġpower With
27 67
60 7
âķĲ âķĲâķĿ
Ġdeb mat
Ġel m
ĠST R
Ġ'* ';
GGGGGGGGGGGGGGGG GGGG
la desh
ĠUpdate Min
3456789 1
ĠFRE OUT
ĠBang ladesh
Ġorg anized
577215664 90
âĬ Ļ
ĠpowerWith Mod
' }
, ..
2 147483647
: ................
; ........................
? ",
D W
D GG
D GGGG
D EEK
E ti
E ii
E iii
E DDD
E KKKKKWWKKKKK
G EEE
G EEEEEEEEEEEEEEEE
K ii
K WWWWWWWW
K WKK
K WWKK
K EEEK
L j
L ink
L iii
L GGG
P H
R otate
S low
W EEEEEEEEEEEEEEEE
W KKKKKKKKKK
W EEEEEEEEEEE
W EEEEE
W EEEED
b m
d on
f K
f EEE
f WK
f LGGDDDDDDDDDDDD
i D
i DEEEE
i WWWWWK
i KDEEE
j D
j LGGGDDDDDDDDDDDD
t WK
t EL
v w
v an
Ø ¹
Ġc v
Ġl ucky
Ġ{ (
Ġf DEEEKKKKKKKK
Ġs at
ll f
Ġt ic
Ġd id
KK EEEEEEEE
KK WWWWWWW
KK EEEEEEE
:: ,,
:: ,,,,
:: ;:
:: ..........................
ĠT est
WW D
WW EEE
WW EEEEEEEEEEEE
WW EEEEEEEEEEEEEEEE
WW KW
WW KKKKW
EE DD
EE KKKK
EE KKKKKKKKKKKKKKKK
EE GEEEEEEEEEEEEEEEE
eg o
LL GGGG
LL GGG
Ġ, ::,,,,,,,;;;;
DD GG
DD DE
DD EEEWEEEEEEEEEEEE
Ġcon vex
KKKK WWWWWWWW
KKKK EEE
Ġ: ,
Ġ: ,:.
ĠF act
et s
EEEE DDDD
EEEE EK
EEEE WEEEEEEEEEEEE
WWWW KK
WWWW EEEEE
WWWW KKW
Ġst oi
ĠL DEEEE
,, ,:
ĠD ig
ĠG DEE
ĠG DEEEKKKKKKKK
Ġtyp es
cm f
KKKKKKKK KKKKK
vi ew
26 9
Ġread Word
................ ....:
;;;; ,
Ġ. ::::::::
Ġ. :::::::
Ġ. ::;:
,,,, ;
,,,, ,:.
WWWWWWWW KKKK
WWWWWWWW WWWWWWW
DDDDDDDD EEE
DDDDDDDD DDDDDDDDDDDD
DDDDDDDD DEEEE
DDDDDDDD EEEEEE
WWW KKKKKKKK
WWW EEEEEEEEEEEE
]={ {
Ġadj acent
ab ab
EEE WW
EEE KE
EEE KKWWWW
EEE KKWWW
EEE KKKWWW
KKK EK
KKK WWWWW
KKK WWKK
Ġas che
:. ::::::::
â¡ Ł
KKKKK WWWWWWWWWWW
KKKKK WKKKKKK
Ġbe ep
ĠW r
ME NT
KKKKKKKKKKKKKKKK KKKKKKK
Ġ:: :.
be ar
DE K
WK EEEEEEEEEE
WK WKKWK
23 9
KKKKKKK WKKKKK
KKKKKKK EL
;. :
tf LG
tf LGGGG
tf LGGG
/******************************** ********************************
DDD K
GGG K
âĶĢ âĸĪ
KE KKK
KE KKKKKKKKKKKKKKKKKKKKKKKK
KE KKW
EEEEEEEEEEEE KKKKKKKKKKKKKKKKKKKKKKKK
KKKKKK WWWWWWWWW
fj i
fj ti
Ġ.: ,
Ġ.: ,,,
Ġ.: ,;;
DEEEE KKKKKKKKKKKKKKKK
WWWWWWWWW E
WWWWWWWWW KKKWWK
CT y
:::::::: ::::::::
:::::::: :..
EK EEEEE
fore ach
;: ..
EED f
KW KKK
Ġinc rease
EEK WWWWWWWW
WKKKKK EE
Ġxy Circle
WWKK WWWW
KKKKW KKKKKKKKKKKKKKKK
'' ''
GGGGGGGGGGGGGGGG GGG
KKKKKKKKKKKKKKK WKKKKKKKK
EEEK WWWWW
EEEK WWWWWWKKKKKK
EEEEEE DEi
,,,,,, ;
,,,,,, ,;
DK WWWWWWKKKKK
DK iWWWWWK
WWWWWK WKKKK
,,,,,,, ;;
,,,,,,, ;;;
ĠĠĠĠĠĠĠĠĠĠĠĠĠĠĠĠĠĠĠĠĠĠĠĠĠĠĠĠĠĠĠĠĠĠĠ ĉĉĉĉ
:::::: ,
:::::: ,,,,,,,;;
::::::: ,,,,,;
::::::: ,,,,,,,;
Ġ.:. ,.
Ġ.:. ;:
tfLGG DDDDDDDD
tfLGG DDDDDDDDDD
tfLGG DDDDDD
norm al
ĠCH ECK
itf LGGDDDDDDDDDDDD
KKWWWW KEEEEEEEE
WWWWWWWWWWWWWWWW WWWWWW
PR INT
WWKKKK WWWWWWWWWWW
;;;;;;;;;;;;;;;; ;;;;;;;;;
WWWWWWWKKKKK i
WWWWWWWKKKKK t
;, .....
rat io
GEE KKKKKWKKKKK
KKKKKWWKKKKK WWWWWWWWW
EEEEEEEEEEEEEEE KKKKKKKKKKKKKKKK
WKKK WK
WKKKKKKK WWWWWWW
WWEEEEEEEEEEE WWWWEEEEE
DDWWKK DDDDD
EEEEEEEEEK EEEEEEEEEEEEEEEEE
ĠMAT RIX
............................... :
,,,,,,,,,,,,,,,,,,,,,,,, ,
uni std
iDD EEEEWEEEEEEEEEEEE
WWKKKKKKKKKKKKKKKK K
WWEEEEEEE DD
DDDG L
WWWKKKKKKKKKK W
WWWKKKKKKKKKKKKKKK WKK
WWWWWWWWWGWWWKK GGGG
ijLG DDDDDDDDEEEEEE
ĠPref ix
integ ral
EEKKKKKKKKKKKKKKKK KKKKKKKKKKKKKKKKW
LLGGGG L
LLGGG DDDDDDDDDD
WWWWKKW KKKEK
tfLGGGG DDDDDDDDDD
tfLGGG DDDDDDDDDDD
= '\
D p
F our
P al
R AND
X R
y e
Ġ( ++
Ġl ab
Ġv pp
Ġd cmp
++) )
al t
for mula
Ġk ase
ĠĠĠĠĠ ĉĠĉ
ĠA P
ad o
ad r
ĠS top
ĠR O
ic al
Ġst ill
Ġsz z
min v
ge st
sum i
Ġ100000000 1
pre p
Ġ10 9
Ġ5 0000000
Ġfi eld
Ġfr ac
pii i
ĠX or
20 18
20 48
Ġdebug v
assert sCounter
man y
Ġtemp orary
Ġ(" \
Ġhi bit
50 9
ME NTS
ĠĠĠĠĠĠĠĠĠĠĠĠĠĠĠĠĠĠĠĠĠĠĠĠĠĠĠĠĠĠĠĠĠĠĠĠĠĠĠĠĠĠĠĠĠĠĠĠĠĠĠĠĠĠĠĠĠĠĠĠĠĠĠĠ ĠĠĠĠĠĠĠĠĠĠĠĠĠĠĠĠĠĠĠĠĠĠĠĠčĊ
Ġinv d
gr oups
/** /
flush er
Ġwe ak
Ġlog g
Ġ---------------- ------
63 6
Ġrank s
PT IM
Op tim
âĸĴâĸĴâĸĴâĸĴâĸĴâĸĴâĸĴâĸĴ âĸĴâĸĴâĸĴâĸĴâĸĴâĸĴâĸĴâĸĴ
PRO J
TH E
PR S
FAST IO
Ġ10000000000000000 01
MEM ORY
ordin ate
ALLOC ATOR
azakh stan
ĠStop Watch
" !
. ";
. :.
/ ********
2 16
5 79
C ASE
E LL
N eed
P ll
e printf
f gc
f ather
f strict
n am
in lin
de b
); };
Ġf v
// -
.. :
it DEB
Ġd X
Ġd fn
Ġd ream
end ing
(" #
WW E
Ġw edge
Ġg reatest
Ġ// ................................................................
Ġo b
ĠP LI
Ġ3 4
Ġh elper
Ġh lp
ĠR ET
Ġst irling
ĠL in
ĠL EN
ĠD in
11 6
]] ];
he avy
Ġ5 3
ĠO r
ss DEB
Ġ4 4
Ġ4 6
20 19
Ġbu y
]==' -'){
Ġcheck min
Ġpar tial
:. :
31 7
II CT
be k
/** *
Ġyy o
Ġfile io
Ġfore ver
Ġà¦ ª
Ġct if
**************************************************************** ****
54 1
Test s
cb rt
âĸĦâĸĦâĸĦâĸĦ âĸĦâĸĦâĸĦâĸĦ
factor ial
ins ns
fre order
full y
prop agate
fsched ule
Ġhand le
Ġwy n
indr ome
fgc se
inlin ing
/ *****
B ound
D SU
L INF
V er
W hat
X OR
l ds
n f
n ers
v m
v ance
Ġm rg
Ġn q
Ġp cl
Ġ1 46
// (
Ġb us
Ġ" ...
le d
ĉĉĉ ĠĠĠ
an i
ate ly
Ġg ap
ĠM agic
ĉĉĉĉ Ċ
]= ((
Ġo ok
max im
Ġ3 00010
ĠR ound
ul ik
un der
tr ack
pp ing
MAX K
get c
to R
15 5
Ġ10000 9
Ġ1000 100
Ġvv pi
30 1
LE T
38 3
Ġcol ors
Ġpower Mod
Ġrb e
Ġcost s
pa int
pa ired
Ġver t
ĠFI LES
]<< ",
kk kk
ĠFILE NAME
Ġsplit mix
Re al
ĠOUT PUT
imp ossible
---------------------------------------------------------------- -------------
ĠTASK NAME
âĸĳâĸĳâĸĳâĸĳâĸĲ âĸĳâĸĳâĸĳâĸĳâĸĳâĸĲâĸĳâĸĳâĸĳâĸĳâĸĳâĸĳâĸĳ
Ġblo om
Ġbid irectional
336 777216
ulik ov
) >&
* )(
; `
= !
M ar
N MM
R ANDOM
f fs
h n
p ed
u ish
u age
w s
æ į
ç º
é ¢
Ġc f
Ġm en
Ġp Sz
it b
Ġt er
Ġ" ->
ing uish
le ast
(" }");
Ġr ang
Ġ' ---'
Ġ2 22222
)) ));
ĠM E
pr ofileIdx
Ġ&& _
Ġcon sider
is Vowel
im in
10 6
ĠP re
ĠP UU
â£ ³
Ġh ypot
ĠR ank
,, `
â£¿ â¢¿
â£¿ â¢¾
') %
min im
Ġ|| __|
ĠD ep
lo gn
Ġse nd
Ġrep A
to ken
/* }}
ex agonal
);} };
Ġfr q
ĠREP SZ
Ġbu il
Ġex pr
Ġlo ad
Ġdist inguish
ĠH oss
43 9
MMMMMMMM MMMMMM
pow w
â¡ ½
â¡ Ļ
el if
ĠW hen
ĠW eighted
Ġpop b
])) %
Ġcalc ulate
â£¿â£¿â£¿â£¿â£¿â£¿â£¿â£¿ â£¿â£¿
â£¿â£ »
25 1
47 6
Ġgreater Than
ĠĠĠĠĠĠĠĠĠĠĠĠĠĠĠĠĠĠĠĠĠĠĠĠĠĠĠĠĠĠĠĠĠĠĠĠĠĠĠĠĠĠĠĠĠĠĠĠ čĊ
XX X
20000 000
â£¯ â£¿â£¿
â£Ł â¡¿
â£Ł â£¯
â£Ł â£·
â£¿â¡ Ħ
â£¿â¡ Ĩ
:.. :
__); \
ĠØ £
who le
Ġ**************** ******
"> "
Sh ift
Ġanc estor
PRO FILE
ĠCP Y
ä¸Ģ ä¸Ģ
#.#. #.#.
Ðº Ð¾Ð
'- .
//*//*//*//* //*//*//*//*
("{ ");
]]]]]]]] ]]]]
gi atri
_- _-
â£¿â¡ĩ â¢¸
â£ŀ â¡¿
Ġ|. --.
'} },{
Ġ50000000 4
/*}} }*/
, ",
0 49
@ %
E ight
H AV
J ust
R andom
S o
S ALT
U s
W hite
\ _\
a id
l w
v pi
Ð ¹
Ġi y
Ġi ostream
Ġi OS
re asing
Ġc ac
Ġp ool
Ġp ln
Ġ" |
if ac
op er
op eration
um ns
ĠM AD
ans a
ĠF D
im mint
ad a
Ġit e
cnt a
mod num
ort a
ĠL ET
ĠL OO
64 1
ĠĠĠĠĠĠĠĠĠĠĠĠĠĠĠĠĠĠĠĠĠĠĠĠĠĠĠĠĠĠĠĠ ĠĠĠĠĠĠĠĠĠĠĠĠĠ
ĠD p
tr act
ĠC UT
ĠI FN
Ġad dedge
Ġ5 7
Ġ7 0
to U
mx x
50 50
Ġdi rect
Ġpower s
56 7
59 3
Ġstat us
ust om
Ġpath s
Ġfa stread
ĠĠĠĠĠĠĠĠĠĠĠĠĠĠĠĠĠĠĠĠĠĠĠĠĠĠĠĠĠĠĠĠĠĠĠĠĠĠĠ čĊ
Ġcand id
ĠMA P
ĠTES T
ÑĢ Ð°
Ġuti l
fd n
$$$$ $$$$
Ġsay ed
connect ed
Ġassum ed
Ġgeomet ry
éĹ ´
ĠMAD HAV
immint rin
3 11
> *
D ep
F A
G o
J ia
O T
O PTIM
R ST
S u
S mall
[ &]
e br
f wd
h ack
k bear
n ag
s I
Ġi de
re z
Ġl ans
Ġf lo
Ġ1 997
Ġs dbg
Ġv LL
Ġ" ***
Ġd um
Ġd ie
Ġx max
type info
Ġans a
)) <<
Ġcon j
ĠF cd
ĠN A
ĠN s
ĠS G
10 4
ĠR AND
cnt s
res sed
ĠĠĠĠĠĠĠĠĠĠĠĠĠĠĠĠĠĠĠĠĠĠĠĠĠĠĠĠĠĠĠĠ ĠĠĠĠčĊ
tr im
Ġde m
Ġ? !
Ġout file
Ġinf ile
ĠV PLL
âĸĴ âĸĢ
rep lace
Ġlo se
Ġdefine s
ĠW rite
mul mod
Node s
ang Jia
8888888888888888 888888
diff erence
NN N
Ġpl c
Ġpro gram
Mul tiTest
Ñģ Ð»
acc umulate
ĠFIN AL
âł¿ âł¿
Ġbot l
Ġcb rt
wy n
task name
ĠLi angJia
ä»£è¡¨ è¿ĶåĽŀ
Ġ1997 11
ĠFcd kbear
ĠLiangJia Jun
+ .
7 27
B and
E lement
O ct
R ev
b all
b readth
c w
e ep
f write
m en
n othing
s out
s of
u ce
y l
å ľ
in ing
re y
Ġc en
Ġm r
() ),(
ll u
Ġfor I
Ġ" ",
(" ","
ame d
Ġ' +'
Ġ2 55
Ġu k
Ġk x
Ġk ch
Ġg ol
ĠM UL
LL ONG
ĠA S
ĠA RT
nd p
Ġtr ick
Ġh p
ul ty
ĠL ess
tr ick
ĠC y
Ġde lim
Ġz x
Ġse r
get Min
ff i
ff ect
to L
count ing
ĠO bj
ĠU se
are ru
order set
ĠREP E
20 2
abs v
Ġas c
141592653 56
ne eded
16 7
56 9
****** *
Val id
jj j
100000 3
/******************************** ****************************************
md ay
," }");
âĸĳâĸĳâĸĳ âĸĲ
Ġï¿½ï¿½ï¿½ï¿½ï¿½ï¿½ï¿½ï¿½ ï¿½ï¿½ï¿½
ĠSQ RT
UN T
1024 00000
Ġtri angle
ĠAl pha
################################################ #####
978 978
Ġ":" ",
TH ING
=== ///
EX AMP
("{ ",
Ã¨ Ã
PROJ ECT
Band me
EXAMP LE
# ~~
) --
2 57
5 11
A PP
J w
M W
N ow
S qr
U B
Y m
Y SN
_ ],
b SN
Ġl ive
Ġp ost
Ġ} };
Ġs st
Ġv I
Ġv u
// ================================
Ġt min
Ġb d
Ġd Y
Ġr begin
io ta
Ġu LL
Ġg uess
ĠA CM
ĠS ieve
Ġch ance
Ġch anges
Ġ3 2767
Ġst l
Ġde st
Ġpii pi
ĠB LOCK
Ġz er
Ġset min
ht tp
Ġread Arrays
'. ');
Ġdebug ger
Ġacos l
Ġas m
pi v
power s
Ġsu pport
EC UTION
old ans
ĠĠĠĠĠĠĠĠĠĠĠĠĠĠĠĠĠĠĠĠĠĠĠĠĠĠĠĠĠĠĠĠĠĠĠĠĠĠĠĠĠĠĠĠĠĠĠĠ ĠĠĠĠĠĠĠĠĠ
Ġbr ute
Ġfa ke
Ġcr ivo
ĠEX ECUTION
ĠSt ate
Ġam en
Ġsha ft
Ð¾Ð ²
âłĢâłĢâłĢâłĢ âłĢâłĢ
ĠCOMP ARE
Ġ"= >"
@@@@@@@@@@@@@@@@@@@@@@@@@@@@@@@@ @@@@@@@@@@@@@@@@@@@@@@@@@@@@@@@@
Ġrequ ire
ĠPos itive
Cur rent
XZ v
ĠÐ· Ð°
Ġtrail ing
ĠFac ulty
Ġkch ay
1 64
1 97
3 53
6 53
B al
C om
L ow
S canf
_ ));
a e
b aki
d an
e eded
h are
y r
{ }
â Ī
Ġc log
Ġa z
Ġa void
Ġf ak
Ġf bo
Ġn base
Ġn pos
Ġs or
Ġs il
Ġv str
Ġv ow
Ġb ld
Ġr ht
Ġr ule
str cpy
Ġe tc
Ġ' |
set bit
as ic
]) >
pr io
Ġmax k
Ġmax Value
ĠS qrt
Ġh ack
ĠR S
em ber
ap a
MAX V
]] +=
Ġrep n
Ġcl p
Ġpos i
15 32
)+ ((
Ġvv I
55 7
av ed
34 7
seg num
dis c
Ġ20 20
co ef
multi plicative
Ġext end
Ġbinary Exponentiation
$$ $
ĠPRINT V
han e
Ġort a
BU FFER
/**************** ***************
ELE VEN
Ġ'] ';
7182818284590452353 6
ĠCPP ELEVEN
ĠObj ect
ĠUse ful
* ,
. _________,
2 33
3 10
; ){
B A
F ast
M O
c ou
d up
d ays
h ok
n q
u id
y an
² âĬĻ
½ æķ°
æ ł
ĉĉ ĠĠĠĠĉ
++ ()
Ġs iii
Ġt tt
Ġd n
ir ag
le ep
ma ss
Ġre g
Ġk y
Ġk ing
âĸ ²âĬĻ
!= ""
]= '.';
<<" }"<<
), "
ĠF UNCTION
Ġmod s
Ġ_ (){
Ġpush ed
Ġ3 99
un g
ĠĠĠĠĠĠĠĠĠĠĠĠĠĠĠĠĠĠĠĠĠĠĠĠĠĠĠĠĠĠĠĠ ĠĠĠĠ
ĠI oSet
]] ]++;
Ġ10 2
to String
######## #######
âĸĴ âĸĮ
art ite
14 3
SE G
33 1
prec omp
Ġok ay
Ġfast Scan
ĠH A
comp s
comp osition
Ġpar a
pl ane
Ġsh it
Ġun paired
<<": "<<
adj list
Ġen g
38 29
âĸĮ âĸĴ
/******************************** ***************
â¢Ģ â£Ģ
mon ic
mag ic
UN I
nod o
ev ent
//////////////////////////////////////////////////////////////// ////////////////
ĠRe verse
entr y
mode xpo
rank s
ĠIs Less
%%%%%%%% %%%%%%%%
Debug Stream
large st
åĩ ½æķ°
//////////////////////////////////////////////////////////////////////////////////////////////// ///
Ġhar monic
Fr iend
Var iables
åº ¦
Ġem z
Ġ------------------------------------------------ --
57721566490 1532
Su ccess
ĠIoSet up
577215664901532 86
& );
+ ')
1 389
4 79
4 19
5 99
6 20
A ssertsCounter
G ood
M B
M n
T his
b f
c ate
h ang
i ous
l ab
r w
t ol
v ld
å Į
Ġ ----
Ģ ¼
re main
Ġm ns
Ġf close
Ġn k
Ġp j
Ġp cnt
Ġp pi
Ġ+ --
Ġb m
at Me
Ġd u
(" +
ĠĠĠĠĠĠĠĠĠĠĠĠĠĠĠĠ ĠĠĠĠĠĠĠĠĠĠĠĠčĊ
Ġy i
)) &(
um e
Ġg am
ch an
ch oice
et e
ĠP test
Ġar ound
Ġ_ ;
Ġh ero
ext gcd
Ġad vance
ver tices
Ġis Const
32 9
);} }
ĠO per
15 2
100 9
Ġpi pii
Ġle a
âķ Ŀ
Ġfast exp
22 3
50 7
<<": \
ĠIn pOut
ĠW ATCH
Ġsp f
ILE D
Ġup min
19 1
Ġver tical
100000 7
Ġ"] \
FS IZE
ls on
rs on
-------------- -
Ðµ Ð»
Ġwin ner
ãģ ®
Re qu
Ġsegment s
Ġgi ven
OU R
imp ort
ĠIs Greater
spl ay
iq ul
Ġpopcnt ll
Ġrai se
Ġvir us
amb da
nam ic
é¢ ĺ
[&] (
ĠFUNCTION S
1389 3829
! "
: "<<__
C PC
L R
N L
R Pr
S ame
g f
i ally
j p
m ore
p sum
q ri
æ Ŀ
Ġ ì
Ġ -----
Ġi min
on d
Ġl eg
Ġ{ "<<(
Ġn em
Ġ1 68
Ġ} )
Ġ} ";
Ġs set
Ġs we
Ġv iz
// __
le aves
ma z
Ġans x
Ġk r
]) <<
Ġin deg
<<" <
Ġcon fig
ĠF un
et r
... \
... ))
Ġch em
Ġmin pq
Ġh ang
ĠR P
ĠR MQ
____ _|
un j
mod fast
ĠL uck
ĠĠĠĠĠĠĠĠĠĠĠĠĠĠĠĠĠĠĠĠĠĠĠĠĠĠĠĠĠĠĠĠ ĠĠĠĠĠĠĠĠĠĠĠĠĠĠĠĠĠ
ĠC ur
ĠC lear
il ar
Ġsum modfast
11 9
ĠI CPC
he l
Ġ'\ ''
Ġvi ky
100 7
26 3
10000 4
88888888 8888888
Ġ6 5
âĸĦ âĸĪâĸĪâĸĪâĸĪâĸĪâĸĪâĸĪâĸĪ
à¦ ¬
Ġsh l
Ġsh ok
Ġseg Tree
ĠĠĠĠĠĠĠĠĠĠĠĠĠĠĠĠĠĠĠĠĠĠĠĠĠĠĠĠĠĠĠĠĠĠĠĠĠĠĠĠĠĠĠĠĠĠĠĠĠĠĠĠĠĠĠĠĠĠĠĠĠĠĠĠ ĠĠĠĠĠĠĠĠĠĠĠĠĠĠĠ
Ġsub str
Ġsqrt n
Ġup max
17 3
','.','.','.','. ','.','.
Ġbig ger
St ud
Ġloop s
)<<" }"<<
ĠJ ust
Ġvar iable
Ġvar iables
300 300
ĠAns wer
Ġdown range
Ġus age
ÑĤ Ð¸
âĸĢâĸĢâĸĢâĸĢ âĸĢâĸĢ
Ġfactor ial
400 5
------------------------ ----
Ġgi ua
"""" """"
Ġav g
;_ <
ĠData In
ĠFA ILED
Seg Tree
ĉĠĠĠĠĠ ĉ
ĠVal ue
GET A
Ġextr act
éĩ ı
Ġstrict ly
APP LE
asic Integer
Ġchem than
* _
4 27
G C
H igh
R em
R and
R IGHT
U CK
U til
W extra
^ =(
d m
e o
e asy
m ex
p id
t n
t re
w ords
å ¹
å Ĩ
int ersection
int rin
Ġl abel
Ġa way
Ġm tr
Ġp id
Ġp ff
Ġ1 22
Ġs printf
Ġt ou
Ġt ed
at al
Ġd inic
ns afe
Ġma ss
)) /(
Ġw tf
Ġ; )
ĠM id
]) ].
ans x
Ġin vert
ow s
que s
000 5
]] >=
to read
Ġpre process
Ġfr ab
ĠU s
ĠU pd
ĠE NG
âĸĴâĸĴ âĸĦ
Ġle ave
/// #
]={ },
ab out
ĠH i
Ġvv vvi
ne igh
pow s
hs f
PER F
vv vi
Ġ"/ "
âĸĦâĸĦ âĸĦ
cy cles
Ġfriend s
Ġpl ayer
<<"] ";}
Di vis
Ġtim max
call ed
Ġbal anced
ĠDist Type
_______ |
so le
äº Ĩ
Ġmed ian
En able
Ġâķļ âķĲâķĲ
reg ion
ĠALI GN
è¾ ¹
' >
( +
6 29
A ug
P OS
S qrt
T E
] ";
c j
f altu
g asg
g hest
h ur
k ind
r ans
t st
x aaaaaaaa
x cccccccc
y md
z ub
Ð ¢
Ġ é
Ġ ur
Ġ #####
re maining
Ġf inv
en g
() ]=
Ġv m
// ________________________________
it v
Ġt f
an it
Ġre main
Ġu fo
Ġw s
Ġg ao
]) <=
Ġpr iln
ch max
Ġ// \\
Ġmax K
max a
Ġconst ants
Ġh b
ĠR ec
Ġcnt a
Ġmp os
â£¿ âł
â£¿ âłĩ
âĸĳ âĸĮâĸĮâĸĳâĸĳâĸĳâĸĳâĸĳ
Ġget Pow
ĠB ismillahir
ĠMAX V
[] {
12 9
Ġdist inct
48 7
har nik
100000 2
Iterator Type
ĠMax C
co eff
Ġ'. '){
Ġà¦ ¤
49 8
path s
300 100
Ġost m
Ġtrans posed
Ġmon ostate
mk p
UL AR
<<"- "<<
âĸĴâĸĴâĸĴâĸĴâĸĴâĸĴ âĸĢâĸĦ
Ġsim ilar
âĸĦâĸĢ âĸĴâĸĮ
################################################ ######
OU ND
10000000 97
Ġ************************ **/
Ġ************************ ****/
ĠnC k
âĸĮâĸĮ âĸĳâĸĮâĸĮâĸĳâĸĳâĸĳâĸĳâĸĳ
âĸĢâĸĴ âĸĮ
uc ed
dddd dddd
tut utu
å¤ §
Down range
Ġtut utu
Ġinclusive Range
Ġinclusive Downrange
â¡¿âł ĭ
Ġnok ol
Ġ//__ \\
âĸĳâĸĳâĸĳâĸĳâĸĳâĸĳâĸĳâĸĳâĸĳâĸĳâĸĳ âĸĮâĸĮâĸĳâĸĮâĸĮâĸĳâĸĳâĸĳâĸĳâĸĳ
hfj ke
ĠKAZ AR
âĸĳâĸĳâĸĳâĸĲ âĸĳâĸĳâĸĳâĸĳâĸĲ
hok harnik
hokharnik unj
- ((
/ %
6 24
8 37
B i
D U
M p
P e
Q ry
b li
h g
h r
x F
y f
Ġ enter
Ġi pair
Ġc ir
Ġc nd
Ġl arg
se ud
Ġv oice
Ġfor sn
con version
Ġma il
Ġre b
Ġy l
Ġ2 000000
Ġk v
Ġw len
Ġg min
ĠM o
ĠM on
Ġin fs
Ġ/ (
Ġq werty
Ġmax V
ĠS ource
ĠS STR
ĠP OS
rt n
Ġch osen
ĠR andom
ĠR ahmanir
cnt b
(( !
err ide
ak t
ĠD on
ĠC l
Ġz n
Ġrep v
Ġ100000000 00000
th on
Ġ4 00005
ï¿½ï¿½ï¿½ï¿½ ï¿½
ĠREP N
ĠREP P
58 7
Ġth ink
50 3
col umn
Ġdi ma
==' -'){
46 7
-------------------------------- ------
com mon
IT H
28 3
Ġ', ';
ĠÐ ±
ĠÐ ²
Ġuse ful
ä¸ į
____________ _
Ġ*( --
]&& !
<<"[ "<<(
ru le
Ġones ll
Ġinter cept
Ġmode r
Â¦ Â¦
ĠBe atMe
Ġov erride
ĠWr itten
2 77
5 47
B ismillahir
J ump
P hi
P rev
W in
\ :\
e il
m ing
t odo
u kk
æ ³
Ġ ut
Ġ ]=
in de
Ġ< __
Ġn al
Ġ<< #
Ġt ek
Ġb mm
Ġ" _
ir nag
if act
size s
Ġ' );}
Ġk i
Ġk p
Ġk t
ĠM SET
ĠN UI
is i
Ġq t
IN P
MM ENT
Ġ__ |
base s
Ġst orm
ĠĠĠĠĠĠĠĠĠĠĠĠĠĠĠĠĠĠĠĠĠĠĠĠĠĠĠĠĠĠĠĠ ĠĠĠĠĠĠĠĠĠ
Ġde let
ĠG ood
ĠB lock
pop c
Ġ5 9
ĠV D
Ġtree Size
Ġ4 50
ight s
art ment
10000 7
ĠU I
ĠU SU
Ġ] "
(- )
Ġ! (*
âĸĴâĸĴ âĸĲ
20 7
33 9
1000 50
ab ba
Ġth ird
37 9
Ġdi am
Ġĉ ĠĠĠ
1111 111
Ġmy map
199 9999
Ġinv f
ob ius
Ġsol n
ah ang
Ġpq i
Ġ20 5
ill s
57 636
we h
80 9
Ġimp ro
________________________________ ________________________________
Ġwr f
Ġge tii
Ġapp ly
Ġmu ch
AK H
LIM IT
fu weh
CO MMENT
âĸĪâĸĪâķĶ âķĿ
Ġ987 65
ĠAL PH
Ġ'> ')
Ġtra vers
âĸĴâĸĴâĸĴâĸĦ âĸĴâĸĴâĸĴâĸĴâĸĴâĸĴ
3482 791
]==... ==
ĠDep artment
ĠâķļâķĲâķĲ âķĲâķĲ
irnag ar
ĠNUI P
ĠUSU AL
ahang irnagar
57636 3482791
( ",
( '.');
- .
/ \
3 67
6 77
6 79
7 00
C an
D raw
K n
N X
P d
R Y
R o
S a
U V
] &(
_ ]
a sp
d gs
f ect
g a
g p
h ero
l u
m ar
n base
p et
} ];
Ġl max
Ġm c
se gs
Ġn ec
Ġp ip
Ġ1 50
cl one
Ġ} //
out s
it calc
Ġif def
con v
us s
Ġ>> (
Ġre r
as dg
Ġ++ ,
pr oc
ĠF l
nc es
is a
ĠA nd
ad s
Ġmax l
Ġo oo
;} }}
Ġ__ /|
()) ->
Ġ>= '
Ġh m
Ġh ome
ul a
ĠC IN
Ġde v
Ġcur y
AR S
sz e
Ġ\ .
ip tion
ĠE D
ok o
Ġth em
37 3
di ag
di rect
av ail
ĠQ ry
RO M
Ġ"] :
mi j
Ġfin dp
)? "
Ġà¦ ¬
ire Input
000000000 7
bl ing
Ġbr if
pro g
âĸĳâĸĳâĸĳâĸĳâĸĳâĸĳâĸĳâĸĳ âĸĳ
Ġ200 200
Ġ50 10
Ġsk y
Ex po
Ġwork s
To String
gg le
Ġcp y
Ġuni q
Ġro ck
ĠAl gorithm
Ġfen wick
Ġmatch ing
ĠCH R
ĠCASE T
IS MI
ĠCalc ulate
Ġtopolog ical
ĠELE MENTS
Dep th
sof ar
Requ ireInput
ukk ha
ISMI LLAH
RequireInput Iter
) |(
4 33
; *
B r
B uild
I WI
M ac
O B
S ource
` '
f whole
p uti
v st
w qri
± Ã²
st t
Ġ( ;;)
Ġc ard
Ġa asdfasdf
Ġa lso
se quence
Ġp nn
++ ]=(
Ġv S
-- ()
Ġt n
ac ency
am ir
ir Vector
Ġj jj
Ġr h
Ġr ii
an te
Ġans y
Ġcin v
Ġu nt
)) -(
Ġw i
as fh
as ses
bit rary
Ġin ff
vector s
******** ****
pr il
ed ron
ĠA lex
ĠA nton
ĠS u
ĠS EG
ĠP erm
rt y
ag ak
Ġmin d
ĠR C
64 3
â£¿ â¡¿
ĠD is
ĠD AR
Ġget ans
11 7
len a
get her
Ġout l
Ġis qrt
ld k
ld jk
Ġ\ _______
ex plicit
sk i
âĸĪâĸĪ âĸĦâĸĦâĸĦâĸĦ
vi v
[] ){
;++ _)
20 9
]==' ('
]==' -')
Ġex ec
)+ =(
mem cpy
Ġadj acency
ER S
ĠH e
ĠH exagonal
rr or
Ġas gasg
37 79
Ġbit cnt
16 9
Ġbe ki
lli seconds
lim ite
lf asfh
ah edron
ah lfasfh
200 500
vv s
random Engine
ls ldk
â£¿â£ ¶
ik ldjk
fj ahlfasfh
ĠZ n
Ġà¦ «
big int
âĸĳâĸĳâĸĳ âĸĦâĸĢâĸĴâĸĴ
Ġpl ay
ĠÐ µ
68 1
cpp str
Ġsd fjahlfasfh
Ġ---------------- ---\
ĠIN IT
âĸĪâĸĪâĸĪ âĸĢâĸĢ
ÑĤ Ð¾
Ġask fh
bas is
lect ed
Res ult
Ġinter val
Ġ\| _______|
âĶĢâĶĢâĶĢâĶĢ âĶĢâĶĢâĶĢâĶĢ
ÐĲÐ Ŀ
Ġda u
dg asg
Ġass dgs
âłĻ â¢¿
trans posed
fu nsafe
åı ĺ
uper ikldjk
Ġ\__ \\
214 4
lh agak
Ġ\_| \
Ġsdk fas
rim irVector
âĺģ âĺģ
ĠLOO K
Ġeng ine
wqri uperikldjk
Ġaasdfasdf asdf
Ġasgasg ash
Ġaskfh wqriuperikldjk
dgasg hsf
Ġassdgs dgasghsf
lhagak lsldk
Ġsdkfas lhagaklsldk
& ,
' `
* \
6 59
8 77
8 57
B Y
B ut
C enter
F inite
G r
H AM
L ocal
M ASK
P f
] (
` --'
a lex
e ul
g re
h d
p ak
r ink
t our
w ow
z n
{ };
Ñ İ
Ġ 888
in o
Ġa maz
Ġm ethods
Ġp us
Ġs hik
() ])
out l
Ġt it
Ġt ans
Ġt ap
Ġb for
Ġ" ):
am t
(" ;
(" *****
Ġr printf
Ġr sort
ma de
Ġ// #
Ġcon struct
Ġq ll
Ġh ast
Ġh old
ot o
un lli
un iq
map i
'; )
Ġmp i
âĸĳ âĸĢâĸĦ
pos it
]== "
]] <
]+ '
Ġvi v
ld bl
######## ####
ĠO VER
Ġmx v
Ġ. /
ĠE d
Ġne i
top t
ĠH LD
30 10
Ġprint arr
ĠArg SortComp
Ġpow r
Ġmy mul
start ed
gr af
Ġms l
âĸĦâĸĦ âĸĳâĸĳâĸĳâĸĳâĸĳ
Ġps l
multi ply
40 5
ĠJ an
LI LLAH
Ġ-------------------------------- ------------------------
Ðµ Ð¼
ĠIN Iter
ide nt
Ġwin ners
ĠIter SortComp
Ð½ Ð°
Ġ100100 1001
LOG N
Ġtim min
------------------------ ---
------------------------ -----
Ġ***** \
Ġsubm it
Ġbas ic
âĸĳâĸĳâĸĳâĸĳâĸĳâĸĲ âĸĦâĸĦâĸĳâĸĳâĸĳâĸĳâĸĳ
Ġ997 3
âĸĳâĸĳâĸĳâĸĳâĸĮ âĸĳâĸĳâĸĳâĸĳâĸĳâĸĲâĸĦâĸĦâĸĳâĸĳâĸĳâĸĳâĸĳ
çĽ ¸
ĠRand Int
çº ¿
ĠOper ations
Enable d
(+ )
Ġ98765 431
OB AL
Ġamaz ing
% _
4 49
5 14
8 00
8 53
: .......
: ....:
? -(
C l
H i
L M
R oll
b or
d od
d ic
f io
f ans
j ahidul
l ish
m c
¯ ÐĶÐ
Ð ĳÐŀ
Ù ĩ
Ġ GG
ĠĠ ĉĉĉĉ
Ġi p
re ps
or i
or z
Ġ( -(
Ġc max
Ġc loc
Ġl pr
Ġl pd
Ġa int
se parator
Ġn ai
Ġs ab
ll ah
Ġv L
-- ]
Ġ+ (
Ġ" (
]; //
al ive
ol o
ĠM U
ĠM INF
Ġin l
******** ***/
<<" -->
Ġ) (
ĠS uffix
... *****
Ġch oice
Ġ3 30
(){ };
âĸĳ âĸĪâĸĪâĸĪâĸĢ
âĸĳ âĸĮâĸĴ
cur L
11 10
]] *
Ġ'\ "
all el
AR SH
Ġis F
Ġ\ ________
ĠMAX LL
âĸĴ âĸĢâĸĢâĸĢâĸĢ
âĸĴ âĸĢâĸĴ
âĸĴ âĸĪâĸĪâĸĪâĸĪâĸĮ
Ġ", __
10000 3
................ :
................ ..
97 1
/// ................................
/// ---
Ġsc ans
Ġdb a
Ġcheck bit
âĸĦ âĸĪâĸĪâĸĪâĸĪâĸĪâĸĪâĸĪ
âĸĳâĸĳâĸĳâĸĳ âĸĦâĸĪâĸĪâĸĪâĸĪâĸĪâĸĪâĸĪâĸĪ
Ġpar ity
Ġvv vl
di a
fast IO
Ġstart Time
ha i
Ġ/* !
âĸĪâĸĪâĸĪâĸĪ âĸĢâĸĴ
âĸĪâĸĪâĸĪâĸĪ âĸĢâĸĪâĸĪâĸĪâĸĪâĸĪ
âĸĪâĸĪâĸĪâĸĪ âĸĦâĸĴâĸĴâĸĴâĸĴ
âĸĪâĸĪâĸĪâĸĪ âĸĪâĸĪâķĶâķĿ
Ġpq l
________________ ______
âĸĴâĸĴâĸĴâĸĴ âĸĢâĸĢâĸĢâĸĴâĸĴâĸĴâĸĴâĸĴâĸĴ
100000000 000
Ġver y
sh ir
Ġanswer s
âĸĮ âĸĳâĸĳâĸĳ
âĸĮ âĸĴâĸĦ
âķĲ âĸĪ
................................ .................
ĠDB GG
,,,,,,,, ,,
âĸĲ âĸĪâĸĪâĸĪâĸĮ
âĸĲ âĸĴâĸĢâĸĢâĸĢâĸĢ
Ġ.: --.
âĸĳâĸĳâĸĳ âĸĲâĸĳâĸĳâĸĳâĸĦâĸĦâĸĳâĸĳâĸĮ
LI E
Ġ') '
Ð¾ Ð»
ĠTR Y
ä¸ º
ĠTail s
ĠMIN US
_, \
Mul ti
--- ///
âĸĢâĸĦ âĸĳâĸĳâĸĳâĸĦâĸĢâĸĴâĸĴ
'' |
âĸĴâĸĴâĸĴâĸĴâĸĴâĸĴ âĸĢâĸĪâĸĪâĸĪâĸĪâĸĪ
âĸĴâĸĴâĸĴâĸĴâĸĴâĸĴ âĸĢâĸĢâĸĢâĸĴâĸĴâĸĴâĸĴâĸĴâĸĴ
Ġceil ing
Res ource
Ġ\| __|
got o
âĸĴâĸĦ âĸĢâĸĢâĸĢâĸĢâĸĢâĸĦ
ĠLS One
âĸĪâĸĪâĸĪâĸĪâĸĪâĸĪâĸĪ âĸĦ
wd Iter
âĸĳâĸĲ âĸĪâĸĪ
âĸĳâĸĲ âĸĪâĸĮ
âĸĳâĸĲ âĸĪâĸĪâĸĪâĸĪâĸĢâĸĴ
âĸĲâĸĳâĸĳâĸĳ âĸĢâĸĢâĸĳâĸĳâĸĮ
ÐĶ ÐĲÐĿ
âĸĴâĸĴâĸĴâĸĴâĸĴ âĸĪâĸĪâĸĪâĸĪâĸĮ
âĸĦâĸĢâĸĴâĸĴ âĸĢâĸĦâĸĳâĸĳâĸĳâĸĦâĸĢâĸĴâĸĴ
pe ople
âĸĳâĸĳâĸĪ âĸĴâĸĦâĸĢâĸĢâĸĢâĸĢâĸĢâĸĦ
âĸĳâĸĳâĸĳâĸĢ âĸĪâĸĪâĸĪâĸĢâĸĢ
âĸĳâĸĳâĸĳâĸĢ âĸĮâĸĴâĸĦ
âĸĴâĸĲ âĸĪâĸĪâĸĪâĸĮ
Ġ99999999 9999
Ðĵ ÐĶÐĲÐĿ
Ġ"' "
Ġ"} "
âĸĳâĸĦâĸĢ âĸĮâĸĳâĸĳâĸĳ
âĸĴâĸĴâĸĴâĸĦ âĸĴâĸĴâĸĴâĸĦâĸĴâĸĴâĸĴâĸĴâĸĴâĸĴ
âĸĳâĸĳâĸĳâĸĳâĸĳâĸĮ âĸĴâĸĴâĸĴâĸĴâĸĢâĸĢâĸĢâĸĴâĸĴâĸĴâĸĴâĸĴâĸĴ
âĸĳâĸĳâĸĳâĸĳâĸĳâĸĮ âĸĴâĸĴâĸĴâĸĦâĸĴâĸĴâĸĴâĸĦâĸĴâĸĴâĸĴâĸĴâĸĴâĸĴ
âĸĢâĸĢâĸĳâĸĳâĸĮ âĸĲâĸĳâĸĳâĸĳâĸĢâĸĢâĸĳâĸĳâĸĮ
âĸĢâĸĢâĸĢâĸĢâĸĢâĸĦ âĸĴâĸĲâĸĪâĸĪâĸĪâĸĮ
âķĲâķ¦âķĲâķ©âķĲâķ¦âķĲâķ©âķĲâķ¦âķĲâķ©âķĲâķ¦âķĲâķ© âķĲâķ¦âķĲâķ©âķĲâķ¦âķĲâķ©
âĸĲâĸĳâĸĳâĸĳâĸĦâĸĦâĸĳâĸĳâĸĮ âĸĲâĸĪâĸĪâĸĪâĸĮ
ÐĶÐ ¯ÐĶÐ
âĸĪâĸĪâĸĪâĸĪâĸĪâĸĪ âĸĦ
âĸĢâĸĦâĸĳâĸĳâĸĳâĸĳ âĸĦâĸĢâĸĴâĸĴâĸĢâĸĦâĸĳâĸĳâĸĳâĸĦâĸĢâĸĴâĸĴ
Let ter
Ġ.'. ''|
Ġfld gjdflg
ITNO A
âĸĪâĸĪâķĶâķĲâķĲ âĸĪâĸĪâķĹ
ande ro
âĸĴâĸĴâĸĴâĸĴâĸĴâĸĴâĸĴâĸĴâĸĴâĸĴâĸĴâĸĴâĸĴâĸĴâĸĴâĸĴ âĸĴâĸĪâĸĪâĸĪâĸĪâĸĮ
âĸĴâĸĢ âĸĪâĸĪâĸĪâĸĪâĸĪâĸĪâĸĦ
ĠObject Type
âĸĢâĸĢâĸĢâĸĢâĸĢâĸĢ âĸĪâĸĪâĸĪâĸĪâĸĪâĸĪâĸĪâĸĦ
âĸĴâĸĴâĸĦ âĸĢâĸĢâĸĢâĸĢâĸĢâĸĦâĸĴâĸĲâĸĪâĸĪâĸĪâĸĮ
âĸĴâĸĴâĸĲ âĸĮ
Ġimpro ve
Ġ\. _,\
âĸĪâĸĪâĸĦâĸĦâĸĦâĸĦ âĸĪâĸĪâĸĪâĸĪâĸĦâĸĴâĸĴâĸĴâĸĴ
alex andero
âĸĳâĸĢâĸĦ âĸĲâĸĴâĸĢâĸĢâĸĢâĸĢ
ÐĳÐŀ ÐĵÐĶÐĲÐĿ
<<"--> "<<
...***** .................................................
âĸĳâĸĪâĸĪâĸĪâĸĢ âĸĴâĸĴâĸĴâĸĴâĸĴ
âĸĳâĸĮâĸĴ âĸĢâĸĦâĸĳâĸĳâĸĳâĸĳâĸĦâĸĢâĸĴâĸĴâĸĢâĸĦâĸĳâĸĳâĸĳâĸĦâĸĢâĸĴâĸĴ
âĸĴâĸĢâĸĴ âĸĪâĸĮ
///................................ ...*****.................................................
âĸĦâĸĪâĸĪâĸĪâĸĪâĸĪâĸĪâĸĪ âĸĢâĸĢâĸĢâĸĢâĸĢâĸĢâĸĪâĸĪâĸĪâĸĪâĸĪâĸĪâĸĪâĸĦ
âĸĪâĸĪâĸĪâĸĪâĸĢâĸĪâĸĪâĸĪâĸĪâĸĪ âĸĢâĸĴâĸĮ
Ġ.:--. '.
âĸĳâĸĳâĸĳâĸĲâĸĳâĸĳâĸĳâĸĦâĸĦâĸĳâĸĳâĸĮ âĸĲâĸĳâĸĳâĸĳâĸĦâĸĦâĸĳâĸĳâĸĮâĸĲâĸĪâĸĪâĸĪâĸĮ
âĸĴâĸĴâĸĴâĸĴâĸĴâĸĴâĸĢâĸĢâĸĢâĸĴâĸĴâĸĴâĸĴâĸĴâĸĴ âĸĪ
âĸĳâĸĲâĸĪâĸĮ âĸĴâĸĴâĸĴâĸĴâĸĴâĸĴâĸĴâĸĴâĸĴâĸĴâĸĴâĸĴâĸĴâĸĴâĸĴâĸĴâĸĴâĸĪâĸĪâĸĪâĸĪâĸĮ
âĸĳâĸĳâĸĪâĸĴâĸĦâĸĢâĸĢâĸĢâĸĢâĸĢâĸĦ âĸĴâĸĴâĸĦâĸĢâĸĢâĸĢâĸĢâĸĢâĸĦâĸĴâĸĲâĸĪâĸĪâĸĪâĸĮ
âĸĳâĸĳâĸĳâĸĢâĸĪâĸĪâĸĪâĸĢâĸĢ âĸĪâĸĪâĸĪâĸĪâĸĢâĸĪâĸĪâĸĪâĸĪâĸĪâĸĢâĸĴâĸĮ
âĸĳâĸĳâĸĳâĸĢâĸĮâĸĴâĸĦ âĸĪâĸĪâĸĦâĸĦâĸĦâĸĦâĸĪâĸĪâĸĪâĸĪâĸĦâĸĴâĸĴâĸĴâĸĴ
âĸĳâĸĦâĸĢâĸĮâĸĳâĸĳâĸĳ âĸĢâĸĢâĸĳâĸĳâĸĮâĸĲâĸĳâĸĳâĸĳâĸĢâĸĢâĸĳâĸĳâĸĮ
âĸĳâĸĳâĸĳâĸĳâĸĳâĸĮâĸĴâĸĴâĸĴâĸĴâĸĢâĸĢâĸĢâĸĴâĸĴâĸĴâĸĴâĸĴâĸĴ âĸĴâĸĲ
âĸĳâĸĳâĸĳâĸĳâĸĳâĸĮâĸĴâĸĴâĸĴâĸĦâĸĴâĸĴâĸĴâĸĦâĸĴâĸĴâĸĴâĸĴâĸĴâĸĴ âĸĲ
ÐĶÐ¯ÐĶÐ ®
âĸĳâĸĢâĸĦâĸĲâĸĴâĸĢâĸĢâĸĢâĸĢ âĸĴâĸĴâĸĴâĸĴâĸĴâĸĴâĸĢâĸĢâĸĢâĸĴâĸĴâĸĴâĸĴâĸĴâĸĴâĸĪ
ÐĳÐŀÐĵÐĶÐĲÐĿ ÐĲ
âĸĳâĸĮâĸĴâĸĢâĸĦâĸĳâĸĳâĸĳâĸĳâĸĦâĸĢâĸĴâĸĴâĸĢâĸĦâĸĳâĸĳâĸĳâĸĦâĸĢâĸĴâĸĴ âĸĦâĸĢâĸĴâĸĮ
///...................................*****................................................. ///
âĸĳâĸĳâĸĳâĸĢâĸĮâĸĴâĸĦâĸĪâĸĪâĸĦâĸĦâĸĦâĸĦâĸĪâĸĪâĸĪâĸĪâĸĦâĸĴâĸĴâĸĴâĸĴ âĸĪâĸĢ
âĸĳâĸĦâĸĢâĸĮâĸĳâĸĳâĸĳâĸĢâĸĢâĸĳâĸĳâĸĮâĸĲâĸĳâĸĳâĸĳâĸĢâĸĢâĸĳâĸĳâĸĮ âĸĴâĸĢâĸĴâĸĪâĸĮ
) <<'
. ________________
5 23
6 19
= ++
> &&
A lice
C ODE
J ul
L og
P l
T s
_ >
e val
e rent
g ao
h ot
h ypot
l um
s or
» Ħ
â Ĺ
ç ¬
Ġi cbrt
Ġl ch
Ġf ar
Ġv in
Ġv st
it ing
Ġb ac
", ++
Ġma pii
iz ont
:: \
Ġr int
os h
Ġe i
Ġ' ['
Ġ' (';
)) +"
Ġg ame
ĠM ult
Ġpr ie
Ġpr actice
]= [";
<<" ]=[";
ĠF GB
Ġendl n
Ġ/ ::\
Ġo buf
ĠR R
ul al
ĠĠĠĠĠĠĠĠĠĠĠĠĠĠĠĠĠĠĠ čĊ
cur x
ĠĠĠĠĠĠĠĠĠĠĠĠĠĠĠĠĠĠĠĠĠĠĠĠĠĠĠĠĠĠĠĠ čĊ
ĠD GC
Ġget Root
Ġsum r
11 3
Ġto int
Ġad ded
num b
Ġrep de
Ġinf int
ld b
Ġ\ /__/
Ġread U
Ġac um
Ġsq u
Ġsc ii
ab l
ĠH ARSH
mask s
Ġtype of
Ġas dg
Ġcomp lete
ng lish
<<"= [";
46 1
46 3
31 3
77 3
Ġsub tract
Ġsqrt l
ON ENT
19 00
co ordinate
tf j
br idge
"" "
PB R
Ġà¦ ¦
Ġsm th
ĠLD B
20000 9
Ġbl ah
Ġstate s
Add Edge
FL OW
Ġpart ition
QUE UE
Ġdoes n
Ġ123456789 0
Del ta
irect ed
Ġoverload ing
Mid dle
æĪ ĳ
âĸ²âĬĻ âĸ²âĬĻ
UNI QUE
Ġlarg er
ĠMon th
izont al
ĠHARSH AD
$ %
' <<
* }
- ',
0 10
1 34
4 0000
4 57
: ,;
; `,,
> !
B ob
F W
K M
S ep
W eighted
Y MMMMMMMMMMMMMMMM
` ..
b ind
d omin
m ine
m ber
n ano
q i
r id
w hich
w hat
y d
} @
è Ĭ
Ġ own
on s
Ġc art
Ġl out
Ġl xt
Ġl mt
Ġl scn
Ġl ambda
Ġm ight
++ ].
Ġ1 20
Ġ1 111
Ġs parse
Ġv et
// ****************************************************************
Ġt ill
Ġt erm
Ġb order
Ġx n
ĉĉĉ ĠĠ
Ġ* --
mp ty
__ <<"\
Ġj udge
Ġr long
Ġr min
ĠT E
Ġans l
Ġans r
Ġg max
as m
]) +(
<<" >
ĠF Or
ĠN max
Ġmod Inv
ĠS can
ĠS GD
ĠS chool
ĠP d
ĠP RT
â£ ĩ
MM MN
Ġ3 33
em y
es ian
ĠL O
Ġmp si
min imum
ĠĠĠĠĠĠĠĠĠĠĠĠĠĠĠĠĠĠĠĠĠĠĠĠĠĠĠĠĠĠĠĠ ĠĠĠĠĠĠĠĠĠĠĠĠĠĠĠĠĠĠĠĠĠĠĠĠĠĠĠ
ĠD ouble
ĠD ukkha
]] ))
he p
â£¿â£¿ â£Ĩ
99 1
th row
Ġ5 67
Ġinf Value
Ġinf inity
ĠFOR all
ĠFOR SZ
ro om
ĠAr bitrary
rep e
<<( *
âł Ħ
âł ı
58 476
ĠH MOD
Ġcheck ed
MMMMMMMM MMMMM
55 9
adj acent
LE FT
â¡ ¾
â¡ ĺ
Ġbe k
ĉĠĠĠ ĉ
,; `
ove mber
Ġ20 10
index ed
ank s
Ġub d
â£¿â£¿â£¿â£¿â£¿â£¿â£¿â£¿ â£¿â£¿â£¿â£¿
â£¿â£¿â£¿â£¿â£¿â£¿â£¿â£¿ â£¿â£¿â£¿â£¿â£¿â£¿
â£¿â£ ŀ
âķ¬âķ¬ âķ¬
Ġwe ll
we i
Ġme an
Ġ"]"; }
ek Char
â¢¿ â£·
20000 3
Ġ-------------------------------- --------
ser tion
Ġï¿½ï¿½ï¿½ï¿½ï¿½ ,
â£¯ â¡¿
Ġfto a
Ġbp m
ĠIT R
ĠFIN D
Ġsw itch
â¢» â£¿â£¿â£¿â£¿â£¿â£¿â£¿â£¿â£¿â£¿â£¿â£¿â£¿â£¿â£¿â£¿
Ġprop er
888888888888888888888888 888
Ġpe ekChar
â¡ĩ â¢¹
ï¿½ï¿½ï¿½ï¿½ï¿½ï¿½ï¿½ï¿½ ï¿½ï¿½ï¿½
âł» â£½
ell o
gen eral
133 111
âłģ â£¾
Ġbas is
aei ai
:.:. :
ĠBit Cnt
ĠĠĠĠĠĠĠĠĠĠĠĠĠĠĠĠĠĠĠĠĠĠĠĠĠĠĠĠĠĠĠĠĠĠĠĠĠĠĠĠ ĉĉ
und y
Ġcomponent s
position s
âłīâłī âłīâłī
ĠâĸĪâĸĪâķĳ âĸĪâĸĪâķĳ
Ġmaxt y
stop watch
ifi cant
ĠFrom Str
à¦¶ à¦¨
â¡Ļ âł
Ġrequire ment
precomp ute
Friend ship
nano seconds
Ġcart esian
' <=
2 17
8 43
9 19
= *(
D o
K ey
M AN
O ver
T X
] \
a int
e en
e uler
f v
f po
h amed
k x
m ns
n mask
¦ Ĥ
¯ Ã
Ð ¿
Ð ĺ
å ¦Ĥ
in deg
st it
re b
Ġc ustom
Ġl m
Ġl map
Ġa f
Ġm ir
Ġm cmf
Ġf uel
Ġp ub
Ġp tt
Ġ1 34
Ġint s
-- ]);
// -----------------------------------------------------------------------------
out p
Ġfor q
ac cc
Ġr st
Ġre pb
hi ll
Ġy min
Ġu m
Ġw n
ĠM C
ĠM ark
Ġ: ";
88 3
is LowerCase
is UpperCase
ĠS OUT
ĠP P
Ġmin a
ĠR F
Ġst a
mod pow
ĠL Z
**************** ***
+= '\
min a
ĠC har
Ġget p
Ġget ting
]] <<"
99 6
Ġ100000000 6
get Max
Ġ5 12
Ġcl n
to a
ĠV LL
Ġ); }
ex e
Ġ4 30
53 9
mid dle
100 4
fi ve
SE ND
ĠE R
Ġput n
)+ "
Int ersection
Ġgo es
Ġhi ghest
Ġdy namic
Ġun locked
Ġen l
Ġ100 500
Ġ8 61
Ġ20 18
ON D
power Mod
40 7
Ġrand operation
44 4
]-= '
win ner
ĠSH IK
Ġlet ter
code r
Ġprob ab
xb f
ĠPOW ER
Ġspace s
/| _|
Ġ9999 0001
pli er
ĠEXP ECT
Ġcell s
ĠRO AD
ĠPOS L
èĬ Ĥ
¯Ã °
- *
2 100
5 27
J an
J ahangirnagar
N E
[ ]);
^ )
d u
d raw
f par
k ase
l ap
p C
q b
s ig
t ap
t sz
} ))
é Ģ
int eger
Ġ( ))
Ġl ii
Ġl pri
Ġl ittle
Ġf ans
Ġ} \
() ||
Ġv ol
am ount
Ġd op
Ġj a
Ġr ap
== ')
ĠT reap
Ġre vv
Ġ' ^
Ġy j
Ġ2 19
Ġ2 101
Ġu pb
Ġg d
Ġg y
]) ];
ans l
ans y
Ġpair T
Ġpair sort
<<" ----------------
Ġcon n
ed itor
ĠF ROM
ĠN D
Ġres z
Ġmax m
ĠS hah
ĠP ush
()) =='
Ġmin v
Ġh u
ĠR otate
Ġcnt b
Ġst o
Ġ# "<<
') ){
ck x
bu y
ĠC A
Ġget Id
ĠG OD
Ġcur x
cm d
Ġout arr
ub e
ay a
Ġtree max
ex ception
Ġfr d
Ġread ll
................ .......
ĠE RR
ĠE GCD
ep ega
/// ===
Ġsc ope
ok en
Ġend c
Ġ6 60
Ġcomp ile
]* =
Ġun getc
tt t
Ġprint New
56 3
ĠĠĠĠĠĠĠĠĠĠĠĠĠĠĠĠĠĠĠĠĠĠĠĠĠĠĠĠĠĠĠĠĠĠĠĠĠĠĠĠĠĠĠĠĠĠĠĠĠĠĠĠĠĠĠĠĠĠĠĠĠĠĠĠ ĠĠĠĠĠĠĠĠĠĠĠ
Ġmy Complex
qu otient
Ġdo it
Ġat s
14159265358979323846 3
Ġpa ired
28 1
ĠInt MaxVal
file s
sol ution
/******************************** ***************/
40 9
49 1
ces sed
rg ht
ĠĠĠĠĠĠĠĠĠĠĠĠĠĠĠĠĠĠĠĠĠĠĠĠĠĠĠĠĠĠĠĠĠĠĠĠĠĠĠĠĠĠĠĠĠĠĠĠĠĠĠĠĠĠĠĠĠĠĠĠĠĠĠĠĠĠĠĠĠĠĠĠĠĠĠĠĠĠĠĠĠĠĠĠĠĠĠĠĠĠĠĠĠĠĠĠĠĠĠĠĠĠĠĠĠĠĠĠĠĠĠĠĠĠĠĠĠĠĠĠĠĠĠĠĠĠĠĠ ĠĠĠĠĠĠĠĠĠĠĠĠĠĠĠĠĠĠĠĠĠĠĠĠĠĠĠĠĠĠĠĠĠĠĠĠĠĠĠĠĠĠĠĠĠĠĠĠĠĠĠĠĠĠĠĠĠĠĠĠĠĠĠĠĠĠĠĠĠĠĠĠĠĠĠĠĠĠĠ
unc om
ĠLong MaxVal
Ġ---------------- --------------
Ġrg ht
Pro cessed
~~~~ ~~
Ġ"# "
ĠGET M
ĠMS I
Ġro om
Ġ40 4
minus one
ĠIs Equal
ANG E
Ġ1000001 9
ä» ¬
Ġposition s
Ġcu oi
ĠFord E
MA IN
Fact ors
Ġaddmod fast
åı ¯
ĠÐ¿ ÑĢÐ¾
============================================ ===
Ġgre at
miss ing
ĠRAH MAN
{{{ */
ĠPRE F
Ġ|_|\__,_| _|
ĠComplex ity
Infin ite
//------------------------------------------------ -------
]<<", ";}
ĠMo hamed
æĪĳ ä»¬
ĠprintNew Line
ĠRAHMAN IR
" ]=
1 307
4 00010
7 01
8 11
8 27
> _
? '
A n
J wb
L y
P F
R A
T U
T here
U SH
W XY
X or
Y iN
\ *
b ab
c XZv
h v
j V
j YnB
l mt
r f
r h
r ang
t en
y c
z eg
ç ķ
in vert
Ġ( @
on line
Ġm er
Ġf name
Ġf po
Ġf resh
Ġp z
Ġs ch
() ]);
Ġv sz
Ġt ol
Ġb aki
Ġ" -------
Ġ& ___
ar ations
Ġr out
Ġr ans
Ġr ay
ĠT AB
ma y
Ġu nd
)) :
Ġk a
Ġg ya
]) ]++;
Ġ% %
Ġin puts
Ġpair l
Ġ// (
Ġ) /
Ġ) >>
ĠF B
ĠA sk
ĠA cc
im id
Ġmax s
ĠP S
Ġtr im
Ġ3 00000000
ĠR ev
Ġst p
ast e
ĠL imit
cur R
ĠC am
Ġz Algo
Ġ5 1
Ġ5 97
Ġ5 57
Ġ5 5555
to Int
ĠFOR X
ĠV i
ĠMAX INT
Ġread i
Ġle arn
Ġ1000 5
Ġvv vs
50 4
Ġbe long
Ġind ices
Ġpop f
FF T
Ġsub string
Ġmask s
Ġlow b
IT S
Ġ8 30
Ġco ord
Ġfile Input
57 1
Ġ~ ((
47 29
Ġï¿½ï¿½ï¿½ï¿½ï¿½ï¿½ .
old r
ho le
Ġlength s
Ġ[&] ()
Ġfto it
ÑĤ ÑĮ
ru nd
Ġwr iting
))* ((
/************************************************ *****/
Di jkstra
ĠBU FF
Ġany thing
ĠCH MAX
ĠCH MIN
ĠTo String
lin ux
######### ~~
ĠABC D
ĠABC DE
ãĤ Ĵ
med ian
ĠCan h
ĠRAH IM
ĠSW AP
NQ cWEj
nC r
!="" ?
åĮ ĸ
<<"< "<<
UV WXY
<<"---------------- "<<
Jwb X
# __
/ _
/ :/
6 01
@ ï¿½ï¿½
A G
A JU
I ATION
N W
P ham
a red
b us
d ol
e red
f w
f li
g ame
h b
h ol
j oint
k orn
m ethods
o ber
p z
p uu
q ing
r be
r ach
s ample
z er
z hang
ä ¹
æ ²
ĩ åĩ
in sertion
Ġi out
Ġc ou
Ġc id
Ġc md
Ġl pair
Ġa pt
Ġf prio
Ġn z
Ġp out
Ġp fr
++ <<":
Ġ1 43
Ġ0 61
Ġs sync
Ġv dbl
Ġ+ -
ong korn
Ġt max
Ġt take
Ġb size
Ġb pow
ac hi
Ġ" >>
Ġ" >>>>>>
con n
Ġma ps
ect ion
__ <<'
ĠT aken
ĠT utu
const s
ue z
os ri
nt t
Ġre serve
Ġy max
od rig
Ġk ar
Ġg str
LL A
<<" }
ĠF G
ĠF oo
ĠN ow
Ġ/ |
Ġ/ *********************
ĠA n
Ġmax pq
Ġo ll
Ġo stat
//// ///
Ġtr ll
ĠR odrig
Ġpb c
ĠL en
ĠMOD P
ĠĠĠĠĠĠĠĠĠĠĠĠĠĠĠĠĠĠĠĠĠĠĠĠĠĠĠĠĠĠĠĠ ĠĠĠĠĠĠĠĠĠĠĠĠĠĠĠĠĠĠ
ĠD ont
ĠG A
ĠG arc
il i
ĠB ATCH
ĠB osri
Ġse ll
all t
Ġrep D
Ġ10 7
ĠLL L
ĠV d
ĠV ll
ĠV iii
ĠV LLL
Ġset DP
/* {{{*/
)( {\
Ġmx N
10000 00010
Ġread c
ĠU P
Ġpll pl
({ (
Ġmap T
******************************** /
20 4
Ġput nb
Ġsc iii
)- =(
ĠH uu
ĠH achi
comp are
AC T
Ġen try
Ġbe en
Ġpow mulmod
Ġfact s
])) ,
Ġwrite i
Ġwrite ll
Ġpa i
ly s
su do
Ġpp fr
Ġ100000 1000
Ġ") "
Ġtt me
br ary
der s
ra ja
ik ung
Ġqueue l
ri es
mon d
1415926535897932384626433832 7
Ġ-------------------------------- -
Con stants
ĠLong MinVal
ĠGet Ans
ĠRE AY
ĠRE AJU
Ġab cd
Ġ---------------- ---------
Ġvp ull
Ġvp uu
Ġfd n
Ġva ild
Ġwr ites
Re ader
ĠUN DEF
ĠUN SYNC
âĸĢâĸĢâĸĢâĸĢ âĸĦ
wr ites
loc al
Ġer t
Ġï¿½ @ï¿½ï¿½
âĸĪâĸĪâĸĪâĸĪâĸĪâĸĪâĸĪâĸĪ âĸĪâĸĪâĸĪâĸĪâĸĪâĸĪâĸĪâĸĪ
Ġcall s
Des mond
factor ize
14159265359 3
ĠCO MI
Ġapp end
Ġvld bl
Ġ21 34567891
ĠSHOW QUEUE
ĠFR W
Ġinitial ise
ĠDi ego
ĠCh ulal
Ġclz ll
ĠVP d
ĠVP i
ĠVP ll
ĠFL USH
team s
ĠgetF oo
Ġabc de
Ġwor st
Ġ**************************************** **/
Ġctz ll
Ġkhod a
ĠEXP ONENT
Inc rement
tam a
Ġbsr ll
ðŁ¦ĬðŁ¦Ĭ ðŁ¦ĬðŁ¦Ĭ
å® ĩåĩ
ĠPAIR LL
æŀ ľ
chu an
Ġnpq i
Ġnpq l
Ġwar ukazu
Wr iter
Ġoper ations
ĠWor rach
indrom ic
Ã¡ ly
/******************************* \
ĠHA QUE
Ġé »Ħ
1999999 973
pet ed
Ġpus hi
Ġlpr iln
Ġ999999999999 73
ĠreadU Int
Ġsqu are
Ġ"------- "
ĠAcc peted
ĠCam po
qing chuan
zhang qingchuan
Ġostat ok
ĠRodrig uez
ĠGarc ia
ĠHachi ikung
ĠREAY Z
ĠREAJU L
Ġï¿½@ï¿½ï¿½ :
ĠCOMI LLA
ĠChulal ongkorn
ĠEXPONENT IATION
å®ĩåĩ ¡
ĠWorrach ate
Ġé»Ħ å®ĩåĩ¡
1 1010
8 29
8 39
: -(
D ot
D fs
I m
R L
R ank
R ahmanir
T A
V V
] ]));
a res
b ismillahir
g ui
h and
h idul
h vf
i ble
j ay
k r
k ill
m ii
m atr
n on
n ine
n ess
r uffle
r limit
s ir
v asu
x k
y aki
~ //
» å
Î ±
Ï Ģ
Ġ ********
Ġ ÏĢ
ĠĠĠĠĠĠĠĠ ĉĉĉ
Ġ= :
or ial
on ment
Ġc le
Ġa st
Ġ{ _
Ġm ath
Ġf g
00 9
cl are
Ġs fff
Ġv asu
-- );
-- ];
// --------
Ġt empl
Ġt ii
Ġt ang
Ġb end
Ġr tr
Ġr vi
Ġr REP
Ġr ahmanir
os z
Ġcin s
Ġ' -');
Ġy e
ĠM d
as ya
ans r
Ġ) */
ed s
ĠN CR
ĠA ux
ad ox
ĠS ame
ĠS ho
ĠP SET
put si
Ġch a
Ġmin y
Ġh vf
ĠR ang
ĠL N
ĠL P
+= ",
ĠC V
ĠB ase
ĠB log
Ġto c
Ġto Double
Ġz a
algorithm s
Ġse lf
th er
Ġsort f
Ġis Ex
Ġis Digit
ff loat
Ġmx y
vi jay
ï¿½ï¿½ï¿½ï¿½ ï¿½ï¿½
ĠPI L
ĠU T
ĠU ser
OC D
prec alc
58 9
ĠH NO
ĠH appy
par adox
Ġth ings
à¦ ¥
37 94
30 9
Ġsh andom
Ġun q
ĠK azakhstan
Ġprint Line
Ġprint Ans
Ġen vir
Ġ100 3
Ġpower mod
read in
================ ============
ular Function
dig u
________________ _
exp onentiation
100000000 00000000
Ġ((( _
ĠInt MinVal
mat on
ms a
Ġexp ressed
Ġhash set
Ġhash map
;-- (
son s
cap acity
Con tainer
ick s
ĠST ll
Comp ile
ĠSP ACE
Ġ"}"; }
Pro cess
99999999 9
off line
Ġdef ining
Ġra him
1024 000
take mod
hod ox
Ġonly unique
Ġ200000 6
888888888888888888888888 88
zz zz
Ġ23 11
short est
iss ion
è¿ Ļ
Ġsubm ission
Ġ5000 321
Ġ201 103
ä» ¥
Ġort hodox
sha hidul
ĠStart s
De clare
Ġtar jan
ĠBR UR
2000000 100
arth a
Ġmay be
Ġfastpower mod
ĠLang uage
Ġeuler totient
Ġtra verse
Ġ30000 9
Ġoi int
Ġquit ters
Ra him
sat yaki
æĹ¶ éĹ´
'}},{ {'
é¢ĺ æĦı
åıĺ éĩı
eul ers
Ġtit ose
ĠJan artha
ĠShah idul
ĠÏĢ Î±
ĠRang pur
Ġenvir onment
Ġorthodox paradox
! ";
- +
3 97
8 68
L N
O ON
P o
S uf
S ORT
T AK
T reap
W unused
W missing
] '
_ ){
b ag
c od
e sp
e qu
e rest
h m
h ld
k p
k sd
l pos
q C
r anges
t qu
u dent
x FFFFFFFFFFFFFF
± Ã
å ¿
æ Ń
Ġ @@@
Ġi rep
ĠĠĠĠĠĠĠ Ċ
Ġ( ^
Ġc gh
Ġm ci
Ġ1 12
Ġ<< '
Ġb pp
Ġif act
at t
Ġd ar
iz za
ĠT LE
ma su
Ġ== (
Ġe of
Ġe val
for l
Ġk s
Ġg n
ĠM MS
ith er
Ġpr of
<= ___
), __
ĠN DEBUG
ad ur
max c
max imum
Ġmin Heap
Ġh ate
ĠR s
ĠR ange
ĠL s
ĠL ow
64 9
cur Time
ĠD Y
ĠD iv
tr iple
ĠC oll
ind ices
ĠI II
ĠB ir
]] <<
Ġz wr
ĠFOR S
input s
Ġ-- +
Ġmx e
ĠMAX I
******************************** **************************
tmp v
58 63
ab in
AL AM
Ġ6 7
In f
Ġun k
ĠK h
ĠK ings
ĠK ALAM
Ġprint ii
Ġ100 7
Ġnext p
16 3
38 7
el m
Ġnew node
Ġnew Node
low bit
]> '
Ġpa int
vv b
100000000 000000
cost s
sh it
Ġpp ap
59 2
27 0
sol ved
Ġ(; (
ET CH
Ġbs l
47 13
ĠPR IME
Ġsm l
EM ESH
Ġ")"; }
Le vel
69 1
ĠRE VI
Ġln f
0000000 100
Ġimp rimirVector
/************************************************ **************
Data In
Data Out
IG MA
Ġwho le
ĠGET B
ĠREV S
ĠREV II
Ġact ual
Ġany way
Ġpe at
_. __
_______ ,
133 3
ĠTo Str
Ġ'+ ';
Ġ100000000000000000 5
nv j
åĲ Į
ĠØ§ÙĦ ÙĦ
tem ber
ĠTask A
ĠÐ¿ ÐµÑĢ
Diff Pf
Ġ987 654321
Ġrequ ired
Complex ity
Ġ'> ';
Ġ'< ';
========= ////
BO EB
ĠOL BOEB
ĠKnight s
Ġbip artite
ĠLazy SegmentTree
]==') ')
Ġ"[] "
ÙĬ Ùħ
ĠPrintV l
Ġ================================= =========////
ĠBi Edge
decl arations
Ġsat is
Ġcandid ates
âłĢâłĢâłĢâłĢâłĢâłĢ âłĢ
Ġnem at
Ġhast am
å¦Ĥ æŀľ
ĠPREF ETCH
Ġ55555 7
æ² ¡
ili ary
msa wy
erest ing
xFFFFFFFFFFFFFF FL
Ġcgh f
Ġzwr aca
EMESH OON
" },
' ]==
) ...);
4 77
8 63
A pril
D A
F ebr
H H
M int
M arch
M UL
N ah
N IT
P A
S core
] /(
a ffect
b locked
f read
g lobal
i str
k ir
n ed
| )
} ]++;
Ġ âĸĪâĸĪâķĹ
int d
ĠĠĠĠĠĠĠ ĉĉ
Ġc ev
Ġl nd
Ġm atr
Ġp que
ur y
// !
Ġt ll
Ġt ip
am ps
con vex
ir o
Ġx f
Ġma de
Ġ' -',
)) >
)) ]);
ĠM ou
Ġ<= (
pair t
ĠF K
ĠF FOR
is upper
ad ded
open cv
ĠS YNC
ĠS ingh
ĠS PBR
Ġo h
ĠL ocal
(){ __
ĠĠĠĠĠĠĠĠĠĠĠĠĠĠĠĠĠĠĠĠĠĠĠĠĠĠĠĠĠĠĠĠ ĠčĊ
ĠD su
ĠC T
Ġstring s
Ġld d
ĠB ah
Ġto string
Ġse quence
all owed
Ġis Whitespace
ex hausted
Ġstr ip
art hest
12 28
ĠE gor
ĠE nglish
20 17
33 0
/// **********************************************************
Ġadj ust
ab an
ab bb
ne i
Ġdi ameter
ĠK ulikov
Ġupdate Range
Ġcount ing
Ġstart ed
gh jkl
]+= '
Ġpop count
77 216
141592653589793238 5
141592653589793238 510
Ġdis co
Ġms b
Ġ20 12
ill er
Ġ'<< __
Ġtm d
Ġlb d
Ġindex es
Ġsi mple
Ġ', '
/******************************** ****/
multi pleTestMode
Ġ'); \
Ġ` --'
300 1
ĠMIN INT
ĠreadInt Array
Ġ10000000 33
Ġwr itten
ffff ffff
ĉĉĉĉĉĉĉĉ ĉĉĉĉĉĉĉĉ
Ġscn ll
Ġra j
ĠDEB A
ĠPRINT M
Al gorithm
Ġfe el
Ġrelax Min
Ġort h
CL ionProjects
Ġcub ic
ĠIF DEB
/**************************************** */
è¡ Į
ĠRa j
Ġ**************************************** ****/
ĠBang a
SP EED
Ġ'< ')
Ġà¦Ĩ à¦Ľ
Ġrect angle
å°ı çļĦ
Ġ??? ?
14159265358979323846264338327950288419716939937510582097494459 230
Ġ"[] ";
ä¼ ĺ
bbbbbbbb bbbbbbb
ĠSol ved
ĠInv Mod
besme llah
Ġbus y
ĠHoss ain
åľ ¨
Ġdelet ed
Ġtravers al
TX T
Jan uary
Ġ******** **/
ĠKh atri
Febr uary
Nah id
ĠBah adur
///********************************************************** //
bbbbbbbbbbbbbbb ll
" []
& ((
) ]==
1 30
5 00001
6 28
D im
D toU
F ound
J une
L toR
N ovember
R toL
S W
S uffix
W H
] --)
a N
a X
a ft
c base
c sum
i it
j at
u map
y w
¨ æĦı
å ½
ç Ķ
de red
st p
Ġi b
ine ar
se nd
Ġn f
Ġp aa
Ġp pll
++ =
Ġ1 500
ou dh
() ?
Ġv ot
// ____
Ġb ro
at sub
][ "
Ġd abl
Ġx m
Ġx wb
mp ow
Ġr j
ĠĠĠĠĠĠĠĠĠĠĠĠĠĠĠĠ Ċ
ĠT Case
ue v
Ġe p
Ġre u
Ġy c
## =
******** *****
Ġpr m
ch s
<<" #
Ġcon ti
)); ++
is ok
Ġmod r
ĠA C
-------- //
max y
ĠP ar
//// /
Ġ3 24
Ġh it
es o
Ġmp di
') >(
min j
ĠĠĠĠĠĠĠĠĠĠĠĠĠĠĠĠĠĠĠĠĠĠĠĠĠĠĠĠĠĠĠĠ ĠĠ
ĠĠĠĠĠĠĠĠĠĠĠĠĠĠĠĠĠĠĠĠĠĠĠĠĠĠĠĠĠĠĠĠ ĠĠĠĠĉ
Ġsum b
11 29
") <<
Ġto gether
âĸĳâĸĳ âĸĢ
Ġ'\ '
pre d
AR K
Ġ5 100000
to D
fr aid
ĠAr yan
oc ument
ec ut
Ġmap i
Ġ10000 7
Ġdebug p
<<' ='
find Set
1415926 358
par areru
à¦ ľ
Ġdi j
ĠK ey
Ġcol umn
Ġnew Buf
Ġnew BufSize
sc i
199 2
go a
prime list
Point s
har d
su re
init ion
60 287
new BufSize
buf Read
Ġbuf Read
Ġli brary
ĠĠĠĠĠĠĠĠĠĠĠĠĠĠĠĠĠĠĠĠĠ čĊ
Ġco ver
IZ ATION
]<< ((
Ġdiff erent
St ate
Ġal one
Ġbo y
Ġrd v
ĠJ HELPER
neg at
**************************************************************** /
)(( *
bl k
Ġbr idge
66 1
ĠÐ ¼
Ġkey mod
ew ski
Ġ15 48
ä¸ ²
Ġ---------------- -----
ĠMIN LL
]=='. '&&
2000 20
ĠRe pd
Ġna ame
ov a
Ġso ma
[_ ]<<"
);-- (
Ġceil Div
Ġdef inition
997 09
Ġap pro
Ġbal ance
Ġ20000 9
ĠBS Bandme
ĠTo Number
han ad
ĠVV L
ĠCh oudh
åĲ İ
ĠStart Point
ĠSOL VE
CO UNT
_______________ \
ELE M
Ġclose st
Dec ember
7182818284590452353 60287
ĠGr zeg
ĠCompress or
Optim izations
FA IL
Oct ober
Ġgam ma
Aug ust
Ð¢ Ð
æ³ ¨æĦı
ISMILLAH IR
ÐµÐ¼ ÐµÐ½
orz ewski
Jul y
Sep tember
//**************************************************************** *********************
èĬĤ çĤ¹
sir jan
ĠAux iliary
ĠMou hanad
"[] :
Dim Dice
atsub a
ĠChoudh ary
718281828459045235360287 4713
ĠGrzeg orzewski
, };
, [](
. *
2 24
4 53
6 31
= ;
B ach
C ell
D ocument
G END
R ARY
R MQ
S l
V i
b ut
g ar
h it
i max
l ing
v tr
w hen
z ip
{ ";
} ])
~ ((
¥ ¤
à ¥¤
ç ±
ĉ ĠĠĠĠĠĠĠĠĠĠĠĠčĊ
Ġ WW
Ġ $$
Ġ ÙĬ
į æĿ
in q
Ġl os
Ġl wb
Ġa fraid
Ġm ol
Ġp pow
Ġ0 4
ou ght
() [
() });
Ġv pdd
// **
am os
am an
]; ++
at ile
Ġd g
Ġd in
le tt
Ġr val
ĠĠĠĠĠĠĠĠĠĠĠĠĠĠĠĠ ĠĠĠĠĉĉ
ĠT er
ĠT EMPLATE
Ġre lease
Ġ' <<#
Ġu ns
Ġk Stack
), (-(
ĠF it
ĠN MAX
Ġq we
Ġq td
ĠA T
ĠS Y
()) ){
=( _
Ġpush up
Ġh ur
ot s
cur sum
ĠD MAX
ĠD uy
ĠC UR
Ġget height
ĠG PP
Ġcur ans
pos ite
Ġpii p
ĠB asicInteger
ĠB eng
sum B
get m
Ġcl f
ĠLL MAX
mx i
32 0
32 3
ht ml
ĠO S
li ke
ce l
ce ed
ĠE vent
ec omposition
Ġ10000 00010
Ġmn y
âĸĢ âĸĦâĸĦâĸĦâĸĦ
Ġ6 64
à¦ ¸
]!= '.')
37 1
37 59
LE GEND
ĠIn verse
Ġpow MM
exp ect
500 2
Ġver sion
__, #__
Ġmt s
Ġupd max
Ġexp ect
/******************************** ********************************************************************************************************************************
=" {";
parent s
ĠZ L
ai led
rev pro
bl ue
my map
Ġ12 99709
ĠĠĠĠĠĠĠĠĠĠĠĠĠĠĠĠĠĠĠĠĠĠĠĠĠĠĠĠĠ čĊ
Ex ception
ĠST ARK
--- .
Ġbl ue
ĠRe pr
FUNCTION S
+=" }";
GL OBAL
]=='* '
141592653589793 116
LIB RARY
Ġrelax Max
ĠEx ecut
Ġato z
Sp ace
_^ )
~~~~~~~~ ~~~~~~~~
BO Y
ABC DEF
æŀ Ĳ
Ġtopolog y
ĠFlag ship
ĠCase T
Ġdenom inator
>(( _
ĠChi ef
Ġru ntime
åĪĨ æŀĲ
ĠOr dered
OPTIM IZATION
Ġdum my
Weighted Edge
Ġ(^ _^)
æ²¡ æľī
ä¼ĺ åĮĸ
Ġ1548 5863
Document s
ĠkStack Size
ĠBeng ali
LEGEND S
ĠExecut or
" <<"
D X
E lem
E vent
F enwick
G H
G HI
H opcroftKarp
P L
P oly
c atch
d z
e rep
m si
q c
s aved
t ll
w z
x half
â ļ
å ¾
Ġ )),
Ġ ......
Ġ âĪ
ĠĠĠĠĠĠĠĠ ĉĉĉĉ
Ġi vector
Ġc min
define s
Ġl at
Ġl vector
Ġa tt
Ġa ka
Ġm ms
se ll
Ġf ii
Ġp ic
Ġp ick
Ġs ot
Ġs sum
Ġs bt
Ġs nu
() <<'\
.. ;;
Ġ" !!!"
Ġx half
us z
Ġ& __
Ġ* &
Ġr ain
Ġr anges
Ġr foreach
ĠT Z
ti k
Ġ2 10
], *
)) );}
Ġk l
ĠM ake
ĠM MMMMMMM
as he
]) &&
pr s
Ġ// _
(), _
Ġq v
IN OUT
ĠA CC
Ġmax Val
ĠS CC
10 10000
ĠP PC
Ġar cy
Ġ__ ________
Ġ__ _______
Ġmin s
Ġh app
____ ,
fs um
ĠD eb
Ġget C
ĠG old
EP B
â£¿â£¿ â£¿â£·
Ġse s
ES P
NO PQ
Ġout V
Ġ10 57
Ġcl asses
Ġis on
mx y
/* ---------------------------
Ġ-- (
Ġmx i
26 7
________ ,
ĠU F
ĠU SET
ĠE ven
'); \
]==' <
)+ "]
Ġmn e
Ġmn n
âł ĭ
ĠH amir
22 3456
Ġun ions
di rection
Ġbit ch
ng le
el apsed
read ing
Ġreverse Edge
Ġsub size
Ġsqrt s
Ġpq ll
________________ ____
yy y
500 3
Ġtm s
)== "
mi lliseconds
sol n
Ġmat mul
Ġbr ut
ĠFAST READ
ĠFAST INOUT
my ostream
Ġ12 34567
Ġlog ceil
++++ +
Ġab out
Ġqu ick
ĠIN DIA
____________ __,
Ġ10000000 9
Ġ'* '){
ĠFast Inv
Ġbeg time
à¦¾ à¦
Pro blem
**************************************** */
Ġfactor ization
Ġbug c
Ġ200000 5
Al pha
ĠBU FSIZE
Ġ(# _
Ġ(# _)
Ġ(& __
============ =
tar iqul
Flow Edge
Ġ**************************************************************** ****************
__________ .
SH AL
ĠStr uct
Ġvt ll
Be fore
Ġsetbit c
Ġmis match
å¤ įæĿ
Ġsubmod fast
Ġ**************************************** *****/
Pref ix
ĠNX POW
JK LM
Ġcontain s
Ġmakeit number
------------------------------------ */
Ġâķļ âķĲâķĿ
Ġrai chu
///-------------------------------- ----------------------------
ĠSh ort
ðŁĲ¹ðŁĲ¹ ðŁĲ¹ðŁĲ¹
ĠSW S
ĠUS EPB
Ġ================================= ================================
?"" :"
ĠDig vijay
ĠAP Util
Ġdream s
RST UVWXY
ÑģÐ» Ð¸
ĠBeatMe Scanf
Ġoverride s
Ro ad
ĠÐµ ÑģÐ»Ð¸
posit if
ĠHLD ecomposition
Ġ2311 1992
negat if
ABCDEF GHI
âļ ¡
ĠâĪ ª
Ġsnu ke
NOPQ RSTUVWXY
ĠUSET R
ĠHamir pur
ĠFastInv Sqrt
å¤įæĿ Ĥ
JKLM NOPQRSTUVWXY
ABCDEFGHI JKLMNOPQRSTUVWXY
ABCDEFGHIJKLMNOPQRSTUVWXY Z
- __
? ')
A s
B ear
F LL
H ello
N orm
R D
R AD
S ol
c ir
d w
d om
f gh
f old
j mp
k N
l k
p ld
r as
t L
u ally
v us
y ch
{ *
· ¦
Ø ª
å Ń
Ġ Ñ
Ġ ------------
Ĳ æ
Ġc arr
Ġc ould
Ġa prime
Ġm ac
Ġn for
Ġp fi
ou l
Ġs ss
Ġs low
Ġt is
Ġ" *";
am in
er ber
++) );
Ġ& >::
){ _
Ġll f
Ġr fact
ĠĠĠĠĠĠĠĠĠĠĠĠĠĠĠĠ ĠĠĠĠĠĠčĊ
== _
an ds
Ġ' $
ut ure
set up
Ġmain stream
Ġin st
Ġpr oc
ch anged
ĠA x
ĠA lso
Ġo j
Ġpush down
Ġh y
Ġh epic
ĠR em
ĠR AD
Ġst old
res sive
ĠD AS
ĠD CD
ĠD CL
ĠC pC
Ġget m
Ġget ar
ĠG Y
ĠG o
Ġall comp
--; )
Ġmem n
Ġmem move
Ġto add
Ġz xc
Ġout N
Ġout AN
pre cd
AR R
Ġvi p
ay ed
/* #################################################################################################################
insert er
ro ck
ĠPI PII
Ġ10000 3
struct ure
','. '},{'
88888888 888888
Ġabs o
Ġdb puts
Ġfast P
âĸĦ âĸĪ
Ġdi bs
pl s
fast er
__) <<"\
Ġnew P
Ġmy type
ĠALL OC
Ġmulti plier
DE D
Ġcalc ul
28 9
................................ ...............
ord ing
8888888888888888 8888
print s
ik a
ĠZ I
ĠZ P
ĠZ S
Ġà¦ ¨
000000 1
Ġloop r
ĠPrint A
ĠPrint Al
Ġbr idges
UN SYNC
68 3
ĠMEM SET
Ðµ Ñģ
Ġ15 000000
ser vers
Ġpd l
Comp osite
Ġback ing
Ġvp DD
ÑĤ Ð°
cb c
Ġso close
Ġopen in
Ġopen out
Ġlink s
inter vals
Ġtri ed
14159265358979323846264338327950288 4
load s
ĠTESTS I
jd k
Ġ************************ ****
ĠDL S
ĠDL X
âĸĪâĸĪâĸĪâĸĪâĸĪâĸĪâĸĪ âķĹ
Un ique
ĠDS L
################################################################################################################# */
///* ....
Ġcar ds
Ġkhod aa
ĠELE M
Cor vus
Ġcop rime
ĠPPII PII
Ġallrev comp
label s
/**************************************************************** *******/
ĠCl ass
Ġkar atsuba
Ġ1057 27
ĠStruct ure
ĠShort cut
Ġ================================================================= =========
å¤įæĿĤ åº¦
Ġtis ic
erber us
ĠCpC m
" [++
+ ");
1 26
4 50
5 29
6 17
< -
B is
C X
D ay
D ell
H ull
L PS
M an
M ind
M atch
O FF
P a
\ __,
] },
b lo
c ans
c ary
g u
g ing
h dsh
j K
j b
k mp
l num
l cs
o buf
p j
p k
p ost
p Node
r j
s nk
x o
y Free
z ai
ĉ ĠĠĠĠĉĉ
Ġ ë
ŀ ĭ
Ń Ãł
de xt
Ġc ool
Ġc ot
Ġl h
Ġl u
Ġl ag
Ġf our
Ġn et
ou se
Ġs num
Ġs ark
Ġs ample
() *(
Ġ<< <<
return s
Ġt g
Ġb or
Ġfor rr
ac aba
Ġ" )<<
ir tual
Ġr sum
ĠT wo
ĠT ra
ĠT otal
Ġcin ai
.... */
set a
ĠM F
ĠM erciful
Ġ| ((
Ġmod In
Ġmod Expo
ĠA li
im i
max k
ĠP al
Ġch mod
Ġch rs
;} ///
Ġdp t
Ġ_ ,
Ġ3 16
Ġh av
ĠR OO
ic ally
00000000 01
') &&
cur Node
min y
ĠC or
ĠG O
Ġcur L
Ġcur t
Ġse ems
all l
Ġrep R
get v
Ġ5 01
Ġis ch
Ġis alpha
(! )
Ġ\ _____
mx n
input f
Ġ4 996
>& ,
ĠREP I
MOD ULO
/// ******************************************
ok tama
mn x
Ġok a
ab cc
50 95
ĠY a
Ġun der
Ġ100 10
chr s
46 5
ĠW ill
Ġmy little
com bin
Ġor ient
100000000 0000
17 8
ave l
Ġ100000 7
Ġneed s
Ġupd min
Ġrev pr
AN C
)? -(
ra ft
ra and
Ġper form
âĶĢâĶĢ âĸĪ
ĠPrint Writer
my istream
Ġ12 34
ĠDI VI
Ġab ove
Ġpro ject
ä¸ ĭ
vers o
Ġshort cuts
âĢ Ŀ
Ġlol o
ãģ «
ĠNumber ToString
Ġpat kan
Ġ"! (!
ĠÃ ŃÃł
DI S
Ġfail ure
load yFree
Ġvr it
Ġson s
cstd arg
ĠLS B
gon al
ĠPL PLL
Ġort ho
trans form
bot l
Ġten p
Ã¥Ã Ń
Ġ': '
fe of
goal s
------------------------------------ ->
!!!! !!!!
ĠGen erator
æī ¾
Ġrat oz
Multi ply
ĠScan Reader
Ġbek id
ĠCA KE
»å ŀĭ
Ġcle an
ĠSame h
ĠisEx hausted
æĹ¶éĹ´ å¤įæĿĤåº¦
ĠÐ¿ÐµÑĢ ÐµÐ¼ÐµÐ½
Ġ'\' ';
ç± »åŀĭ
Ġ------------ >
Bis nu
Ġsark ar
Ġ")<< *
ĠmodIn verso
ĠÐ¿ÐµÑĢÐµÐ¼ÐµÐ½ Ð½
, !
, #
6 33
8 59
9 43
9 37
> ().
A kikaze
A nton
D one
D efines
I SHAL
K AZ
M ur
P y
T emp
T our
T otal
W ill
[ (*
a j
a u
d k
d jk
f g
j h
k il
p ool
t G
t on
t os
x max
} },
Ð Ĵ
ĉ ĠčĊ
Ġ ]);
Ġ ÑĤÐ¾
Ġi r
Ġc ast
Ġc our
Ġl ight
Ġa mid
Ġf ailed
Ġn or
++ );}
Ġ0 1
ou d
Ġs dp
Ġs now
Ġv w
Ġt le
Ġb h
ac y
ac bb
Ġd ob
Ġr max
== *\
typedef s
hi j
Ġ' =
Ġ' ='
)) +(
Ġw ould
Ġg old
ĠM ARS
Ġ, -
]= !
Ġmax y
ĠS UB
Ġar si
()) =='\
em ies
un defined
Ġmake v
ĠD OWN
ĠD ESP
ĠC mp
Ġsum x
ĠI nc
ĠB x
ĠB ar
Ġto max
Ġto ggle
Ġrep st
th at
Ġ7 9
ĠV B
Ġ\ _\
ios fwd
Ġtree min
100 111
Ġread S
oc cur
20 15
Ġ6 6666
In line
In fo
par k
Ġdi a
AC IT
ĠĠĠĠĠĠĠĠĠĠĠĠĠĠĠĠĠĠĠĠĠĠĠĠĠĠĠĠĠĠĠĠĠĠĠĠĠĠĠĠĠĠĠĠ ĉĉĉ
Ġsp an
inv f
-' +
test case
No isy
Ġvl n
te ja
Ġco ins
Ġta ala
Ġal go
âĸĵ âĸĪâĸĪ
........................ ....
Le Mur
ĠDI M
44 44
ĠIN V
state s
=' -'+
99999999 9999
Ġï¿½ï¿½ï¿½ï¿½ï¿½ï¿½ï¿½ ,
ĠĠĠĠĠĠĠĠĠĠĠĠĠĠĠĠĠĠĠĠĠĠĠĠĠĠĠĠĠĠĠĠĠĠĠ ĉĉĉ
Ġpld ld
ĠØ ¨
app end
Ġpol ar
call s
Ġ20000 2
Ġmode xp
æķ° æį
Ġ|\ __,_|
ĠOp tim
ib all
EX T
Code d
äº İ
Ñĥ Ñİ
ĠARY ANC
WI SE
512 000000
ĠĠĠĠĠĠĠĠĠĠĠĠĠĠĠĠĠĠĠĠĠĠĠĠĠĠĠĠĠĠĠĠĠĠĠĠĠĠĠĠĠĠĠĠĠĠĠĠĠĠĠĠĠĠĠĠĠĠĠĠĠĠĠĠĠĠĠĠĠĠĠĠĠĠĠĠĠĠĠĠĠĠĠĠĠĠĠĠĠĠĠĠĠĠĠĠĠĠĠĠĠĠĠĠĠĠĠĠĠĠĠĠĠĠĠĠĠĠĠĠĠĠĠĠĠĠĠĠĠĠĠĠĠĠĠĠĠĠĠĠĠĠĠĠĠĠĠĠĠĠĠĠĠĠĠĠĠĠĠĠĠĠĠĠĠĠĠĠĠĠĠĠĠĠĠĠĠĠĠĠĠĠĠĠĠĠĠĠĠĠĠĠĠĠĠĠĠĠĠĠĠĠĠĠĠĠĠĠĠĠĠĠĠĠĠĠĠĠĠĠĠĠĠĠĠĠĠĠĠĠĠĠĠĠĠĠĠĠĠĠĠĠĠĠĠĠĠĠĠĠĠĠĠĠĠĠĠĠĠĠĠĠĠĠĠĠĠĠĠĠĠĠĠĠĠĠĠĠĠĠĠĠĠĠĠĠĠĠĠĠĠĠĠĠĠĠĠĠĠĠĠĠĠĠĠĠĠĠĠĠĠĠĠĠĠĠĠĠĠĠĠĠĠĠĠĠĠĠĠĠĠĠĠĠĠĠĠĠĠĠĠĠĠĠĠĠĠĠĠĠĠĠĠĠĠĠĠĠĠĠĠĠĠĠĠĠĠĠĠĠĠĠĠĠĠĠĠĠĠĠĠĠĠĠĠĠĠĠĠĠĠĠĠĠĠĠĠĠĠĠĠĠĠĠĠĠĠĠĠĠĠĠĠĠĠĠĠĠĠĠĠĠĠĠĠĠĠĠĠĠĠĠĠĠĠĠĠĠĠĠĠĠĠĠĠĠĠĠĠĠĠĠĠĠĠĠĠĠĠĠĠĠĠĠĠĠĠĠĠĠĠĠĠĠĠĠĠĠĠĠĠĠĠĠĠĠĠĠĠĠĠĠĠĠĠĠĠĠĠĠĠĠĠĠĠĠĠĠĠĠĠĠĠĠĠĠĠĠĠĠĠĠĠĠĠĠĠĠĠĠĠĠĠĠĠĠĠĠĠĠĠĠĠĠĠĠĠĠĠĠĠĠĠĠĠĠĠĠĠĠĠĠĠĠĠĠĠĠĠĠĠĠĠĠĠĠĠĠĠĠĠĠĠĠĠĠĠĠĠĠĠĠĠĠĠĠĠĠĠĠĠĠĠĠĠĠĠĠĠĠĠĠĠĠĠĠĠĠĠĠĠĠĠĠĠĠĠĠĠĠĠĠĠĠĠĠĠĠĠĠĠĠĠĠĠĠĠĠĠĠĠĠĠĠĠĠĠĠĠĠĠĠĠĠĠĠĠĠĠĠĠĠĠĠĠĠĠĠĠĠĠĠĠĠĠĠĠĠĠĠĠĠĠĠĠĠĠĠĠĠĠĠĠĠĠĠĠĠĠĠĠĠĠĠĠĠĠĠĠĠĠĠĠĠĠĠĠĠĠĠĠĠĠĠĠĠĠĠĠĠĠĠĠĠĠĠĠĠĠĠĠĠĠĠĠĠĠĠĠĠĠĠĠĠĠĠĠĠĠĠĠĠĠĠĠĠĠĠĠĠĠĠĠĠĠĠĠĠĠĠĠĠĠĠĠĠĠĠĠĠĠĠĠĠĠĠĠĠĠĠĠĠĠĠĠĠĠĠĠĠĠĠĠĠĠĠĠĠĠĠĠĠĠĠĠĠĠĠĠĠĠĠĠĠĠĠĠĠĠĠĠĠĠĠĠĠĠĠĠĠĠĠĠĠĠĠĠĠĠĠĠĠĠĠĠĠĠĠĠĠĠĠĠĠĠĠĠĠĠĠĠĠĠĠĠĠĠĠĠĠĠĠĠĠĠĠĠĠĠĠĠĠĠĠĠĠĠĠĠĠĠĠĠĠĠĠĠĠĠĠĠĠĠĠĠĠĠĠĠĠĠĠĠĠĠĠĠĠĠĠĠĠĠĠĠĠĠĠĠĠĠĠĠĠĠĠĠĠĠĠĠĠĠĠĠĠĠĠĠĠĠĠĠĠĠĠĠĠĠĠĠĠĠĠĠĠĠĠĠĠĠĠĠĠĠĠĠĠĠĠĠĠĠĠĠĠĠĠĠĠĠĠĠĠ ĠĠĠĠĠĠĠĠĠĠĠĠĠĠĠĠĠĠĠĠĠĠĠĠĠĠĠĠĠĠĠĠĠĠĠĠĠĠĠĠĠĠĠĠĠĠĠĠĠĠĠĠĠĠĠĠĠĠĠĠĠĠĠĠĠĠĠĠĠĠĠĠĠĠĠĠĠĠĠĠĠĠĠĠĠĠĠĠĠĠĠĠĠĠĠĠĠĠĠĠĠĠĠĠĠĠĠĠĠĠĠĠĠĠĠĠĠĠĠĠĠĠĠĠĠĠĠĠĠĠĠĠĠĠĠĠĠĠĠĠĠĠĠĠĠĠĠĠĠĠĠĠĠĠĠĠĠĠĠĠĠĠĠĠĠĠĠĠĠĠĠĠĠĠĠĠĠĠĠĠĠĠĠĠĠĠĠĠĠĠĠĠĠĠĠĠĠĠĠĠĠĠĠĠĠĠĠĠĠĠĠĠĠĠĠĠĠĠĠĠĠĠĠĠĠĠĠĠĠĠĠĠĠĠĠĠĠĠĠĠĠĠĠĠĠĠĠĠĠĠĠĠĠĠĠĠĠĠĠĠĠĠĠĠĠĠĠĠĠĠĠĠĠĠĠĠĠĠĠĠĠĠĠĠĠĠĠĠĠĠĠĠĠĠĠĠĠĠĠĠĠĠĠĠĠĠĠĠĠĠĠĠĠĠĠĠĠĠĠĠĠĠĠĠĠĠĠĠĠĠĠĠĠĠĠĠĠĠĠĠĠĠĠĠĠĠĠĠĠĠĠĠĠĠĠĠĠĠĠĠĠĠĠĠĠĠĠĠĠĠĠĠĠĠĠĠĠĠĠĠĠĠĠĠĠĠĠĠĠĠĠĠĠĠĠĠĠĠĠĠĠĠĠĠĠĠĠĠĠĠĠĠĠĠĠĠĠĠĠĠĠĠĠĠĠĠĠĠĠĠĠĠĠĠĠĠĠĠĠĠĠĠĠĠĠĠĠĠĠĠĠĠĠĠĠĠĠĠĠĠĠĠĠĠĠĠĠĠĠĠĠĠĠĠĠĠĠĠĠĠĠĠĠĠĠĠĠĠĠĠĠĠĠĠĠĠĠĠĠĠĠĠĠĠĠĠĠĠĠĠĠĠĠĠĠĠĠĠĠĠĠĠĠĠĠĠĠĠĠĠĠĠĠĠĠĠĠĠĠĠĠĠĠĠĠĠĠĠĠĠĠĠĠĠĠĠĠĠĠĠĠĠĠĠĠĠĠĠĠĠĠĠĠĠĠĠĠĠĠĠĠĠĠĠĠĠĠĠĠĠĠĠĠĠĠĠĠĠĠĠĠĠĠĠĠĠĠĠĠĠĠĠĠĠĠĠĠĠĠĠĠĠĠĠĠĠĠĠĠĠĠĠĠĠĠĠĠĠĠĠĠĠĠĠĠĠĠĠĠĠĠĠĠĠĠĠĠĠĠĠĠĠĠĠĠĠĠĠĠĠĠĠĠĠĠĠĠĠĠĠĠĠĠĠĠĠĠĠĠĠĠĠĠĠĠĠĠĠĠĠĠĠĠĠĠĠĠĠĠĠĠĠĠĠĠĠĠĠĠĠĠĠĠĠĠĠĠĠĠĠĠĠĠĠĠĠĠĠĠĠĠĠĠĠĠĠĠĠĠĠĠĠĠĠĠĠĠĠĠĠĠĠĠĠĠĠĠĠĠĠĠĠĠĠĠĠĠĠĠĠĠĠĠĠĠĠĠĠĠĠĠĠĠĠĠĠĠĠĠĠĠĠĠĠĠĠĠĠĠĠĠĠĠĠĠĠĠĠĠĠĠĠĠĠĠĠĠĠĠĠĠĠĠĠĠĠĠĠĠĠĠĠĠĠĠĠĠĠĠĠĠĠĠĠĠĠĠĠĠĠĠĠĠĠĠĠĠĠĠĠĠĠĠĠĠĠĠĠĠĠĠĠĠĠĠĠĠĠĠĠĠĠĠĠĠĠĠĠĠĠĠĠĠĠĠĠĠĠĠĠĠĠĠĠĠĠĠĠĠĠĠĠĠĠĠĠĠĠĠĠĠĠĠĠĠĠĠĠĠĠĠĠĠĠĠĠĠĠĠĠĠĠĠĠĠĠĠĠĠĠĠĠĠĠĠĠĠĠĠĠĠĠĠĠĠĠĠĠĠĠĠĠĠĠĠĠĠĠĠĠĠĠĠĠĠĠĠĠĠĠĠĠĠĠĠĠĠĠĠĠĠĠĠĠĠĠĠĠĠĠĠĠĠĠ
ĠCHECK TIME
ĠĠĠĠĠĉĠĉ Ġ
ÐºÐ¾Ð ¼
Ġsupport ed
ĠSqrt M
seud o
dod ge
ĠisF ib
ĠER ASE
Ġsatis fy
Ġortho gonal
KAZ AKH
Ġarsi jo
ĠDESP ACIT
æķ°æį ®
ĠDESPACIT O
& =(
2 59
3 59
6 13
9 67
> ')
D eg
E rror
F ayed
L t
M R
M aster
[ ][
[ "<<
c Lazy
f er
f ii
j G
j u
j ai
k d
k hah
k hane
l j
m g
n id
p seudo
r Iterator
s st
s gt
v ion
ª Ãł
Ð ·
Ġ Ùħ
Ġ Ñĩ
Ġa del
Ġm ata
Ġn h
ur i
en o
Ġs li
Ġv rg
// }}}
Ġb ck
Ġ" ../
Ġd pr
Ġd dx
if j
++) ,
Ġma nd
Ġma dh
Ġma pping
Ġr time
Ġr Iterator
ue de
Ġe u
Ġe asy
EE GG
Ġre nn
ti ary
---- >
Ġu hn
Ġk on
Ġk am
Ġg rt
ĠM ost
]) <
ch a
Ġ/ .
Ġ/ **
is o
Ġq b
ĠA nik
ĠS o
ĠS uper
10 8
ĠP UL
â£ ¸
Ġtr nl
()) /
()) <<
Ġmin P
Ġh alt
ĠL OOP
64 0
64 0000000
,, ::::
Ġ(( _
ĠD ON
ĠD ear
tr ap
Ġcur R
ĠI ns
Ġchar act
ĠFOR I
(! !
---------------- -
Ġ\ ::
/* ============================================
ĠO bli
ss g
Ġ4 9
Ġ4 000
ĠMAX L
oc ashe
ĠE G
Ġtmp c
Ġ! !!
/// ------
58 3
Ġbase ll
Ġtype id
â¢ ¤
â¢ °
30 3
Ġdi splay
ĠY ed
di am
Ġbit put
Ġprint minusone
Ġ9 0
â¡ ı
16 0
Ġargs ort
ĠW SIZE
lic ation
ĠĠĠĠĠĠĠĠĠĠĠĠĠĠĠĠĠĠĠĠĠĠĠĠĠĠĠĠĠĠĠĠĠĠĠĠĠĠĠĠĠĠĠĠĠĠĠĠĠĠĠĠĠĠĠĠĠĠĠĠĠĠĠĠ ĠĠĠĠ
nxt one
Ġroot Node
ob a
ove red
Ġdis app
/** ----------------------------------------------------------------
write Double
mark er
27 253
key type
key mod
Ġsu g
%% %
Ġà¦ ļ
)] \
)& (-(
)<<" )
we k
do ge
neg a
pw q
ĠComp ute
ĠMin iball
âĸĳâĸĳâĸĳâĸĳâĸĳâĸĳâĸĳâĸĳ âĸĳâĸĳâĸĳâĸĳ
Ġacc ording
CH ANGE
Ġqu ad
ĠFILE IO
Ġ500 1
Ġbl a
Ġ'? ';
Ġ(~ (((
*** \
Add ress
ĠCom ment
app ly
Ġtimes ave
Ġapp ear
Ġ**************************************************************** ********
jd fj
pnt s
so ma
AK U
--------- ///
ĠCh ange
Ġrecur sive
IIII IIII
ãĤ ĭ
â£ł â£¾
â£ł â£´
Ġitos m
Ġ|_|\ ___/
â£Ħ â£Ģ
Ġ/:/ \:\
vir us
â£¼ â£¿â£¿â£¿â£¿
çĽ ´
Ġsumm ation
Ġ\:\ __\
Ġmom ocashe
ä¼ ļ
Ġ239 017
ĠFile s
ĠChi ho
Stud y
ĠnCk Mp
ĠPerm utation
pak king
Cl ionProjects
stit ution
Ġprobab ly
Ġsto im
ĠÐ¿ÑĢÐ¾ ÑģÑĤ
=============================================== */
\* ===============================================*/
çķ Į
Ġund irected
Ġ300000000 0000000007
============================ ==
SW S
ĠTer tiary
ĠGY AKU
Ġkaratsuba Multiply
ĠROO T
Ġadel khah
Ġmadh av
/*============================================ ==*\
ĠObli vion
Ġmomocashe w
( ;;
( ');
/ *******
2 37
4 21
7 57
7 87
8 79
8 21
? _
A nn
B OND
E lapsedTime
F K
I V
L ca
L CP
N S
S ome
T EMPLATE
W ER
Y O
_ ),
b ol
h u
h os
j ff
l ang
q a
r out
s quare
§ ½
å ¼
æ ĸ
Ġ 999
Ġ ÑģÑĤ
Ġ *******/
ĠĠĠĠ ĉĉĉĉĉ
in n
int ain
ĠĠĠĠĠĠĠ ĉ
Ġa cm
se in
Ġf u
Ġn mask
Ġp ur
Ġp imes
Ġp epega
Ġ1 229
Ġs leep
Ġv lld
Ġif max
Ġif min
Ġd root
Ġx c
Ġx p
ol ol
Ġans i
>> ::
>> >(
], {
)) >>
Ġk hokharnikunj
.... *
Ġg irl
Ġ, ";
Ġpr t
ch anges
<<" ;
pr sp
Ġ// //////
ig ma
Ġ/ _/
Ġmod Type
ĠS to
10 4729
Ġ__ ____
=( -
Ġh f
Ġcnt B
ic ient
GG f
tr ig
Ġde ad
") <<*
MAX C
Ġz r
Ġ5 00010
ay ad
/* âĸĦâĸĪâĸĪâĸĪâĸĪâĸĪâĸĪâĸĪâĸĢâĸĢâĸĢâĸĢâĸĢâĸĢâĸĪâĸĪâĸĪâĸĪâĸĪâĸĪâĸĪâĸĦ
32 000
bound s
Ġ. ---.
ĠE lapsedTime
Ġle ap
//////////////// /////////
Ġadj List
Ġ1000 11
Ġ1000 2000
EEE G
EEE GD
Max Flow
si bling
Ġbit n
fast power
Ġ9 592
16 1900
==' -';
34 87
Ġpow Mod
77 5
âĸĪâĸĪâĸĪâĸĪ âĸĪâĸĪâķĹ
Ġpq big
Ġpq small
Ġ31 7
hash ing
Ġiter sort
our ces
59 837
Ġtm e
AS ES
Time Start
Time End
ĠInt er
co ll
Ġco deforces
cp editor
cy an
14159265358979323846264 3
âĸĵ âķ¬âķ¬âķ¬âķ¬âķ¬âķ¬âķ¬âķ¬
Ġwe i
)& (-
ĠĠĠĠĠĠĠĠĠĠĠĠĠĠĠĠĠĠĠĠĠĠĠĠĠĠĠĠĠĠĠĠĠĠĠĠĠĠĠĠĠĠĠĠĠĠĠĠ ĠĠĠĠĠĠ
14159265358979323846264338 3
Con trolIO
Ġ16 106
//////////////////////////////////////////////////////////////// ////////////
Ð° ÐµÑĤ
inc rease
Ġimp ossible
rec ision
________________________________ _________
Ġwr iter
98 3
âĸĢâĸĢâĸĢâĸĢ âĸĢâĸĢâĸĢâĸĢ
la j
Ġ48 1129
Pr actice
Col our
imp l
NNNN NN
:", ")<<*
BIT WISE
Â¦ Â
åĲ Ĳæ
lag be
ĠBit set
Sp eedForce
127 41
Ġexist s
program ming
chi lds
åħ ¥
08 2048
Ġ.' |
Ġcond ition
Dec omposition
Ġscd d
çļĦå Ģ¼
Ġ78 498
unt o
Union Find
9000 999
hf ds
Ġles ss
Off sets
Ġ179 424
?"" :",")<<*
Ġser vers
âĸĳâĸĳâĸĳâĸĳâĸĳâĸĮâĸĴâĸĴâĸĴâĸĴâĸĢâĸĢâĸĢâĸĴâĸĴâĸĴâĸĴâĸĴâĸĴâĸĴâĸĲ */
Ġ112 27253
Ġunk nown
100000000000000 10
Ġ324 161900
Ġ664 579
wz pakking
5095 293
ĠDIVI DE
Ġ66666 6666
hos sein
Ġ10002000 13
59837 082048
Ġ16106 12741
Ġ481129 59837082048
åĲĲæ §½
Ġ179424 673
Ġ11227253 5095293
Ġ324161900 71
Ġ48112959837082048 697
, ........
, ;;;;
, .....
, :::
, ;;;;;;
, :::::::
, .........
, ;;;;;
, ..;
, ....,
, .................................
, ...:
, ::,
, ::::::::::::::::
. ,;
. ,:
. ::::::::
. ::.
. :::::::::
. ::::::,
4 00000000
4 47
7 33
7 43
9 53
: ,,,
: ..........................
: ,,,,,,,;;;;
: ,,,:.
: ...............
; ...
; ,:
; .........
; ,:.
; ..........
; .............
; ..................................
; ...........
; ...................
; ...;
; ............
; ,,,,,:.
; :::::::::..
; ..;;
A E
A j
A k
A ngle
B ad
D j
D ti
D WWWW
D fi
D EEEEEEEE
D KKKKK
D GGG
D EEEEEEEEEEEEEEEE
D LG
D WWWKKK
D WEE
D EEEEEEEEEK
E KK
E KKKK
E KKKKKKKK
E DDDDDDDD
E KKK
E DE
E WK
E iiii
E WWWWWWW
E LG
E KKE
E KKW
E DDDDD
E KKKKKKKKKKK
E WEEEEEEEE
E KKG
E DDDDDDD
E tWK
E DEEEEKKKKKKKKKKKKKKKK
E khane
F lag
G DD
G DDDD
G EEEEEEEEEEE
G Ki
G WEE
G KD
G KG
G WEEEEEEEE
G tGG
G DDDDDDDDDDDDDDD
G KWWKK
G EEEEEEEEEKEEEEEEEEEEEEEEEEE
H ere
K EEEE
K WWWW
K WWW
K WK
K EEEEEEEEEEE
K EEK
K WWK
K DL
K Di
K EEEEEEEEEE
K WWWWWWWWWW
K DDE
K GGGGGGGGGGGGGGGGGGGG
K DDEEEWEEEEEEEEEEEE
K EEEEEEEEEEEEEEEKKKKKKKKKKKKKKKK
K jK
L EE
L ii
L EEEEEEEE
L EEE
L DDD
L ij
L EEEEE
L iiiiiiii
L WWWWK
L EEKK
L DDEEEWEEEEEEEEEEEE
L WWWWKK
N K
N IE
N IGHT
O VER
R K
S I
T ext
T imes
W GG
W DK
W EEEEEEEEEE
W GD
W EEEEED
W GGGGGGGGGGGGGGGGGGGGGGGGGG
W GGGK
W KKKKWKKKKKKKKKKKKKKKK
W Lii
X C
Z n
[ !(
c ity
c ard
d or
f L
f ar
f WW
f DD
f EEEE
f inv
f exp
f jj
f GGG
f WWWWWW
f DEEEE
f GGGDDDDDDDDDDDD
f jji
f DEEE
f dev
f EEL
f KEEE
f EEKK
f EEKKWWWW
f KKWWWWKEEEEEEEE
f WEEEEEEEEEE
h es
h ind
h la
i E
i WWW
i DE
i WWWWWW
i LGG
i Ej
i KKE
i EKE
i WWWWWKK
i itfGGGDDDDDDDDDDDD
i DEEKKK
i Liii
i WWEEEEEEEEEEEE
i DKWWWWWWKKKKK
i KDi
j EEE
j DDD
j WWWWWWW
j ED
j KKKKKKKKKK
j EED
j EKE
j LGGGG
j EEf
j KEEE
j EEKKWWWW
j DDL
j KEKKW
j EKKG
k er
l q
m ust
p ie
q pow
s aves
t E
t EEE
t DDD
t ED
t LGG
t WWWWWKK
t KKi
t DEEEEE
t EEKKWWWW
t KKWWWWWWW
t WWD
t KKWWWWKEEEEEEEE
u red
y gs
¯ Ðĵ
Ð ¬
Ø º
Ù ĭ
â ī
ç §
Ġ --------
Ġ ........................
Ġ KKKKKKKKKKK
Ġ KKEK
Ġ KKKWWWWWWWW
Ġ :::::::,,,,,,,;
st n
Ġi DEEEE
Ġi DEE
Ġi GEEE
re w
Ġc clear
Ġa h
Ġm or
Ġm str
Ġm ov
Ġf DD
Ġf EEE
Ġf EEKKKK
++ -
Ġs am
Ġs ffl
// ?
.. ::::
.. ,;
.. ,.
.. ,;;
.. :.....
.. :::::::::
it E
it KKKKKKKK
it tf
it WWWKK
it DGG
it jLGGGG
Ġt omin
Ġb n
Ġb ao
ac cb
Ġd ark
Ġd forn
con vert
if LL
if DEEEEEEEEEEEE
if DDDDDDDDD
if LEEEEEEEE
Ġma intain
id a
KK WWWWWWWW
KK EEE
KK GGGGGGGG
KK WWWWWW
KK WWWWWWWWW
KK LGG
KK WWWWWK
KK DDDDDDDDDDDDDDDD
KK EEEEEED
KK WWKW
KK EEEEEK
:: ,,,,,,
:: ,,,:.
:: ......;
:: .......................
Ġj DEEEEKKKKKKKKKK
ma xt
an tic
WW KKKKKKKK
WW EEEEEEEEEEEEEEEEE
WW EEEEEEDDf
WW EEEEEED
EE W
EE i
EE ii
EE KKKKKKKK
EE ff
EE DG
EE KKK
EE KE
EE WWK
EE KKW
EE GL
EE DDDDD
EE WEEEEEEEE
EE KKi
EE KKKKKWKKKKK
EE jD
EE WWEEEEEEEEEEEEEEEE
EE KKKKKWWKKKKKWWWWWWWWW
Ġcin as
ack et
ti E
ti LE
ti Eiii
Ġ' @
Ġ' ),
Ġu char
eg al
back ward
Ġ; ::,,,,
.... ,;
]) &&(
LL DEEEEEEEEEEE
LL GGGGGGGGGGGGGGGGGGG
LL GWEE
!= _
DD ti
DD EEEEEEEE
DD EEEEEEEEEEE
DD Ej
DD Gf
DD EEEEEEDEi
DD KDDE
ii E
ii EEEEEEE
ii KKi
ii jLGGGDDDDDDDDDDDD
ii WKEEEEEEEEEE
ii DEEEEEEEE
Ġ&& (
KKKK i
KKKK WWWWWWW
KKKK WWWWWWWWW
KKKK WWWWW
KKKK WWWK
KKKK EEEED
KKKK Ei
KKKK WKE
KKKK WWWWWWWWKKKKKi
KKKK DGG
KKKK WWKKWWWW
ig e
Ġ: \
Ġ: ...
Ġ: ,,,,
Ġ: ,;
Ġ: ,,,:
Ġ: .::::::::
is l
is Local
ĠS OME
Ġo x
max len
EEEE f
EEEE DDD
EEEE EEK
EEEE Ki
EEEE KG
EEEE WEEE
EEEE GEEEEEEEEEKEEEEEEEEEEEEEEEEE
... ::
WWWW KKK
WWWW KEE
WWWW KKWWW
WWWW KKG
WWWW EEEEEEDDf
WWWW EtWK
Ġop tion
Ġop posite
Ġch anged
OD ED
Ġh r
Ġh mod
ic y
bool alpha
;; ...
;; :.
;; .....
;; ,:
;; ......
;; ,,,,,,,
;; ....:
;; ,:.
;; ...,
;; ..,
;; ..................
;; ,:::::::
;; :...............
es sed
ĠL EEE
ĠL DEEEEKKKKKKKKKK
ĠL DDEEEEEEEE
64 6
,, .
,, :
,, :.
,, ,;
GG i
GG ff
GG DDDDDDDDDDDD
GG LG
GG EEEEEEEEEEE
GG KKE
GG Li
GG DGf
GG DDDDDDDDDEEEE
ak a
Ġde dup
ĠG LD
ĠG EKKKKKWWKKKKK
ĠG EEKKKKKWKKKKK
DDDD i
DDDD EEEK
DDDD DK
DDDD ji
DDDD DGf
DDDD EDDDDDDD
Ġall owed
Ġcur Mod
ap ache
11 2
MAX P
Ġto an
Ġto Number
gor y
tree min
gs ygs
KKKKKKKK KKKKKK
KKKKKKKK KEE
KKKKKKKK WKKKK
KKKKKKKK KWW
KKKKKKKK KEK
KKKKKKKK WKKWK
KKKKKKKK Eti
KKKKKKKK WWWWWWWWWWWWWWW
get sum
Ġout s
Ġout side
est ors
Ġ5 8
Ġis E
Ġset s
Ġset pre
100 198
EEEEEEEE DG
EEEEEEEE EEEEEEEEEEEE
EEEEEEEE EED
EEEEEEEE KKKKKKKKKKKKKKKKKKKKKKKKKKKKKKK
EEEEEEEE WWEEEEEEEEEEEEEEEE
ĠU M
(- :
Ġpi vot
;;;; .....
;;;; ,:
are st
Ġ. ,.
Ġ. ,;;
Ġ. :::.
Ġ. ,,;
Ġ. ;:..
ĠE MP
,,,, ,
,,,, ::::.
:::: ,
:::: ..
:::: ,;
:::: ,,,,,,,,
:::: ......:
:::: ,,,,,,,;;;
WWWWWWWW KKK
WWWWWWWW KKKKKKK
WWWWWWWW KKKKKK
WWWWWWWW WWWWW
WWWWWWWW KKKKWKKKKKKKKKKKKKKKK
WWWWWWWW Eiiii
GGGG KE
GGGG GGGDDDDDDDDDDDD
DG fi
DG WWW
DG DDDDDDDDDDDDDDD
DG DWEE
DG KEEEEEEEEEE
DG iWWWWWKK
DDDDDDDD EEEEE
DDDDDDDD DDDDDDDDDD
DDDDDDDD DEEEEE
DDDDDDDD DED
Ġdist R
WWW EEE
WWW KKKKKKK
WWW KE
WWW EEEEE
WWW Gi
WWW GWWWKK
WWW EEDDDD
WWW KKKKEEE
WWW EEEEDDDD
ab et
EEE j
EEE LL
EEE ft
EEE KKKKKKK
EEE WKK
EEE GL
EEE KKKKKKKKKKKK
EEE DEEEEEEEEEEEE
EEE DDDDDDD
EEE KKKWWWWW
EEE WWWWEtWK
EEE KKKKKKKKKKKKKK
KKK D
KKK WK
KKK WWWWWWW
KKK WWWWWWWWW
KKK WWWWKKKKKKKWKK
KKK EKKKK
Ġswap s
iority Queue
di jkstra
di ameter
ĠK hai
tt KW
tt KKE
Ġen ough
ation al
:. ,.
KKKKK WWWWWWWW
KKKKK ED
KKKKK EEEEE
KKKKK WWWWWWWWWWWW
KKKKK WWWWWWWWWW
KKKKK WWWK
KKKKK WWWWWWWWWWWWWWWW
KKKKK iiiiiiii
KKKKK WWKKKK
KKKKK WWWWK
KKKKK Eii
KKKKK Eiii
KKKKK WKKKWK
KKKKK WKKKKKKKWWWWWWW
KKKKK Liiiiiiii
KKKKK WWKKKKKKKK
38 1
sub size
gh ys
Ġbe aut
Ġnew s
Ġ... ::::::
Ġ... :...
Ġ... :,
Ġ... ::,,,,
Ġ... :::::::,,,,,;
Ġ... :,,,
Ġ... ::,,,:.
Ġ... ::::,;
ĠĠĠĠĠĠĠĠĠĠĠĠĠĠĠĠĠĠĠĠĠĠĠĠĠĠĠĠĠĠĠĠĠĠĠĠĠĠĠĠĠĠĠĠĠĠĠĠĠĠĠĠĠĠĠĠĠĠĠĠĠĠĠĠ ĠĠĠĠĠĠĠĠĠĠĠĠĠĠĠĠĠĠĠĠĠĠĠĠĠčĊ
KKKKKKKKKKKKKKKK KKKKKK
KKKKKKKKKKKKKKKK fKKWWWWKEEEEEEEE
KKKKKKKKKKKKKKKK KKKKKWWWWWWWWWWWWWWWW
,; ,
,; ....,
])) *
200 9
Ġprime Factors
exp onenti
iii EEK
iii WWWKKK
iii EKKKKKKKK
iii jKEKKW
iii KKKKKKKKKWW
iii EEEEEEEEDG
iii KKKEKKKK
vv v
ill a
Ġque st
DE j
DE ii
DE DDDD
DE GGG
DE Gi
DE DDDDDD
DE KG
DE KEEEEEEEE
DE DEEEEE
DE DDDDDDDDEEE
DE KEKKK
WK WW
WK WK
WK WWWWW
WK EEEEEEEEEEE
WK WKKKKK
WK EEEEE
WK WWWWWK
WK WKKKKKKKK
WK EEEEEEEEEEEEEEE
WK EEEEEEDDf
WK EEDDDD
WK EEEEEED
WK EEEEEEEEEEEEEEEEEEEE
WK WWWWWWWWKKK
WK iiiWWWKKK
jj DDi
GGGGGGGG GGG
GGGGGGGG GGGGGL
GGGGGGGG DGDDDDDDDDDDDDDDD
GGGGGGGG DDDDDDDDDDDDDDDDDD
sh rink
..... :
..... ;
..... ;;;;;;;;;
..... :................
................................ ....:
KKKKKKK W
KKKKKKK WWWWWWWW
KKKKKKK WWWWWWWWWWW
KKKKKKK WKKKK
KKKKKKK WWWWWWWWWWWW
KKKKKKK EEL
KKKKKKK WWWWWWWWWWWWWWWWWWWWWW
KKKKKKK EEEft
Ġdel t
;. ;,.
tf LLGGDDDDDDDDDDD
tf LLGGGDDDDDDDDDD
tf GKG
tf GGDDDDDDDDDDDD
iiii ifLEEEEEEEE
iiii DDEEEEEEDEi
Ġexp ected
DDD f
DDD ii
DDD EEKKK
;;;;;;;; .....
;;;;;;;; ;:
;;;;;;;; ;;;;;;;
;;;;;;;; ;;;;;
;;;;;;;; :.............
;;;;;;;; ;;;;.....
GGG EKK
KE Gi
KE Li
KE KKKKKKKKKKKKKKKKKKKKKKKKKKKKKKK
KE KKKKKKKKKKKKKKKKWKKKKKKKK
KE Lj
KE DDDDDDDDDDDDDDDDDDDD
KE KKKKKKKW
,,,,,,,, ;
,,,,,,,, ;;;
DDDDDDDDDDDD EEEDDDDDDD
57 24
br idges
WWWWWW KW
WWWWWW KWWWWWW
WWWWWW fWK
WWWWWW KKKKWWWWW
WWWWWW KKKKKKKWWWWWWWWWWWW
EEEEEEEEEEEE EK
EEEEEEEEEEEE EEEK
EEEEEEEEEEEE DEEEEEEEEEEEE
EEEEEEEEEEEE WWEE
EEEEEEEEEEEE KKKKKKKKKKKKKKKKW
Ġ.,; ,:::
KKKKKK ii
KKKKKK WWWWWWWW
KKKKKK WKKKKK
KKKKKK WKKKK
KKKKKK WWWWWWWWWW
KKKKKK iiiiiiii
KKKKKK iiiiii
KKKKKK WKKK
KKKKKK WKKKKKKK
KKKKKK WWWWK
KKKKKK iiiii
KKKKKK Dj
KKKKKK WKKKKWKKKKKKKKKKKKKKKK
KKKKKK EEEEf
KKKKKK WWWWKKWWW
::: ,;
::: ,,,
::: ,,,,,,
::: ,,,,,,,;;;;
::: ,,,:.
::: ,,.
Ġgen Vector
Ġ.: ,,,:
WKK WWWW
WKK WWWWWW
WKK WKK
WKK WWWWWWWWWWWW
WKK EEEED
WKK WKKKKKKKKKKKKKKKK
WKK WWWWWWWWWGWWWKK
WKK ELG
WKK WGG
Ġloop rs
DEEEE EK
DEEEE EEEK
DEEEE DDE
DEEEE EEEWW
67 5
,: .....
WWWWWWWWW KKKKW
WWWWWWWWW iiiiiiii
WWWWWWWWW DDWWKK
WWWWWWWWW GKWWKK
WWWWWWWWW iiiiifLEEEEEEEE
...... :.
...... ;:
âĶĢâĶĢ âĶĢ
ED f
ED fEEE
ED iiDEEEEEEEE
Ġorder ing
:::::::: ,,
:::::::: ::::::
:::::::: ::,
:::::::: ,,,,;
:::::::: ,,,,,,;
,,, ;;;;
;;; ,
;;; ,.
;;; :...
;;; :;
;;; ..,;;
Ġkey Count
........................ ...:
........................ ...::
EK EEKK
EK EEEKE
EK EEEEKG
WWWWW t
WWWWW KKKKW
WWWWW DGWWW
ĠLD EEEKKKKKKKKKKKKKK
Ġnd l
EEEEEEEEEEEEEEEE EEEEEEEEEEE
EEEEEEEEEEEEEEEE EEEEEEEEEE
EEEEEEEEEEEEEEEE EEEEEEEEEEEEE
EEEEEEEEEEEEEEEE EEEKE
EEEEEEEEEEEEEEEE KEEEEEEEEEEEEEEEKKKKKKKKKKKKKKKK
EEEEEEEEEEEEEEEE WWEEEEEEEEEEEEEEEEE
20000 4
;: ....................................
;: ...............................:
;: ....,;
LG i
LG DK
LG KD
LG KDL
KKKKKKKKKK WKKKK
KKKKKKKKKK WWKKK
KKKKKKKKKK EEf
KKKKKKKKKK WWWWWWWWWWWWWW
KKKKKKKKKK WKEEEEEEEEEEEEEEE
EEEEEEEEEEE W
EEEEEEEEEEE KKKKKKKKKKKKKKKKWKKKKKKKK
EEEEEEEEEEE DEEEEEEEK
EED EEEEEEEEEEE
EED EEEEEEEEEEEEKKKKKKKKKKKKKKKKKKKKKKKK
Ġï¿½ï¿½ï¿½ï¿½ï¿½ .
KW KKKKKKKKKKKKKKK
KW EEEEEEE
KW KKKWWW
KW KKKKWWWWWWWW
KW EEW
KW KKKKWWWWWWWWKKKKKi
KW EEEWKK
KW KKKKKKKKKKWWWWWWWWWWWWWW
LGG DDDDDDDDEEEEE
ij DEE
ij LGGDDDDDDDDDDDD
ij fG
ij fLGGDDDDDDDDDDDD
ij fGGGDDDDDDDDDDDD
ij DEEEEEK
EEK f
EEK WWWWWWWKKKKK
EEK EEEEEEEEE
EEK WWWWWWWKKKKKK
EEK DDi
EEK WWWKKKKKKKKKKW
EEK EEEEWEEE
EEK EEEEEEEEEEEEEEEEWWEEEEEEEEEEEEEEEEE
WKKKKK EEL
2000 5
2000 11
sa w
WWK EEK
WWK EEEEED
WWK EEDDDD
WWK WWWWWWKKKKWWWWW
WWK EEEEEEEEEEEEDEEEEEEEEEEEE
WWK WWWWWKKKKW
WWKK W
WWKK EEEEEEDDf
WWKK WWWWWWWWWE
WWKK DLG
KKKKW EDi
KKKKW Eti
KKKKW tKKi
KKKKW EEii
]!=' *
Ġwin s
;;;;;; :................
KKKKKKKKKKKKKKK W
KKKKKKKKKKKKKKK f
KKKKKKKKKKKKKKK WWWKKK
WWWWWWWWWWW KK
WWWWWWWWWWW KKKKKKKKKKK
WWWWWWWWWWW KWKK
WWWWWWWWWWW KKKKKED
DDDDDDDDDDD EE
EEEK WWWWWWWKKKK
EEEK iDD
EEEK WWWWWKKKKKWWWWWWWWWWWW
EEEK EEEEEEEEEEEEEEEEEEEKE
EMP MOD
**************************************** *
hell o
EEEEEE KKKKKKKKKKKKKKKKWKKKKKKKK
EEEEEE WEEEED
EEEEEE WWEEE
EEEEEE KEKKK
EEEEE i
LD EEEEEEEEWWEEEEEEEEEEEEEEEE
LD EEEKKKKKKKKKKKK
::::: ,
::::: ;
::::: ......,
::::: ,,,,,,,;;;
,,,,,, :::::::::
EG DKK
EG DDDEEKKK
DK DD
DK EEEWW
DK tWWWWWKK
DK DEii
WWWWWK i
WWWWWK WW
WWWWWK WKKKKK
WWWWWK WKKKKKi
WWWKK EEE
WWWKK EEEEED
WWWKK EWK
WWWKK WGGGK
WWWKK tfGKG
WWWKK GGGEKK
WWWKKK WWWW
WWWKKK EKE
WWWKKK WWWWWWWWKKKKK
WWWKKK WKKKKKKK
WWWKKK EEjD
WWWKKK GGKKE
Ġ...:. :
:::::: ,.
:::::: :.:.
::::::: ;
::::::: ,,
::::::: ,;;;;
,,,,,,,,,,,,,,,, ::,
KEE L
KEE f
KEE DG
KEE KKWWW
KEE WWWWWWWWWDDWWKK
ĠØ ¥
DEE WWWWWWWWWE
DEE iWWEEEEEEEEEEEE
DEE WWWWWWWWKKKKWKKKKKKKKKKKKKKKK
DEEE KKWWW
DEEE KKKKKKKKKKKKKKKKKKKKKK
WKKKK Liii
WKKKK WWWWKKK
WKKKK EEEGL
WKKKK WWWKKKWKKKKKKK
WWWWWWWWWWWW EK
WWWWWWWWWWWW KWWWWWW
Ġ.... ::,,
Ġ.... :::,,.
Ġ.... ::::::,.
Ġlocal time
Ej EEEEEEEEEK
Ej itWWWKK
Ġflush er
......... ;
Di WWWWW
tj fLL
tj fLGGDDDDDDDDDDDD
tj LLGGGDDDDDDDDDD
Pr iorityQueue
EEEEEEE WWEE
WKKKKKKKK EEGG
WKKKKKKKK KEEDG
WKKKKKKKK EEEEEEEWWEE
WWKKK jEKE
WWKKK WKKELG
EEEEEEEEEE KKKKKKKKKKKKKKKKKKKKKKKK
EEEEEEEEEE KKKKKKKKKKKKKKKKKKKKKKKKKKKKKKK
EEEEEEEEEE KKKKKKKKKKKKKKKWKKKKKKKK
EEEEEEEEEE KEKKKKKKKKKKKKKKKKKKKKKKKKKKKKKKK
Ġ.:. ::::::::,,
WWWWWWWWWW KKKKKKKKKKKK
WWWWWWWWWW KKKKWtKKi
KKKKKKKKKKKKKKKKKKKKKKKK KKKKKWWWWWWWWW
KKKKKKKKKKKKKKKKKKKKKKKK KWWWWWWWW
KKKKKKKKKKKKKKKKKKKKKKKK KWWK
KKKKKKKKKKKKKKKKKKKKKKKK KKKKKWWWWWWWW
tfLGG DDDDDDDDDDDD
tfLGG DDDK
tfLGG DDDDEDDDDDDD
ĠPRINT ERS
Ġprec ise
;;;;;;; ,,
Ġresp ect
Ġ40 26
Ġ.. :,
Ġ.. ;..;;
Ġ.. :.,.
EDD j
EDD EEEWEEEEEEEEEEEE
EDD WWKE
EDD DEi
EDD EEDDDDD
EDD EEEEEEK
EDD EEEWWWWEtWK
EDD EEEEEEEEEEKKKKKKKKKKKKKKKKKKKKKKKKKKKKKKK
WEEEEEEEEEEEE EEEKEEEEEEEEEEEEEEEEEEEKE
WEEEEEEEEEEEE EjEEEEEEEEEK
KKE fff
KKE WWWWKKKKKKKWKK
KKW KKKKKKWWWWK
WWKKKKK WWWWWW
WWKKKKK WWWWWWWWWWWW
WWKKKKK EEf
WWWK DEK
WWWK WWKKKKKKKKKKKKKKKKK
WWWK EEEEEEEEEEEEEK
WWWK WKKWWWWWWWWWWWW
....: .......
Ġbind s
ÐĲÐ ĳÐŀ
Ġperm utation
DDDDD ti
DDDDD LL
itf GE
WWWWWWWWWWWWWWWW WWWWWWKKKKKK
WWWWWWWWWWWWWWWW tiEiii
WWWWWWWWWWWWWWWW WWWWWt
Ġ.:,: ;:
Ġys ghys
TO T
âĸĪâĸĪâĸĪâĸĪâĸĪ âķĹ
tK WWWWWWW
tK EEKWWWKKKKKKKKKKW
;;;;; ...................
iiiiiiii iiiii
Ġ..... ::::..
.................................. :
KWWWWWW KKKKKKKWKK
KWWWWWW KEKKKKKKKKKKKKKKKKKKKKKKKK
KWWWWWW KKKKEi
KWWWWWW KKKKKKWKKK
WWKKKK iii
WWKKKK WWWWWWWWW
WWKKKK EEEED
EEEED EEEEEEEEEEEW
DDDDDD Gi
DDDDDD Gf
DDDDDD EEDD
KKKKKKKKKKK W
KKKKKKKKKKK WKKKKKKKKKKKKKKKK
KKKKKKKKKKK WWWKKKKKKKKKKKKKKKWKK
;;;;;;;;;;;;;;;; ;;,,,,,,,
;;;;;;;;;;;;;;;; ;;;;;;;,,
WWWWWWWKKKKK f
Ġorig inal
ĠLG DEEEEKKKKKKKKKK
Team s
ĠInit ial
Ki KEEK
Ki WWWKKEEE
ä¸Ģ ä¸ª
:; ......;
;, ....
;, .............
;, ..;
GD GGGGGGGGGGGGGGGG
.................... ,
;;;;;;;;; .....
Ùĳ Ùİ
ĠEE i
WEE GDDDD
WEE WEEEEED
WEE KWEEEEEEE
Ei KKKK
EKE KK
EKE KKKWWW
GEE KKKKKWWKKKKK
GEE WWWWWWWWKKKK
GEE WWWWKEE
KD GGGGGGGGGGGGGGGGGGGGGGGGGG
WKKKKKKKKKKKKKKKK KKKKWWWWWWWW
WKKKKKKKKKKKKKKKK KKKKKWKKKWK
WKKKKKKKKKKKKKKKK KWEEW
ĠfDEEEE EKKKKKKKKKKK
ĠfDEEEE KKKKKKKKKKKWKKKKKKKKKKKKKKKK
..; .........
..; ...........
DDf L
WWWWWKK j
WWWWWKK WW
WWWWWKK WWWKKKKKKKK
KKKKKKKKKKKK WW
KKKKKKKKKKKK WWWWWWW
KKKKKKKKKKKK WWWWW
EEEEEEEEE KKKKKKKKKKKKKKKKKKKKKKKKKK
EEEEEEEEE WEEEED
EEEEEEEEE DEDEEEEE
EEEEEEEEE KKKKKKKKKKKKKKKKKKKKKKKKKKKKKWWWWWWWW
WWWWWWWWKKKKK E
DDDDDDDDDDDDDDDD DDDDDDDDDED
DDDDDDDDDDDDDDDD EDDEEDDDDD
KKKKKKKWKK WWWK
WWWWWWWKKKKKK t
WWWWWWWKKKKKK EG
WWWWWWWKKKKKK tiE
WWWWWWWKKKKKK iiE
EEEEEEEEEEEEEEE WWWEEEEEEEEEEEE
WWWWWKKKKK EE
WWWWWKKKKK WWWWWWWWWWW
Ġ....:::: :.
Ġ....:::: ......:.
ph abet
.................................... :::::::::..
.................................... :::::::.:.
AAAA AAAA
uy en
iiiiii jG
iiiiii EEKKKKKKKK
ĠâĢ Ķ
ĠNum Type
ji EjitWWWKK
iG DDDD
...., .....:
DDi L
:, ...,
:, ::,,
DEEEEEEEEEEEE EEKE
KEEEEEEEE DEEEEEEEEEEE
LGGGG DDDDDDDDDDDDEEEDDDDDDD
WEEEEEEEE EEKDDi
WEEE Di
WEEE Df
WEEE KKKKKKKKKKKKKKKKKKKKKWWWWWWWWWWWWWWWW
WKKK WEEEDf
tGG DDDDD
tGG DEEEEEEEEEEE
KKG DDDDDDDDDDDDDDDDDDDD
KKG DGDWEE
KKi EG
WWEEEEEEEEEEE W
WWEEEEEEEEEEE KiKEEK
DDWWKK DDDG
EEEEED KG
WWWWK WWWWWWWWWWKKKKWtKKi
DGf tiLE
EEEWEEEEEEEEEEEE WWWEEE
KKKKKWWWWWWWWW KKKKKKWKKKKKKK
KKKKKWKKKKK WWWWWW
KKKKKKKKKKKKKKKKKKKKKKKKKK WWKKWWWW
KKKKKKKKKKKKKKKKKKKKKKKKKK WWWKKKKKKK
KKKKKKKKKKKKKKKKKKKKKKKKKK WWWWWWKWWWWWW
KKKKKKKKKKKKKKKKKKKKKKKKKKKKKKK W
DDDDDDDDDDDDDDD EEDD
DDDDDDDDDDDDDDD GGGGGGGGGGG
WWWWWWWKKKK ED
WWWWWWWKKKK EL
WWWWWWWKKKK Ei
WWWWWWKKKKK EL
WWWWWWKKKKK Ej
Ġ.:,; ,:.
Ġ.:,; ,,;
Ġ.:,; ,,,;
DEEEEKKKKKKKKKK WWWKKKKKKKKKKKKKKKWKK
GGGGGGGGGGGGGGGGGGGGGGGG GGGG
...................................... ::::......:
...................................... :::::......,
...................................... :::::::,;;;;
............................. :::
............................. :::::
............................. :::::::;
Ñĩ Ð½
............... ;
jf LGKDL
.., ....
.., ........
:::. ::.......................
,,,,,,,,,,,,,,,,,,,,,,,, ;
.........: ....................
Ġdegree s
DDE ijDEEEEEK
ĠDE KKKKKWWKKKKKWWWWWWWWW
ĠDE KKKKKWWKKKK
ĠtG DEEEEKKKKKKKKKKKKKKKK
ĠtG DEEEKKKKKKKKKKKKKKKKKKKKKK
ĠtG DEEEEKKKKKKKKKKWWWKKKKKKKKKKKKKKKWKK
WWEE DDDDDDGf
.; .......
Df DDi
...; .....;
KEK EEKEEEEEEEEEEEEEEEEWWEEEEEEEEEEEEEEEEE
KEK DDDDDDDDDDDDDDDDDDDDDDDDDED
;................................ ...
;................................ ........
;................................ ......:
DKK GGGGGGGGDGDDDDDDDDDDDDDDD
DKK WKKWWWWWWWWWGWWWKK
GDDD GGLG
GDDD EEEEEEEEEEEEKKKKKKKKKKKKKKKKW
GDDD EEEEEEEEEEKEKKKKKKKKKKKKKKKKKKKKKKKKKKKKKKK
KEEE GEEEEEEEEEEE
KDEEE WWEEEEEEEEEEEWWWWEEEEE
WKKKKKK EEEGD
fD LGDK
KKEK WWWKKKKKKKKKKW
KKEK WWWWWWWWWGKWWKK
WWKKKKKKKKKKKKKKKK tKKWWWWKEEEEEEEE
WWKE KEKKKKKKKW
WWEEEEEEE KKKKKKKKKKKKKKKKKKKKKKKKKWWK
DDL DDDDji
DDL EEEEEEEEEWEEEED
DDDDDDD EEEEEEE
Ġ.; :::,,,,,,,;;;;
WWWWWWWWWWWWWW KKKKKKKEL
WWWWWWWWWWWWWW KWKKK
WWWWWWWWWWK WWD
GGGGGL GGGGGGGGGGGGGGGGGGGG
GGGGGL GGGGGGGGGGGGGL
WWWKKKKKKKKKKKKKKK EKKW
KKKWWWWWWWW WWWWWK
KKKWWWWWWWW WKWW
KKKWWK WWWWW
WKE KK
EEEEEEEEEEEEE DEEEEE
......, ;;;;,
KWEK W
KWEK WWWKKKKKKKKKK
ijLG DDDDDDDEEEEEEE
DEEKKK WWWKWKKWWWWWWWWWWWW
DEEKKK WWKKKKWWWWWWWWW
ĠfDEEEEEE KKKKKKKWKKKKK
ĠfDEEEEEE KKKKKKKKKEK
ĠfDEEEEEE KKKKKKKKKKWKEEEEEEEEEEEEEEE
GGGGGGGGGGGGGGGGGGGGGGGGGG DG
;,, :..
;,, ,;,
ĠRand Double
., ...
Print Enabled
WE KKKKKKKKKKKKKKKKKKKKKKK
WE iiiiiijG
ĠFenwick Tree
ĠLIM IT
Ġgu ar
:......: ,,,,,;
:......: ,,,,,,;
ĠOn line
Ġ::: ;:
Ġ::: ,,,,,,,,;;;
ĠÐ´ ÐµÐ»
Ġ;. :::::::,,,,,;
Ġ;. ::::::::,,,,;
GGGGGG LLGGGGGGGGGGGGGGGGGGG
;........................ ....,
DW DWWWW
DW DDiL
DGGGG GDGGGGGGGGGGGGGGGG
DEEK WWWWWKKKKKWWWWWWWWWWWW
DEEK WWWWWWKKKKKKKWWWWWWWWWWWW
Eii WWWWWKWW
EDDD EEKEEEEEEEEE
EKKKKKWWKKKKK WWWWWWW
GEEE KKKKKKKKKKKKWWWWW
Kii WWWWWW
Kii WWWWW
KWKK WEiiiiiijG
KWWKK EEL
KEEEK EEEDEEEEEEEEEEEE
KEEEK EEEEEEEEEEEEEEEWWWEEEEEEEEEEEE
WEEEEEEEEEEEEEEEE EEKKKKKKKKKKKKKKKKKKKKKKKKKKKKKKKKW
WEEEEEEEEEEEEEEEE EEEEEEEEEEKKKKKKKKKKKKKKKKKKKKKKKK
WKKKKKKKKKK fWK
WKKKKKKKKKK WKKWWWW
WEEEEEEEEEEE DEj
WEEEEEEEEEEE DDLEEEEEEEEEWEEEED
WEEEEE DDDGL
WEEEEE GGDGf
fK EEEEEDKG
fEEE KKKKKWKKKKKK
iDEEEE EEKKi
iDEEEE KKKKKKKKKKKKKKKf
iKDEEE WKEEEEEEEEEEE
iKDEEE WWEEEEEEEEEEEW
tWK t
tEL ii
ĠfDEEEKKKKKKKK KWKKKKWWWWWWWW
ĠfDEEEKKKKKKKK WKKKKWWWWKKK
KKEEEEEEEE EDi
KKEEEEEEEE EDDj
KKWWWWWWW KWW
KKEEEEEEE i
KKEEEEEEE DfDDi
WWEEE DDDDDGf
WWEEEEEEEEEEEE EEWEEEEEEEE
WWKKKKW iEj
WWKKKKW itE
EEKKKK WWKKKKKWWWWWW
EEGEEEEEEEEEEEEEEEE EEEKKKKKKK
EEGEEEEEEEEEEEEEEEE EEDEEEEEEEEEEE
DDGG DEGGG
DDGG EGDKK
DDDE ii
DDDE DDDD
KKKKEEE KWEKW
EEEEDDDD Gf
EEEEEK EEEEEEEEEEEEEEEEE
WWWWKK LLGWEE
ĠLDEEEE KKKKKKKWKKKK
ĠLDEEEE KKKKKKKKKKKWWWKKKKKKKKKKKKKKKWKK
ĠGDEE KKKKKKKKKKKKK
ĠGDEE KKKKKKKKKKKKWWWWWWW
ĠGDEEEKKKKKKKK KWKKKWWW
ĠGDEEEKKKKKKKK WKKKKWWWKKKWKKKKKKK
KKKKKKKKKKKKK WWKE
....................: ,
;;;;, ::::,,,,,,,,
Ġ.:::::::: ..
Ġ.:::::::: :::,,,
Ġ.::::::: ..
Ġ.::::::: ,,,,,,,
WWWWWWWWKKKK fWW
WWWWWWWWWWWWWWW KKKKKKKEL
DDDDDDDDEEE DDDDDDDDDD
WWWKKKKKKKK EEf
WWWEEEEEEEEEEEE KKKKKKKKKKKKKKKKKKKKKKKKKKWWWWWWKWWWWWW
EEEKKWWWW KKKKKWWWWWWWWWWW
EEEKKWWWW KKKKKWWWWWWWWWW
EEEKKWWW KKKKKWWWWWWWWW
EEEKKWWW KKKKKKKWWWWWWWW
EEEKKKWWW KKKKKWWWWWWWWWWWW
EEEKKKWWW KKKKKKWWWWWWWW
KKKWWKK WWWWW
KKKWWKK WWWWWWWWWGWWWKKGGGG
:.:::::::: ,,,
KKKKKWKKKKKK WKWWWWW
KKKKKKKKKKKKKKKKKKKKKKK WWWWWWWWWWWWW
DEK EEEEEEWWEEE
WKEEEEEEEEEE DDEj
WKWKKWK itKKKKKKKK
WKWKKWK iiiKKKKKKKKKWW
KKKKKKKWKKKKK WWWGi
;.: .........:
tfLG DDDK
tfLG DEDDDDDDDDEEE
GGGK GGGGGGGGGGGGGGGGGGGGGGGGGGDG
KEKKKKKKKKKKKKKKKKKKKKKKKK KKKKW
EEEEEEEEEEEEKKKKKKKKKKKKKKKKKKKKKKKK W
fjti iiii
Ġ.:, ;;;
Ġ.:,,, :::,;
Ġ.:,,, :::::,,,,,,,;;;
WWWWWWWWWKKKWWK ii
WWWWWWWWWKKKWWK iLGG
:::::::::::::::: ,
EKEEEEE KK
KWKKK iiiiiiiiiiiii
EEKWWWWWWWW DDWWKKDDDDD
EEKWWWWWWWW KWKKKKKKKKKKKKKKK
WKKKKKEE fj
WKKKKKEE LG
GGGGGGGGGGGGGGGGGGG LLGGGGL
KKKKKKKKKKKKKKKWKKKKKKKK KKKKKKWWWWKKWWW
EEEKWWWWW KKKKKKKWWWWWWWWWWW
EEEKWWWWWWKKKKKK WWWWWWWWWWWKKKKKKKKKKK
EEEKWWWWWWKKKKKK WWWWWWWWWWKKKKKKKKKKKK
DKiWWWWWK WW
DKiWWWWWK WK
WWWWWKWKKKK EE
WWWWWKWKKKK Ei
tfLGGDDDDDDDD EDDD
tfLGGDDDDDDDD DKDD
tfLGGDDDDDDDDDD DE
tfLGGDDDDDDDDDD KD
tfLGGDDDDDD EDDDDD
tfLGGDDDDDD DEDDDD
WWWWWWWWWWWWWWWWWWWWWW Ki
;,..... ,;
;,..... :.....
GEEKKKKKWKKKKK WWWWWWWW
GEEKKKKKWKKKKK WWWWWWWWWW
EEEEEEEEEEEEEEEKKKKKKKKKKKKKKKK WWKKKKEEEED
WKKKWK EEDf
WWEEEEEEEEEEEWWWWEEEEE DDDf
DDWWKKDDDDD KKDDDDDDDDDDDDDDDD
EEEEEEEEEKEEEEEEEEEEEEEEEEE WWEEEEEEEDD
...............................: ....................
iDDEEEEWEEEEEEEEEEEE WWEEDDDDDDGf
WWKKKKKKKKKKKKKKKKK WKE
WWEEEEEEEDD LD
WWWWWWWWWGWWWKKGGGG KGGGGGGGGGGGGGGGGGGGG
.:. ::::::,
/******** **
ELL EDDEEEWWWWEtWK
WWE WWWKKGGGEKK
âĸĦâĸĦâĸĦâĸĦâĸĦâĸĦâĸĦâĸĦ âĸĦâĸĦâĸĦ
paint ing
ĠENG Z
ĠBlock Size
ĠâķļâķĲâķĲâķĲâķĲ âķĲâķĿ
ç¬ ¦
Ġtraverse s
åĲĮ çļĦ
ĠCT y
iit jLGGGDDDDDDDDDDDD
Ð¢Ð ¯Ðĵ
Ġmol im
/**************************************************************************************************************************************************************** *****************************************
tL ffi
ĠClass Name
Ġlag be
irtual ize
ĠCor ner
Ġmylittle doge
ifj DDGGEGDKK
,,:::: ,,,,,,:::::::::
ĠÐ¿ÑĢÐ¾ÑģÑĤ Ð¾Ðµ
jff GGDDDDDDDDDEEEE
,;;;;;; ,
,................................. ::
,:::::::::::::::: ::
.,: .......
.::::::::: ,,,,
;............. :
Dfi EGDDDEEKKK
DKKKKK EDDWWKE
DGGG KDGGGGGGGGGGGGGGGGGGGGGGGGGG
DEEEEEEEEEEEEEEEE KEEEGEEEEEEEEEEE
DWWWKKK EEEEKi
DEEEEEEEEEK EEEEEEEEEEEEEDEEEEE
EDDDDDDDD DDDDDDDDDDDDDDDEEDD
EKKK WWWWWWWWWWW
EDE DEKG
EWWWWWWW KKKKW
EWEEEEEEEE DKDEii
EDEEEEKKKKKKKKKKKKKKKK iG
GDD EEEKKKWWWWW
GKi WWWWWKKWW
GWEEEEEEEE DWDDiL
GtGG fG
KEEEE EEEKiDD
KWWW EEEEEEEEEKKKKKKKKKKKKKKKKKKKKKKKKKK
KWK WWWWKKKKKKKWKK
KEEEEEEEEEEE WEEKWEEEEEEE
KDDEEEWEEEEEEEEEEEE WWKEEDDDD
KjK WWWWWWWWWWWWEK
LEE KKKKKKWKKKKK
LEEE KKKKKWKKKKKWWWWWW
LDDD EEEEEEEEEEEKKKKKKKKKKKKKKKKWKKKKKKKK
Lij LGGDDDDDDDDEEEEE
LEEEEE KKKKKKWKKKKWKKKKKKKKKKKKKKKK
LWWWWK EEEEEi
LEEKK WWWWWKKKKKWWWWWWWWWWWW
LDDEEEWEEEEEEEEEEEE WWWEEDDDD
LWWWWKK EEEEEEDEi
WDK WWKKWWWWWWWWWE
WGD f
WGGGGGGGGGGGGGGGGGGGGGGGGGG L
WLii WWWKKKEEjD
fDD EEEEEEEEEEEEEEEK
fEEEE KKKKKKKKWKKKK
fjj tii
fGGG DDDDDDDDEEEDDDDDDDDDD
fDEEEE KKKKKKWKKKK
fDEEE KKKKKKKKKKKKWW
fdev irtualize
fKEEE WWKEKEKKKKKKKW
fEEKK WWWWWKKKKKWWWWWWWWWWW
fEEKKWWWW KKKKKKWWWWWWWWWW
fWEEEEEEEEEE DDfL
iDE KWWWWWWKEKKKKKKKKKKKKKKKKKKKKKKKK
iEKE KKKKKKDj
iDEEKKK WWKKKKKWWWWWWWWWWWW
iKDi LWWWWKEEEEEi
jDDD KEGi
jED EEEEEEEEEKKKKKKKKKKKKKKKKKKKKKKKKKKKKKWWWWWWWW
jKKKKKKKKKK WWWWWWWWWWWWWWWWWWWWWt
jEED EEEEEEEEEEKKKKKKKKKKKKKKKWKKKKKKKK
jEEf Gi
jKEEE KK
jEEKKWWWW KKKKKKWWWWWWWWW
tEEE L
tED EEEWEEEEEEEEEEEEWWWEEE
tLGG DDDDDDDDDD
tDEEEEE KKKKKKKKEti
tEEKKWWWW KKKKKWWWWWWWWWWW
tKKWWWWWWW DDWWKKDDDDDKKDDDDDDDDDDDDDDDD
Ġ........................ ....:
ĠKKKKKKKKKKK f
ĠKKEK WWWWWWfWK
ĠKKKWWWWWWWW K
ĠiDEEEE KKKKKKKKWKKWK
ĠiDEE KKKKKWKKKKKKKWWWWWWW
ĠiGEEE KKKKKKKKKKWKKKK
ĠfDD EDDEEEEEEK
ĠfEEE KKKKKKKKKKKKKKKW
ĠfEEKKKK WWKKKKWWWWWWWWWWW
..,; .,;
..::::::::: ,,
ittf DEEEEEEEEEEEEEEEEKEEEGEEEEEEEEEEE
itDGG DDDDDDDDDEEEE
itjLGGGG GGDDDDDDDDDDD
ifLL ED
ifDEEEEEEEEEEEE KEEEKEEEEEEEEEEEEEEEWWWEEEEEEEEEEEE
KKEEE WWEEEEEEEEEEEWWWWEEEEEDDDf
KKGGGGGGGG GGGGGGGDDDDDDDDDDDD
KKWWWWWW KWWWW
KKLGG DDDDDDDDDDDDDDDDEDDEEDDDDD
KKWWWWWK WWWWWWWWWGWWWKKGGGGKGGGGGGGGGGGGGGGGGGGG
KKEEEEEED WGDf
KKWWKW KKKKKKKKKKKKKKKKKKKKKKKWWWWWWWWWWWWW
KKEEEEEK i
::,,,,,, ;;
::......; ........
ĠjDEEEEKKKKKKKKKK WWKKKKKKKKKKKKKKKKKWKE
WWEEEEEED EEEEEEEEEEEEEEEEEEEEEEEEEE
EEff tf
EEWWK EEEEEEKKKKKKKKKKKKKKKKWKKKKKKKK
EEKKW KKKKKKKWKKKKKWWWGi
EEWWEEEEEEEEEEEEEEEE EEEEEEEEEEEEKKKKKKKKKKKKKKKKKKKKKKKKW
Ġ;::,,,, ,;;
LLDEEEEEEEEEEE KEEEEEEEEDEEEEEEEEEEE
DDKDDE DEGi
iiEEEEEEE KKKKKKKKKKKKKWWKE
iiWKEEEEEEEEEE DDEijDEEEEEK
KKKKWWWK DDWWKKDDDG
KKKKEEEED GGi
KKKKWKE ij
KKKKDGG EKKE
Ġ:... :::::::,,
Ġ:,,,, :.
Ġ:,,,: ...,
Ġ:.:::::::: ,,,,
isLocal PrintEnabled
EEEEDDD GGLi
WWWWKKG LGKD
;;..., .........:
;;.., .....,
;;,::::::: ,,,,,,,,;
ĠLEEE KKKKKKKKKKWWKKK
ĠLDEEEEKKKKKKKKKK WKWKKKKKKKK
ĠLDDEEEEEEEE EEKEEEEWEEE
GGEEEEEEEEEEE KEKEEKEEEEEEEEEEEEEEEEWWEEEEEEEEEEEEEEEEE
ĠGLD EEGEEEEEEEEEEEEEEEEEEDEEEEEEEEEEE
ĠGEKKKKKWWKKKKK WWWWWWWWWW
ĠGEEKKKKKWKKKKK WWWWWWWWW
DDDDEEEK EEEEEEEEKKKKKKKKKKKKKKKKKKKKKKKKKKKKKKK
DDDDDK DDDDDDDDDDDDDDDGGGGGGGGGGG
gsygs h
KKKKKKKKKEE ft
EEEEEEEEEED i
Ġ.;:.. :::::
WWWWWWWWKKKKKKK WKKKKKKKWWWWWWW
WWWWWWWWEiiii iiiEEEEEEEEDG
GGGGKE GGGGGGGGGGGGGGGGGGGLLGGGGL
DGKEEEEEEEEEE DEEEEEEEWW
WWWKE KD
WWWEEEEE KKKKKKKKKKKKKKKKKKKKKKKKKWWWWWWWW
WWWGWWWKK GGGGKEGGGGGGGGGGGGGGGGGGGLLGGGGL
WWWKKKKEEE f
WWWEEEEDDDD LG
KKKWK EEGL
KKKWWWWWWW KWW
ttKW G
KKKKKEEEEE fi
KKKKKWWWK WWWWW
KKKKKiiiiiiii iiijKEKKW
KKKKKWWWWK WWWW
KKKKKLiiiiiiii iiiiiiEEKKKKKKKK
KKKKKWWKKKKKKKK WWWWWWWWWWWWWWWWWWWWWWKi
Ġ...:::::: ..,.
Ġ...:... ,,;
Ġ...::,,,, :.
Ġ...:,,, ;;,:
KKKKKKKKKKKKKKKKfKKWWWWKEEEEEEEE Dti
,;...., ...............;
iiiEEK EEKKWKKKKKKKWKKKKKWWWGi
iiiEKKKKKKKK WKWWWWWWWWKKK
iiiKKKEKKKK WWKWWWWWWKKKKWWWWW
DEDDDDDD iiWKEEEEEEEEEEDDEijDEEEEEK
DEKEEEEEEEE KKKKKKKKKKKKKKKKKKKKKKKKKKKKKWWWWWWWWW
DEKEKKK WWKKKKWWWWWWWWWWW
WKWKKKKK WWWWWWWWKKKKKi
WKEEEEE DDDGL
WKEEDDDD GGff
WKEEEEEED fi
WKEEEEEEEEEEEEEEEEEEEE KEKKKKKKKKKKKKKKKKKKKKKKKKKKKKW
WKiiiWWWKKK EEK
GGGGGGGGDDDDDDDDDDDDDDDDDD E
.....;;;;;;;;; ....................,
.....:................ ......,
KKKKKKKWWWWWWWWWWWWWWWWWWWWWW iLiii
;.;,. ::......;........
tfGGDDDDDDDDDDDD D
;;;;;;;;;: ..........
;;;;;;;;;;;;;;; ,,,,,,,,,,
;;;;;;;;;;;;; ,:.....
KELi LGGGGDDDDDDDDDDDDEEEDDDDDDD
KEKKKKKKKKKKKKKKKKWKKKKKKKK KKKWWKWWWWW
KEDDDDDDDDDDDDDDDDDDDD DGGGG
WWWWWWKW GGGKGGGGGGGGGGGGGGGGGGGGGGGGGGDG
EEEEEEEEEEEEWWEE GDDDGGLG
Ġ.,;,::: ,
:::,,,,,, ;;;;
WKKWKK GE
WKKEEEED LG
WKKWKKKKKKKKKKKKKKKK KKKKWWWWWWW
WKKWGG KKGGGGGGGGGGGGGGGDDDDDDDDDDDD
WWWWWWWWWKKKKW tEL
WWWWWWWWWiiiiiiii EEEEEEEEEEDi
WWWWWWWWWiiiiifLEEEEEEEE Di
......;: ...........................:
EDfEEE DEEiWWEEEEEEEEEEEE
EDiiDEEEEEEEE WWEEEEEEDEEEEEEEEEEEEEEEEEEEEEEEEEE
;;;:... ,;
ĠLDEEEKKKKKKKKKKKKKK WWWWWWWWWWWWWWWW
EEEEEEEEEEEEEEEEEEEEEEEEEEE WWEEEEEEEDDLD
EEEEEEEEEEEEEEEEEEEEEEEEEEEEE KKKKKKKKKKKW
EEEEEEEEEEEEEEEEKEEEEEEEEEEEEEEEKKKKKKKKKKKKKKKK KKKKW
;:.................................... ;;;:...,;
EEEEEEEEEEEDEEEEEEEK WKEEDDDDGGff
EEDEEEEEEEEEEEEKKKKKKKKKKKKKKKKKKKKKKKK KKKKW
KWEEEWKK WWWWWKKj
ijDEE KKKKKWKKKKKKWKWWWWW
ijLGGDDDDDDDDDDDD D
ijfG DDDDDDDDDEEEEE
EEKWWWWWWWKKKKK WWWKWWKKKKKKKKKKKKKKKKK
EEKWWWWWWWKKKKKK WKKKKKKKKKKKKKKKKKKKKKWKKKWK
WWKEEEEED fL
WWKEEEEEEEEEEEEDEEEEEEEEEEEE EEGEEEEEEEEEEEEEEEEEEEKKKKKKK
WWKWWWWWKKKKW GKD
WWKKDLG KEKDDDDDDDDDDDDDDDDDDDDDDDDDED
KKKKKKKKKKKKKKKWWWKKK WWW
WWWWWWWWWWWKWKK jiEjitWWWKK
WWWWWWWWWWWKKKKKED j
EEEKWWWWWWWKKKK WWWWWWWWKKKKKKKWKKKKKKKWWWWWWW
EEEEEEWEEEED EEEEEEEEEEEEEEEEEEEEEEEEEEEWWEEEEEEEDDLD
EEEEEEKEKKK WWWWEEEEEEDDf
LDEEEEEEEEWWEEEEEEEEEEEEEEEE EEEEEEEEEDEDEEEEE
LDEEEKKKKKKKKKKKK WWWWKWWWWWWWWWWKKKKWtKKi
DKEEEWW EEEEEEKEKKKWWWWEEEEEEDDf
DKtWWWWWKK WWWWWW
WWWKKEEEEED ji
WWWKKEWK Ei
WWWKKWGGGK GGGGGGGGGGGGGGGGGGGGGGGGGGGG
WWWKKtfGKG EDDDDDDDDDDDDDDDDDDDDDDDEEDD
WWWKKKEKE Df
WWWKKKGGKKE GGGGGGGGDDDDDDDDDDDDDDDDDDE
,,,,,,,,,,,,,,,,::, ::::
KEEKKWWW KKKKKKWWWWWWWWW
KEEWWWWWWWWWDDWWKK DDDDDKDDDDDDDDDDDDDDDGGGGGGGGGGG
DEEWWWWWWWWWE KKKKKKKKKKKKKKKKKKKKKKKKKKWWKKWWWW
DEEWWWWWWWWKKKKWKKKKKKKKKKKKKKKK KKKKKKKWKKWWWK
DEEEKKWWW KKKKKWWWWWWWWW
WWWWWWWWWWWWKWWWWWW Gi
Ġ....::,, ;;;,
tjfLL GDDDDDDDDDDDDDDD
WKKKKKKKKEEEEEEEWWEE WEEEEEEEEEEEEEEEEEEEEEEEEEEKKKKKKKKKKKKKKKKKKKKKKKK
WWKKKjEKE L
tfLGGDDDK DDDDDDDD
Ġ..:, ;;;;,::::,,,,,,,,
Ġ..;..;; :.....
EDDEEEWEEEEEEEEEEEE WWEEEDDDDDGf
EDDEEEEEEEEEEKKKKKKKKKKKKKKKKKKKKKKKKKKKKKKK WWKKW
WEEEEEEEEEEEEEEEKEEEEEEEEEEEEEEEEEEEKE KKKKKKKKKKKKKKKK
WEEEEEEEEEEEEEjEEEEEEEEEK EEEEGEEEEEEEEEKEEEEEEEEEEEEEEEEE
WWWKDEK LWWWWKKEEEEEEDEi
WWWKEEEEEEEEEEEEEK EEEEEEEEEEEEEEEEEEEEEEEEEEEEEKKKKKKKKKKKW
ÐĲÐĳÐŀ Ð¢Ð¯Ðĵ
itfGE DDDDDDDDDDDEE
WWWWWWWWWWWWWWWWWWWWWWKKKKKK G
WWWWWWWWWWWWWWWWtiEiii WWWKKEWKEi
Ġysghys gsygsh
KWWWWWWKKKKKKWKKK W
ĠLGDEEEEKKKKKKKKKK WKKKKKKKKKKKKKKKKKWEEW
WEEGDDDD GGG
WEEWEEEEED EEDEEEEEEEEEEEEKKKKKKKKKKKKKKKKKKKKKKKKKKKKW
EKEKKKWWW KKKKWWWWWWWWW
GEEKKKKKWWKKKKK WWWWWWWW
GEEWWWWWWWWKKKK WKKWKKKKKKKKKKKKKKKKKKKKWWWWWWW
GEEWWWWKEE KEKKKKKKKKKKKKKKKKWKKKKKKKKKKKWWKWWWWW
WKKKKKKKKKKKKKKKKKKKKWWWWWWWW WWWWWWWWWWW
ĠfDEEEEEKKKKKKKKKKK WKKKKKKKKEEEEEEEWWEEWEEEEEEEEEEEEEEEEEEEEEEEEEEKKKKKKKKKKKKKKKKKKKKKKKK
ĠfDEEEEKKKKKKKKKKKWKKKKKKKKKKKKKKKK KWEK
WWWWWKKWWWKKKKKKKK tWKt
....................................:::::::.:. ,;;;;;;,
DEEEEEEEEEEEEEEKE KKKKKKKKKKKKKKKKKKKKKKKKKKWWWKKKKKKK
WEEEKKKKKKKKKKKKKKKKKKKKKWWWWWWWWWWWWWWWW WWWWWWWKKKKKKEG
tGGDEEEEEEEEEEE KEEEKEEEDEEEEEEEEEEEE
KKGDDDDDDDDDDDDDDDDDDDD DDDEDDDD
KKGDGDWEE WKKWKKGE
WWEEEEEEEEEEEKiKEEK EEEEEEWEEEEDEEEEEEEEEEEEEEEEEEEEEEEEEEEWWEEEEEEEDDLD
KKKKKWWWWWWWWWKKKKKKWKKKKKKK WWWWWWWWWKKKKWtEL
......................................:::::::,;;;; :...
jfLGKDL DDDDDDEEDD
ĠDEKKKKKWWKKKK WWWWWWW
ĠtGDEEEEKKKKKKKKKKKKKKKK KEEEEEEEEEEEWEEKWEEEEEEE
ĠtGDEEEKKKKKKKKKKKKKKKKKKKKKK EKEEEEE
ĠtGDEEEEKKKKKKKKKKWWWKKKKKKKKKKKKKKKWKK WWWKEEEEEEEEEEEEEKEEEEEEEEEEEEEEEEEEEEEEEEEEEEEKKKKKKKKKKKW
DKKWKKWWWWWWWWWGWWWKK DGGGKDGGGGGGGGGGGGGGGGGGGGGGGGGG
GDDDEEEEEEEEEEEEKKKKKKKKKKKKKKKKW KKKKKKKKKKKKKKKWWWKKKWWW
GDDDEEEEEEEEEEKEKKKKKKKKKKKKKKKKKKKKKKKKKKKKKKK WWWWWDGWWW
KDEEEWWEEEEEEEEEEEWWWWEEEEE DDGf
KKEKWWWWWWWWWGKWWKK DDGGDEGGG
WWKKKKKKKKKKKKKKKKtKKWWWWKEEEEEEEE EDiiDEEEEEEEEWWEEEEEEDEEEEEEEEEEEEEEEEEEEEEEEEEE
WWEEEEEEEKKKKKKKKKKKKKKKKKKKKKKKKKWWK WWWWWWWWWWWWWWKKKKKKKEL
WWWWWWWWWWWWWWKWKKK iKDiLWWWWKEEEEEi
WWWWWWWWWWKWWD KWEEEWKKWWWWWKKj
GGGGGLGGGGGGGGGGGGGL GGGGGG
......,;;;;, ....................:,
ĠfDEEEEEEKKKKKKKWKKKKK EEEEEEEEEEEEE
ĠfDEEEEEEKKKKKKKKKEK EEEEEEEEEEEEEEE
ĠfDEEEEEEKKKKKKKKKKWKEEEEEEEEEEEEEEE WKEEEEEEEEEEEEEEEEEEEEKEKKKKKKKKKKKKKKKKKKKKKKKKKKKKW
WEKKKKKKKKKKKKKKKKKKKKKKK WWWWWWWWWWWWWWWWWWWWWWKKKKKKG
DEEKWWWWWWKKKKKKKWWWWWWWWWWWW KKWKKKKKKWWWWK
EDDDEEKEEEEEEEEE KKKKKKKKKKKKKKKWKKKKKKKKKKKKKKWWWWKKWWW
KWKKWEiiiiiijG KKKKKWWKKKKKKKKWWWWWWWWWWWWWWWWWWWWWWKi
WKKKKKKKKKKfWK iWWW
WEEEEEEEEEEEDDLEEEEEEEEEWEEEED EEEEEEEEEKEEEEEEEEEEEEEEEEEWWEEEEEEEDD
fEEEKKKKKWKKKKKK WWWWWWW
iKDEEEWKEEEEEEEEEEE WWWEEEEDDDDLG
ĠfDEEEKKKKKKKKKWKKKKWWWWWWWW WWWWW
ĠfDEEEKKKKKKKKWKKKKWWWWKKK WKKKKKKKKKKfWKiWWW
WWEEEEEEEEEEEEEEWEEEEEEEE EEEEEEEEEEEEEEEKKKKKKKKKKKKKKKKWWKKKKEEEED
WWWWKKLLGWEE GGGGGLGGGGGGGGGGGGGGGGGGGG
ĠLDEEEEKKKKKKKWKKKK WWKKKKKKKKKKKKKKKKtKKWWWWKEEEEEEEEEDiiDEEEEEEEEWWEEEEEEDEEEEEEEEEEEEEEEEEEEEEEEEEE
ĠGDEEKKKKKKKKKKKKK WWWW
ĠGDEEEKKKKKKKKWKKKKWWWKKKWKKKKKKK WWWKDEKLWWWWKKEEEEEEDEi
WWWWWWWWKKKKfWW Lt
WWWWWWWWWWWWWWWKKKKKKKEL j
WWWEEEEEEEEEEEEKKKKKKKKKKKKKKKKKKKKKKKKKKWWWWWWKWWWWWW KKKKKKKEEL
KKKWWKKWWWWWWWWWGWWWKKGGGG WGGGGGGGGGGGGGGGGGGGGGGGGGGL
DEKEEEEEEWWEEE DEEEEEEEEEKEEEEEEEEEEEEEDEEEEE
WKEEEEEEEEEEDDEj EEEEEEEEEEEDEEEEEEEKWKEEDDDDGGff
WKWKKWKitKKKKKKKK KWKKKKKKKKKKWWWWWWWWWWWWWW
WKWKKWKiiiKKKKKKKKKWW KKKKKKKKWWWWWWWWWWWWWWW
tfLGDDDK DDDDDDDDD
WWWWWWWWWKKKWWKiLGG EDEDEKG
KWKKKiiiiiiiiiiiii jKKKKKKKKKKWWWWWWWWWWWWWWWWWWWWWt
EEKWWWWWWWWDDWWKKDDDDD KEDDDDDDDDDDDDDDDDDDDDDGGGG
EEKWWWWWWWWKWKKKKKKKKKKKKKKK WKKKKKKKKKKWKKWWWW
EEEKWWWWWWKKKKKKWWWWWWWWWWWKKKKKKKKKKK WWKWWWWWKKKKWGKD
EEEKWWWWWWKKKKKKWWWWWWWWWWKKKKKKKKKKKK WWWWWW
WWEWWWKKGGGEKK GGGGGLGGGGGGGGGGGGGLGGGGGG
DfiEGDDDEEKKK ttKWG
DKKKKKEDDWWKE DGftiLE
GDDEEEKKKWWWWW tWWD
KWWWEEEEEEEEEKKKKKKKKKKKKKKKKKKKKKKKKKK WWWWWWWWWWWWWWWKKKKKKKELj
KDDEEEWEEEEEEEEEEEEWWKEEDDDD DGf
LEEKKKKKKWKKKKK WWWWWWW
LDDDEEEEEEEEEEEKKKKKKKKKKKKKKKKWKKKKKKKK KKKKKWWWWKWWWW
LEEEEEKKKKKKWKKKKWKKKKKKKKKKKKKKKK KEKKW
LDDEEEWEEEEEEEEEEEEWWWEEDDDD DGfi
fDDEEEEEEEEEEEEEEEK EEEEDEEEEEEEEEEEW
fEEEEKKKKKKKKWKKKK WWWWWWWWWWWWWWKWKKKiKDiLWWWWKEEEEEi
fDEEEEKKKKKKWKKKK WWWKKKKKKKKKKKKKKKEKKW
iDEKWWWWWWKEKKKKKKKKKKKKKKKKKKKKKKKK KKKKWWKKWWWW
jEEDEEEEEEEEEEKKKKKKKKKKKKKKKWKKKKKKKK KKKKKWWWKWWWWW
tEDEEEWEEEEEEEEEEEEWWWEEE DDDDDLL
tKKWWWWWWWDDWWKKDDDDDKKDDDDDDDDDDDDDDDD DDDDDDDDD
ĠiDEEEEKKKKKKKKWKKWK WWWWWKKWWWKKKKKKKKtWKt
ĠiGEEEKKKKKKKKKKWKKKK WWWWWWWWWWWW
ĠfDDEDDEEEEEEK EEEEEKEEEEEEEEEEEEEEEEE
ittfDEEEEEEEEEEEEEEEEKEEEGEEEEEEEEEEE KWWWEEEEEEEEEKKKKKKKKKKKKKKKKKKKKKKKKKKWWWWWWWWWWWWWWWKKKKKKKELj
ifDEEEEEEEEEEEEKEEEKEEEEEEEEEEEEEEEWWWEEEEEEEEEEEE EEKKKKKKKKKKKKKKKKKKKKKKKKKKKKKKKKW
KKWWWWWKWWWWWWWWWGWWWKKGGGGKGGGGGGGGGGGGGGGGGGGG LLGGGGL
EEWWKEEEEEEKKKKKKKKKKKKKKKKWKKKKKKKK KKKWWKKWWWWW
LLDEEEEEEEEEEEKEEEEEEEEDEEEEEEEEEEE W
DDKDDEDEGi WKEEEEEEEEEEDDEjEEEEEEEEEEEDEEEEEEEKWKEEDDDDGGff
KKKKWWWKDDWWKKDDDG DKKGGGGGGGGDGDDDDDDDDDDDDDDD
WWWWKKGLGKD GGGGGGLLGGGGGGGGGGGGGGGGGGG
ĠLEEEKKKKKKKKKKWWKKK WWW
ĠLDEEEEKKKKKKKKKKWKWKKKKKKKK KKKKEEEKWEKW
ĠLDDEEEEEEEEEEKEEEEWEEE DDEEEEEEEEEEE
GGEEEEEEEEEEEKEKEEKEEEEEEEEEEEEEEEEWWEEEEEEEEEEEEEEEEE KKKKKKKKKKKKKKKKKKKKKKKKKKKKKKKW
DDDDEEEKEEEEEEEEKKKKKKKKKKKKKKKKKKKKKKKKKKKKKKK WWWKKKWWWW
WWWWWWWWEiiiiiiiEEEEEEEEDG iiii
DGKEEEEEEEEEEDEEEEEEEWW EEEEDDDGGLi
WWWEEEEEKKKKKKKKKKKKKKKKKKKKKKKKKWWWWWWWW WWWWWWWWWWWKKKKKEDj
KKKKKiiiiiiiiiiijKEKKW KKKKKKKWWWWWWWWWWWWWWWWWWWWWWiLiii
KKKKKLiiiiiiiiiiiiiiEEKKKKKKKK WWWWWWWWWWWWKWWWWWWGi
iiiEKKKKKKKKWKWWWWWWWWKKK WWWWWKi
DEDDDDDDiiWKEEEEEEEEEEDDEijDEEEEEK EEEEEEEEEEEEWWEEGDDDGGLG
WKKWGGKKGGGGGGGGGGGGGGGDDDDDDDDDDDD D
EDfEEEDEEiWWEEEEEEEEEEEE DGKEEEEEEEEEEDEEEEEEEWWEEEEDDDGGLi
EEKWWWWWWWKKKKKWWWKWWKKKKKKKKKKKKKKKKK WWWWWWW
EEKWWWWWWWKKKKKKWKKKKKKKKKKKKKKKKKKKKKWKKKWK W
WWKEEEEEEEEEEEEDEEEEEEEEEEEEEEGEEEEEEEEEEEEEEEEEEEKKKKKKK WWKKEEEEEEDDf
WWWWWWWWWWWKWKKjiEjitWWWKK WEEEDi
LDEEEEEEEEWWEEEEEEEEEEEEEEEEEEEEEEEEEDEDEEEEE W
LDEEEKKKKKKKKKKKKWWWWKWWWWWWWWWWKKKKWtKKi DWWWKKKEEEEKi
Ġ..:,;;;;,::::,,,,,,,, ;;
ĠfDEEEEEKKKKKKKKKKKWKKKKKKKKEEEEEEEWWEEWEEEEEEEEEEEEEEEEEEEEEEEEEEKKKKKKKKKKKKKKKKKKKKKKKK KW
DEEEEEEEEEEEEEEKEKKKKKKKKKKKKKKKKKKKKKKKKKKWWWKKKKKKK EEDf
tGGDEEEEEEEEEEEKEEEKEEEDEEEEEEEEEEEE WWWEEEEEEEEEEEEKKKKKKKKKKKKKKKKKKKKKKKKKKWWWWWWKWWWWWWKKKKKKKEEL
ĠtGDEEEEKKKKKKKKKKKKKKKKKEEEEEEEEEEEWEEKWEEEEEEE DEEEEEEEEEEEEEEKEKKKKKKKKKKKKKKKKKKKKKKKKKKWWWKKKKKKKEEDf
KKEKWWWWWWWWWGKWWKKDDGGDEGGG DGGGGGDGGGGGGGGGGGGGGGG
WEEEEEEEEEEEDDLEEEEEEEEEWEEEEDEEEEEEEEEKEEEEEEEEEEEEEEEEEWWEEEEEEEDD fj
WWEEEEEEEEEEEEEEWEEEEEEEEEEEEEEEEEEEEEEEKKKKKKKKKKKKKKKKWWKKKKEEEED fG
ĠLDEEEEKKKKKKKWKKKKWWKKKKKKKKKKKKKKKKtKKWWWWKEEEEEEEEEDiiDEEEEEEEEWWEEEEEEDEEEEEEEEEEEEEEEEEEEEEEEEEE WKEEEEEDDDGL
WWWWWWWWWKKKWWKiLGGEDEDEKG KKiEG
" ]);
) '
, ((
. +
5 32
5 49
7 39
9 11
A nc
D OWN
K ing
V x
W R
] ++)
d id
f inline
f unroll
f ho
f cross
f call
f gets
f optimize
f delete
f thread
g d
l az
m ut
n z
n al
r ub
s ra
u max
v k
v rp
w n
| _.__
~ %
¤ Ã¥Ã
å Ĵ
Ġ ÙĦ
re cur
re sent
Ġa u
Ġa lf
Ġm I
Ġp C
Ġp ct
Ġp retty
Ġ1 337
ou go
en sive
() ],
() )))
ll inf
Ġv id
Ġ> ---->
out o
Ġt z
Ġt cnt
Ġt old
at ougo
Ġd inf
Ġx o
Ġma jk
(" );
ar jan
__ ("
__ )),
ĠT AK
an ch
Ġy f
od ay
ut an
Ġ2 187
], "
Ġk kk
ĠM n
]) ++
ig atougo
ĠN eg
ĠN FOR
Ġ| _)
is ingh
Ġq R
ĠA y
=( ((
ĠR IT
mod ULAR
Ġget Par
Ġcur Sum
Ġse ven
len s
bs z
Ġ100000000 00
ower s
Ġsort am
Ġis Alpha
(! ((
Ġ4 3
"<< '\
26 0
fi pa
fl w
ĠAr igatougo
Ġac cept
update Range
','. '},{'.','
)- __
find irect
58 1
comp ose
30 30
50 2
AC O
popcount l
==' (')
ĠW arn
Ġgr p
34 1
Ġmy set
check s
test lib
dig s
âĸĢâĸĢ âĸĦ
79 69
oo o
ach er
60 9
Ġ26 2144
................................ ...........
___ |
40 40
Ġbs ld
ĠPR I
ĠJ udge
1000000 1
//////////////////////////////////////////////////////////////// ////////////////////////////////////////////////////////////////////////////////////////////////
Comp onent
ĠRe ader
âĢ ľ
entr ada
ãģ §
Ġprefix es
nom ial
inter block
Ġ"[" +
ĠØ Ń
Ġim outo
Ġ++_ )
ĠĠĠĠĠĠĠĠĠĠĠĠĠĠĠĠĠĠĠĠĠĠĠĠĠĠĠĠĠĠĠĠĠĠĠĠĠĠĠĠĠĠĠĠĠĠĠ čĊ
fp eep
fo llow
Ġ**************** */
Ġ**************** *******/
Op en
Ġ************************ *****/
Ġfe els
Ġ|\ __,
ĠLS ONE
fre run
Ġign ore
åĪ °
jump ing
AY S
Ġdirection s
Ã¥Ã °
Ġtask name
ĠTask C
Ġtw op
ali asing
Ġrot ation
Ġgre edy
Ġequ i
Ġequ alll
car ds
Ġ200000000 7
Ġasdf ghjkl
ĠFFT MOD
Ġmom ent
Ġcare fully
rel ax
Ġ|_|\__,_| \__,
Ġwar m
ĠUS ACO
//////////////////////////// /
\\\\ \\\\
ĠFlow Edge
Ġbsh d
Ġvowel s
Ġ'! ';
Ġ//................................................................ ......................................
Ġ//................................................................ ...........................................
ped antic
ĠACM TU
æł ĳ
Ġconfig ured
±Ã² Ãł
ante ed
¯Ã° Ã®Ã
fpar tial
Po or
zai masu
ĠYed ige
)<<") ";}
trig ger
OVER FLOW
fexp ensive
exponenti al
ĠâĢĶ âĢĶ
Ġguar anteed
fho ist
fcross jumping
fcall er
|_.__ /|_|
åĴ Į
ĠArigatougo zaimasu
fpeep hole
ĠACMTU YO
" >>
" ";
" !!
& @
' ---'
' ~!
) ]+=
* ;
* `
* --
. `
. ''
. :..
6 27
: (_
@ &
@ +
@ ~
A ble
B x
E MM
H epic
I MM
L ook
N d
N MMM
P recision
R KK
S B
S Y
S lr
T B
U D
X MMMMMMMMM
] ]),
` ,,,,
` :.
` ,,,,,,,,,,,,,,,,
` ,`
a isingh
d op
f ath
l I
l P
m eta
n il
p apa
r ir
r ay
s sync
w tf
w alk
} ]]]]]]]]]]]]
~ ;
~ ,,
§ â¢Ģ
¬ â£
¯ â¢¿
» æī¾
Ù °
Ù ī
æ ±
ĥ â¢Ģâ¢Ģ
Ł â¢Ģ
ĠĠ ĉčĊ
Ġi mm
Ġ< ---
on na
Ġl set
Ġl cs
Ġm iller
Ġf mm
Ġp Node
++ ],
Ġ1 100
cl p
en s
en emy
() &
Ġv ct
Ġv ans
// âĸĪâĸĪâķĶâķĲâķĲâĸĪâĸĪâķĹ
Ġb rk
Ġ- _-_-
ac um
Ġd k
Ġd z
Ġd fa
Ġd dy
Ġx min
ct rx
ar b
ar chi
mp p
Ġj at
Ġj mp
Ġr z
Ġr und
Ġr reps
os ra
Ġcin d
ti p
Ġ2 41
string s
eg e
)) &&
Ġk ind
Ġw ish
Ġ; --
Ġg lobal
]) /(
ans i
Ġin max
Ġpr Vec
Ġpair ll
Ġ// }
ed i
ve k
Ġ| `.
Ġ/ ****
put num
â£ ®
â£ °
â£ µ
â£ ¹
â£ Ī
â£ ī
â£ ¬â£
//// #
MM E
()) ?_
Ġmin Val
Ġ3 00001
ĠL R
ĠL eap
,, `,,
â£¿ â¢¯
Ġ"<< ++
ak ar
min m
tr unc
ĠC x
Ġde mo
sum A
Ġto y
Ġto LowerCase
Ġto UpperCase
â£¿â£¿ â£¿â£
â£¿â£¿ â¢Ģ
â£¿â£¿ â£¿â¡
â£¿â£¿ â¡·
â£¿â£¿ â£Ĩâł¹
Ġarr ays
num er
Ġout f
Ġis sq
Ġis LowerCase
Ġis UpperCase
Ġis Intersect
Ġis Letter
Ġis Middle
fr o
ĠV l
ĠO ver
Ġ4 0000
53 3
ax laj
'. -'
Ġoptim al
ĠX X
Ġ. ''
act ual
20 11
/// ==
)- ((
<<( _
âł ·
âł ĵ
â£¿â£¿â£¿â£¿ â£¿â¡
â£¿â£¿â£¿â£¿ â£Ĩ
ER R
vec a
Ġbase int
Ġas axlaj
â¢ £
â¢ ģ
â¢ ĥ
â¢ Ĩ
â¢ ĭ
Ġcomp osition
MMMMMMMM MMM
MMMMMMMM MMMMMMM
Ġquery Range
ĠY et
:. `.
â¡ »
â¡ ŀ
46 57
Ġseg m
ĠW ork
Ġnew line
Size Helper
Ġrb end
sc r
qu ency
,; :,;
Ġsub mask
(* __
Ġupper Bound
exp ressive
79 3
48 57
rem oved
curr L
Ġbin Pow
100000 10
te en
Ġ'. \
Ġnot Equal
cr iption
,,,,,,,, ,,,
Ġrand o
=" \
MMMMMMMMMMMMMMMM MM
â£¿â£ ®
â£¿â£ ¯â¢¿
Ġtotal Time
"" >>
â¢Ģ â¡¿
â¢Ģ â£¿â£¾
Ġal g
,: ;
ĠJ aisingh
54 56
ĠPrint Data
,,, `,,,,,,,,,,,,,,,,
66 9
â¢¿ â£»
â¢¿ â£¿â£¿â£¿â£¿â£¿â£¿â£¿â£¿â£¿â£¿â£¿â£¿â£¿â£¿â£¿â£¿
â¢¿ â£¿â£½
68 7
ĠMin PriorityQueue
Ġsign ificant
Ġ200 1
Con vert
ĠOO L
Array Type
Array SizeHelper
Ġforr it
â¡¿ â£¯
87 654321
â£· â¢¿
â£· â£»
â£· âłĪ
â£· â¡Īâ¢¿
//////////////////////////////////////////////////////////////// ////////////////////////////////////////////////////////////////////////////
OL D
Ġrs rt
--- >>>
â£¿â¡ Ī
`` ,`
SU M
##_ ==
##_ :(_
________________________________ ___________
â£½ â¡¿
:.. ::
EN M
::. :.
gg dem
Ġones l
ress ion
ĠisPrime Number
ĠSt uff
stra int
ader s
â£¿â£¿â£¿â£¿â£¿â£¿ â£·
â¢Ģâ¢Ģ â£¤
Ġpol icy
âł¹ â£·
âł¹ â£Ł
âł¹ â£Łâ£¾
Ġequal To
â¢» â£½
,` ;
,` ,,,`,,,,,,,,,,,,,,,,
<<","<< _
<<"("<< _
âłī âłĻ
â£¤ â£Ħâ£Ģ
ï¿½ï¿½ï¿½ï¿½ï¿½ï¿½ï¿½ï¿½ ï¿½ï¿½
Ġanc estors
_. '
Ġsuffix es
ĠAN G
pat tern
â£¿â£¿â£¿ âłĩ
Ġcompute LPS
<<"{ "<<
â¡Ħ â¢¿
â¡Ģ âłĻ
Ġww s
Ġod ds
Ġ|/ .''
â£¦ âłĺ
Ġhor izontal
Short cut
â¢¯ â£Łâ¡¿
Ġ99999999 999999999
/**************** *
Ġ******************************** ****************
Ġ******************************** ************************
Ġ&&... _
ĠAL HAM
â¢· â£»
â£»â£¿â£¿ â£¿â¡
En igma
ĠCU RR
::.. ::
â¢ł â£¿
bar ik
Ġà¦Ĩ à¦®
Ġ|_ '---'
Ġasd asd
â£¯â¢¿ â£¿â£¿â£¿
MMMMMMMMMMMMMMMMMMMMMMMMMMMMMMMMMMMMMMMMMMMMMMMM MMMMM
â¢Ģâ¢Ģâ¢Ģâ¢Ģ â¢Ģâ¢Ģâ¢Ģâ¢Ģ
â£¶â£¶ â£¶
je je
Ġoc cur
Ġà¦ı à¦ķ
çļĦå ·¦
â¡Į â¢¿
â£¿â£§ âł
ï¹Ħï¹ĥï¹Ħï¹ĥ ï¹Ħï¹ĥï¹Ħï¹ĥ
å¯ »æī¾
ĠlessThan Equal
WN MMMMMM
ĠAre na
Ġ'---' `--'
ĠgreaterThan Equal
â£¿â¡Ħ â¢
â£¿â¡Ĩ â¢¸
â£¿â¡ĩâ¢¸ â£¯â£Ł
Ġide a
BA U
è¾¹ çķĮ
â£¿âłĩ â¢¸
DU LILLAH
çĽ¸ åĲĮçļĦ
âĸĪâĸĪâĸĪâĸĪâĸĪâĸĪâķĶâķĿ âĸĪâĸĪâķĳ
shir bek
domin os
Ġvet or
ĠArbitrary ModInt
à¦¶à¦¨ à¦Ł
â¡Ļâł ¾
ĠAn and
å¦Ĥæŀľ æ²¡æľī
å°ıçļĦ æķ°
à¦¾à¦ Ĥ
Ġ,"; _
?"":",")<<* _
ĠSOME THING
Ġimm edi
//âĸĪâĸĪâķĶâķĲâķĲâĸĪâĸĪâķĹ âĸĪâĸĪâķĳ
Ġ-_-_- _-
archi ve
Ġ.'' '-.
ĠcomputeLPS Array
Ġ|/.'' '.
ĠALHAM DULILLAH
0 11
2 12345
5 15
B oth
F ill
P b
R ES
S ieve
W l
] |=(
b n
b at
c next
i res
k n
m N
n ment
p ub
q h
s hep
t ans
v int
y max
¤ º
æ İ
ç ¤º
ĉ ĠĠĊ
Ġi buf
Ġc ame
Ġp item
Ġ1 27
ll ll
Ġd ll
Ġd od
Ġd xt
Ġd om
(" >
al pa
ar i
ar ound
__ ||
Ġr q
ma ks
Ġe ds
for d
for ce
Ġy nm
Ġu v
)) ))*((
Ġk im
Ġg ave
ĠM ask
stream buf
<<" --------
ig uri
ĠF Q
Ġq d
Ġq w
push down
ĠA p
ĠA ssertsCounter
ad il
Ġmax p
Ġ__ _|
Ġmin u
Ġ3 35
ĠR ST
Ġst ov
ĠL ST
ĠL ook
cur acy
min s
Ġget D
ĠG over
ĠI IT
ĠĠĠĠĠĠĠĠĠ Ċ
gs d
//////// //
get Sum
th eta
Ġout A
ĠFOR LL
---------------- ----
fr action
ĠV SE
Ġ-- ,
100 1000
26 2
Ġread l
Ġread y
ĠREP D
ĠREP LL
ec ific
Ġ10000 2
Ġex cept
24 9
Ġmn v
ĠH ELL
43 7
22 1
(' :
pl it
ĠY es
cc ase
Ġ100 9000999
Ġcol umns
==' ('
bb akar
100000000 00
DE L
Ġbin omial
Ġ100000 79
mi le
cr ivo
Ġiterator s
Ġal ready
ĠJ alpa
Ġ` """"
ai u
sy s
ĠÐ º
Ġab acaba
ä¸ Ń
Ġ{{ -
Ġvp ld
Ð° Ð»
âĸĢâĸĦ âĸĴâĸĴâĸĴâĸĴ
Ġve cin
ĠSt ack
ĠRFOR LL
70 5
Pr imes
Ġcal m
)))) ==(
NNNN NNNN
ĠRREP LL
Ġlz y
remove Min
Ġbi clz
Ġbi ctz
ä¸Ģ ä¸²
ĠMove s
prim os
ĠFW RITE
Ġ'/ ')
asd gsd
Ġbf fs
è¿ĶåĽŀ å°ıçļĦæķ°
Fr ont
Ġ200100 1001
577215664 9
Ġasdf asdg
Ġgu ys
ĠÐ½ ÐµÑĤ
usk al
Ġsong s
ĠWhen ever
ä»£è¡¨è¿ĶåĽŀ çĽ¸åĲĮçļĦ
ä»£è¡¨è¿ĶåĽŀ å¦Ĥæŀľæ²¡æľī
cate gory
Ġdima si
Ġut int
mar ico
Ġyj z
868 7969
ĠColl ege
Ġdisco very
çĶ ¨
ĠCUR L
Ġgrt srt
3487 465
çļĦåĢ¼ è¿ĶåĽŀå°ıçļĦæķ°
Ġkkk k
ĠANG LE
çļĦå·¦ è¾¹çķĮ
å¯»æī¾ çļĦåĢ¼è¿ĶåĽŀå°ıçļĦæķ°
Ġimmedi ately
Ġkim bbakar
ĠGover nment
ĠJalpa iguri
ä¸Ģä¸² çļĦå·¦è¾¹çķĮ
Ġasdfasdg asdgsd
ä»£è¡¨è¿ĶåĽŀçĽ¸åĲĮçļĦ ä¸Ģä¸²çļĦå·¦è¾¹çķĮ
ä»£è¡¨è¿ĶåĽŀå¦Ĥæŀľæ²¡æľī å¯»æī¾çļĦåĢ¼è¿ĶåĽŀå°ıçļĦæķ°
" <<"\
& ()
. %
2 13
6 37
6 888
7 10
B o
B ta
B tI
B OUND
C ASES
F X
H F
I van
L v
R ule
R LIMIT
b cx
b CN
c G
g od
h bX
j Q
j UG
m Ej
n h
n TIME
p em
r lim
w an
} \
~ #~~
ç Ń
è ®
é Ŀ
Ġ ê
Ġ åĩ½æķ°
Ġ åıĺéĩı
in cr
on us
Ġl ex
Ġa ib
Ġf at
Ġf gets
Ġn Sz
Ġp L
Ġ1 11111
cl ic
Ġ0 2
en e
Ġs rev
Ġv toa
// ++++++++++++++++
Ġb urn
Ġb cc
Ġd anc
ir ls
Ġma l
Ġma ks
(" ../
Ġr id
str b
ĠT end
ĠT hing
ma e
Ġe ularFunction
for in
)) ?(
Ġk er
Ġk an
ush er
as ure
stre e
Ġcon sole
ĠN eeded
Ġ/ ,
is al
push up
ĠA ny
ĠA aman
ĠS ure
ĠS qC
ĠP ath
ĠP rime
ĠP oly
#### ##~~##~~##~~##~~
Ġit v
Ġmin c
Ġmin Value
ic G
Ġst y
Ġst oa
Ġst dext
00000000 0001
cur y
cur ans
ĠD EC
tr av
ĠC reate
Ġget par
Ġget Dist
Ġsum i
ĠB in
]] ][
ĠINF l
Ġchar s
Ġset bits
sk ill
ĠMAX X
53 1
Ġpre vv
Ġadd Matrix
Ġadd ModMatrix
ĠU RL
VA LI
ĠE VER
Ġmul Matrix
Ġmul ModMatrix
Ġ10000 103
>( *
97 9
Ġthe se
]==' +')
az a
24 1
Ġmn i
Ġcom bin
ie u
Ġth ing
Ġth eta
à¦ ĸ
22 54
cc y
IO I
Ġnext t
16 1
pt I
Ġbe hind
read Arrays
ĠW ITH
FOR R
Ġ... }
-------------------------------- --
ĠĠĠĠĠĠĠĠĠĠĠĠĠĠĠĠĠĠĠĠĠĠĠĠĠĠĠĠĠĠĠĠĠĠĠĠĠĠĠĠĠĠĠĠĠĠĠĠĠĠĠĠĠĠĠĠĠĠĠĠĠĠĠĠ ĠĠĠĠĠĠĠĠĠ
Ġsub Matrix
Ġsub ModMatrix
(* )
200 111
Ġat os
Ġ20 48
500 50
hash er
Ġpw mod
ach ine
Ġpp c
]]) %
ĠInt Mod
ĠMax MatrixSize
Ġbig gest
cr nt
Ġco eff
40 8
21 77
Ġper son
rc u
47 5
Ġï¿½ï¿½ï¿½ï¿½ï¿½ï¿½ ,
big u
Ġsd a
dy N
Ġsy m
Ġlog ic
Con nect
small est
Ġpo le
ĠST L
USE R
##~~ #~~
ãģ ¨
Ġwr ong
ĠUN COMMENT
Ġï¿½ï¿½ï¿½ï¿½ï¿½ï¿½ï¿½ .
Ġshow Matrix
MS NQcWEj
modular Exponentiation
ĠÃ ¢
++++++++ +++++
ĠPro gram
cum u
Ġpal indromic
td mEj
Ġvisit ado
Ġold r
Ġ20000 7
Ġvt os
fen wick
sha ft
tw os
Ġato v
NC cG
Ġph b
Ġph f
Ġ123456789 0123456789
Yn Aj
ķÐ ķÐ
++++++++++++++++ +++++++++++++
ĠPO SU
è¡¨ ç¤º
XZ sI
+-- +--
ä½ ł
ific ation
/__\ |
Ġ99 9983
bW Jw
------------------------------------------ */
Ġ*** \
Ġidentity Matrix
normal ize
ĠAS SERT
Ġ102 3456789
Ġdev ice
gre en
cXZv I
jYnB tI
#########~~ ######~~##~~##~~##~~
MUL T
ĠÐ¿ÐµÑĢÐµÐ¼ÐµÐ½Ð½ ÑĥÑİ
Ġsug gest
Ð¬ Ð¬
ĠÐ´ÐµÐ» Ð°ÐµÑĤ
WR tdmEj
Ġwarm up
æ± Ĥ
<<"-------- "<<
Bta WRtdmEj
pem Jw
//++++++++++++++++ +++++++++++++++++++++++++++++
VALI D
##~~#~~ ~
" ||
' ]){
/ )
3 88
4 32
5 000000000
7 69
9 47
B est
C ha
D efine
E very
E ATE
H e
H old
K A
N eeded
O h
R EPS
S wap
Y A
] ]==-
b nd
d abba
f k
f our
g as
h x
h fs
i ans
j in
k h
l id
q v
r sum
s jf
u at
v qx
w al
y z
Â §
ç »
ì Ŀ
in ce
Ġi abs
Ġ< -
re ath
Ġc set
Ġc ry
Ġl ic
Ġm lld
Ġm rk
Ġs len
Ġs nk
Ġv im
Ġv max
Ġ> {
Ġ> ()
Ġt om
Ġb ob
Ġfor c
Ġ" &
Ġ" -->
Ġ" ]["
at os
con tain
(" ",
Ġ* ,
str oy
ĠT I
Ġ== '
for t
for mat
Ġ' <'
sp r
Ġk Mod
ĠM sum
ĠM prod
]) ][
ch irag
]); }}
Ġcon s
Ġcon test
Ġ| ____
Ġq c
ĠA shirbek
Ġmax d
ĠS ci
max Val
ĠP PLL
Ġ_ ();
Ġh ld
ĠR un
auto maton
ak ur
ĠC eil
Ġget Ans
ĠG E
Ġcur sum
11 63
ext c
MAX S
]] ]=
Ġto k
Ġto ok
Ġrep resent
Ġ10 1010
Ġis Ok
ub y
', ')
53 6
10000 99
Ġread n
12 88
Ġpi v
Ġ[ &
/// --------------
ptr diff
Ġfl w
ess age
à¦ ¦
37 5
50 22
50 978
col umns
31 32
Ġscan Int
()- __
UT IL
Ġsub set
fact mod
ah am
________________ __________
pa i
ave let
Ġiter ating
ter mine
mall oc
]% (
101 10
Ġwith in
)<<" ]
we ek
do it
sm l
Ġsy d
ĠDI G
Ġdec rement
Ġboost IO
mo y
110 32000
//////////////////////////////////////////////////////////////// //
Ġck x
Ġ'? '){
Ġio setup
Ġdiv mod
AB LE
AB AB
ãģ ª
uu v
lol o
(& )
plic ation
win s
Ġ300 5
ĠDebug Stream
------------------------ -
Ġunion rule
ĠRead ArrayType
DEPREC EATE
END L
Fact or
Ðº Ð°
ĠgcdExt ended
Less Than
Ch irag
Ġ'[ ')
Ġstar s
gap s
Ġfollow ing
///-------------------------------- -------------------------------
pass ing
ĠTh akur
Ġef fort
ĠNE W
ĠÑģ Ð¸
Ġswe et
Ġ"_ ";
ĠSu pport
Ġexec ute
âĹ Ĳ
<<"> "<<
DA IICT
400000000 0000000100
TOT AL
2254 50978
REPS Z
sjf nb
Ġlic z
ĠSci ence
ĠPPLL PLL
UTIL S
0 881
2 99
2 31
4 29
4 00001
5 20
6 89
9 07
= ~(
? )
? ((
C OL
D ev
F ac
M o
R EE
R ef
S CC
S CL
S hah
S park
W AYS
c end
c val
c sz
c float
h lp
i ed
k m
k oko
l val
m et
m om
o ck
q td
r or
r ase
s wa
t here
u pp
u ntime
v n
} ]==
£ Ã®
å į
č č
Ġ )))
Ġ 8888888888888888
Ġ 88888888888
ĥ ½
in x
Ġi set
on moy
Ġc base
Ġm max
Ġm ist
Ġn val
Ġn ux
Ġn af
Ġp per
Ġp izza
++ <<
Ġs int
Ġv ek
// ----------
out f
Ġ" ::
at o
at oi
con struct
yp ko
al an
al igned
id ing
mp os
Ġj o
ĠT onmoy
Ġe lev
Ġans v
Ġcin ad
Ġre nd
Ġy t
Ġy md
---- |
Ġk q
Ġw www
Ġg era
ĠM i
ĠM II
Ġin a
Ġin x
Ġin min
Ġin ds
pr ln
Ġ// ----------------
]); ++
ĠF lib
ĠN TT
Ġ| ----|
Ġq a
im g
ad or
Ġmax Len
ĠS OR
ĠS UM
ĠS IGMA
Ġo m
Ġo br
10 497
Ġdp call
ot age
Ġst ick
ĠL MAX
ĠL UCK
64 00
ĠĠĠĠĠĠĠĠĠĠĠĠĠĠĠĠĠĠĠĠĠĠĠĠĠĠĠĠĠĠĠĠ ĠĠĠĠĠĠĠĠčĊ
ĠD ONLINE
val ent
==== ///
Ġget Val
Ġde reference
ĠG re
pp pp
OR E
ind ows
ext end
ĠB ISMILLAHIR
Ġad sg
tree max
Ġse l
len th
num DiffPf
Ġ7 00
ĠFOR ALL
---------------- ------
ĠV u
Ġtree s
ex gcd
ĠMAX S
Ġlen b
26 1
10000 37
ĠU p
ost hen
'. ','.','.','.','.','.','.','.','.
14 1
ĠE n
iterator s
20 12
Ġthe ir
Ġauto mat
Ġex act
ok ay
24 360
Ġ^ "
Ġ^ """"""""
Ġ1000 1
Ġ1000 7
Ġ6 17
dist s
ash a
Ġgo go
Ġdx horse
37 7
Ġdy horse
Ġun used
LE V
34 1163
Ġpop ulate
77 77
Ġor i
FF F
gr p
Ġ8 6
Ġinput ll
)== (
Ġsu mp
nx d
40 10
8888888888888888 8
8888888888888888 8888888888888888
8888888888888888 8888888
8888888888888888 88888
"" ^
Ġzero cnt
ud a
Ġà¦ Ń
@@@@@@@@ @@
Ġwe re
ri ar
Ġbfs z
66 3
20000 10
************************ *****/
bin omial
Ġ16 341163
ĠST V
nb max
Ġbl ank
Ġmaxim o
Ġus d
To Pos
To Convert
ĠUN SORT
Se ll
**************************************** *****/
Ġisp ow
eb f
ĠSt at
ĠGET A
ĠGET S
ĠSH J
ĠLine s
Ġ300 100
ĠÃ ·
Ġact ually
match ed
Ġpy thon
5000 5
Ġany where
36 999
10000000 21
segment s
Ð¾Ð º
binary Exponentiation
ĠData Out
<<"{ "<<#
Ġiss ues
âĸĳâĸĳâĸĳâĸĳâĸĳâĸĳâĸĳâĸĳâĸĳâĸĳâĸĳâĸĳâĸĳâĸĳâĸĳâĸĳ âĸĳâĸĳâĸĳâĸĳâĸĳâĸĳâĸĳâĸĳâĸĳâĸĳâĸĳâĸĳâĸĳâĸĳâĸĳâĸĳ
______ /
============================================ ///
split mix
TR EE
'},{'.','.','.','.','.','.','.','.','.'},{'.','.','.','.','.','.','.','.','.'},{'.','.','.','.','.','.','.','.','.'},{'.','.','.','.','.','.','.','.','. '},{'.','.','.','.','.','.','.','.','.'},{'.','.','.','.','.','.','.','.','.'},{'.','.','.','.','.','.','.','.','.'},{'.','.','.','.','.','.','.','.','.
Ã®Ã £Ã®
977 5724
526 624
<<"}"; }
Ã¨ Ã²
SQ RT
Ġ////// ///
709 36999
ĠFX NS
ĠBi WeightedEdge
Ġdecl ared
è¯ »
///================================ ============================================///
FFFFFFFFFFFFFF F
Mar ia
ĠÐ·Ð° Ð¿
Ġsil ver
Ġrule s
Ġshok r
ÑĤÐ¸ ÑĤÑĮ
"""""""" """
åĨ į
ĠAnton Ts
Ġsab otage
Over lap
)): ((
ĠLow On
PA IR
<<'=' <<(
7182818284590452353602874713 526624
ĠBar isal
Ġquest ion
(': ');
Ġ`"""" ^
Ivan ova
ĠAny way
ĠEVER Y
ĠDIG ITS
Ġdecrement ing
âĹĲ âĸĳâĸĳâĸĳ
Shah riar
Spark le
Ġmist ake
Ġnaf asi
Ġdereference able
'.','.','.','.','.','.','.','.','. '},{'.','.','.','.','.','.','.','.','.'},{'.','.','.','.','.','.','.','.','.'},{'.','.','.','.','.','.','.','.','.'},{'.','.','.','.','.','.','.','.','.'},{'.','.','.','.','.','.','.','.','.'},{'.','.','.','.','.','.','.','.','.'},{'.','.','.','.','.','.','.','.','.'},{'.','.','.','.','.','.','.','.','.
9775724 70936999
ĠAntonTs ypko
7182818284590452353602874713526624 977572470936999
7182818284590452353602874713526624977572470936999 5
( |)
( /)
2 79
5 53
5 17
6 11
6 671
8 49
9 00
9 000000000000000000
: *
A ct
A DD
B VI
B inary
C ut
E mpty
F UL
R el
T ri
V u
V is
a ver
c ool
c ert
e very
j ice
j ib
j hfjke
p node
p item
u jk
x im
x Last
x dt
y m
y t
y jf
{ //
{ __
{ ,.
| ((
| __||
æ Ł
ç Ħ
è §
Ġ æ³¨æĦı
Ġi ma
or rect
ĠĠĠĠĠĠĠ ĉĉĉ
Ġ( *(
Ġc force
Ġl pi
Ġa k
Ġa ffi
se lected
Ġn os
Ġp apa
Ġ1 19
Ġ0 6
ur stan
Ġs lice
() ]++;
out h
Ġt av
Ġb pc
Ġb reath
Ġfor b
ac ab
er ate
er fer
id ay
ar s
Ġr lt
Ġe st
Ġe hf
air s
EE R
Ġcin ll
Ġy ass
Ġw b
Ġg ft
ĠM a
ĠM s
]) ?
Ġin cr
!= "
ch n
ch min
]= __
++; }}
ĠF i
ĠF UN
ĠF UL
ass ion
ĠS i
10 1000
10 21
max j
rt fh
Ġch e
ag sh
ag wan
Ġmin m
Ġ3 0000000
Ġh ard
Ġst pii
un imi
map p
mod s
ĠL A
ĠL AST
âĸĳ âĹĲâĸĳâĸĳâĸĳ
ĠĠĠĠĠĠĠĠĠĠĠĠĠĠĠĠĠĠĠĠĠĠĠĠĠĠĠĠĠĠĠĠ ĠĠĠĠĠĠĠĠĠĠĠĠĠĠĠĠĠĠĠĠ
Ġ|| |
ĠD ec
ĠD own
ĠD TIME
tr avel
ĠC enter
ĠC ARE
il a
Ġsum y
ĠB uffer
MAX F
MAX X
sum r
he fro
Ġto Add
âĸĳâĸĳ âĸĦâĸĦ
Ġ100000000 2
Ġ100000000 000000
get parent
Ġis valid
to add
Ġ(! ~
ĠMAX A
ĠMAX P
53 189
Ġfi re
15 00
Ġlen s
26 843
uct ion
10000 33
10000 39
10000 81
oc arp
rep t
1000 121
clo g
Ġmn ie
Ġ6 00
Ġ6 11
ĠH ave
âĸĦ âĸĮâĸĮâĸĳâĸĳâĸĳâĸĳâĸĳ
âĸĦ âĸĪâĸĪâĸĪâĸĢ
âĸĳâĸĳâĸĳâĸĳ âĸĦâĸĢâĸĴâĸĴ
âĸĳâĸĳâĸĳâĸĳ âĸĢâĸĦâĸĳâĸĳâĸĳâĸĳ
Ġcomp osite
Ġcomp ares
Ġen sure
Ġen emies
Ġnext s
Ġnxt l
==' +')
Ġscan ii
Ġind uction
77 9
200 3
Ġcan t
RO OT
Ġwrite Double
Ġpq pll
âĸĢâĸĢ âĸĢâĸĦ
48 1
48 411
curr R
âĸĮ âĸĳâĸĳâĸĳâĸĳâĸĳâĸĳâĸĳ
Ġnot e
Ġan w
âĸĦâĸĦ âĸĮâĸĮ
Min imum
Ġpc s
)? "\
Ġà¦ ®
Ġlim N
Ġ"- ";
do osra
mon ir
Ġtop o
123 4657
ĠĠĠĠĠĠĠĠĠĠĠĠĠĠĠĠĠĠĠĠĠĠĠĠĠĠĠĠĠĠĠĠĠĠĠĠĠĠĠĠĠĠĠĠĠĠĠĠ ĠĠĠĠĠĠĠĠĠĠ
66 6
tail s
Ġtc n
ww ww
ĠComp assion
1000000 103
Ġ<<" ("<<
Ġ-------------------------------- ----------------------------------------------------------------
Ġsk monir
ĠMACRO S
nb inf
Ġfd m
SU B
DB UG
Ñģ Ð¾Ð²
Ġ"! (
Ġdiag onal
the ory
ĠRFOR N
ĠCode Hash
Ġremove bit
oi uv
ĠDebug ging
vb hy
10000000 33
10000000 93
âĸĴâĸĴâĸĴâĸĴâĸĴâĸĴâĸĴâĸĴ âĸĢâĸĢâĸĦ
Ġ20000 10
fh g
fh ds
ell ow
Â¦ ï¿½
å° ±
/************************ *****
2020 20
Ġten ll
/**************************************** ****
Ġele ms
84 10497
degree s
ÐµÐ½ ÑĤÐ¸ÑĤÑĮ
xor shift
Ðĵ Ð£Ð¡Ð
0123456789 1234657
âĸĳâĸĳâĸĳâĸĳâĸĮ âĸĳâĸĳâĸĳâĸĳâĸĳâĸĲâĸĳâĸĳâĸĳâĸĳâĸĳâĸĳâĸĳ
âĸĳâĸĳâĸĳâĸĳâĸĮ âĸĳâĸĳâĸĳâĸĳâĸĦâĸĢâĸĴâĸĴ
100011 7
Ðł ÐĲÐĳÐŀÐ¢Ð¯Ðĵ
Dan ya
ÑĢÐ¾ ÑģÐ¾Ð²
âĸĦâĸĴâĸĴâĸĴâĸĴ âĸĴâĸĴâĸĴâĸĴâĸĴâĸĴâĸĢâĸĦ
!='-' &&(
decl spec
æī Ģ
âĸĳâĸĳâĸĳâĸĳâĸĳâĸĳ âĸĢâĸĦâĸĦâĸĦâĸĦ
dsh fhds
Mon ocarp
************************** \
âĸĳâĸĦ âĸĢâĸĢâĸĢâĸĦ
æį ¢
Ġbuil t
ĠÐ·Ð° ÐºÐ¾Ð¼
//________________________________ ____
âĸĳâĸĳâĸĳâĸĲâĸĳâĸĳâĸĳâĸĳâĸĲ âĸĴâĸĴâĸĴâĸĴâĸĴâĸĴâĸĴâĸĴâĸĢâĸĢâĸĦ
âĸĳâĸĳâĸĳâĸĲâĸĳâĸĳâĸĳâĸĳâĸĲ âĸĦâĸĴâĸĴâĸĴâĸĴâĸĴâĸĴâĸĴâĸĴâĸĴâĸĴâĸĢâĸĦ
âĸĳâĸĳâĸĳâĸĳâĸĳâĸĳâĸĳâĸĳâĸĳ âĸĦâĸĦâĸĮâĸĮ
ĠSEG MENT
ĠHe aders
ĠSuffix Array
may be
11010 48411
shortest Path
Ġlat te
âĸĦâĸĪ âĸĦâĸĦâĸĦâĸĦâĸĦâĸĦâĸĦâĸĦâĸĦâĸĦâĸĦ
ĠMF P
Ġbh agwan
ĠOptim ization
ä¼ļ è¯»
_________________________________________ //
ĠisE q
ĠTAK ES
nil ai
ctrx ujk
ĠAp un
âĸĢâĸĦâĸĴâĸĴâĸĴâĸĴ âĸĴâĸĴâĸĴâĸĴâĸĴâĸĴâĸĢâĸĦ
/__\| /__\|
Dev ice
//---------- >
ĠSOR RY
Ġadsg agsh
24360 69
ĠÐ·Ð°Ð¿ ÑĢÐ¾ÑģÐ¾Ð²
ĠEVERY THING
Ġmistake s
jhfjke hfjke
xdt rtfh
yjf ctrxujk
Ġaffi che
erfer jhfjkehfjke
Ġehf oiuv
Ġyass in
Ġgft xdtrtfh
âĸĳâĹĲâĸĳâĸĳâĸĳ âĸĮâĸĳâĸĳâĸĳâĸĳâĸĳâĸĳâĸĳ
ĠCARE FUL
hefro erferjhfjkehfjke
Ġmnie j
âĸĦâĸĪâĸĪâĸĪâĸĢ âĸĳâĹĲâĸĳâĸĳâĸĳâĸĮâĸĳâĸĳâĸĳâĸĳâĸĳâĸĳâĸĳ
âĸĳâĸĳâĸĳâĸĳâĸĢâĸĦâĸĳâĸĳâĸĳâĸĳ âĸĢâĸĦâĸĴâĸĴâĸĴâĸĴâĸĴâĸĴâĸĴâĸĴâĸĴâĸĴâĸĢâĸĦ
ĠCompassion ate
vbhy jice
8410497 1101048411
ÐĵÐ£Ð¡Ð ¯
01234567891234657 89
âĸĳâĸĳâĸĳâĸĳâĸĮâĸĳâĸĳâĸĳâĸĳâĸĦâĸĢâĸĴâĸĴ âĸĢâĸĢâĸĢâĸĢâĸĦ
âĸĳâĸĳâĸĳâĸĳâĸĳâĸĳâĸĢâĸĦâĸĦâĸĦâĸĦ âĸĦâĸĪâĸĦâĸĦâĸĦâĸĦâĸĦâĸĦâĸĦâĸĦâĸĦâĸĦâĸĦ
âĸĳâĸĦâĸĢâĸĢâĸĢâĸĦ âĸĳ
ĠÐ·Ð°ÐºÐ¾Ð¼ ÐµÐ½ÑĤÐ¸ÑĤÑĮ
âĸĳâĸĳâĸĳâĸĳâĸĳâĸĳâĸĳâĸĳâĸĳâĸĦâĸĦâĸĮâĸĮ âĸĦâĸĮâĸĮâĸĳâĸĳâĸĳâĸĳâĸĳ
Ġadsgagsh dshfhds
yjfctrxujk vbhyjice
Ġehfoiuv hefroerferjhfjkehfjke
Ġgftxdtrtfh yjfctrxujkvbhyjice
84104971101048411 497
âĸĳâĸĳâĸĳâĸĳâĸĳâĸĳâĸĢâĸĦâĸĦâĸĦâĸĦâĸĦâĸĪâĸĦâĸĦâĸĦâĸĦâĸĦâĸĦâĸĦâĸĦâĸĦâĸĦâĸĦ âĸĢâĸĦ
" ].
$ "
( [
( ','
( ^)
) ]+
* !
2 18
5 00000000
5 24
6 18
7 97
C lear
E dd
J Z
L O
L AST
M ake
N F
N ER
N aN
R GB
S V
W HERE
[ ((
] ]=(
b io
b ck
b cc
b ond
c reate
d cur
d ud
e id
f puts
g ive
h ru
i ke
i End
l er
n em
n br
p mi
r ic
t wr
v id
v pdd
w rey
x v
y ak
z he
Ñ Ł
ĉ ĠĠĠĠĠĠĠĠ
Ġ ä¼ļè¯»
Ĥ Ð¡
ĉĉ ĠĠĠĠčĊ
or row
Ġ( {
Ġc j
Ġc od
Ġc lo
Ġl q
Ġm ine
Ġm os
Ġm min
Ġf mx
Ġf lex
Ġp st
Ġp res
Ġp ay
Ġp mi
Ġs j
Ġs al
Ġs ag
Ġs rd
ret yw
ret wrey
ll oc
Ġv mi
Ġt am
Ġt ax
Ġb fr
ac ious
Ġlong s
][ !
][ "<<(
Ġd ft
Ġx t
le ave
end x
Ġma lloc
Ġr aa
op p
ĠT ake
Ġe g
Ġe ither
nt h
Ġans b
Ġcin all
Ġre ver
Ġy olo
Ġk St
Ġw x
Ġw an
Ġw ww
ĠM u
ĠM ST
as z
ch em
pr ight
pr ior
++; }}}
is lower
is Valid
Ġmod mul
ĠA CR
ad Edd
ĠS plit
Ġo e
10 100
10 50
ĠP hi
ĠP CASE
ĠR uby
Ġcnt l
ist ent
es he
+= *
ign al
fs df
fs hdsh
cur t
min val
ĠĠĠĠĠĠĠĠĠĠĠĠĠĠĠĠĠĠĠĠĠĠĠĠĠĠĠĠĠĠĠĠ ĠĠčĊ
tr wt
Ġget Node
Ġget Time
Ġget Distance
Ġde stroy
ĠG OLD
ĠB ST
]] ++,
sum b
âĸĪ âĸĳâĸĳâĸĳâĸĳâĸĳâĸĳâĸĳâĸĳâĸĳâĸĳâĸĳâĸĳâĸĳâĸĳâĸĳâĸĳ
âĸĪ âĸĳâĸĦâĸĢ
Ġsolve Slow
Ġse ek
get height
red uced
Ġ(! ((
ĠV ec
Ġset pri
ex am
Ġ4 00000
âĸĴ âĸĪ
vi de
li bs
Ġread L
ĠE very
ec es
Ġput si
Ġbase d
|| !
Ġpar tic
Ġvv pdd
ĉĉĉĉĉĉ čĊ
Ġdi vv
Ġputs ii
Ġputs iii
Ġsh un
Ġbit c
ĠK eep
alc ase
Ġen tr
IO U
av ni
Ġ9 00
Ġpoint On
46 9
Ġleft Rotate
Ġright Rotate
Ġ-> ",
Ġon l
ah hfds
Ġlow est
sh djk
Ġdbg m
Ġyy trwt
29 23
cr y
ALL Y
high gui
Ġpc g
Ġper p
Ġà¦ ľ
âĸĵ âķ¬âķ¬âķ¬âķ¬
)<<" ]=
)<<" ]["<<(
Iter ations
jk shdjk
Ġfn u
Ġsd hfs
Ġ-------------------------------- -----
Le af
cap tu
ĠRE ALLY
ef Out
ĠST ART
form str
Ġvp mi
âĢ ļ
itt ed
âĸĳâĸĳâĸĳâĸĳâĸĳ âĸĢ
________________________________ ________________________________________________
Number Iterator
ress Iterations
Ġminim o
na j
Ġcum u
Ġ|_| ___/
(". ");
Ġlet ters
Ġay o
hh hh
Ġinter active
Ġ40 5
Ġ/\ __\
Ġmset n
78 164
Ġapp lication
:", ++
Ġputi ii
wy x
/************************ ****
Ġinteger s
tw rey
Ġpass ing
readInt Array
READ ER
Greater Than
Ð¡Ð ĤÐ¡
Ġ'/ ';
Ġcreate prime
GET REE
Ġgenerate Test
âĸĳâĸĦâĸĢ âĸĪâĸĳâĸĦâĸĢ
Ġ200000000 0000000
how many
ĠGr acious
Ġgeti ii
Ñĭ Ð¹
06 28
(% )
HASH EMESHOON
hack er
Ġgol den
ĠMUL T
ĠReverse NumberIterator
ĠWATCH R
Divis ors
________________________________________________________________ ________________________________________________________________________________
Sa adEdd
ident ity
âĸĳâĸĲâĸĪâĸĪ âĸĴâĸĴâĸĴâĸĴâĸĴ
Ġasdg ahhfds
è¡Į ç¬¦
14159265358979323846264338327950288419716939937510582097494459230 78164
]=='< ')
Ġcot u
Ġtenp ure
Ġ\_\ _|
Ġ\:: /
åħ¥ æį¢
AE IOU
675 123
ĠInitial ize
rub o
---------------------------------- +
1288 629
koko made
img proc
ĠGre edy
çĦ ¶
26843 5456
LAST BIT
ÑŁ ÐĴ
Ġä¼ļè¯» åħ¥æį¢
retyw retwrey
Ġraa and
ĠkSt ressIterations
ĠACR ush
fsdf gk
fshdsh fd
âĸĪâĸĳâĸĳâĸĳâĸĳâĸĳâĸĳâĸĳâĸĳâĸĳâĸĳâĸĳâĸĳâĸĳâĸĳâĸĳâĸĳ âĸĳâĸĳâĸĪ
Ġyytrwt retywretwrey
jkshdjk fsdfgk
Ġsdhfs jkshdjkfsdfgk
twrey twr
Ð¡ÐĤÐ¡ ÑŁÐĴ
________________________________________________________________________________________________________________________________________________ _
SaadEdd in
Ġasdgahhfds fshdshfd
1415926535897932384626433832795028841971693993751058209749445923078164 0628
Ġä¼ļè¯»åħ¥æį¢ è¡Įç¬¦
Ġyytrwtretywretwrey twreytwr
% =(
' },
) ";
3 50
4 18
5 97
5 19
6 000
6 67
7 61
E le
E uler
E IGHT
G A
I RE
L ose
L imit
S cr
T w
T arjan
U C
U AL
V ii
X L
] --
d ak
e cnt
g b
g m
h id
j ha
k j
k now
k ho
k uda
l sum
m or
m rk
y ou
Ñ ī
è ·
Ġ his
in ation
in valid
ĉĉ ĠĠĠĠĠĠĠĠĠĠ
Ġi le
Ġc urn
Ġc ate
Ġc rr
Ġc ero
Ġl ed
Ġl ent
Ġm obius
se ti
Ġf ur
Ġf loop
Ġn op
Ġn nn
Ġn ights
Ġp g
++ <
en um
Ġs gt
// ++--++--++--++--++--++--++--++--
out side
Ġt q
Ġt al
Ġt an
Ġb ach
ac ha
Ġ" $$$
Ġd sk
con s
Ġ& [
Ġma v
ar v
ar ing
ar saw
**** //
__ ]
__ ){
Ġr fr
os ing
ma le
ma ze
Ġe at
Ġe ma
Ġe sta
Ġe asi
ti ce
Ġ' ));
Ġ' >'
sp oint
ut h
ut ers
)) )%
Ġk n
Ġk u
Ġw ah
Ġg onna
set t
ĠM K
ĠM ay
ĠM FFT
as ik
Ġin vers
stre ss
Ġpr r
Ġ+= (
Ġ// ----------------------------------------------------------------
Ġq len
ĠA del
ĠS X
max s
max size
Ġconst ant
Ġ__ __________
Ġ3 14
ĠR ast
Ġcnt A
Ġcnt t
Ġst x
mod Inverse
min d
min Num
ĠD ir
ĠD hru
ĠC OME
Ġget t
Ġget dist
Ġsum B
ĠI d
ĠB at
Ġto g
Ġto tient
âĸĳâĸĳ âĸĪâĸĪ
âĸĪ âĸĴâĸĴâĸĲâĸĮ
ds jk
Ġout deg
Ġ5 000001
++-- +--
ĠV an
Ġ\ ____________
mx s
/* "
ĠO T
ĠO jha
Ġstr t
ĠU pper
oc o
]++; }
ĠE uler
Ġle l
Ġ10000 6
Ġbu gs
/// ****
/// =============
Ġsc fl
24 443
)+ ")
Ġend DBG
++--++--++--++-- ++--++
Ġ6 6
Ġ6 0000
Ġcheck sqrt
Ġtot flow
Ġdx K
Ġdx Kn
solve Slow
Ġdy K
Ġdy Kn
Ġun it
ĠK hod
Ġnext Vector
Ġstart DBG
==' }
==' ['
Ġright t
ĠW arsaw
Ġnew L
()- (
UT E
Ġsub t
no va
pi es
test Case
Ġrem oved
ros spoint
per fect
Ġpt data
500 500
ave en
Ġ100000 9
Ġstat istics
Ġ") ",
','.','.','.','. '},{'.','
ĠMax Flow
Ġtt m
power k
Ġsu bs
Ġdepth s
())) &&(
Ġà¦ ¹
Ġrd ll
Ġ'-') ){}
âĸĵ âĸĪâĸĪâĸĪ
acos l
Ġwe k
_| \_\
we has
PI CK
cs ignal
ear s
Ġ12 3456
)[ _];
ä¸ Ĭ
Ġ". ";
Ġ___ )
Ġdif fs
state ment
ï¼ Ī
ï¼ ī
ĠST EP
IMP LE
Ġ'* ');
Ġover la
Ġrandom Engine
VER SE
og i
ĠAdd Edge
Ġskip Bl
ĠCom bi
Pr op
match es
Al hamdulillah
(~ )
Ġ\| \
Ġmset inf
load u
IC K
Ġ"? ";
++--++--++--++--++--++--++--++--++--++--++--++--++--++--++--++--++--++--++--++--++--++--++--++--++--++--++--++--++--++--++--++-- ++--++--++--++--++--++
poly gon
rat s
Ġrad ians
]=='# '){
Ġred uce
Ġtw ice
âĸĵâĸĵâĸĵâĸĵ âĸĵâĸĵâĸĵâĸĵ
orig inal
30000 4
ĠPr imes
ĠPr aveen
Ġmakeit string
Ġbec ome
Ġ================= ==///
Ġ\_| /__
Ġ\_| /__\
Ġï¿½ï¿½ï¿½ï¿½ï¿½ï¿½ï¿½ï¿½ï¿½ï¿½ï¿½ï¿½ ï¿½
cloc ale
til ki
ran no
ĠCase Print
Cont est
ĠÐ· Ð½Ð°
ĠSe cond
!='-' ));
ifi ed
IF D
Infin ity
//------------------------------------------------ -----
lad der
ĠDig it
Ver tex
piv asik
Com b
Ġ'| ')
Ġlea fs
Ġkr uskal
Ġ\_______ \
Ġ\_______ \\
681 537
âĸĳâĸĳâĸĳâĸĳâĸĦâĸĪâĸĪâĸĪâĸĪâĸĪâĸĪâĸĪâĸĪ âĸĪâĸĪâĸĪâĸĪâĸĪ
Pl ayer
Ġum ll
aya wehas
Ġcompile s
joint Set
Ġ/| _\
udent s
Ġ1007 681537
jh rth
ĠInc rement
ĠØ¨ Ø¨
(;; ){
rew qwe
Ġ4026 53189
Ġasaxlaj rewqwe
Â§ ï¿½
spr intf
Ġautomat ically
ĠFUN C
ÐłÐĲÐĳÐŀÐ¢Ð¯Ðĵ Ð£
Ġseek Eof
dak w
//++--++--++--++--++--++--++--++-- ++--+--
Ġtal ent
Ġeasi er
Ġwah ayawehas
Ġ//---------------------------------------------------------------- ---------------
ĠRast ogi
ĠDhru v
Ġoverla pping
ĠskipBl anks
pivasik om
//++--++--++--++--++--++--++--++--++--+-- ++--++--++--++--++--++--++--++--++--++--++--++--++--++--++--++--++--++--++--++--++--++--++--++--++--++--++--++--++--++--++--++--++--++--++--++--++--++
Ġwahayawehas dakw
" ~
' ),_
( <<
( >>
) _.
0 53
2 32
2 97
2 19
7 48
; "<<
< )
> ';
> ()(
A PC
B FS
B search
C ap
C alc
C reated
D AT
F req
F wdIter
H E
K arp
P etr
R C
] ++]
b pow
c oup
d osh
f Max
i aa
k os
l us
l ight
m w
m usk
m itted
n TOTAL
p res
q w
r ated
s ix
s ni
v ase
w i
w or
z q
Ñ ħ
æ £
è Ģ
Ġ ers
de a
st uff
); )
re za
Ġc g
Ġc mod
Ġc ta
Ġc div
Ġc erberus
Ġl ll
Ġl pos
Ġm cnt
Ġf q
Ġf all
Ġf Max
Ġf mi
Ġf Rand
Ġp ast
Ġs par
() ++;
Ġv bool
// ++
Ġb ak
Ġd os
er mat
Ġx d
Ġr az
ĠT EMPMOD
ma ns
Ġe ff
ol ved
Ġk ir
]) %=
Ġin F
******** */
ch osen
Ġpair ing
<<" /
ĠF wdIter
88 9
ĠN eed
ĠN OL
is Ok
Ġq h
Ġmax Count
Ġmax log
max p
Ġtr ain
;} )
Ġ__ _____________
Ġit t
Ġmin Time
Ġmin Tree
Ġ3 9
ĠR UN
Ġst s
es h
ort ant
ĠL ower
(){ ;}
bu tilki
ĠĠĠĠĠĠĠĠĠĠĠĠĠĠĠĠĠĠĠĠĠĠĠĠĠĠĠĠĠĠĠĠ ĠĠĠĠĠĠĠĠĠĠĠĠĠĠ
Ġtyp ec
ĠI ct
-> _
]] <=
Ġad y
âĸĪ âķĲâķ©
âĸĪ âķĲâķ¦âķĲâķ©âķĲâķ¦âķĲâķ©âķĲâķ¦âķĲâķ©âķĲâķ¦âķĲâķ©âķĲâķ¦âķĲâķ©âķĲâķ¦âķĲâķ©
99 3
tree s
Ġout v
Ġis ok
Ġis Valid
fr ame
ld gjdflg
Ġ\ __________
Ġ\ ___________
Ġ\ ______________
oint ment
######## ######
Ġstr cmp
18 3
)/ __
14 0
Ġac v
rep i
ok er
clo sed
24 7
Int er
mn y
vec i
ĠH anit
list a
In sert
Ġas h
ie y
Max Idx
]!= '\
Ġvv st
Ġff gf
Ġprint ers
16 2
Ġvll v
Ġbe at
ha imin
ĠW E
56 1
ME TR
Ġmy R
Ġroot ed
Ġupper bound
RO VE
ĠDEBUG P
Ġ20 21
vv ld
17 1
hash es
59 1
Ġno ai
Ġaa ea
60 3
new r
co ins
Ġwh et
Ġ32 5
print ers
ION S
Ġbb p
Ġal phabet
Ġbo ok
Ġmodular Exp
80 7
Ġme ans
ĠĠĠĠĠĠĠĠĠĠĠĠĠĠĠĠĠĠĠĠĠĠĠĠĠĠĠĠĠĠĠĠĠĠĠĠĠĠĠĠĠĠĠĠĠĠĠĠĠĠĠĠĠĠĠĠĠĠĠĠĠĠĠĠĠĠĠĠĠĠĠĠĠĠĠĠĠĠĠĠĠĠĠĠĠĠĠĠĠĠĠĠĠĠĠĠĠĠĠĠĠĠĠĠĠĠĠĠĠĠĠĠĠĠĠĠĠĠĠĠĠĠĠĠĠĠĠĠ ĠĠĠĠĠĠĠĠĠĠĠĠĠĠĠĠĠĠĠĠĠĠĠĠĠĠĠĠĠĠĠĠĠĠĠĠĠĠĠĠĠĠĠĠĠĠĠĠĠ
Ġlevel s
Ð¾ Ð½
Ġpro ceed
'+ '
[" +
answer s
form er
ĠInf o
var iable
ĠRe ach
Ġdr z
ov ing
gg fh
Ġarea I
ĠHead s
Ġmonth s
ĠSet s
Ġuni verse
ĠCon struct
>{ ",
âķĲâķ¦ âķĲâĸĪ
ĠCom illa
Ġ** */
Al ready
ĠBIT S
ĠCON D
friend s
Head s
ao ie
Ġprim o
Ġmo haimin
ĠField Mod
Ġmatch es
oun ded
Ġ**************************************************************** ********************************************************************************************************************************
All ah
Ġ\/ ______________
Ġmu jahidul
Vowel s
Ġdl m
ĠFL C
Ġgive s
opcrof t
AZ Y
Ġ36 2436069
children Order
Ġ******************************** ***************
//////////////////////////////////////////////////////////////////////////////////////////////// /
30000 9
^^ ^^
Ġmakeit binary
Ġtu hla
ĠDE METR
Ġ"} [
jdflg jl
Ġvvv ld
ĠPRE V
Ġwind ow
ĠĠĠĠĠĠĠĠĠĠĠĠĠĠĠĠĠĠĠĠĠĠĠĠĠĠĠĠĠĠĠĠĠĠĠĠĠĠĠĠĠĠĠĠĠĠĠĠĠĠĠĠĠ čĊ
Ġfld ggfh
LOOP VAR
bet ter
ffs ll
ĠWeighted FlowEdge
oper Left
Ġflo yd
Rem ove
//________________________________ __________
Ġtransposed Edge
Ġnec ess
rty jl
rty rtyjl
ino aoie
Ġ\________ /
Ġ\________ _/
âķĲâķ¦âķĲâķ©âķĲâķ¦âķĲâķ©âķĲâķ¦âķĲâķ©âķĲâķ¦âķĲâķ©âķĲâķ¦âķĲâķ©âķĲâķ¦âķĲâķ© âķĲâĸĪ
Ġfldgjdflg jhrth
Ġfldgjdflg rtyrtyjl
hot el
Ġpartition s
Ġ107 0000000
cod ing
Ġ...... */
Ġ__________ \
Ġ_________ \
âļ¡ âļ¡
fgh jdflgjl
Ġ<<<< >>>>
999999999999 9983
ĠÑĩ Ð¸
Ġdisapp ointment
isl am
Ġequi valent
rir am
___________________________________________ //
éĿ ¢
2177 28
Every thing
osthen es
|__|| |__||
æŁ ¥
Ġ------------------------------------------------------------------------------------------------ ----------
ĠMu jahidul
Ġ\____________ /
Ġstatistics Tree
Ġoverlapping Area
(<< )
(>> )
ĠNOL INT
âĸĪâķĲâķ© âķĲâķ¦âķĲâķ©âķĲâķ¦âķĲâķ©âķĲâķ¦âķĲâķ©âķĲâķ¦âķĲâķ©âķĲâķ¦âķĲâķ©âķĲâķ¦âķĲâķ©âķĲâĸĪ
âĸĪâķĲâķ¦âķĲâķ©âķĲâķ¦âķĲâķ©âķĲâķ¦âķĲâķ©âķĲâķ¦âķĲâķ©âķĲâķ¦âķĲâķ©âķĲâķ¦âķĲâķ© âķĲâķ¦âķĲâĸĪ
ldgjdflg jl
Ġ\______________ \
Ġffgf ldgjdflgjl
Ġnoai aiu
Ġaaea iey
Ġ************************************************************************************************************************************************************************************************ ***********/
Ġ\/______________ /
Ġmujahidul islam
ĠDEMETR IO
Ġfldggfh fghjdflgjl
Ġfldgjdflgjhrth rl
" */
" (__
' ]>
' +(
( ;;)
) &(
+ ")
- _
2 20
5 000000
6 99
6 39
8 19
8 47
A pp
B AN
B ismillah
C NT
C eil
F OUR
G O
I A
K on
R ect
R ec
S ign
S outh
T oken
U m
U pd
^ =((
a ab
a ano
b v
c iso
f at
f lo
f ds
f oot
f uture
h ab
i ma
i eno
j s
k g
m ir
n or
o op
t q
y on
Ö ±
Ġ ĉĉĉĉĉĉ
Ġ 99824
de ad
Ġi v
ine ss
Ġm itr
Ġm iss
Ġf k
Ġf atal
Ġp I
Ġp ans
Ġp sz
Ġp ffl
Ġ1 31
Ġ1 63
ur a
ur utan
en ea
Ġs itr
() (*
Ġv ac
Ġ<< (#
Ġb ns
Ġfor u
<< ','
]; });
Ġd summ
con io
yp es
Ġx hi
us si
le asure
__ ));
Ġr set
Ġr ff
ĠT B
ĠT urn
ĠT eam
ma sh
Ġe uclid
Ġe aeiai
an u
io i
---- \
)) ];
)) <<"\
Ġk c
Ġg uy
as c
ble mn
!= ','
Ġpr d
ch et
Ġ+= ((
ĠN ew
Ġq L
Ġq p
Ġmax C
Ġmax f
ĠS EC
Ġo aeiai
10 97
max d
ĠP er
Ġdp l
()) ==
Ġh ence
ĠR ect
ĠL double
64 4
64 01
err ors
Ġsz b
ĠĠĠĠĠĠĠĠĠĠĠĠĠĠĠĠĠĠĠĠĠĠĠĠĠĠĠĠĠĠĠĠ ĠĠĠĠĠčĊ
tr ip
Ġget Diff
il ity
Ġcur val
Ġcur Pos
Ġcur Ans
11 000
--; ){
]] ])
Ġad a
Ġse lected
Ġse tik
bs a
get bit
Ġ10 3
Ġ10 34567891
Ġ5 10
Ġset up
/* ------------------------------------------
sk iy
vi ani
12 22
12 51
Ġ[ ])
rep n
/// -----------------------------
find it
Ġ1000 333
ab e
Ġfast expo
top o
par v
Ġcomp ut
Ġed dy
ĠY Y
Ġun defined
aa ei
Ġ100 271
sub miss
Ġ": (";
==' {'
==' ]'
Ġinit ially
Ġgr ade
Ġgr undy
ges ort
sc f
com ment
77 1
qu i
Ġtest ing
start Time
Ġinv Mod
ĠMod Inv
gr undy
Ġ8 0
per i
Ġ20 16
100000000 000000000
ative ly
();} };
)? '
!! !!!
ik ita
Ġà¦ ¯
ri b
we a
we qwe
Ġtop run
123 123
my multiset
pro blemn
Ġlength Sqr
CH ECK
Ġqu otient
Ġdec ay
Ġsk ill
me io
mo vl
Ġpo ses
End Char
qq weqwe
Ġ10000000 7
ĠRe al
ia eo
ãģ ¯
ãģ Ħ
ãģ Į
99999999 99999999
Ġshow ing
70 3
ple s
Ġ300 300
Ġro ll
Ð» Ð°
Col s
ka viani
tar jan
BIT MASK
Ġ13 10
Ġca anu
0000000000000000 7
rat osthenes
bot tom
ĠSOL UTION
å¤ ļ
ĠTask B
ĠON E
Ġ': ')
Ġ': '\
ĠLE V
Ġtoken ize
Ġ88 675123
Ġali reza
bucket s
comb ine
âĸĪâĸĪâĸĪâĸĪâĸĪâĸĪ âĸĴâĸĴâĸĲâĸĮ
ĠNOT E
ĠWH EN
ordin ates
Ġgraf o
Ġles ser
Ġae ou
Ġae aa
aw al
Ġ52 1288629
Ġter min
Ġbuil tin
ÐºÐ¾Ð ¹
ĠAlpha Size
Fast IO
OUR CE
Ġleg end
ĠValue Type
å¹ ³
ĠMU K
âĸĳâĸĳâĸĳâĸĳâĸĦâĸĪâĸĪâĸĪâĸĪâĸĪâĸĪâĸĪâĸĪ âĸĪâĸĪâĸĪâĸĪâĸĪâĸĪâĸĴâĸĴâĸĲâĸĮ
134 217728
==') '
Process ing
lett er
usz ek
ARR AY
Ġcalcul ator
ÐµÑģ Ñı
ĠPal uszek
combin ator
943 85
Ġdanc ila
Ġsuggest ed
Ġ86 00000000000000007
Ġtav an
Ġpartic ular
captu res
Ġsdhfsjkshdjkfsdfgk qqweqwe
ĠKhod a
=='} '
Ġwhet her
Kon rad
aano aaei
ieno iaeo
<<',' <<
ussi an
problemn ame
Ġsdhfsjkshdjkfsdfgkqqweqwe h
" });
( ____
( âĢľ
+ ';
, (*
4 56
4 17
5 43
7 000
7 51
7 001
8 24
9 41
= [&](
> --------------------
? ";
A uto
A fter
C F
D T
D er
F l
I FT
J J
K AT
K azakhstan
L C
M em
P ush
P DD
P ast
T IE
V DL
V asya
W O
W VDL
Z I
\ }\
] })
a ded
a war
b w
d os
f to
n et
n ance
o e
q sort
r ing
s sz
s mn
u ns
v ans
v li
x min
x lo
| _
Å ¼
å ī
å Ģ¼
ĉ ĠĠĠĠĠĠĠĠĠĠ
int types
de s
Ġ= ==========
st y
Ġ< ->
re calc
Ġc pdd
Ġl lll
Ġa se
Ġa long
Ġa mi
Ġ{ });
Ġm ethod
se ven
Ġp R
++ ])
++ ]));
cl ang
Ġs un
Ġint p
** \
Ġv o
Ġ<< ",
it l
Ġt cur
Ġt ak
Ġb ul
Ġb low
Ġfor mula
Ġlong p
][ %
Ġd am
le ad
ct or
Ġma a
(" (%
Ġ* >
Ġr os
Ġe GCD
Ġre versed
hi ya
Ġ' &
Ġ2 17
Ġu mn
Ġu lolo
Ġk h
ĠM T
as um
Ġ, (
"; )
ĠF ermat
ĠN EXT
ĠN urstan
Ġres r
nc nt
nc ase
Ġ| _____|
is ha
ĠA I
ĠA rea
im n
Ġmax arr
ĠS z
ĠS ak
ĠS II
max Len
ke s
... ));}
Ġ__ /
Ġ__ //
()) %
()) <'
Ġmin arr
mod Int
cur l
>= -
Ġde puts
ĠĠĠĠĠĠ ĉĉ
ĠG L
pp ets
ap er
ĠI ZI
ĠB ISHAL
Ġad ia
Ġz aza
Ġrep it
ĠINF TY
pre vi
Ġcl amp
Ġset prime
mx v
/* ......
32 19
Ġtree x
ex cess
ss ign
âĸĴ âĸĪâĸĪ
Ġfr l
Ġfr st
Ġfr og
ro ad
Ġadd Edges
'. '
12 2
ĠE uclid
Ġne ar
Ġne arest
man ent
Ġex cess
24 0
Ġinclude s
Ġfast mult
1415926 54
Ġth in
Ġcheck er
30 6
pl ay
fast InOut
last pos
Ġnext Sub
Ġcount t
el skiy
Ġvll l
=- (
Ġnxt Dot
14159265358 9
Ġleft t
Ġleft Shift
ĠW hat
ĠQ l
ĠQ ueue
Ġpow e
Ġrb tree
-------------------------------- -----
UT AM
ĠIO I
com e
go o
fact s
+=( _
Ġdis nance
Ġ8 7
Ġ8 9
swap s
Ġ20 14
27 2
27 3
60 5
ĠMax d
ĠMP I
57 0
br a
St ar
St ep
Line s
Ġper manent
â¢Ģ â¡Ģ
Ġà¦ ħ
Ġrd a
fa stread
49 89
'|| _
]=' (';
80 504
sm al
sm elskiy
Ġbr ave
ek hane
UN COMMENT
ĠÐ ¾
dy n
Ġ-------------------------------- ---
'&& _
Ġpro g
zero es
Ġ___ );
51 32
dif fs
Ġbl k
Ġdiv Ceil
Ġlol ik
]!=' -'){
ãģ ¾
uf o
Se q
Ġyes r
bal anced
ĠCO M
call able
âłī âłĽâłĽ
ĠDist ance
]=='* '){
Ġdj s
Ġ100000000000000000 2
//////////// //
Part s
å° ĳ
work s
);// %
ESS ION
De ep
Ġimplement ed
resh old
Ġman acher
ĠCalc ulation
å® ļ
ĠFr iend
Ġavail able
æľĢ å¤§
526 000000
526 5022
ĠWH R
ĠTh ank
Ġgeomet ric
vol atile
Ġisn an
ĠTrie Node
bet ween
ĠXor awar
/******** *
Ġ"-> ",
NNN m
dan ya
Ġaz az
ĠCur rent
','.','.','.','.','.','. '},{'.','
å¤§ å°ı
Ġcir cles
-------------------------------------- ///
prog ression
ĠEd itor
âĸĳâĸĲâĸĪâĸĪ âĸĴâĸĴâĸĴâĸĴâĸĴâĸĴ
ĠRev Range
ĠGA UTAM
Ġappro xim
Match ing
')&& _
kil k
Ġcour age
Ġ************************************************************************ /
Ġ|_|\___/ _/
Ġker ker
Ġom ega
6671 77216
Ġwan na
ĠpointOn Line
Ġ|_|___/ _|
Ġeff icient
(____ _,
KAT KA
ĠSak hiya
Ġapproxim ately
" ]+
" ("+
) ....................
* ';
+ __
2 38
3 0001
5 50
6 180
8 17
8 69
D ays
H ow
H and
I EN
L AM
M ark
M ike
N e
N orth
P lace
Q ue
R REP
R amp
S ESSION
T ail
T RI
T ake
T oday
U H
U GG
W f
X B
Y NW
a ig
b ak
b inv
c ube
d in
d qr
h Ã¡ly
l ay
m os
m ate
n gth
q p
x ffff
y min
y si
z r
z xc
} _
Ä Ļ
æ ĭ
ç ¼
ç ¦ģ
ģ ron
ĠĠĠ ĉčĊ
ĠĠĠ ĉĠ
st x
or u
Ġc val
Ġl ost
Ġl ark
Ġm h
Ġf ine
Ġf it
Ġf ig
Ġf ight
Ġn ice
Ġn case
Ġp S
Ġp is
Ġp nl
Ġ1 11111111
Ġ0 5
en a
Ġs vector
ll egal
Ġv size
Ġv ist
Ġv pd
// ....................
Ġb ol
Ġb ab
Ġfor v
ac o
ac tic
Ġlong inf
Ġx h
Ġx v
le ie
Ġr cnt
ĠT e
ĠT oktama
Ġe a
Ġe sse
for c
(); _
nt ially
Ġy d
Ġy et
Ġu nc
)) >=
)) ||(
Ġ; ++
.... ///
Ġg b
]) <<"
bit cnt
LL LL
LL ICK
can dy
]= %
]= *
<<" ::
pr t
Ġ// /*
Ġ) >
ed u
Ġ: );
ĠF az
Ġ/ '
is Eof
is Composite
push ed
IN EER
ĠA CT
ĠA ssert
Ġmax Tree
ĠS a
ĠS l
ĠS av
put endl
... >&
Ġtr ack
Ġdp Right
()) +
Ġmin cost
Ġmin Dist
Ġh x
Ġh ay
ĠR OW
Ġcnt R
Ġcnt v
Ġst or
dp t
ĠL n
ĠL int
ĠL ink
ĠL CP
') +(
cur st
cur val
cur Sum
ĠD an
ĠD nt
ĠD ij
ĠD efOut
Ġget Bit
Ġde r
ĠG imn
il y
Ġcur len
sum x
Ġz e
Ġse at
Ġse lect
gs df
Ġpos r
Ġ\ __,_|
Ġ\ /__\
)( -
ĠO ika
ĠMAX F
Ġstr amos
Ġ", &
Ġnum of
ip ip
Ġread ln
12 0001
vis ors
ment s
sse r
({ "
/// **
/// .....
/// .............
/// ....................
]==' [
]==' >')
Ġsc ale
)+ _
Ġend x
ab ove
','.','. ','
à¦ Ĺ
Ġpar allel
Ġvv vb
last Id
ĠIn sert
Ġ9 375
ĠW F
Ġnew H
Ġgr asp
Ġscan l
Ġsp in
UT ER
sc iss
Ġ/* "
qu ired
pi vot
200 4
oo oo
19 0
100000000 00000
index es
ly a
req d
//////////////////////////////// //////////
su mp
___ **/
AN Y
Ġsi map
)), #
1010 1
40 4
rb tree
49 3132
[' ?
Ġsm art
Str uct
ek as
39 3
del ay
Child ren
Ġlog x
Ġ1000000 1
Ġ1000000 2
Ġ200 2
Ġ200 500
AD ESH
ä¸ ¤
Ġ19 493132
Ġinc ert
Ġ500 179
scan Int
ĠSP L
ure nces
SU ME
Th ough
rec eni
<_ ##
MAT RIX
/************** *
Ġ"! "
rect angle
OO OO
Ġni ma
Ġng aca
Ġer ace
:\ /:/
ĠDEB UGG
ĠÃ ģron
Pr od
GL ADESH
arp ipip
Ġpe ak
Ġha ha
Ġ20000 3
FT B
............. ///
zi um
ĠTo oru
TEST CASE
shift s
DEP ART
Ġturn s
!!! ")
Ġ28 178
vowel s
cand id
Ġtry ing
ĠCOMP UTER
å° ģ
imum Value
Ġ'{ '
Ġcub r
................... ///
IS LAM
ĠBit mask
Ġseive Gen
459 1
ĠSC IEN
Ġph ysi
ĠPow ered
BG R
Ġchain s
Not e
ĠBy e
718281828 4
Ġassum e
Ġassum es
Ġrequ ires
Ġ97 80504
oa eu
Ġround s
aeiou AEIOU
Ġci map
Ġey e
AV ES
ĠNUM TESTCASE
VAL UE
cen g
ĠWH ITE
ĠSh ift
Cor rect
ĠÐ½ Ð°
________________________________________________ ___**/
ĠMO LLICK
DIA G
Ġ"< -
å¯ Ĩ
Ġdm g
ĠBL ACK
face book
Ġdefinitely LessThan
Ġdefinitely GreaterThan
BE Y
Ġ179 5265022
Ġforab d
ITNO G
Ġtos sed
Ã¡ zium
HASH IS
Ġmen or
ĠHoss am
Ġ"| "
OPTIM AL
ĠAS SUME
Com mon
620 8
_____| _|
hel al
hel per
ĠENG INEER
Ġ10000000000000 14
Ġ450 775
lu z
ĠFl ash
Ð¾Ð» ÑĮ
==') ')
åı¯ ä»¥
Ġrout ine
osz Ã¡ly
ĠUT IL
æŃ ¢
Ġgn arpipip
ĠDeb receni
)+"] ")
Ġnet work
1000000000000 14
Ġcharact ers
ĠOver flow
Ġ******************************************************** **/
Ġtom orrow
Ġ"& "
ĠMi hÃ¡ly
SUB HASHIS
Ġtax i
acha ble
Ġnecess ary
ĠÑĩÐ¸ ÑģÐ»
BAN GLADESH
Ġvac io
Ġblow n
Ġefficient ly
Ġapproximately Equal
).................... ///
Ramp age
Wf atal
YNW A
aig are
binv oaeu
leie binvoaeu
Ġesse ntially
ĠFaz ekas
ĠAssert s
ĠGimn Ã¡zium
Ġ\/__\ :\/:/
ĠOika wa
Ġ19493132 59
Ġngaca leiebinvoaeu
DEPART MENT
ISLAM IC
ĠSCIEN CE
Ġphysi que
ĠENGINEER ING
Ġgnarpipip aigare
Ġessentially Equal
# ..
' ]-
' });
' ;}}
) ]-
+ _
+ '){
. ###
2 26
3 00000000
4 14
5 100
5 22
6 14
6 57
8 33
; ~
A m
A sk
C a
C reate
D AB
E msawy
F ive
H PP
L s
L im
M L
M atr
N eg
N IL
O BEY
P lease
R U
S b
T am
W conversion
a for
b ac
b ip
b ÄĻ
f if
g ad
h val
k on
l arg
m er
n Node
r no
t an
t max
t idx
v Int
w edge
x e
z ap
{ -
} ].
³ w
» âĶ
Ã Ļ
Ã ³w
ç ´
Ġ ing
Ġ yp
Ġ urs
in h
in stack
in Cycle
st able
Ġ( ___
Ġc w
Ġl od
Ġl and
Ġl pii
Ġf me
Ġn in
Ġn ight
Ġp od
++ ][
en able
Ġs scanf
Ġs all
() =='
() /(
ll el
Ġv sort
Ġ> (),
out dist
Ġt arg
Ġb j
Ġb kt
Ġb ounded
Ġfor pos
Ġfor bid
ac ja
Ġ" ~
Ġ" ),
Ġ" ')
am ax
am ask
(" <
id y
type id
Ġr For
ĠT oken
ma v
Ġe t
Ġe sq
ace Mind
sp ort
Ġ2 20
Ġk id
Ġg or
Ġg ans
as on
LL EG
Ġin ner
ow ego
Ġ: (
ĠA B
ĠA in
ĠA SH
ĠA gar
Ġmax lg
ĠS riram
max val
put sp
//// @
Ġch as
()) >::
ĠR B
Ġcnt S
Ġcnt c
Ġst andard
cur len
ĠD el
ĠC NT
Ġget cnt
Ġget dis
ĠG ame
Ġcur c
Ġcur s
orde n
ap top
ge tii
ind ist
") <<"\
ĠB K
ĠB OUND
MAX Q
Ġad ds
Ġz m
cm x
get p
pre vious
Ġ10 11
Ġsort vd
sz ych
Ġis Pal
Ġ7 3
Ġ7 01
to x
Ġpos l
fr st
Ġset t
ĠO k
', ';
Ġstr ToConvert
100 11
Ġclass comp
Ġread s
ĠU INT
Ġpi u
ĠX Y
ĠX IV
ĠE msawy
âĸĴâĸĴ âĸĴ
/// ...................
/// ==========
az i
Ġsc al
Ġmn ze
mn i
mn Len
(_ .
top ol
Ġvec i
','.','. '},{'
ST RI
à¦ ¯
Ġpar llel
]* =-
Ġun setbit
Ġun balanced
di vl
ĠK UM
55 1
Ġprint L
Ġprint nl
ĠIn stitution
Ġ9 6
38 77
Ġnew Len
31 9
FOR D
Ġscan ll
Ġscan lll
Ġreverse Bits
seg m
seg Tree
Ġbuild tree
start ing
bb c
Ġ8 6400
48 48
Ġxx i
Ġbegin ing
Ġpw s
su c
our s
AT ERR
Ġrev fact
pref etch
Ġedge Count
Ġsu c
57 3
Ġmi j
Ġqueue d
Ġà¦ °
âĸĵ âĸĪâĸĪâĸĪâĸĪâĸĪ
]=' +';
Ġ` ---'
ĠĠĠĠĠĠĠĠĠĠĠĠĠĠĠĠĠĠĠĠĠĠĠĠĠĠĠĠĠĠĠĠĠĠĠĠĠĠĠĠĠĠĠĠĠĠĠĠ ĠĠĠĠĠĠĠĠ
Ġme et
ĠPrint Case
Ġ') ');
my set
ĠSQ N
ĠÐ ¸
nn n
Ġ50 50
Ġcode s
Ġqu q
mo v
Set s
ĠRA I
Ġelement Ã³w
Comp ete
2000 50
form ation
Ġcand y
Ġ'? ');
qq q
Ġev il
IMP ROVE
Ġxxx x
Ġdq ll
]!=' ?')
ãģ Ļ
Ġ'" ';}
ĠEX TR
war n
Ġni Å¼
ĠCon tain
)<= ::
ĠÃ ł
Pr ofile
DI F
ĠPro ject
CC W
Ġsw p
RI AL
Ġreq d
Ġostr o
Ġpal indrome
Ġ**************** ******/
bi h
Ġax is
Ð¾Ð ¹
>>{ });
Ġass igned
Ġ**************************************************************** ****************************************
//////////// ///--------------------------------
chain s
Part Hash
ĠPA IN
åĪ ¤
fen v
/************************ *
150 5
Ġthere fore
Par allel
ĠBit wise
Sp eed
Row s
äº ¤
åĩ º
Ġteam s
Ġko ita
âķ¬âķ¬âķ¬âķ¬âķ¬âķ¬âķ¬âķ¬ âķ¬âķ¬âķ¬
connect ions
/******************************************************** **
Ġflip bit
Ġctr l
/**************** ******
Ġ97 15
30000 7
cell s
Ġcoll iner
Ġcar i
Ġtour ist
Ġ'] ')
Ġvect o
ĠFFT M
ĠMO VE
gy v
ĠWor ld
Ġface s
234 5
EST RIAL
ä¸Ģä¸Ģ ä¸Ģä¸Ģ
Ġzer owego
Ġreg ion
############### ->
############### */
ÑĤÐ¸ ÑĩÐ½
Pe aceMind
ä¸į è¦ģ
Ġunt il
ĠMU OI
Ġ'\" '
Ġ'\" ';}
ĠChar an
ĠRotate CCW
Ġmer gesort
fli ct
hol a
ĠGA IN
ĠUT P
uev ue
Ġ--------------------- ///////////////--------------------------------
Ġ******************************************************************************** *******
gu ys
Ġmand a
ĠSto res
ĠEMP IRE
ĠNeg ative
//////////////////////////////////////////////////////////////////////////////////////////////////////////////////////////////////////////////////////////////// ////////////
numer acja
4857 6
Ġ<- ###############*/
format ter
Ġlicz bÄĻ
Ġmniej szych
Ġrever ce
Ġinvers ions
ĠMUK UL
ÐµÑģÑı ÑĤÐ¸ÑĩÐ½
<<":: "<<#
ĠACT UAL
sser tion
ĠDEBUGG ER
Ġ"<- ",
Ġ"') "
ĠASH ES
ĠAgar wal
ĠSriram ula
STRI KE
ĠKUM AR
ATERR ESTRIAL
ĠEXTR ATERRESTRIAL
ÐµÑģÑıÑĤÐ¸ÑĩÐ½ Ð¾Ðµ
! ");
" ],
" &&
# ',
) _
) }));
- %
0 39
1 53
3 66
3 12345
4 88
4 16
4 48
5 88
8 67
: ';
< /
> (-
? !
B W
B urn
B oot
C r
E uclidean
J HELPER
L int
L ucky
N i
O cc
S y
S un
T L
T ag
U toD
V S
W indows
^ \
_ {
a iz
a abb
c X
c am
c op
c arp
f q
f av
f uck
f uel
g irls
h gt
i Right
j am
j sp
k u
k hokharnikunj
m ol
m cmf
n se
n as
o ices
p th
p ay
r ch
r pos
r abin
s os
s ad
s ome
t g
t ool
t res
v L
v z
v il
x j
x z
z ipper
{ '.','.','.','.','.','.','.','.','.'},{'.','.','.','.','.','.','.','.','.'},{'.','.','.','.','.','.','.','.','.'},{'.','.','.','.','.','.','.','.','.'},{'.','.','.','.','.','.','.','.','.'},{'.','.','.','.','.','.','.','.','.'},{'.','.','.','.','.','.','.','.','.'},{'.','.','.','.','.','.','.','.','.'},{'.','.','.','.','.','.','.','.','.
Ñ Ĩ
æ Ģ
é ķ
Ġ ðŁĴ©ðŁĴ©ðŁĴ©ðŁĴ©ðŁĴ©ðŁĴ©ðŁĴ©ðŁĴ©
in ff
de scr
st upid
re str
Ġ( :
Ġc up
Ġl j
Ġl ie
Ġa che
Ġa lice
Ġm essage
Ġf ff
Ġf isi
Ġn ic
Ġn ap
Ġp F
00 3
Ġ0 3
ur o
Ġs vy
() };
ll en
Ġv Int
ong ly
it on
Ġt hi
Ġb v
Ġb readth
am id
Ġd h
Ġd lt
Ġx e
us d
ĉĉĉ ĠĠĠĠĉ
", *
Ġma le
al hot
iz ing
ma k
hi l
Ġ' ;};
Ġy hi
Ġu mx
)) ?
Ġk d
back ing
Ġw ow
um b
Ġg m
ĠM alhot
hile d
Ġ<= '
Ġin place
Ġpr ot
Ġpr cont
ch ash
ch eap
"; */
ĠF ound
ĠN ONE
is P
Ġq pll
Ġmax e
ĠS AD
ĠP C
ĠP f
ĠP loadyFree
nd nas
Ġop r
Ġch g
;} );
long est
ag ya
Ġmin Len
Ġ3 10
Ġ3 37
ĠR eturns
ĠR toL
ot e
Ġst c
cnt A
cnt l
ist ic
ĠL node
ĠL IS
ĠL toR
') ]
') ++
') ||(
âĸĳ âĸĪâĸĪ
cur one
res ource
ĠD RI
ĠD toU
Ġde compose
Ġsum l
Ġcur H
ap s
11 2345
") ){
ĠB Z
sum y
he h
Ġad sf
Ġz ub
*( *
to str
to ok
ĠFOR K
ĠV er
Ġset BufSize
Ġ4 75
Ġmx d
ĠMAX LEN
Ġnum b
now pos
ĠU toD
14 80
({ });
ĠE dges
ec ause
20 13
ction ary
tmp x
tmp y
97 46
]==' :
1000 20
Ġlo o
Ġdist ans
Ġabs v
58 0
(_ =
Ġth ose
Ġpar areru
Ġhi m
si b
Ġcomp aring
Ġvv il
Ġvv li
Ġvv vvl
Ġvv vvb
Ġfind K
Ġfind Centroid
Ġdi ct
ĠY our
el f
Ġscan iii
seg min
qu ad
ob r
Ġsol ved
PER ATOR
Ġdis able
gr ap
per t
vv vl
vv vb
Ġ"/ ";
write Int
Ġ100000 2
Ġsf c
Ġsf x
28 0
new X
new Buf
buf Size
buf At
Case No
]]= '
cr im
Ġli es
Ġsi mp
print ln
big Child
fa fo
49 3
ai b
ump s
Ġfac inv
ek stra
ĠDI E
ĠRE VERSE
ui se
Ġfunction al
à§ĩ ,
Start Point
Ġref resh
Ġsa id
ĠreadInt Table
âĢ ī
ðŁĴ©ðŁĴ© ðŁĴ©
Ġwr v
move C
EN ER
ĠBig int
Ġqq memset
BS Bandme
ĠIT ER
Ġcum sum
Ġsegment Tree
ĠreadChar Array
ĠreadChar Table
Ġ2000 100007
ĠCO ST
Ġeq Max
Ġprim itive
36 777216
42 11
)| !
ell s
SH OW
ðŁĴ©ðŁĴ©ðŁĴ©ðŁĴ© ðŁĴ©ðŁĴ©ðŁĴ©
initial ize
oll ow
ĠStr ings
Ġcontainer s
Ext ended
Ġmf pow
EX EC
âķļ âķĲâķĿ
Dig its
ĠreadDouble Array
AAAA AA
ĠâĢ ĺ
ĠRa hil
ĠreadLong Array
Ġko eff
Ġ987 620
ĠLE AVES
Ġsig t
Ġmakeit base
ĠreadString Array
977 4591
Ġbg m
Ġ37 97
Ġà¦ķ à¦°
CR IT
ĠCase No
FFFFFF F
ĠKMP Search
Ġà¦ı à¦°
Ġ78 978978
Ġ78 9746
special ization
Dan iel
ðŁĴ©ðŁĴ©ðŁĴ©ðŁĴ©ðŁĴ©ðŁĴ©ðŁĴ©ðŁĴ© ðŁĴ©ðŁĴ©ðŁĴ©ðŁĴ©ðŁĴ©ðŁĴ©ðŁĴ©
887 4989
ĠOn ly
vol ume
exist s
671 9774591
component s
ĠOne DimDice
ĠSTR ESS
prep are
'}},{ {'.','.','.','.','.','.','.','.','.'},{'.','.','.','.','.','.','.','.','.'},{'.','.','.','.','.','.','.','.','.'},{'.','.','.','.','.','.','.','.','.'},{'.','.','.','.','.','.','.','.','.'},{'.','.','.','.','.','.','.','.','.'},{'.','.','.','.','.','.','.','.','.'},{'.','.','.','.','.','.','.','.','.'},{'.','.','.','.','.','.','.','.','.
Ġcandid ate
Ġide al
978978 97
//================================ ====
Ġsor va
MO DD
PERF CRIT
Ġdima sh
339 8874989
Ġà¦¬ à¦²
repe at
'<= (_=
online judge
Ġfresh max
Ġfresh min
Ġrout e
204 58
å¿ ĺ
Suffix Array
Ġhapp en
ĠTwo DimDice
DIS ABLE
hij ou
Ġalf a
Ġmal ta
Ġima ge
Ġentr ies
coup on
sni ppets
ĠReach Able
6180 3398874989
ĠDan iel
)+_ -'
luz hiled
4848 20458
aiz u
éķ ¿
ĠðŁĴ©ðŁĴ©ðŁĴ©ðŁĴ©ðŁĴ©ðŁĴ©ðŁĴ©ðŁĴ© ðŁĴ©ðŁĴ©ðŁĴ©ðŁĴ©ðŁĴ©ðŁĴ©ðŁĴ©ðŁĴ©ðŁĴ©ðŁĴ©ðŁĴ©ðŁĴ©ðŁĴ©ðŁĴ©ðŁĴ©
descr iption
Ġfisi er
Ġnic hijou
Ġsvy azi
ĠMalhot ra
ndnas fafo
Ġadsf ndnasfafo
PERATOR S
Ġ987620 51
Ġ78978978 97897897
Ġ789746 6719774591
61803398874989 484820458
Ġadsfndnasfafo asp
# %
# ;
( <)
) ]--;
. ______,
. __________,
. _______,
1 32
4 64
4 12
5 13
5 25
5 88888
6 8888
6 8888888
6 888888
8 23
9 54
: ");
< ';
= ///
> //
A UT
A ssertion
B ic
B ER
C Y
C ause
D y
E rase
F inal
H s
H ET
H opcroft
I mag
I YA
J u
L A
L B
M D
M erge
O PERATORS
R F
R et
R un
R EB
S he
S STR
T ie
T IL
V VI
Y R
_ ++;
a fs
b ul
c inttypes
e at
g uess
h old
j ed
l if
l ayer
m max
m ert
m obius
n V
n pair
o on
o ing
p sz
p oker
p aper
r q
r am
r val
r Der
s ong
s id
s low
s afe
t ak
t elapsed
u os
u Query
v I
v out
w ill
x U
x it
y rev
} );}
Ð ļ
æ Į
ĉ ĠĠĠĠĠĠ
Ġ âĸĪâĸĪâĸĪâĸĪâĸĪâĸĪâĸĪâķĹ
Ģ æŁ¥
st node
Ġi mask
Ġ( )(
on y
on ce
Ġc map
Ġc rs
Ġl um
Ġl ool
Ġl val
Ġl oud
Ġ{ \
Ġm nt
Ġm ut
Ġm iv
Ġf h
Ġf ul
Ġf sum
Ġf li
Ġf arthest
Ġn ob
Ġn br
Ġn Child
Ġp eso
Ġ1 10000
cl ink
en ode
Ġs ays
Ġs uper
clu de
Ġv min
Ġv pt
ong oing
// |
.. "+
Ġt ac
Ġt len
Ġt up
Ġ" *
Ġ" <<"
Ġd sum
Ġd mk
ns ig
ct m
Ġma pp
(" :
al th
__ (#__
type c
Ġj e
Ġr fore
Ġr forl
ĠT ip
ĠT IM
Ġe yes
for up
for sn
nt er
Ġans B
Ġans R
ti ck
Ġy da
od ds
Ġu mp
)) )-
)) <<(
Ġk m
Ġk min
Ġk night
Ġw id
Ġw rd
Ġ; }}
ĠM achine
ĉĉĉĉ ĠĠĠ
as ick
âĸ ħ
]) >(
Ġ% %%%%
ans b
Ġpr actic
ch ck
Ġ&& __
ĠF O
ĠN g
ĠN err
is Processed
IN DIA
ĠA AAAAAA
ĠS qr
ĠS IMPLE
max K
max prime
ĠP ii
... "+
pb c
Ġar ithmetic
Ġar cnext
Ġar clog
Ġar chash
Ġar clink
Ġtr an
ag a
Ġ_ \
Ġmin val
Ġh d
Ġh ad
ĠR ED
dp p
dp ar
Ġmp s
err y
min c
min Len
ĠD J
ĠD iff
ĠC I
ĠC ol
Ġget real
ĠG ulikov
Ġsum c
ap us
ge ling
OR KEE
ĠI IIIIIIII
") >
lo b
sum l
â£¿â£¿ âł¿
â£¿â£¿ â¡Ł
Ġrep pr
ent um
th ir
Ġout p
Ġout puts
Ġout File
Ġ5 21
Ġis Processed
Ġdfs s
ĠV lad
mx r
/* -----
ĠO ME
Ġ4 5
Ġmx ze
ĠMAX C
ĠMAX Q
Ġpre last
15 77
GS BU
100 271
Ġ", *
Ġread d
Ġ] --;
...) ::
******************************** ***************/
Ġac curacy
20 1000
>( _
tmp c
ep i
/// ---------------
maxn å¤§å°ı
az m
Ġex pl
Ġex ception
24 3
88888888 81
mem ber
âł °
âł Ĥ
â£¿â£¿â£¿â£¿ â¡
Ġdb r
Ġlast i
ĠH an
ĠH ET
ĠH BASE
Ġfl owers
Ġas fds
Ġth s
Ġtot b
Ġfind It
]* ((
pl ots
ĠY ear
Ġun lli
Ġbit mask
ĠK OK
################ #####
Ġ100 9
make it
16 16
16 71
root direct
Ġ": ";
ĠW OR
FOR E
Ġforn r
ĠQ Q
Ġhe ar
1111 10
Ġpop Cnt
Ġmy cout
ater restr
Ġrem oving
Ġat l
________________ ________
________________ ____________
Ġ8 1
48 9
100000000 1
hash s
Ġver ti
Ġtm r
Ġvl ii
new Y
new x
................................ ...................
co ord
Ġnot end
Ġnot prime
Ġdel ay
%% @@
40 96
pq min
Ġfore st
â£¿â£ ĩ
NN Y
ĠVI C
ĠZ XC
Ġrd m
000000 5
fac s
Ġcomplex ity
ny b
ĠJ LOCAL
ĠJ ava
Ġct m
tm r
Ġbr ing
66 777216
â¢¿ â£¿â£¿â£¿â£¿
Ġmodul uos
20000 01
Ġ1000000 7
AD AR
Ġpro j
Ġsk in
Ġsk ills
Ġ500 100
____________ ,
____________ _.
//////////////////////////////////////////////////////////////// ///
dq l
IM AL
AB S
close st
Ġrun n
ĠFast Power
Ġopt L
Ġopt R
ĠUN TIL
400 100
ĠSt asz
Ġfunc iton
the st
==" -
>>>> >>>>>>
Ġ2000 227
88888 6
Ð¸ Ð¹
ÑĢ Ðµ
Al ways
####### :
Ġ'(' ){
'][ '
ka ida
Op eratorMonoid
bi edge
âłī âł»
â£¤ â£¶
â£¶ â£¤
ja w
Ġ'+ '){
ĠTr iple
Ġturn ed
Ġside s
Ġweight s
ANS WER
Ġ201 3
ĠPA GH
âłĪ âł»
ph ant
500000 5
uc ing
De lete
___________ .
ä¸ª SB
Ġtw os
ĠON PC
Ġ36 00000
inal ity
ECT ED
ÐµÐ½ ÑĮ
Ġsig ma
oz yrev
Ġcompress ion
pal indrome
Is Less
Var iable
åº ı
Ġwon der
ABC ABAB
ico grap
show point
Ġ------------------------------------------------ -
Task A
Ġtrail zero
ĠMO DD
parse Table
Ġextr aterrestr
âĢĶ âĢĶ
Big mod
_____________________ .
Mon th
Ġ*** ///
adr uple
ĠRO ORKEE
Ġdistinguish ing
Ġutil ities
$$$$$$$$ $$$$$$$$
%%%%%%%%%%%%%%%% %%%%
%%%%%%%%%%%%%%%% %%%%%%%%%%%%%%%%%%%%
Ġpreprocess or
äºĨ æ£
â¡¿âłĭ âłģ
Ġcard inality
.________________ __________
))+" .."+
âĸ²âĬĻâĸ²âĬĻ âĸ²âĬĻâĸ²âĬĻ
)+" ..."+
Ġ'^ ')
bab era
628 0
Ġdin am
âłĭ âłģ
Ġcool er
mut ex
=='(') ++
ĠBin Search
Connect ed
ä½ł ä¸ªSB
åĨį å¿ĺ
(',' ));
Ġled zero
arv agya
Ġtog geling
Cap acity
submiss ion
qui et
ĠSav ani
Prod uct
ĠÑĩÐ¸ÑģÐ» Ð¾
Ġnin ja
ä¸įè¦ģ åĨįå¿ĺ
Ġdisable s
BSBandme ä½łä¸ªSB
Bic arp
song s
ĢæŁ¥ maxnå¤§å°ı
Ġ%%%%% %%%
Ġpractic ally
ĠIIIIIIIII I
ĠOME GA
GSBU NNY
rootdirect ory
ĠStasz ic
ĠPAGH ADAR
icograp hi
Ġextraterrestr ial
äºĨæ£ ĢæŁ¥maxnå¤§å°ı
ä¸įè¦ģåĨįå¿ĺ äºĨæ£ĢæŁ¥maxnå¤§å°ı
ä¸įè¦ģåĨįå¿ĺäºĨæ£ĢæŁ¥maxnå¤§å°ı äºĨ
& ~(
' "
- ï¿½
. -'
/ ~
2 10000
2 58
2 103
4 51
5 46
8 97
= >
> );
A y
A li
A ny
B L
B egin
C arry
C GL
C oll
D inic
G ENER
H as
H OR
I llegal
L MS
L oop
N P
O ther
P X
P ECTED
R l
R untime
S M
U MP
W as
W ork
Z ING
_ ][
c g
c nd
c ally
d oc
d raft
e ma
f loop
f arthest
g left
i ad
k Max
k jl
m ac
m op
m ls
n val
p pb
r max
r min
s j
s num
s To
t id
t ank
t bl
v ist
w id
y alla
¢ Ã¥Ã°
« Ã¥ÃŃ
® Ã²
¯ Ã¥ÃŃ
Ã ¼
Ã ªÃł
Ã ¯Ã°Ã®Ã
ç ®
è ĥ½
í ķ
č ĉĉ
Ġ âĸĪâĸĪâĸĪâĸĪâĸĪâĸĪâķĹ
ĠĠĠ ĉĉĉĉĉ
re i
re k
re quired
or ient
ine d
Ġl am
Ġl ift
Ġa sum
Ġm z
Ġm op
Ġm map
se ats
Ġn id
Ġp ta
++ ]='
Ġ1 9999999999999999
00 5
Ġs up
Ġs chool
Ġs aved
() )));
-- ]=
// ............................
Ġt ong
Ġt ct
Ġt es
Ġt In
Ġt ears
Ġb at
Ġfor ce
at ic
at om
][ '
Ġd ur
Ġd ol
Ġd sc
con seq
Ġx solve
(" ----------------
ar ation
ar iqul
Ġr ing
Ġr pos
Ġr vv
op rime
ĠT ariqul
for a
(); \
Ġans A
Ġans k
sp e
od y
od dpar
)) &&(
um in
]) ]=
Ġpr ll
Ġpr io
ch ld
]= ')';
<<" @
Ġcon tr
Ġ| --
is on
is ations
Ġq m
Ġmod i
ĠA i
ĠA t
ĠA MA
line ar
Ġmax r
ĠS al
ĠS AA
ĠS quare
ĠS arvagya
Ġo it
10 23
10 28
max e
ĠP o
ĠP arent
ĠP ham
Ġch add
;} \
Ġit h
Ġ_ (
Ġmin D
Ġh oc
Ġcnt p
dp th
un it
es sel
ĠMOD A
min Value
ĠĠĠĠĠĠĠĠĠĠĠĠĠĠĠĠĠĠĠĠĠĠĠĠĠĠĠĠĠĠĠĠ ĠĠĠĠĠĠĠĠĠĠĠĠĠĠĠĠĠĠĠĠĠĠĠĠĠĠĠĠĠĠĠ
Ġ(( !
ĠD ays
ĠD UMP
tr on
Ġget Int
Ġget Size
Ġget Pos
Ġde termine
Ġsum odd
Ġsum even
ind s
ath ly
arr C
MAX A
]] %
]] ]--;
Ġmem ory
Ġto B
Ġto read
Ġ'\ \
len g
Ġrep t
get id
get ans
get val
ĠFOR STL
Ġ(! (*
Ġset B
mx pos
count t
count bit
sk df
Ġ4 31
53 4211
Ġstr b
Ġstr cpy
18 09
Ġfr w
26 61
Ġread ing
ce pies
ĠU LONG
Ġpll ll
12 5
12 00010
ĠĠĠĠĉ Ċ
Ġ. --.
******************************** ************************
Ġss wap
>( '
Ġex ample
ab cb
Ġdb v
Ġvec a
dist inct
par u
Ġth ough
à¦ ļ
tag L
AC MP
Ġprint clock
Ġ100 1000
Ġ100 111
38 44
998 6280
It em
oot h
ha pp
Ġscan ln
Ġsp e
sc sc
com ing
check max
ob e
ob ra
edge Cnt
]< '
Ġprime factor
Ġerr ors
Ġbin s
write Word
su ccess
Ġ30 5
Ġrng b
ĠMax Heap
co v
29 5
Count er
Ġbig Child
key s
Ġan other
Ġsu ccess
Ġline ar
ALL AH
Ġinsert er
FILE NO
Ġ("% .
Ġ~ __
47 1
49 0
Ġnormal ization
ai se
Ġï¿½ï¿½ï¿½ï¿½ï¿½ï¿½ï¿½ï¿½ ,
Ġï¿½ï¿½ï¿½ï¿½ï¿½ï¿½ï¿½ï¿½ .
Ġfac s
61 53
ĠMin Heap
Ġsign al
Ġtwo L
Ġ1000000 5
Con an
ĠTR vi
ĠTR vii
ĠTR msi
MIN V
me et
Ġalloc ation
Ġinc rement
ĠVA MP
two L
5555 55
ĠMA KE
Ġlp n
Th at
ia o
Ġdot pos
Re quest
ĠBig Integer
Ġfiles dat
400 1000
IG N
ĠSH ORT
70 679
KEE P
Ġim os
)&& ((
ĠÃ ±Ã²
ĠÃ ¤Ã¥Ã
ĠÃ ®Ã²
Ð¸ Ð½
ÑĢ Ð¾Ðº
Ġnod o
Ġprod ucing
Res ources
over take
Ġeq Min
Ġequal s
Ġany more
short cuts
Ġoverflow s
Ġ'_ ')
cat s
Ġdeep en
CL R
Ġsome one
_## _(
Ġrad ix
weight s
Ã¥Ã ¯Ã¥ÃŃ
vf w
BU FSIZE
eve par
Ã² Ã®Ã
âĸĵâĸĵâĸĵâĸĵ âĸĵâĸĵ
Ġrot ated
Ġassum ing
FIN ITE
summ ation
Ġcontain L
Ã®Ã ±Ã²Ãł
YY YY
vot er
Is Greater
unk nown
Ġ30000 7
Ġ200000000 5
131 3
book s
æľĢ å°ı
BB B
Task C
Dan ik
Ġ228 228
Ġdecl aration
[...]
