{"<s>":0,"<pad>":1,"</s>":2,"<unk>":3,"<mask>":4,"!":5,"\"":6,"#":7,"$":8,"%":9,"&":10,"'":11,"(":12,")":13,"*":14,"+":15,",":16,"-":17,".":18,"/":19,"0":20,"1":21,"2":22,"3":23,"4":24,"5":25,"6":26,"7":27,"8":28,"9":29,":":30,";":31,"<":32,"=":33,">":34,"?":35,"@":36,"A":37,"B":38,"C":39,"D":40,"E":41,"F":42,"G":43,"H":44,"I":45,"J":46,"K":47,"L":48,"M":49,"N":50,"O":51,"P":52,"Q":53,"R":54,"S":55,"T":56,"U":57,"V":58,"W":59,"X":60,"Y":61,"Z":62,"[":63,"\\":64,"]":65,"^":66,"_":67,"`":68,"a":69,"b":70,"c":71,"d":72,"e":73,"f":74,"g":75,"h":76,"i":77,"j":78,"k":79,"l":80,"m":81,"n":82,"o":83,"p":84,"q":85,"r":86,"s":87,"t":88,"u":89,"v":90,"w":91,"x":92,"y":93,"z":94,"{":95,"|":96,"}":97,"~":98,"¡":99,"¢":100,"£":101,"¤":102,"¥":103,"¦":104,"§":105,"¨":106,"©":107,"ª":108,"«":109,"¬":110,"®":111,"¯":112,"°":113,"±":114,"²":115,"³":116,"´":117,"µ":118,"¶":119,"·":120,"¸":121,"¹":122,"º":123,"»":124,"¼":125,"½":126,"¾":127,"¿":128,"À":129,"Á":130,"Â":131,"Ã":132,"Ä":133,"Å":134,"Æ":135,"Ç":136,"È":137,"É":138,"Ê":139,"Ë":140,"Ì":141,"Í":142,"Î":143,"Ï":144,"Ð":145,"Ñ":146,"Ò":147,"Ó":148,"Ô":149,"Õ":150,"Ö":151,"×":152,"Ø":153,"Ù":154,"Ú":155,"Û":156,"Ü":157,"Ý":158,"Þ":159,"ß":160,"à":161,"á":162,"â":163,"ã":164,"ä":165,"å":166,"æ":167,"ç":168,"è":169,"é":170,"ê":171,"ë":172,"ì":173,"í":174,"î":175,"ï":176,"ð":177,"ñ":178,"ò":179,"ó":180,"ô":181,"õ":182,"ö":183,"÷":184,"ø":185,"ù":186,"ú":187,"û":188,"ü":189,"ý":190,"þ":191,"ÿ":192,"Ā":193,"ā":194,"Ă":195,"ă":196,"Ą":197,"ą":198,"Ć":199,"ć":200,"Ĉ":201,"ĉ":202,"Ċ":203,"ċ":204,"Č":205,"č":206,"Ď":207,"ď":208,"Đ":209,"đ":210,"Ē":211,"ē":212,"Ĕ":213,"ĕ":214,"Ė":215,"ė":216,"Ę":217,"ę":218,"Ě":219,"ě":220,"Ĝ":221,"ĝ":222,"Ğ":223,"ğ":224,"Ġ":225,"ġ":226,"Ģ":227,"ģ":228,"Ĥ":229,"ĥ":230,"Ħ":231,"ħ":232,"Ĩ":233,"ĩ":234,"Ī":235,"ī":236,"Ĭ":237,"ĭ":238,"Į":239,"į":240,"İ":241,"ı":242,"Ĳ":243,"ĳ":244,"Ĵ":245,"ĵ":246,"Ķ":247,"ķ":248,"ĸ":249,"Ĺ":250,"ĺ":251,"Ļ":252,"ļ":253,"Ľ":254,"ľ":255,"Ŀ":256,"ŀ":257,"Ł":258,"ł":259,"Ń":260,"ĠĠ":261,"čĊ":262,"ĠĠĠĠ":263,"in":264,"ĠĠĠ":265,"int":266,"de":267,"ĉĉ":268,"ĠĠĠĠĠĠĠĠ":269,"Ġ=":270,"st":271,"Ġi":272,"Ġ<":273,");":274,"re":275,"def":276,"or":277,"ĠĠĠĠĠĠĠ":278,"Ġ(":279,"on":280,"ine":281,"Ġc":282,"define":283,"Ġl":284,"Ġa":285,"Ġ{":286,"Ġm":287,"se":288,"Ġf":289,"Ġn":290,"Ġp":291,"++":292,"Ġ1":293,"00":294,"cl":295,"Ġ0":296,"Ġ}":297,"ou":298,"ur":299,"en":300,"Ġs":301,"Ġint":302,"()":303,"clu":304,"inclu":305,"include":306,"ret":307,"ll":308,"**":309,"Ġv":310,"Ġ<<":311,"urn":312,"return":313,"std":314,"--":315,"ĠĠĠĠĠĠĠĠĠĠĠ":316,"Ġ+":317,"Ġ>":318,"ong":319,"//":320,"..":321,"out":322,"it":323,"Ġt":324,"Ġb":325,"Ġfor":326,"Ġif":327,"Ġ-":328,"ac":329,"Ġ\"":330,"am":331,"Ġlong":332,"<<":333,"];":334,"at":335,"][":336,"Ġd":337,"er":338,"ing":339,"con":340,"ns":341,"yp":342,"ir":343,"Ġx":344,"us":345,"Ġreturn":346,"if":347,"le":348,"++)":349,"ĉĉĉ":350,"ct":351,"Ġ&":352,"end":353,"\",":354,"typ":355,"Ġma":356,"(\"":357,"Ġ*":358,"al":359,"id":360,"KK":361,"ame":362,"ect":363,"ar":364,"){":365,"ector":366,"mp":367,"****":368,"iz":369,"__":370,"ize":371,"Ġll":372,"Ġ>>":373,"type":374,"Ġstd":375,"::":376,"Ġj":377,"Ġr":378,"0000":379,"ĠĠĠĠĠĠĠĠĠĠĠĠĠĠĠĠ":380,"].":381,"op":382,"==":383,"str":384,"ĠT":385,"const":386,"ue":387,"os":388,"ma":389,"Ġcout":390,"Ġ==":391,"Ġe":392,"typedef":393,"air":394,"an":395,"for":396,"WW":397,"();":398,"nt":399,"ol":400,"EE":401,"Ġans":402,"Ġcin":403,"Ġre":404,"size":405,"using":406,"hi":407,"ace":408,"ack":409,"ti":410,"Ġ'":411,"sp":412,"ĠĠĠĠĠĠĠĠĠĠĠĠĠĠĠ":413,"lse":414,">>":415,"Ġy":416,"Ġname":417,"od":418,"ut":419,"Ġ2":420,"io":421,"emp":422,"space":423,"##":424,"----":425,"ate":426,"string":427,"Ġu":428,"eg":429,"Ġnamespace":430,"],":431,"))":432,"(\"%":433,"oid":434,"Ġk":435,"back":436,"endl":437,"ush":438,"Ġw":439,"Ġ;":440,"um":441,"....":442,"ĠĠĠĠĠ":443,"Ġg":444,"set":445,"ĠM":446,"Ġmain":447,"ĉĉĉĉ":448,"as":449,"âĸ":450,"])":451,"egin":452,"Ġvector":453,"Ġ%":454,"irst":455,"hile":456,"begin":457,"bit":458,"Ġ<=":459,"ans":460,"LL":461,"ble":462,"Ġin":463,"ow":464,"cout":465,"vector":466,"Ġ,":467,"stre":468,"can":469,"empl":470,"stream":471,"Ġ++":472,"cond":473,"!=":474,"********":475,"second":476,"ith":477,"Ġpr":478,"emplate":479,"ch":480,"DD":481,"ii":482,"ouble":483,"Ġpair":484,"cin":485,"]=":486,"xt":487,"bits":488,"<<\"":489,"stdio":490,"++.":491,"Ġ+=":492,"stdc":493,"pr":494,"canf":495,"Ġ//":496,"]);":497,"Ġelse":498,"Ġ)":499,"Ġ&&":500,"ase":501,"Ġcon":502,"tie":503,"KKKK":504,"<=":505,"void":506,"template":507,"ed":508,"),":509,"(),":510,"ve":511,"\";":512,"ig":513,"++;":514,"ool":515,"pair":516,"Ġ:":517,"ĠF":518,"intf":519,"88":520,"ĠN":521,"ename":522,"ass":523,"et":524,"Ġendl":525,"Ġres":526,"nc":527,"Ġ|":528,"));":529,"Ġ/":530,"Ġwhile":531,"is":532,"Ġq":533,"Ġmod":534,"alse":535,"push":536,"ĠčĊ":537,"IN":538,"¿½":539,"ï¿½":540,"ator":541,"ĠA":542,"Ġdouble":543,"ync":544,"im":545,"with":546,"line":547,"erator":548,"ad":549,"Ġ!=":550,"Ġmax":551,"sync":552,"open":553,"Ġscanf":554,").":555,"ĠS":556,"Ġo":557,"10":558,"ode":559,"reopen":560,"--------":561,"max":562,"ke":563,"ĠP":564,"first":565,"rt":566,"nd":567,"put":568,"EEEE":569,"Ġconst":570,"else":571,"...":572,"â£":573,"////":574,"pb":575,"ree":576,"WWWW":577,"Ġar":578,"Ġop":579,"++){":580,"ï¿½ï¿½":581,"Ġch":582,"Ġtr":583,"Ġfirst":584,"####":585,"uto":586,"MM":587,";}":588,"Ġdp":589,"Ġ__":590,"Ġit":591,"base":592,"())":593,"long":594,"ag":595,"OD":596,"=(":597,"Ġ_":598,"Ġpush":599,"Ġmin":600,"Ġ>=":601,"Ġ3":602,"Ġh":603,"AX":604,"ĠR":605,"typename":606,"ot":607,"Ġcnt":608,"ic":609,"que":610,"ul":611,"Ġprintf":612,"........":613,"bool":614,"char":615,"Ġst":616,"em":617,"cnt":618,"Ġ#":619,"class":620,"};":621,"ist":622,"dp":623,"Ġsecond":624,"of":625,"____":626,"un":627,"((":628,"Ġios":629,"00000000":630,"map":631,";;":632,"Ġval":633,"while":634,"Ġpb":635,"ĠĠĠĠĠĠĠĠĠĠĠĠĠĠĠĠĠĠĠ":636,"';":637,"es":638,"sert":639,"tin":640,"Ġmake":641,"ast":642,"mod":643,"ort":644,"txt":645,"ĠL":646,"64":647,"Ġvoid":648,"auto":649,"Ġmp":650,"****************":651,"om":652,"err":653,"false":654,",,":655,"ion":656,"+=":657,"ign":658,"--)":659,"fs":660,"â£¿":661,"')":662,"olve":663,"ck":664,"(){":665,"GG":666,"âĸĳ":667,"Ġ\"<<":668,"inline":669,"cur":670,"Ġsz":671,"bu":672,"ak":673,"ĠMOD":674,"min":675,"res":676,"ĠĠĠĠĠĠĠĠĠĠĠĠĠĠĠĠĠĠĠĠĠĠĠĠĠĠĠĠĠĠĠĠ":677,"Ġ((":678,"Ġ||":679,"ĠD":680,"val":681,"tr":682,"000":683,"ĠC":684,"====":685,"Ġget":686,">=":687,"Ġde":688,"ĠĠĠĠĠĠ":689,"ĠG":690,"DDDD":691,"\",&":692,"pp":693,"il":694,"Ġsum":695,"());":696,"Ġtyp":697,"Ġall":698,"Ġoperator":699,"\");":700,"Ġcur":701,"orde":702,"ap":703,"pos":704,"INF":705,"ge":706,"OR":707,"11":708,"]==":709,"cd":710,"ind":711,"ount":712,"--;":713,"node":714,",-":715,"Ġstring":716,"igned":717,"ĠI":718,"Ġld":719,"endif":720,"ext":721,"\")":722,"ĠĠĠĠĠĠĠĠĠ":723,"tinue":724,"Ġtrue":725,"ath":726,"arr":727,"reak":728,"iostream":729,"queue":730,"lld":731,"lo":732,"ime":733,"8888":734,"Ġpii":735,"Ġfreopen":736,"ĠB":737,"Ġsize":738,"->":739,"MAX":740,"]]":741,"sum":742,"Ġmid":743,"he":744,"Ġmem":745,"Ġto":746,"freopen":747,"Ġad":748,"Ġz":749,"âĸĳâĸĳ":750,"tim":751,"EP":752,"ithm":753,"â£¿â£¿":754,"gor":755,"ĉĉĉĉĉ":756,"pd":757,"gorithm":758,"Ġbool":759,"Ġ\";":760,"âĸĪ":761,"Ġ?":762,"99":763,"ds":764,"Ġfalse":765,"algorithm":766,"Ġsolve":767,"Ġarr":768,"ĉčĊ":769,"scanf":770,"tree":771,"Ġse":772,"ver":773,"Ġ'\\":774,"len":775,"all":776,"printf":777,"gs":778,"nsigned":779,"cm":780,"]-":781,"num":782,"double":783,"Ġrep":784,"bs":785,"ĠINF":786,"ent":787,"ix":788,"Ġ100000000":789,"ower":790,"agma":791,"pragma":792,"KKKKKKKK":793,"////////":794,"ES":795,"pop":796,"get":797,"th":798,"Ġtypename":799,"NO":800,"Ġout":801,"&&":802,"Ġstdin":803,"pre":804,"est":805,"Ġret":806,"Ġ10":807,"Ġsort":808,"AR":809,"Ġ5":810,"Ġcl":811,"sz":812,"*(":813,"ĠLL":814,"ostream":815,"Ġchar":816,"Ġis":817,"red":818,"ff":819,"Ġdfs":820,"Ġunsigned":821,"Ġ7":822,"to":823,"++--":824,"]+":825,"Ġpos":826,"Ġinf":827,"Ġvi":828,"ĠFOR":829,"(!":830,"----------------":831,"ub":832,"ĠĠĠĠĠĠĠĠĠĠĠĠ":833,"Ġ-=":834,"omp":835,"Ġ(!":836,"fr":837,")%":838,"++--++--":839,"ld":840,"ay":841,"ĠV":842,"Ġcontinue":843,"ound":844,"Ġset":845,"ULL":846,"Ġ\\":847,"mx":848,"Ġcerr":849,"Ġinline":850,"ios":851,"oint":852,"MMMM":853,"ĠĠĠĠĠĠĠĠĠĠ":854,"Ġ);":855,"/*":856,"count":857,"ft":858,"ĠGC":859,"Ġmemset":860,"ull":861,"input":862,"32":863,"Ġtree":864,"\",\"":865,"Ġos":866,"Ġbreak":867,"Ġid":868,"ex":869,")(":870,"ifdef":871,"ht":872,"pdate":873,"########":874,");}":875,"sk":876,"ĠGCC":877,"ps":878,"Ġgcd":879,"ĠO":880,"ss":881,"',":882,"insert":883,"Ġ4":884,"ordered":885,"ĠĠĠĠčĊ":886,"Ġ--":887,"âĸĪâĸĪ":888,"Ġmx":889,"cmath":890,"Ġ\"\\":891,"ĠMAX":892,"âĸĴ":893,"53":894,"vi":895,"Ġpre":896,"ï¿½ï¿½ï¿½ï¿½":897,"ta":898,"li":899,"Ġfi":900,"Ġstr":901,"18":902,"*/":903,")/":904,"ight":905,"\"<<":906,"mid":907,"15":908,"GS":909,"idx":910,"cstdio":911,"Ġ1000000007":912,"100":913,"Ġfr":914,"and":915,"Ġ\",":916,"stack":917,"Ġclass":918,",&":919,"Ġnum":920,"ro":921,"Ġstdout":922,"bug":923,"Ġlen":924,"26":925,"art":926,"pii":927,"NULL":928,"fi":929,"now":930,"YES":931,"________":932,"uct":933,"Ġadd":934,"ĠĠĠĠĠĠĠĠĠĠĠĠĠ":935,"sizeof":936,"10000":937,"ip":938,"Ġread":939,"................":940,"ĠPI":941,"ce":942,"ax":943,"bound":944,"EEEEEEEE":945,"[]":946,"ĠU":947,"ost":948,"ĠĠĠĠĠĠĠĠĠĠĠĠĠĠĠĠĠĠĠĠĠĠĠ":949,"sed":950,"========":951,"ty":952,"Ġ]":953,"(-":954,"//#":955,"fl":956,"Ġpll":957,">&":958,"'.":959,"ity":960,"ĠAr":961,"hpp":962,"14":963,"...)":964,"output":965,"12":966,"@@":967,"ĠĊ":968,"vis":969,"ARGS":970,"oc":971,"]++;":972,"uer":973,"Ġpi":974,"Ġoptim":975,"ment":976,"eck":977,"MAXN":978,"ĠĠĠĠĉ":979,"sse":980,"SE":981,"ite":982,";;;;":983,"ĠX":984,"are":985,"Ġ.":986,"({":987,"VA":988,"cstring":989,"his":990,"ĠE":991,"order":992,"Ġull":993,"Ġtmp":994,"uery":995,"Ġ!":996,"ĠREP":997,"âĸĴâĸĴ":998,"OC":999,"Ġoptimize":1000,";++":1001,"ec":1002,"Ġtemplate":1003,"iterator":1004,"wap":1005,"Ġmap":1006,"********************************":1007,"act":1008,"Ġac":1009,"20":1010,",,,,":1011,"erase":1012,"Ġsq":1013,"Ġmul":1014,"ction":1015,"Ġ[":1016,"Ġne":1017,"Ġle":1018,"Ġss":1019,"().":1020,"stdin":1021,"Ġ10000":1022,"verse":1023,">(":1024,"});":1025,"Ġsizeof":1026,"::::":1027,"Ġput":1028,"]){":1029,"abs":1030,"');":1031,"Ġii":1032,"Ġ*/":1033,"Ġdebug":1034,"up":1035,"INE":1036,"assert":1037,"WWWWWWWW":1038,"MOD":1039,"struct":1040,"33":1041,"tmp":1042,"lib":1043,">,":1044,"ont":1045,"97":1046,"buil":1047,"Ġvalue":1048,"sort":1049,"empty":1050,"cerr":1051,"rep":1052,"Ġnode":1053,"LINE":1054,"ep":1055,"gn":1056,"man":1057,"Ġbu":1058,"GGGG":1059,"Ġtemp":1060,"unordered":1061,"Ġvis":1062,"Ġeps":1063,"Ġthe":1064,"stdlib":1065,"///":1066,"Ġauto":1067,"stat":1068,"Ġof":1069,"cle":1070,"maxn":1071,"DG":1072,"]=='":1073,"update":1074,"ata":1075,"âķ":1076,"prec":1077,"az":1078,"time":1079,"DDDDDDDD":1080,"ision":1081,"front":1082,"','.":1083,"Ġand":1084,"Ġ*=":1085,"atr":1086,"1000":1087,"Ġex":1088,"Ġsc":1089,"ok":1090,"clo":1091,"<<'":1092,"Ġ%=":1093,"bitset":1094,"Ġlo":1095,")-":1096,"Ġarg":1097,"<<(":1098,"precision":1099,"Ġdist":1100,"24":1101,")+":1102,"WWW":1103,"find":1104,"Ġend":1105,"Int":1106,"ult":1107,"Ġmn":1108,"////////////////":1109,"gcd":1110,"ioman":1111,"iomanip":1112,"88888888":1113,"]={":1114,"Ġ(\"":1115,"Ġ^":1116,"(...)":1117,"mem":1118,">;":1119,"âĸĢ":1120,"âł":1121,"ore":1122,"Ġadj":1123,"mn":1124,"Ġabs":1125,"(__":1126,"++--++--++--++--":1127,"58":1128,"ĠĠčĊ":1129,"Ġacos":1130,"Ġ1000":1131,"gth":1132,"stdout":1133,"â£¿â£¿â£¿â£¿":1134,"Ġok":1135,"(_":1136,"ab":1137,"Ġ\"<<#":1138,"unction":1139,"resize":1140,"Ġinclude":1141,"Ġdb":1142,"EEE":1143,"JU":1144,"one":1145,")*":1146,"ER":1147,"break":1148,"<<\"\\":1149,"Ġlast":1150,"atrix":1151,"AL":1152,"Ġfast":1153,"DGE":1154,"top":1155,"JUDGE":1156,"NLINE":1157,"Ġvec":1158,"<(":1159,"vec":1160,"pper":1161,"builtin":1162,"Ġbase":1163,"Ġ6":1164,"ange":1165,"EB":1166,"dist":1167,"ĠH":1168,"159":1169,"its":1170,"Ġ';":1171,"cstdlib":1172,"temp":1173,"Ġdefine":1174,"list":1175,"continue":1176,"Ġostream":1177,"rand":1178,")*(":1179,"arent":1180,"14159":1181,"Ġcom":1182,"mask":1183,"comp":1184,"ĠĠĠĠĠĠĠĠĠĠĠĠĠĠ":1185,"dfs":1186,"ptr":1187,"clock":1188,"1415926":1189,")<<":1190,"Ġ/=":1191,"rite":1192,"--){":1193,"||":1194,"dex":1195,"this":1196,"xx":1197,"lock":1198,"ndef":1199,"ead":1200,"KKK":1201,"Ġtype":1202,"rr":1203,"In":1204,"name":1205,"Ġfl":1206,"Ġas":1207,"par":1208,"ie":1209,"â¢":1210,"','.','.":1211,"Ġth":1212,"gnu":1213,"Max":1214,"add":1215,"ash":1216,"43":1217,"ess":1218,"Ġcheck":1219,"Ġgo":1220,"args":1221,"ĠONLINE":1222,"âĸĦ":1223,"ST":1224,"à¦":1225,"ifndef":1226,"âĸĳâĸĳâĸĳâĸĳ":1227,"rbegin":1228,"Ġpar":1229,"tag":1230,"Ġidx":1231,"deque":1232,"iner":1233,"true":1234,"]!=":1235,"Ġswap":1236,"Ġtot":1237,"tainer":1238,"22":1239,"Ġhi":1240,"clear":1241,"141592653":1242,"Ġdx":1243,"EPS":1244,"ĠMAXN":1245,">::":1246,"('":1247,"si":1248,"Ġcomp":1249,"Ġvv":1250,"37":1251,"ne":1252,"ixed":1253,"solve":1254,"ior":1255,"Ġdy":1256,"sstream":1257,"MMMMMMMM":1258,"},":1259,"Ġfind":1260,"30":1261,"Ġff":1262,"50":1263,"ĉĉĉĉĉĉ":1264,"Ġquery":1265,"]*":1266,"col":1267,"ctime":1268,"Ġdi":1269,"azy":1270,"lex":1271,"iority":1272,"pl":1273,"Ġputs":1274,"Ġsh":1275,"OCAL":1276,"SEC":1277,"Ġed":1278,"length":1279,"Ġnow":1280,"UG":1281,"ĠY":1282,"Ġun":1283,"di":1284,"Ġbit":1285,"Ġ){":1286,"<<\":":1287,"ĠK":1288,"pbds":1289,"-=":1290,"55":1291,"cc":1292,"istream":1293,"################":1294,"function":1295,"(),(":1296,"AC":1297,"container":1298,"/=":1299,"fast":1300,"ink":1301,"00005":1302,"pow":1303,"tt":1304,"Ġprint":1305,"Ġ};":1306,"ics":1307,"null":1308,"alc":1309,"adj":1310,"last":1311,"aa":1312,"Ġen":1313,"Ġ100":1314,"uti":1315,"chr":1316,"ĠLOCAL":1317,"pll":1318,"istics":1319,"LE":1320,"EBUG":1321,"ber":1322,"IO":1323,"ation":1324,"Ġupdate":1325,"hs":1326,"arget":1327,"statistics":1328,"Ġ++)":1329,"assoc":1330,"ng":1331,"pol":1332,"ĠIn":1333,"av":1334,"cassert":1335,"Ġĉ":1336,"ĠEPS":1337,"Ġ9":1338,"make":1339,"Ġnext":1340,"operator":1341,"dd":1342,":.":1343,"...);":1344,"â¡":1345,"ĠArgs":1346,"left":1347,"Ġcount":1348,"<<\"=":1349,"]-'":1350,"16":1351,"KKKKK":1352,"__)":1353,"row":1354,"Ġargs":1355,"38":1356,"Ġstart":1357,"el":1358,"Ġ{}":1359,"sub":1360,"Ġcol":1361,"gh":1362,"popcount":1363,"ono":1364,"ĠĠĠĠĠĠĠĠĠĠĠĠĠĠĠĠĠĠĠĠĠĠĠĠĠĠĠĠĠĠĠĠĠĠĠĠĠĠĠĠĠĠĠĠ":1365,"root":1366,"Ġï¿½ï¿½ï¿½ï¿½":1367,"<<#":1368,"998":1369,"Ġmaxn":1370,"ĠArg":1371,"Ġvll":1372,"value":1373,"=-":1374,"Ġnxt":1375,"Ġtarget":1376,"14159265358":1377,"Ġpoint":1378,"Ġ\":":1379,"ĉĉčĊ":1380,"rend":1381,"polic":1382,"=='":1383,"Ġlower":1384,"46":1385,"inf":1386,"It":1387,"pt":1388,"oot":1389,"<<\"=\"<<":1390,"Ġpower":1391,"ive":1392,"ĉĊ":1393,"Ġseg":1394,"Ġgetchar":1395,"Ġbe":1396,"Ġleft":1397,"ĉĠĠĠ":1398,"Ġ()":1399,"lli":1400,"Ġright":1401,"ha":1402,"]+=":1403,"read":1404,"lim":1405,"Ġinit":1406,"eric":1407,"]));":1408,"mt":1409,"Ġsqr":1410,"used":1411,"ĠW":1412,"1415926535897":1413,"Ġnew":1414,"99824":1415,"Ġparent":1416,"31":1417,"56":1418,"functional":1419,"Ġgr":1420,"lic":1421,"FOR":1422,"ild":1423,"ME":1424,"Size":1425,"================":1426,"9982443":1427,"Ġscan":1428,"14159265358979":1429,"998244353":1430,"ype":1431,"ary":1432,"()-":1433,"Ġforn":1434,"ĠQ":1435,")))":1436,"policy":1437,"tot":1438,"wer":1439,"Ġhe":1440,"iff":1441,"1111":1442,"34":1443,"Ġnull":1444,"Ġless":1445,"Ġpow":1446,"@@@@":1447,"]];":1448,"<<\"=\"<<(":1449,"expr":1450,"Ġind":1451,"Ġreverse":1452,"Ġ...":1453,"mul":1454,"Ġvii":1455,"ĠĠĠĠĠĠĠĠĠĠĠĠĠĠĠĠĠ":1456,"typeof":1457,"Ġ->":1458,"seg":1459,"ges":1460,"Ġrb":1461,"ĠSZ":1462,"hild":1463,"lf":1464,"]].":1465,"Ġusing":1466,"RE":1467,"ero":1468,"Ġused":1469,"Ġsp":1470,"--------------------------------":1471,"UT":1472,"ĠĠĠĠĠĠĠĠĠĠĠĠĠĠĠĠĠĠĠĠĠĠĠĠĠĠĠĠĠĠĠĠĠĠĠĠĠĠĠĠĠĠĠĠĠĠĠĠĠĠĠĠĠĠĠĠĠĠĠĠĠĠĠĠ":1473,"Ġfact":1474,"Ġresult":1475,"Ġyou":1476,"ublic":1477,"next":1478,"inv":1479,"INT":1480,"ique":1481,"chrono":1482,"[]={":1483,"Ġ>>=":1484,"Ġpf":1485,"ĠIO":1486,"Ġfrom":1487,"ĠĠĠĠĉĉ":1488,"nxt":1489,"Ġpop":1490,"numeric":1491,"Ġbuild":1492,"Ġmy":1493,"-'":1494,"low":1495,"Ġroot":1496,"sc":1497,"(\"-":1498,"Ġassert":1499,"com":1500,"]>":1501,"ĠĠĠĠĊ":1502,"77":1503,"KKKKKKKKKKKKKKKK":1504,"Ġ/*":1505,"right":1506,"199":1507,"point":1508,"qu":1509,"fstream":1510,"Ġtest":1511,"RT":1512,"go":1513,"Ġpriority":1514,"Ġor":1515,"âĸĪâĸĪâĸĪâĸĪ":1516,"]<<\"":1517,"start":1518,"1415926535897932":1519,"Ġinv":1520,"ater":1521,"+(":1522,"ĠĠĠĠĠĠĠĠĠĠĠĠĠĠĠĠĠĠĠĠĠĠĠĠĠĠĠĠĠĠĠ":1523,"flag":1524,"FF":1525,",;":1526,"]--;":1527,"II":1528,"]))":1529,"link":1530,"check":1531,"Ġfixed":1532,"ob":1533,"Ġ::":1534,"Ġsub":1535,"imes":1536,"Ġsol":1537,"Ġmask":1538,"ove":1539,"lace":1540,"aph":1541,"Ġon":1542,"Matrix":1543,"nullptr":1544,"orm":1545,"uple":1546,"no":1547,"sq":1548,"lement":1549,"%=":1550,"pi":1551,"Ġtrace":1552,"fact":1553,"ular":1554,"reater":1555,"main":1556,"data":1557,"math":1558,"01":1559,"(*":1560,"ĠMod":1561,"edge":1562,"Ġupper":1563,")){":1564,"bb":1565,"Ġsqrt":1566,"test":1567,"ah":1568,"Ġrem":1569,"dis":1570,"141592653589793238":1571,"]<":1572,"Ġlcm":1573,"200":1574,"PER":1575,"ail":1576,"ros":1577,"Ġdep":1578,"uff":1579,"MP":1580,"Ġemp":1581,"signed":1582,"Ġdo":1583,"+=(":1584,"Ġat":1585,"prime":1586,",(":1587,"Mod":1588,"Ġcan":1589,"Ġflag":1590,"Node":1591,"19937":1592,"RO":1593,"Ġvvi":1594,",+":1595,"REP":1596,"-(":1597,"(\"\\":1598,"puts":1599,"Ġwrite":1600,"Ġdis":1601,"Ġ998244353":1602,"Ġcost":1603,"OCK":1604,"memset":1605,"LOCK":1606,"Ġlow":1607,"Ġmd":1608,"()){":1609,"*=":1610,"gr":1611,"14159265358979323846":1612,"IT":1613,"Ġpref":1614,"Ġpq":1615,"]][":1616,"Ġtypedef":1617,"Ġ31":1618,"dig":1619,"Ġsetprecision":1620,"No":1621,"________________":1622,"ĠDEBUG":1623,"Ġ8":1624,"âĸĴâĸĴâĸĴâĸĴ":1625,"unique":1626,"able":1627,"atch":1628,"dge":1629,"'){":1630,"ILE":1631,"Ġms":1632,"ĉĠ":1633,"swap":1634,"100005":1635,"++--++--++--++--++--++--++--++--":1636,"Ġclock":1637,"Ġprime":1638,"per":1639,"âĸĢâĸĢ":1640,"Ġ20":1641,"LOCKS":1642,"ON":1643,"exp":1644,"yy":1645,"[(":1646,"getchar":1647,"ĠĠĠĠĠĠĠĠčĊ":1648,"Ġpa":1649,"79":1650,"uint":1651,"48":1652,"Ġordered":1653,"MX":1654,"pa":1655,"public":1656,"ark":1657,"00000":1658,"iii":1659,"Ġuint":1660,"vv":1661,"ĠALL":1662,"oo":1663,"Ġvs":1664,"sin":1665,"rem":1666,"ill":1667,"~~":1668,"]=(":1669,"loop":1670,"query":1671,"Ġxx":1672,"Ġpt":1673,"ĠĠĠčĊ":1674,"Ġup":1675,"******":1676,"Point":1677,"]]++;":1678,"&(":1679,"Ġbegin":1680,"19":1681,"100000000":1682,"eger":1683,"Ġque":1684,"Ġmulti":1685,"ited":1686,"Ġ'<<":1687,"be":1688,"tion":1689,"Ġcomment":1690,"Val":1691,"Ġerr":1692,"Ġ),":1693,"500":1694,"avx":1695,"odd":1696,"cost":1697,"lity":1698,"17":1699,"DE":1700,"WK":1701,",_":1702,"hash":1703,"har":1704,"jj":1705,"ative":1706,")<<\",":1707,"from":1708,"index":1709,")));":1710,"vl":1711,"ly":1712,"och":1713,"Ġpw":1714,"ory":1715,"Ofast":1716,"linker":1717,"ave":1718,"complex":1719,"ven":1720,");++":1721,"Ġver":1722,"dep":1723,"ang":1724,"):":1725,"epoch":1726,"since":1727,"Ġ(((":1728,"curr":1729,"Ġexit":1730,"random":1731,"Ġ\"/":1732,"]),":1733,"23":1734,"req":1735,"////////////////////////////////":1736,"-')":1737,"GGGGGGGG":1738,"wo":1739,"Ġbin":1740,"/**":1741,"sh":1742,"write":1743,"ach":1744,"su":1745,"Ġpp":1746,"Ġdbg":1747,"Ġiter":1748,"arg":1749,"Ġthis":1750,"Ġanswer":1751,"++]":1752,"mark":1753,"Ġ100000":1754,"MatrixSize":1755,"Ġsf":1756,"Ġrall":1757,"utility":1758,"Ġcalc":1759,"100000":1760,">>(":1761,"]])":1762,"acro":1763,"our":1764,"Ġbest":1765,"ĠIOS":1766,"substr":1767,"),(":1768,"Ġ^=":1769,"59":1770,"Ġ///":1771,"28":1772,"lazy":1773,"Ġtm":1774,"stead":1775,"Ġke":1776,"own":1777,"Ġinput":1778,"Iterator":1779,"heap":1780,"MaxMatrixSize":1781,"âĸĮ":1782,"Ġneed":1783,"AS":1784,"Ġ++;":1785,"Ġstat":1786,"Ġcmp":1787,"Ġno":1788,"Ġdata":1789,"init":1790,"Pos":1791,"ca":1792,"Time":1793,"vel":1794,"array":1795,"lower":1796,"Ġprev":1797,"Ġ\")":1798,".....":1799,"27":1800,"Ġoo":1801,"ĠPoint":1802,"Ġlb":1803,"Ġrhs":1804,"stringstream":1805,"rk":1806,"Ġvl":1807,"constexpr":1808,"ĠInt":1809,"Ġ30":1810,"Ġyy":1811,"Ġlli":1812,"Ġaa":1813,"sim":1814,"60":1815,"vs":1816,"Ġ(*":1817,"te":1818,"Ġrng":1819,"Ġputchar":1820,"++,":1821,"TES":1822,"ross":1823,"AT":1824,"mat":1825,"Char":1826,"Ġ26":1827,"names":1828,"','.','.','.','.":1829,"9999":1830,"__,":1831,"ĠĠĠĠĠĠĠĠĠĠĠĠĠĠĠĠĠĠĠĠ":1832,"static":1833,"new":1834,"âķĲ":1835,"steady":1836,"ĠMax":1837,"buf":1838,"Ġ\"]":1839,"iv":1840,"ĠĠĠĠĠĠĠĠĠĠĠĠĠĠĠĠĠĠĠĠĠĠĠĠĠĠĠĠĠĠĠĠĠĠĠĠĠĠĠĠĠĠĠĠĉ":1841,"Ġlazy":1842,"................................":1843,"co":1844,"___":1845,")==":1846,"ĠPII":1847,"29":1848,"Ġ'.":1849,"Ġwh":1850,"ms":1851,"Ġtt":1852,"memory":1853,"ĠĠĠĠĠĠĠĠĠĠĠĠĠĠĠĠĠĠĠĠĠĠĠĠĠĠĠ":1854,"------":1855,"db":1856,"Ġstatic":1857,"CRT":1858,"less":1859,"emplace":1860,"Case":1861,"Count":1862,"Ġemplace":1863,"Ġtl":1864,"URE":1865,"Ġbig":1866,"###":1867,"Ġindex":1868,"13":1869,"erge":1870,"KKKKKKK":1871,"Ġnot":1872,"ĠMP":1873,"hor":1874,"Yes":1875,"Ġistream":1876,"Ġmt":1877,"key":1878,"power":1879,"ĠDB":1880,"','":1881,"Tree":1882,"ays":1883,"ust":1884,"SECURE":1885,"tex":1886,"Ġdel":1887,"\".":1888,"ĠPB":1889,";.":1890,"ord":1891,"200005":1892,"Ġrange":1893,"Ġupd":1894,"mi":1895,"Ġfill":1896,"Ġgc":1897,"Ġcurr":1898,"Ġrev":1899,"file":1900,"pref":1901,"sol":1902,"Ġan":1903,"Ġfin":1904,"tf":1905,"Type":1906,"Ġtime":1907,"ance":1908,"element":1909,"Ġbuf":1910,"Ġedge":1911,"]]=":1912,"iiii":1913,"ice":1914,"<=(":1915,">>=":1916,"tuple":1917,"loat":1918,"loops":1919,"(;":1920,"Ġcc":1921,"Ġnorm":1922,"cr":1923,"Ġby":1924,"Ġsu":1925,"Ġli":1926,"Ġline":1927,"sqrt":1928,"################################":1929,"))%":1930,"AN":1931,"âĸĦâĸĦ":1932,"ALL":1933,"nx":1934,"Ġarray":1935,"},{":1936,"ter":1937,"Ġsi":1938,"Ġmark":1939,"%%":1940,"Ġinsert":1941,"Ġexp":1942,"Ġ\"[":1943,"ĠĠĠĠĠĠĠĠĠĠĠĠĠĠĠĠĠĠĠĠĠ":1944,"ard":1945,"iend":1946,"popcnt":1947,"rime":1948,"reverse":1949,"Ġmk":1950,"OF":1951,"âĶ":1952,"();}":1953,"calc":1954,"digit":1955,"Ġco":1956,"Ġ',":1957,"ĠMX":1958,"roll":1959,"Edge":1960,"ĠĠĠĠĠĠĠĠĠĠĠĠĠĠĠĠĠĠ":1961,"tl":1962,"SZ":1963,"Ġps":1964,"Out":1965,"/********************************":1966,"md":1967,"unsigned":1968,")),":1969,"cp":1970,"Ġrr":1971,"Ġ|=":1972,"1010":1973,"DDD":1974,"Ġfile":1975,"multi":1976,"mmx":1977,"ĠFI":1978,"flush":1979,"ssse":1980,";;;;;;;;":1981,"unroll":1982,"Ġ(;":1983,"ial":1984,"abm":1985,"IZ":1986,"ift":1987,"GGG":1988,"âĶĢ":1989,"Min":1990,"KE":1991,"40":1992,"pq":1993,"ank":1994,",,,,,,,,":1995,"arch":1996,"Arr":1997,"ln":1998,"mall":1999,"âķ¬":2000,"FS":2001,"high":2002,"8888888888888888":2003,"])%":2004,"DDDDDDDDDDDD":2005,"57":2006,"]%":2007,"NIN":2008,"br":2009,"best":2010,"ARNIN":2011,"Ġdepth":2012,"ET":2013,"Ġmi":2014,"Ġrand":2015,"WARNIN":2016,"ls":2017,"WARNINGS":2018,"]<<":2019,"TT":2020,"clim":2021,"Integer":2022,"Ġĉĉ":2023,"Ġpc":2024,"une":2025,"FILE":2026,"Ġthrow":2027,"Ġdiff":2028,"der":2029,"Ġnumber":2030,"Ġiterator":2031,"ution":2032,"Ġfore":2033,"Ġub":2034,"WWWWWWW":2035,"climits":2036,">=(":2037,"St":2038,")?":2039,"]>=":2040,"=\"":2041,"uthor":2042,"flow":2043,"limits":2044,"fixed":2045,"ra":2046,"OUT":2047,"setprecision":2048,"AST":2049,"\\\\":2050,"Ġrow":2051,"maxN":2052,"Ġbs":2053,"3456":2054,"MMMMMMMMMMMMMMMM":2055,"Ġone":2056,"IZE":2057,"!!":2058,"à§":2059,"Ġnames":2060,"native":2061,"Ġ');":2062,"WWWWWW":2063,"Line":2064,"diff":2065,"EEEEEEEEEEEE":2066,"Ġ.,;":2067,"**************":2068,"Ġstruct":2069,"mm":2070,"â£¿â£¿â£¿â£¿â£¿â£¿â£¿â£¿":2071,"Ġedges":2072,"by":2073,"dx":2074,"prev":2075,"ĠĠĠĉ":2076,"Ġ\"\";":2077,"ĠFor":2078,"EC":2079,"â£¿â£":2080,"tune":2081,"Ġneg":2082,"Ġtotal":2083,"://":2084,"onent":2085,"use":2086,"21":2087,"]<=":2088,"DEBUG":2089,"Ġ32":2090,"Ġgraph":2091,"Ġ{-":2092,"KKKKKK":2093,"\"\"":2094,"âĸĲ":2095,"00010":2096,"ĠĠĉ":2097,"Ġper":2098,"Ġrt":2099,"Ġzero":2100,"NN":2101,"sible":2102,"*-":2103,"print":2104,"Ġprimes":2105,"<<'\\":2106,"ik":2107,"Ġ(__":2108,"itr":2109,"debug":2110,"Ġare":2111,"Ġ100005":2112,"Ġhigh":2113,"NU":2114,"Ġdeb":2115,"fj":2116,"ctype":2117,"Ġ(\"%":2118,"âķ¬âķ¬":2119,"ĠVI":2120,"rc":2121,"ĠCLOCKS":2122,"ION":2123,"forn":2124,"Ġta":2125,"Ġcomma":2126,"ĠINT":2127,"ACK":2128,"25":2129,"264":2130,"Ġsync":2131,"Ġ-*-":2132,"â¢Ģ":2133,",\"":2134,"head":2135,"Ġbb":2136,"101":2137,"89":2138,"111":2139,"ĠInput":2140,"obj":2141,"ONG":2142,":::":2143,"parent":2144,"()))":2145,"Ġgen":2146,"Ġ~":2147,"Ġal":2148,"Ġhash":2149,"']":2150,";--":2151,"Ġqueue":2152,"OG":2153,"rint":2154,"Ġ\"%":2155,"47":2156,"Ġï¿½ï¿½ï¿½ï¿½ï¿½ï¿½":2157,"onoid":2158,"build":2159,"(\"\");":2160,",.":2161,"iter":2162,"deg":2163,"STACK":2164,"Ġbo":2165,"log":2166,"Ġgreater":2167,"Ġ1000000000":2168,"ĠZ":2169,"ask":2170,"result":2171,"PB":2172,"ud":2173,"rb":2174,"Ġ.:":2175,"Ġà¦":2176,"<<-":2177,"105":2178,"Ġ\"(\"":2179,"Ġrd":2180,"Ġoutput":2181,"child":2182,"000000":2183,"!=(":2184,"Ġ'-')":2185,"enter":2186,"'s":2187,"ry":2188,"Ġwith":2189,"big":2190,"cy":2191,"kk":2192,"));}":2193,"Ġmodular":2194,"14159265358979323846264":2195,"WKK":2196,"Ġloop":2197,"ĠPR":2198,"âĸĵ":2199,"fa":2200,"ĠĠĠĠĠĠĠĠĠĠĠĠĠĠĠĠĠĠĠĠĠĠĠĠĠĠĠĠĠĠĠĠĠĠĠĠĠĠĠĠĠĠĠĠĉĉ":2201,"Ġscani":2202,"Ġlim":2203,"49":2204,"AME":2205,"fac":2206,"'||":2207,"ĠNode":2208,"Range":2209,"rs":2210,"@@@@@@@@":2211,"bo":2212,"maxi":2213,"--,":2214,"acos":2215,"Ġel":2216,"Ġcomplex":2217,"['":2218,"Ġmat":2219,"popcountll":2220,"DEEEE":2221,"Ġnormal":2222,"Ġwe":2223,"(#":2224,"ux":2225,"priority":2226,"Value":2227,"(\"%.":2228,"]='":2229,"Ġhell":2230,"67":2231,"action":2232,")]":2233,"[](":2234,"_|":2235,"Ġoth":2236,"ces":2237,"#####":2238,"Ġsm":2239,"ĉĉĉĉĉĉĉ":2240,"af":2241,")&":2242,")<<\"":2243,",:":2244,"ND":2245,"ny":2246,"po":2247,"]],":2248,"ain":2249,"1415926535897932384626433":2250,"}}":2251,"ded":2252,"upper":2253,"Ġ\"-":2254,"WWWWWWWWW":2255,"ĠJ":2256,"Ġvpii":2257,"Ġclr":2258,"Ġdeg":2259,"PII":2260,"ire":2261,"old":2262,"greater":2263,"ĠĠĠĠĉĉĉ":2264,"ors":2265,"Long":2266,"ri":2267,"Ġbfs":2268,"**/":2269,"Ġmaxi":2270,"Ġeb":2271,"Ġext":2272,"tc":2273,"Ġmacro":2274,"ope":2275,"OW":2276,"......":2277,"we":2278,"âłĢ":2279,"âĶĢâĶĢ":2280,"ĠĠĊ":2281,"Ġpath":2282,"umber":2283,"_(":2284,"Ġct":2285,"aken":2286,"here":2287,"80":2288,"do":2289,"Ġ`":2290,"Ġcase":2291,"mon":2292,"ai":2293,"NAME":2294,"Str":2295,"Ġtop":2296,"Input":2297,"ED":2298,"neg":2299,"__;":2300,"ĠĠĠĠĠĠĠĠĠĠĠĠĠĠĠĠĠĠĠĠĠĠĠĠĠĠĠĠĠĠ":2301,"blem":2302,"edges":2303,"Ġodd":2304,"ition":2305,"Ġchk":2306,"Ġfriend":2307,"****************************************************************":2308,"ĠPT":2309,"âĸĳâĸĳâĸĳ":2310,"derr":2311,"123":2312,"ho":2313,"visited":2314,"rg":2315,"ant":2316,"000000000":2317,"Ġvc":2318,"ĠĠĠĠĠĠĠĠĠĠĠĠĠĠĠĠĠĠĠĠĠĠĠĠĠĠĠĠĠĠĠĠĠĠĠĠĠĠĠĠĠĠĠĠĠĠĠĠ":2319,"ĉĉĉčĊ":2320,"();++":2321,"Ġï¿½ï¿½ï¿½ï¿½ï¿½ï¿½ï¿½ï¿½":2322,"sm":2323,"rev":2324,")((":2325,"ĠĠĠĠĠčĊ":2326,"/(":2327,"LI":2328,"tm":2329,"rent":2330,"()),":2331,"NOTES":2332,"Ġunordered":2333,"Ġorder":2334,"ara":2335,"qual":2336,"cept":2337,"CT":2338,"Ġpl":2339,"EM":2340,"54":2341,"Ġmerge":2342,"Ġme":2343,"Ġshift":2344,"âķĲâķ":2345,"&...":2346,"cmp":2347,"Ġ11":2348,"()==":2349,"ĠĠĠĠĠĠĠĠĠĠĠĠĠĠĠĠĠĠĠĠĠĠĠĠĠĠĠĠĠĠĠĠĠĠĠĠĠĠĠĠĠĠĠĠĠĠĠĠĠĠĠĠĠĠĠĠĠĠĠĠĠĠĠĠĠĠĠĠĠĠĠĠĠĠĠĠĠĠĠĠĠĠĠĠĠĠĠĠĠĠĠĠĠĠĠĠĠĠĠĠĠĠĠĠĠĠĠĠĠĠĠĠĠĠĠĠĠĠĠĠĠĠĠĠĠĠĠĠ":2350,"ies":2351,"pw":2352,"ump":2353,"ĠPrint":2354,"::::::::":2355,"sy":2356,"}\";":2357,")<<\"\\":2358,"namespace":2359,"bl":2360,"arry":2361,"Ġnl":2362,"Ġbr":2363,"isdigit":2364,"34567":2365,"Ġother":2366,"]]);":2367,"cctype":2368,"Ġ')":2369,"ACRO":2370,"fin":2371,"Ġfac":2372,",,,":2373,"Ġ\"]\";":2374,"888":2375,"ĠFAST":2376,"ek":2377,"Ġhtt":2378,"mag":2379,"Ġsec":2380,"66":2381,"PI":2382,"Ġmodint":2383,"14159265358979323846264338":2384,"my":2385,"Ġfo":2386,"upd":2387,"ĠSQ":2388,"texs":2389,"UN":2390,"ĠÐ":2391,"Ġdig":2392,"Ġ][":2393,"Ġpdd":2394,"1000000007":2395,"Ġmultiset":2396,"â¢¿":2397,"Ġwas":2398,"Ġ>::":2399,"Ġhead":2400,")>>":2401,"TS":2402,"Ġcross":2403,"ĠĠĠĠĠĠĠĠĠĠĠĠĠĠĠĠĠĠĠĠĠĠĠĠĠĠ":2404,"Ġ\"[\";":2405,"1005":2406,"ute":2407,"Ġrnd":2408,"path":2409,";;;":2410,"ĠLINF":2411,"bj":2412,"rest":2413,"oth":2414,"Ġkey":2415,"Iter":2416,"tail":2417,"multiset":2418,"cs":2419,"float":2420,"hite":2421,"Ġ];":2422,"pro":2423,"Ġvisited":2424,"bad":2425,"Ġtc":2426,"ieve":2427,"clz":2428,"........................":2429,"ear":2430,"jk":2431,"Ġmodul":2432,")<":2433,"ĠVector":2434,"disp":2435,"unc":2436,"imer":2437,"39":2438,"[++":2439,"del":2440,"Ġ12":2441,"Ġlst":2442,"Ġbound":2443,"--------------":2444,"nod":2445,"ĠĠĠĠĠĠĠĠĠĠĠĠĠĠĠĠĠĠĠĠĠĠĠĠĠĠĠĠĠ":2446,"Ġcont":2447,"Child":2448,"EK":2449,"WWWWW":2450,"ĠLD":2451,"ww":2452,"Ġfn":2453,"Ġlevel":2454,"Ġbinary":2455,"Ġ&_":2456,"Ġ(_":2457,"need":2458,"color":2459,"Ġfabs":2460,"ĠComp":2461,"68":2462,"cpp":2463,"search":2464,"0000000000":2465,"ĠĠĠĠĠĠĠĠĠĠĠĠčĊ":2466,"ivate":2467,"61":2468,"wt":2469,"ĠMin":2470,"ĠMonoid":2471,"Ġ\")\";":2472,"ĠĠĠĠĠĠĠĠĠĠĠĠĠĠĠĠĠĠĠĠĠĠĠĠĠ":2473,"Ġsign":2474,"Ġvar":2475,"exit":2476,"âĸĳâĸĳâĸĳâĸĳâĸĳâĸĳâĸĳâĸĳ":2477,"XX":2478,"raction":2479,"Ġnd":2480,"ĠĠĠĠĠĠĠĠĠĠĠĠĠĠĠĠĠĠĠĠĠĠĠĠ":2481,"Ġgood":2482,"Ġloc":2483,"Ġitr":2484,"1000000":2485,"100010":2486,"1415926535897932384626433832":2487,")+(":2488,"==-":2489,"atcher":2490,"Ġnx":2491,"================================":2492,"'\\":2493,"Ans":2494,"nn":2495,"Ġsd":2496,"Ġri":2497,"Ġthat":2498,"Ġacc":2499,"dispatcher":2500,"case":2501,"ĉĉĊ":2502,"ĠMEM":2503,"ASE":2504,"VI":2505,"&]":2506,"(#__":2507,"dy":2508,"Ġfa":2509,"Ġtuple":2510,"Ġ<<\"":2511,"iple":2512,"son":2513,"Ġhave":2514,"ĠDBN":2515,"EEEEEEEEEEEEEEEE":2516,"Ġ});":2517,"20000":2518,"Ġsy":2519,"ASK":2520,"Ġ\"{":2521,"ork":2522,"ource":2523,"ome":2524,"Ġlength":2525,"CLOCKS":2526,"Ġtwo":2527,"For":2528,"Ġeven":2529,"Ġ].":2530,"Ġ--------------------------------":2531,"Ġtp":2532,"dbg":2533,"Prime":2534,"ulate":2535,"fore":2536,"Ġlog":2537,"Ġvb":2538,"pha":2539,"erse":2540,"df":2541,"ĠNULL":2542,";}}":2543,"Sum":2544,"Le":2545,"Ġ1000000":2546,"Ġ200":2547,"1001":2548,"++--++--++--++--++--++--++--++--++--++--++--++--++--++--++--++--":2549,"ew":2550,"Ġcy":2551,"Ġerror":2552,"IME":2553,"comma":2554,"assign":2555,"Ġoff":2556,"cap":2557,"was":2558,"*****":2559,"ðŁ":2560,"()+":2561,"Ġuse":2562,"GGGDDDDDDDDDDDD":2563,"141592653589793238462643383279":2564,"Ġobj":2565,"ĠDI":2566,"depth":2567,";:":2568,"Con":2569,"tu":2570,"************************":2571,"ĠDFS":2572,"Ġ50":2573,"Ġstrlen":2574,"Ðµ":2575,"Ġ15":2576,"ĠOO":2577,");(":2578,"stdinPos":2579,"69":2580,"ish":2581,"300":2582,"Ġsin":2583,"ĠLong":2584,"ĠLOG":2585,"total":2586,"âłĢâłĢ":2587,"Ġcode":2588,"Ġdd":2589,"]:":2590,"[],":2591,"Ġrec":2592,"ĠPLL":2593,"cltype":2594,"Ġvpll":2595,"Ġargc":2596,"'t":2597,"sec":2598,"opy":2599,"),&(":2600,"'&&":2601,"LG":2602,"tp":2603,"stem":2604,"IL":2605,"Ġmini":2606,"ĠGet":2607,"freq":2608,"Array":2609,"stderr":2610,"Ġhere":2611,"Ġ[&]":2612,")++)":2613,"Ð¾":2614,"\",(":2615,"&&(":2616,"CH":2617,"AD":2618,"ĠRE":2619,"Ġmult":2620,"irection":2621,"Ġlg":2622,"Ġost":2623,"NUM":2624,"Ġfst":2625,"egment":2626,"Ġdelta":2627,"++++":2628,"ĠTR":2629,"Ġstringstream":2630,"Ġnodes":2631,"$$":2632,"KKKKKKKKKK":2633,"EEEEEEEEEEE":2634,"ser":2635,"07":2636,"Imp":2637,"fill":2638,"cast":2639,"Ġab":2640,"Ġara":2641,"41":2642,"anc":2643,"Ġqu":2644,"Ġĉĉĉ":2645,"ĠĠĠĉĉ":2646,"3333":2647,"[{":2648,"Ġcolor":2649,"Ġptr":2650,"Ġtriple":2651,")[":2652,"ĠAns":2653,"09":2654,"eps":2655,"macro":2656,"Ġpro":2657,"putchar":2658,"Ġdec":2659,"zero":2660,"vll":2661,"]>>":2662,"ä¸":2663,"Ġsk":2664,"Ġforr":2665,"Ġ----------------":2666,"]=-":2667,"ĠEOF":2668,"Ġchild":2669,"Ġmatrix":2670,"â¡¿":2671,"Ġbad":2672,"EED":2673,"63":2674,"MIN":2675,"Ġï¿½ï¿½ï¿½ï¿½ï¿½":2676,"44":2677,"128":2678,"lst":2679,"Ġ\".":2680,"KW":2681,"LGG":2682,"ĠmaxN":2683,"Ġrank":2684,"Ġ___":2685,"Ġ\"<<(":2686,"'+":2687,"me":2688,"sign":2689,"real":2690,"ĠTail":2691,"ĠMatrix":2692,"87":2693,"<='":2694,".......":2695,"ui":2696,"Ġiii":2697,"mini":2698,"Ġ200005":2699,"ĠMIN":2700,"CTION":2701,"level":2702,"Ġ!(":2703,"[])":2704,"msk":2705,"Ġdif":2706,"Ġspl":2707,"11111111":2708,"Power":2709,"qr":2710,"Ġalloc":2711,"51":2712,"Ex":2713,"Ġ19":2714,"down":2715,"lint":2716,"primes":2717,"ĠSolve":2718,"â£¯":2719,"Ġ++){":2720,"ere":2721,"ij":2722,"ile":2723,"rd":2724,"ĠULL":2725,"ated":2726,"ister":2727,"âĸĪâĸĪâķ":2728,"[\"":2729,"Ġtake":2730,"Ġpd":2731,"ĠAll":2732,"Ġbounds":2733,"dir":2734,"gister":2735,"Ġsgn":2736,"AA":2737,"Ġfprintf":2738,"ĠĠĠĠĠĠĠĠĠĠĠĠĠĠĠĠĠĠĠĠĠĠĠĠĠĠĠĠĠĠĠĠĠĠĠĠĠĠĠ":2739,"ĠFORE":2740,"Ġhttps":2741,"inp":2742,"Ġfunction":2743,"Ġinc":2744,"ĠAuthor":2745,"ĠĠĠĠĠĠĠĠĠĠĠĠĠĠĠĠĠĠĠĠĠĠĠĠĠĠĠĠĠĠĠĠĠĠĠĠĠĠĠĠĠĠĠ":2746,"ĠUn":2747,"Ġmm":2748,"ĠFILE":2749,"ick":2750,"Ġ'.')":2751,"small":2752,"number":2753,"locked":2754,"Ġwill":2755,"'},{":2756,"]-=":2757,"-=(":2758,"cross":2759,"}};":2760,"answer":2761,"Ġ500":2762,"))/":2763,"...);}":2764,"â£·":2765,"â£Ł":2766,"Ġqr":2767,"ĠVA":2768,"Ġyour":2769,"ization":2770,"EEK":2771,"fjt":2772,"SIZE":2773,"Ġfreq":2774,"ef":2775,"eed":2776,"&&...":2777,"()(":2778,"\",&(":2779,"hitespace":2780,"ï¿½ï¿½ï¿½":2781,"fst":2782,"Ġkol":2783,"Ġrest":2784,"Ġboost":2785,"ĠIN":2786,"^=":2787,"_,":2788,"Ġcr":2789,"Ġhas":2790,"ply":2791,"\";}":2792,"200000000":2793,">());":2794,"ref":2795,"Ġmemo":2796,"Ġ(-":2797,"Ġlca":2798,"+'":2799,"()->":2800,"side":2801,"DEF":2802,"MN":2803,"Mul":2804,"state":2805,"Ġ17":2806,"ev":2807,"mo":2808,"good":2809,"Ġstep":2810,"Ġ\");":2811,"Ġ60":2812,"]/":2813,"bin":2814,"Ġ{{":2815,"Ġppb":2816,"Ġ123":2817,"Ġny":2818,"]=='.":2819,"two":2820,"Ġ16":2821,"ĠDirection":2822,"ĉĠĠĠĠĠĠĠ":2823,"à§ĩ":2824,"Set":2825,"ĠMACRO":2826,"Ġvalues":2827,"ãĢ":2828,"ify":2829,")>":2830,"[*":2831,"()<<":2832,"valc":2833,"Ġreset":2834,"Ġsep":2835,"____________":2836,"()>":2837,"Ġargv":2838,"Ġ',');":2839,")=(":2840,"Ġsuf":2841,"vers":2842,"scan":2843,"110":2844,"Ġmove":2845,"////////////////////////////////////////////////////////////////":2846,"nk":2847,"uck":2848,"Ġdir":2849,"ĠĠĠĠĠĠčĊ":2850,"Ġflow":2851,"WKKKKK":2852,"Ġfx":2853,"Ġvd":2854,"jji":2855,"ï¼":2856,"Ġpo":2857,"ĠRA":2858,"Ġstream":2859,"Ġnargs":2860,"100100":2861,"sent":2862,"ĠFraction":2863,"Ġsl":2864,")];":2865,"Ġcap":2866,"Ġelement":2867,"Ġins":2868,"ĠST":2869,"ide":2870,"lb":2871,"Comp":2872,"âĸĪâĸĪâĸĪ":2873,"VEC":2874,"Ġback":2875,"ĠCL":2876,"elper":2877,"dif":2878,"nb":2879,"Ġpublic":2880,"nce":2881,"ĠModular":2882,"2000":2883,"sl":2884,"Ġxy":2885,"dq":2886,"orary":2887,"OL":2888,"PP":2889,"ossible":2890,"FFFF":2891,"UNCTION":2892,")=":2893,"even":2894,"!=-":2895,">();":2896,"Ġck":2897,"Ġlist":2898,"Ġ>(":2899,"ĠTT":2900,"IM":2901,"Ġsuff":2902,"Ġ*(":2903,"=((":2904,"Ġscl":2905,"Ġrs":2906,"form":2907,"Ġln":2908,"<<*":2909,"5555":2910,"Ġ--)":2911,"Ġ--;":2912,"Ġdown":2913,"Scan":2914,"Ġcand":2915,"block":2916,"ĠĠĠĠĠĠĠĠĠĠĠĠĠĠĠĠĉ":2917,"vert":2918,"]&&":2919,"---":2920,"step":2921,"Ġ[&](":2922,"range":2923,"Ġce":2924,"olution":2925,"USE":2926,"Ġvp":2927,"Ġfori":2928,"Ġris":2929,":\"":2930,"Ġbl":2931,"ĠSP":2932,"Ġ'?":2933,"â£¿â¡":2934,"buff":2935,"Cnt":2936,"]==-":2937,"Ġ&=":2938,"Start":2939,"Ġsplit":2940,"Ġdone":2941,"Ġshort":2942,"raph":2943,"ure":2944,"altu":2945,"Ġui":2946,"Pow":2947,"Test":2948,"Ð°":2949,"ĉĠĉ":2950,"Ġref":2951,"ĠgetChar":2952,"perm":2953,"String":2954,"']++;":2955,"Ġsa":2956,"]!=-":2957,"ward":2958,"0000000":2959,"Ġfy":2960,"ĠInf":2961,"Ġbigmod":2962,"Ġfto":2963,"Ġmaxim":2964,"1234567":2965,"âĸĢâĸĦ":2966,"Bit":2967,"Vector":2968,"suf":2969,"Ġ\"}\";":2970,"sa":2971,"Ġio":2972,"Ġfd":2973,"stri":2974,")/(":2975,"ĠreadInt":2976,"_;":2977,"Ġ(~":2978,"Ġtrans":2979,"tint":2980,"SERT":2981,"End":2982,"100001":2983,"qq":2984,"var":2985,"Ġ>;":2986,"Ġte":2987,"Ġev":2988,"Ġkk":2989,"Ġstrchr":2990,"Ġdiv":2991,"IMP":2992,"Ġ{};":2993,"Ġfflush":2994,"Ġblock":2995,"ircle":2996,"ĠMA":2997,"ACE":2998,"Ġkek":2999,"Ġsieve":3000,"Ġ10000000":3001,"ĠĠĉĉ":3002,"Ġ;}":3003,"Ġpowmod":3004,"âĸĵâĸĵ":3005,"``":3006,"Ġlp":3007,"Ġva":3008,"Ġxxx":3009,"Ġjj":3010,"##~~":3011,"Ġwork":3012,"ĠRe":3013,"ucl":3014,"Ġcarry":3015,"tain":3016,"SU":3017,"tests":3018,"%%%%":3019,"Ġus":3020,"Ġsrand":3021,"Ġerase":3022,"âĢ":3023,"Ġford":3024,"ingle":3025,"Ġ'*":3026,"table":3027,"Ġdq":3028,"ĠĠĠĠĠĠĠĠĠĠĠĠĠĠĠĠĠĠĠĠĠĠĠĠĠĠĠĠ":3029,"Th":3030,"lvl":3031,"Ġlol":3032,"tri":3033,"'},{'.":3034,"Ġmodulus":3035,"inc":3036,"ctz":3037,"have":3038,"AB":3039,"]<<'":3040,"lc":3041,"entr":3042,"itt":3043,"unlocked":3044,"]]--;":3045,"Ġforeach":3046,"To":3047,"jti":3048,"Ġimp":3049,"WWK":3050,"WWKK":3051,"KKKKW":3052,"##_":3053,"ia":3054,"lg":3055,"++]=":3056,"Ġbits":3057,"ĠFF":3058,"trie":3059,"âĸĳâĸĳâĸĳâĸĳâĸĳ":3060,"]!='":3061,"ðŁĴ":3062,"cxx":3063,"ya":3064,"ðŁĴ©":3065,"='":3066,"Whitespace":3067,"Ġdr":3068,"FUNCTION":3069,"srand":3070,"hich":3071,"Inverse":3072,"Ùİ":3073,"Ġnn":3074,"Ġdot":3075,";(":3076,"ĠĠĠĠĠĠĠĠĊ":3077,"rec":3078,"''":3079,",...)":3080,"matrix":3081,"register":3082,"Helper":3083,"Ġmon":3084,"Ġrc":3085,"Ġwin":3086,"vals":3087,"graph":3088,"Ġtin":3089,"close":3090,"lca":3091,"Ġrg":3092,"________________________________":3093,"ĠTime":3094,"owel":3095,"ĠLLONG":3096,"200000":3097,"]?":3098,"uk":3099,"}//":3100,"Ġna":3101,"Ġve":3102,"exponent":3103,"ãģ":3104,"<<\"[":3105,"Ġprefix":3106,"Ġvertexs":3107,"tic":3108,"erence":3109,"ÑĤ":3110,"++];":3111,"Ġgrid":3112,"DB":3113,"ebug":3114,"ĠSIZE":3115,"DL":3116,"mk":3117,"Ġcs":3118,"Ġls":3119,"Ġaux":3120,"Ġrun":3121,"ID":3122,"ĠFast":3123,"-----":3124,"imag":3125,"Ġsmall":3126,"Ġover":3127,"Ġeprintf":3128,"Ġ'#":3129,"Ġchr":3130,"valid":3131,"228":3132,"done":3133,"=\"\";":3134,"ðŁĴ©ðŁĴ©":3135,"<_":3136,"store":3137,"Ġsout":3138,"Ġprv":3139,"]*(":3140,"nom":3141,"â£»":3142,"â£½":3143,";;;;;;":3144,"Ġthan":3145,"ru":3146,"Ġfaltu":3147,"Ġ'\"":3148,"Ġwr":3149,">='":3150,"(++":3151,"UL":3152,"Ġmii":3153,"apsed":3154,"()));":3155,"Re":3156,"lp":3157,"Ġchange":3158,"otate":3159,"oraryNode":3160,"Ġwhat":3161,"rng":3162,"<<\"-":3163,"ers":3164,"Ġdsu":3165,"))*":3166,",__":3167,"^(":3168,"uf":3169,"defor":3170,"GGGGGGGGGGGGGGGG":3171,"deforces":3172,")<(":3173,"KKKKKKKKKKKKKKK":3174,"WWWWWWWWWWW":3175,"DDDDDDDDDDD":3176,"EEEK":3177,"ĠĠĠĠĠĠĠĠĠĠĠĠĠĠĠĠĠĠĠĠĠĠ":3178,"ASSERT":3179,"EMP":3180,"cb":3181,"nl":3182,"nr":3183,"uu":3184,"];}":3185,"ĠNumber":3186,"Ġcenter":3187,"Ġfoo":3188,"Ġ>,":3189,"ĠThe":3190,"ĠModInt":3191,")-(":3192,"dot":3193,"kol":3194,"Ġlvl":3195,"Ġtail":3196,">>;":3197,"Ġstack":3198,"distance":3199,"]]==":3200,"Ġask":3201,"Ġbeg":3202,"Ġopt":3203,"eing":3204,"arge":3205,"à¦¾":3206,"ĠTRACE":3207,"ARY":3208,"div":3209,"/************************************************":3210,"SS":3211,"Ġsiz":3212,"ĠUN":3213,"cpy":3214,"move":3215,"ĠĠĠĠĉĉĉĉ":3216,"ĠĠĠĠĠĠĠčĊ":3217,"Ġtests":3218,"Ġmultiply":3219,"%(":3220,"Ġfloat":3221,":..":3222,"EN":3223,"Ġcopy":3224,"angle":3225,"Pro":3226,"ey":3227,"ov":3228,"ĠĠĠĠĠĠĠĠĉ":3229,"oup":3230,"ĠBig":3231,"Ġpat":3232,"<<\",":3233,"Ġstate":3234,"ĠDP":3235,"ĠEX":3236,"MAT":3237,"nect":3238,"***":3239,"Ġpiii":3240,"Ġfiles":3241,"âķ¬âķ¬âķ¬âķ¬":3242,"PT":3243,"Ġiiii":3244,"ifstream":3245,"argv":3246,"IntegerRange":3247,"98":3248,"Add":3249,"Ġpli":3250,"Ġwhich":3251,"Ġ(!(":3252,"ts":3253,"Ġ();":3254,"ROW":3255,"âĸĢâĸĢâĸĢâĸĢ":3256,"Ġrandom":3257,"\"[":3258,"FL":3259,"Se":3260,"utation":3261,"****************************************":3262,"99999999":3263,"Ġĉĉĉĉ":3264,"Ġmodnum":3265,"::.":3266,"Ġinfo":3267,"ĠGCD":3268,"Ġprecalc":3269,"Data":3270,"undef":3271,"Ġcomb":3272,"PUT":3273,"Ġ2000000000":3274,"ĠFORD":3275,"Impossible":3276,"hell":3277,"ba":3278,"gg":3279,"tti":3280,"vii":3281,"Ġlhs":3282,"Ġfir":3283,"Ġso":3284,"ffff":3285,"Ġsolution":3286,"dec":3287,"Ġones":3288,"\"]":3289,"Dist":3290,"Number":3291,"ĠIt":3292,"Ġfactor":3293,"TASK":3294,"nax":3295,"][(":3296,"ress":3297,"]]]]":3298,"cx":3299,"la":3300,"alpha":3301,"umulate":3302,"EEEEEE":3303,"Ġminim":3304,"oose":3305,"**************/":3306,"Ġfound":3307,"EEEEE":3308,"Ġvalid":3309,"ĠisPrime":3310,"Ġpoints":3311,"LD":3312,"==(":3313,"Ġdivi":3314,"plus":3315,"=*":3316,"OME":3317,"505":3318,"ersect":3319,"400":3320,">'":3321,"merge":3322,"ways":3323,"wr":3324,"Ġisp":3325,"Left":3326,"<'":3327,"ĉĉĠĠĠ":3328,"Ġdor":3329,"MMM":3330,"ĠIter":3331,"eb":3332,"lft":3333,"Ġgot":3334,"ĠSQR":3335,"256":3336,"=_":3337,"Ġï¿½ï¿½ï¿½ï¿½ï¿½ï¿½ï¿½":3338,">(),":3339,"mint":3340,"fter":3341,"bt":3342,"lol":3343,"}*/":3344,"\"),":3345,"Ġconstexpr":3346,"Ġcurrent":3347,"loc":3348,"error":3349,"nodes":3350,":::::":3351,"('\\":3352,"ĠEND":3353,"):(":3354,"Ġlc":3355,"5005":3356,"','.','.','.','.','.','.','.','.":3357,"eks":3358,"pc":3359,"Ġwhere":3360,"ĠSt":3361,"Ġvals":3362,"Ġdistance":3363,"Len":3364,"stra":3365,"Ġyes":3366,"Ġcn":3367,"ĠRep":3368,"Ġchrono":3369,"Ar":3370,"VER":3371,"ĠName":3372,"45":3373,"Read":3374,"Ġfs":3375,">>>":3376,"ĠEnd":3377,"(&":3378,"ipper":3379,"Ġ@":3380,");++(":3381,"(')":3382,"[_":3383,"og":3384,"Ġmaxx":3385,",,,,,,":3386,"pause":3387,"Id":3388,"ader":3389,"invd":3390,"prod":3391,"Ġqq":3392,"|(":3393,"Ñģ":3394,"Ġ[](":3395,");--":3396,"])+":3397,">()":3398,"CA":3399,"IG":3400,"bution":3401,"â£¿â£¿â£¿â£¿â£¿â£¿":3402,"/**************":3403,"EG":3404,"fabs":3405,"olower":3406,"uffer":3407,"1000005":3408,"src":3409,"Ġ**************/":3410,"Ġ<<(":3411,"prot":3412,"=='-')":3413,"sx":3414,"Ġopen":3415,"ions":3416,"Ġ~(":3417,"decltype":3418,"INES":3419,"######":3420,"MATH":3421,"acti":3422,"Ġ\"!":3423,"lear":3424,"ĉĉĉĉĉĉĉĉ":3425,"~~~~":3426,"ĠCLR":3427,"siz":3428,"Ġbug":3429,"DEFINES":3430,"One":3431,"[__":3432,"//*":3433,"Ġ\"#":3434,"(){}":3435,"fir":3436,"war":3437,"00001":3438,"Ġinp":3439,"@@@@@@@@@@@@@@@@":3440,"Ġ\"{\";":3441,"Ġlink":3442,"Ġlld":3443,"haust":3444,"Ġwho":3445,"problem":3446,"center":3447,"ql":3448,"wa":3449,"ueries":3450,"Ġscn":3451,"Ġdiag":3452,"Ġfunc":3453,"ould":3454,"fn":3455,"ger":3456,"inter":3457,"rect":3458,"Ġql":3459,"ceil":3460,"Ġcounter":3461,"bbbb":3462,"DK":3463,"the":3464,"Ġist":3465,"ĠGET":3466,"hausted":3467,"Double":3468,"bas":3469,"Ġmas":3470,"(\"/":3471,"WWWWWK":3472,",,,,,,,":3473,"WWWKK":3474,"WWWKKK":3475,"Ġshow":3476,"Ġ...:.":3477,"âĸĴâĸĴâĸĴâĸĴâĸĴâĸĴ":3478,"na":3479,"private":3480,"Ġncr":3481,"prv":3482,"ORT":3483,"stribution":3484,"__);":3485,"*=(":3486,"Ġsnd":3487,"Ġ++__":3488,"++;}":3489,"Ġgoa":3490,"Ġarea":3491,"1234":3492,"ield":3493,"prefix":3494,"bal":3495,"),_":3496,"ffl":3497,"protector":3498,"&-":3499,"BS":3500,"(!(":3501,"ecial":3502,"Ġlf":3503,"ended":3504,"ĠĠĠĠĠĠĠĠĠĠĠĠĠĠĠĠĠĠĠĠĠĠĠĠĠĠĠĠĠĠĠĠĠĠĠ":3505,"Ġ\"[\"":3506,"system":3507,"72":3508,"DEB":3509,"OO":3510,"nm":3511,"vc":3512,"lete":3513,"(((":3514,"Ġ1000000000000000000":3515,"ĠHead":3516,"Ġgener":3517,"'},{'.','.','.','.','.','.','.','.','.":3518,"IntegerIterator":3519,"Ð½":3520,"Ġni":3521,"Ġ18":3522,"Ġtaken":3523,"akh":3524,"||(":3525,"Ġreal":3526,"Ġprivate":3527,"ĠNIL":3528,"ĠRFOR":3529,"[--":3530,"çļ":3531,"Ġnr":3532,"lect":3533,"alf":3534,"Ġ29":3535,"Ġpri":3536,"ĠtemporaryNode":3537,"Ġmonth":3538,"çļĦ":3539,")!=":3540,"Ġsim":3541,"IMPL":3542,"BC":3543,"Ġcp":3544,"ĠmodMul":3545,"Ġ1000000009":3546,"ĠĠĠĊ":3547,"setf":3548,"ĠOUT":3549,"::::::":3550,":::::::":3551,"Ġ----------------------------------------------":3552,"iform":3553,"ĠSet":3554,"647":3555,"geeks":3556,"plic":3557,"bigmod":3558,"Ġam":3559,"Ġng":3560,"lev":3561,"age":3562,"âłĽ":3563,"90":3564,"Ġty":3565,"Ġ25":3566,"maxx":3567,"Ġuni":3568,"distribution":3569,"Buffer":3570,"win":3571,"org":3572,"Ġpld":3573,"â£¾":3574,"very":3575,"azu":3576,"2005":3577,"ĠAllah":3578,"Hash":3579,"suff":3580,"Ġer":3581,"==\"":3582,"off":3583,"ĠCode":3584,"\",\"<<":3585,"Ġexponent":3586,"Ġceil":3587,"(*(":3588,"day":3589,"oin":3590,"ĠFirst":3591,"Args":3592,":\\":3593,"hing":3594,"ĠNO":3595,"lt":3596,"nw":3597,"snd":3598,"})":3599,"Ġmsk":3600,"Ġbp":3601,"ĠSH":3602,"ĠCon":3603,"Ġ-->":3604,"Ġbuff":3605,"65":3606,"has":3607,"mult":3608,"ĠAdd":3609,"/__":3610,"FN":3611,"Ġdef":3612,"Ġï¿½":3613,"ument":3614,",,,,,,,,,,,,,,,,":3615,")?(":3616,"35":3617,"<<\"]":3618,"Ġ{+":3619,"Ġtable":3620,"70":3621,"}});":3622,"Ġts":3623,"Ġbinpow":3624,"':":3625,"DP":3626,"EL":3627,"Ġremove":3628,"Ġaccumulate":3629,"ĉĠĠ":3630,"Ġnw":3631,"ĠĠĠĠĠĠĠĠĠĠĠĠĠĠĠĠčĊ":3632,"Ġtrie":3633,"Ġord":3634,"âĸĦâĸĦâĸĦâĸĦ":3635,"KEE":3636,"Ġra":3637,"ofstream":3638,"ukazu":3639,"iw":3640,"ĠØ":3641,"Ġsolver":3642,"Ġtransform":3643,"Ġdeque":3644,"Ġvvll":3645,">{":3646,"acc":3647,"1024":3648,"âłĺ":3649,"By":3650,"Ġim":3651,"Ġnullptr":3652,"entroid":3653,"DEE":3654,"DEEE":3655,"Oper":3656,"PC":3657,"WKKKK":3658,"()]":3659,"ĠTargs":3660,"Ġmodify":3661,"Ġtri":3662,"WWWWWWWWWWWW":3663,"âĸĦâĸĢ":3664,"93":3665,"ĠPQ":3666,"ĠIT":3667,"CHAR":3668,"Ġ--------------------":3669,"yes":3670,"seq":3671,"Ġsame":3672,"ĠTree":3673,"MS":3674,"]});":3675,"va":3676,"Ġcum":3677,"enti":3678,"modular":3679,"ĠĠĠĠĠĠĠĠĠĠčĊ":3680,"Ġsegment":3681,")&&":3682,"And":3683,"ner":3684,"Ġ#__":3685,"ĠLine":3686,"ĠGod":3687,"readType":3688,"âĸĪâĸĪâĸĪâĸĪâĸĪâĸĪâĸĪâĸĪ":3689,"Ġbigint":3690,"other":3691,"300005":3692,"beg":3693,"__(":3694,"337":3695,"TESTS":3696,")][":3697,"eld":3698,"Ġmint":3699,"Ġ|_|":3700,"dsu":3701,"Ġelapsed":3702,"##~~##~~":3703,"Ġ('":3704,"Ġcall":3705,"Ġllong":3706,"ĠreadChar":3707,"codeforces":3708,"â¢¸":3709,"FILENAME":3710,"1415926535897932384626433832795":3711,"62":3712,";//":3713,"mq":3714,"oi":3715,"Ġfft":3716,"Ġinverse":3717,"Ġ48":3718,"argc":3719,"mode":3720,"ĠDEB":3721,"Ġatan":3722,"grid":3723,"ĠmodInverse":3724,"ĠDice":3725,"Ġdivis":3726,"boost":3727,"ĠĠĠĠĠĠĠĠĠĠĠĠĠĠĠĠĠĠĠĠĠĠĠĠĠĠĠĠĠĠĠĠĠĠĠĠĠĠĠĠĠĠĠĠĠĠĠĠĠĠĠĠĠĠĠĠĠĠĠĠĠĠĠĠĠĠĠĠĠĠĠĠĠĠĠĠĠĠĠĠĠĠĠĠĠĠĠĠĠĠĠĠĠĠĠĠĠĠĠĠĠĠĠĠĠĠĠĠĠĠĠĠĠĠĠĠĠĠĠĠĠĠĠĠĠĠĠĠĠĠĠĠĠĠĠĠĠĠĠĠĠĠĠĠĠĠĠĠĠĠĠĠĠĠĠĠĠĠĠĠĠĠĠĠĠĠĠĠĠĠĠĠĠĠĠĠĠĠĠĠĠĠĠĠĠĠĠĠĠĠĠĠĠĠĠĠĠĠĠĠĠĠĠĠĠĠĠĠĠĠĠĠĠĠĠĠĠĠĠĠĠĠĠĠĠĠĠĠĠĠĠĠĠĠĠĠĠĠĠĠĠĠĠĠĠĠĠĠĠĠĠĠĠĠĠĠ":3728,"gt":3729,"ple":3730,"ĠTIME":3731,"take":3732,"ÐĲ":3733,"Ġ....":3734,"(\".":3735,"Ġlimit":3736,"ĠREV":3737,"]=='.')":3738,"';}":3739,"Tr":3740,"ĠSegment":3741,"8888888":3742,"Ġlocal":3743,"//}":3744,"Ġdim":3745,"Ġ300":3746,"\":\"":3747,"Idx":3748,"tx":3749,"Ġvpi":3750,"Ġday":3751,"âķĲâķ¦":3752,"âķĲâķ©":3753,"ren":3754,">>>>":3755,"versed":3756,"vertexs":3757,"Ġ62":3758,"âķĲâķĲ":3759,"eap":3760,";};":3761,"AND":3762,"Ġskip":3763,"147":3764,"Des":3765,"Ej":3766,"Ġ2000":3767,"Ġostringstream":3768,"997":3769,"ĠreadType":3770,"Ġflush":3771,"MMMMMMMMMMMMMMMMMMMMMMMMMMMMMMMM":3772,";\\":3773,"Segment":3774,"ĉĉĉĉčĊ":3775,"ĠROF":3776,".........":3777,"ĠUpdate":3778,"uffle":3779,"ĠDBG":3780,"permutation":3781,",;;":3782,"hod":3783,")<=":3784,"ĠCom":3785,"illah":3786,"510":3787,"ĠÃ":3788,"Ġact":3789,"ĠdPower":3790,"Ġxs":3791,"loor":3792,"2222":3793,"################################################################":3794,"Use":3795,"Ġlft":3796,"Ġpil":3797,"strlen":3798,"Ġgetline":3799,"memo":3800,"'];":3801,"Right":3802,"Ġns":3803,"ĠTES":3804,"Ġwt":3805,"])-":3806,"88888":3807,"heck":3808,")//":3809,"Solve":3810,"px":3811,"Ġ<<=":3812,"ĠSET":3813,"Ġpresent":3814,"app":3815,"Ġang":3816,"Di":3817,"tj":3818,"arn":3819,"Ġho":3820,"Ġdbl":3821,"factor":3822,"Ġchkmax":3823,"IE":3824,"eq":3825,"onenti":3826,"Ġ++_":3827,"888888":3828,"Num":3829,"UE":3830,"night":3831,"ostringstream":3832,"same":3833,"Ġsx":3834,"+=\"":3835,"ORARY":3836,"EMPORARY":3837,"Pr":3838,"nost":3839,"vvi":3840,"ĠnValue":3841,"ĠfastIO":3842,"sqr":3843,"'))":3844,"AM":3845,"rhs":3846,"Ġ\"\"":3847,"fflush":3848,"Ð¸":3849,"ÑĢ":3850,"Ġlint":3851,"Of":3852,"ys":3853,"Ġero":3854,"Ġdc":3855,"ĠMS":3856,"change":3857,"Ġstk":3858,"resolution":3859,"Contain":3860,"gc":3861,"Ġro":3862,"ĠSL":3863,"EEEEEEE":3864,"Ġempty":3865,"ĠĠĠĠĠĠĠĠĠĠĠĠĠĠĠĠĠĠĠĠĠĠĠĠĠĠĠĠĠĠĠĠĠĠĠĠĠĠĠĠĠĠĠĠĠĠĠĠĉ":3866,")>=":3867,"288":3868,"WKKKKKKKK":3869,"author":3870,"Ġaaa":3871,"++);":3872,"WWKKK":3873,"EEEEEEEEEE":3874,"Ġ.:.":3875,"WWWWWWWWWW":3876,"DDDDDDDDDD":3877,"Ġ...,.":3878,"KKKKKKKKKKKKKKKKKKKKKKKK":3879,"Ġonly":3880,"tfLGG":3881,"403":3882,"â¢Ģâ¢Ģ":3883,"serve":3884,"//*//*":3885,"da":3886,"ei":3887,"xy":3888,"Ġpol":3889,"Ġenable":3890,"Ġdiagnost":3891,"Ġdiagnostic":3892,"DI":3893,"Ġvvl":3894,"Ġ100100":3895,"cepted":3896,"++++++++":3897,"ml":3898,"Ġfix":3899,"Ġtimer":3900,"Ġ200000":3901,"200010":3902,"Mode":3903,"PLL":3904,"np":3905,"not":3906,"Ġnod":3907,"conj":3908,"ĠSS":3909,"Ġ\\\\":3910,"14159265359":3911,"Ġlet":3912,"idul":3913,"ĠprContain":3914,"ĠCO":3915,"ĠPRINT":3916,"eded":3917,"(\"<<":3918,"ĠPro":3919,"âķĲâķ¦âķĲâķ©":3920,"Ġlnum":3921,"ocess":3922,"(_)":3923,"warukazu":3924,"'},{'.','.','.','.','.','.','.','.','.'},{'.','.','.','.','.','.','.','.','.":3925,"found":3926,"sd":3927,"ithub":3928,"ERO":3929,"*)":3930,"carry":3931,"Ġ'-'":3932,"Ġprec":3933,"Ġchkmin":3934,"ONLINE":3935,"ise":3936,"Ġclear":3937,"Ġtout":3938,"Ġini":3939,"Ġchoose":3940,"abc":3941,")].":3942,"AH":3943,"Ġ**":3944,"Ġcal":3945,"Ġap":3946,"){}":3947,"ĠAl":3948,"Index":3949,"âĸĪâĸĪâķĳ":3950,"ĠĠĠĉĉĉ":3951,"ĠFIN":3952,"Ġexhausted":3953,"ations":3954,"CC":3955,"who":3956,"Ġnp":3957,"Ġdud":3958,"Ġansw":3959,"Ġargument":3960,"MXN":3961,"Ġ14":3962,"+='":3963,"âł¹":3964,"limit":3965,"483":3966,"Ġvertex":3967,"ĠFILL":3968,"Exp":3969,"cum":3970,"match":3971,"Ġfen":3972,"ĠSORT":3973,"Ġ'?')":3974,"Al":3975,"CM":3976,"ĠBIT":3977,"(~":3978,"Ġds":3979,"Ġjt":3980,"Ġrge":3981,"Ġprod":3982,"Ġsystem":3983,"14159265358979323846264338327950":3984,"LOG":3985,"#######":3986,"Ġ100010":3987,"score":3988,"maining":3989,"Arrays":3990,"Path":3991,"Ð»":3992,"rease":3993,"ĠGraph":3994,"ally":3995,";;;;;;;":3996,"Ġnumbers":3997,"Last":3998,"github":3999,"Ġay":4000,"Ġmll":4001,"ĠCON":4002,"Ġview":4003,"hh":4004,"lhs":4005,"reate":4006,"Ġrepd":4007,"))))":4008,"friend":4009,"fun":4010,"Ġ'('":4011,"Ġchmin":4012,"Ġ1000005":4013,"]->":4014,"inverse":4015,"Ġ\"\")":4016,"Ġeach":4017,"((*":4018,"ĠEdge":4019,"-');":4020,"Head":4021,"Ġcx":4022,"Ġcor":4023,"Ġ*__":4024,"Init":4025,"ĠxyPoint":4026,"=%":4027,"]%=":4028,"ao":4029,"<<__":4030,"ĠTs":4031,"kek":4032,"ĠBU":4033,"active":4034,"Res":4035,"py":4036,"Ġ&(":4037,"Maxn":4038,"################################################":4039,"ersection":4040,"versedIntegerRange":4041,"Single":4042,"Ġinter":4043,"Ġresp":4044,"chk":4045,"Ġdecltype":4046,"1828":4047,"ĠInteger":4048,"Ġhoge":4049,"Equal":4050,"over":4051,"Ġsw":4052,"Ġsfl":4053,"Ġ40":4054,"ATE":4055,"Pair":4056,"ins":4057,"Ġsb":4058,"Ġeq":4059,"Ġ/\\":4060,"current":4061,"Ġreplace":4062,"VAR":4063,"run":4064,"Ġchmax":4065,"height":4066,"Ġsource":4067,"Ġtimes":4068,"ĠĠĠĠĠĠĠĠĠĠĠĠĠĠĠĠĠĠĠĠĠĠĠĠĠĠĠĠĠĠĠĠĠĠĠĠĠĠĠĠĠĠĠĠĠĠĠ":4069,"Ġ\\|":4070,"tolower":4071,"Ġ(#":4072,"Ġtim":4073,"Ġtag":4074,"let":4075,"ĠTH":4076,"Ġequal":4077,")).":4078,"â¢»":4079,"=='\\":4080,"onentiation":4081,"'][":4082,"fp":4083,"Ġ..":4084,"defined":4085,"Ġprop":4086,"ĠPi":4087,"Ġisprime":4088,"86":4089,"RI":4090,"ÙĦ":4091,"Ġ64":4092,"Ġpy":4093,"ĠII":4094,"ĠBASE":4095,"888888888888888888888888":4096,"Sub":4097,"bfs":4098,"Ġ...)":4099,"Ġpx":4100,"mas":4101,"Ġlev":4102,"delta":4103,"Find":4104,"vp":4105,"Ġ):":4106,"â£Ĩ":4107,"Ġsorted":4108,"Ġnever":4109,"â£¿â£¿â£¿â£¿â£¿â£¿â£¿â£¿â£¿â£¿â£¿â£¿â£¿â£¿â£¿â£¿":4110,"[]=":4111,"zz":4112,"Ġmset":4113,"Ġfail":4114,"Ġsigned":4115,"EDD":4116,"IR":4117,"WEEEEEEEEEEEE":4118,"KKE":4119,"KKW":4120,"WWKKKKK":4121,"Ġ256":4122,"Ġprim":4123,"<<\")":4124,"Ġ.::.":4125,"WWWK":4126,"Ġshould":4127,"tfGGGDDDDDDDDDDDD":4128,"Ġ.:;":4129,"fo":4130,"Ġ23":4131,"Ġthr":4132,",`":4133,"home":4134,"nu":4135,"ini":4136,"lem":4137,"....:":4138,"Ġ%.":4139,"ĠDebug":4140,"1000001":4141,"divi":4142,"âĶĢâĶĢâĶĢâĶĢ":4143,"GL":4144,"svalc":4145,"xs":4146,"Ġmo":4147,"Ġdt":4148,"Ġprep":4149,"203":4150,"aaaa":4151,"subtree":4152,"rightChild":4153,"78":4154,"Col":4155,"]^":4156,"ka":4157,"norm":4158,"rank":4159,"vb":4160,"Ġfout":4161,"ĠField":4162,"ĠPF":4163,"5000":4164,"call":4165,"ved":4166,"Ġï¿½ï¿½":4167,"seeing":4168,"arp":4169,"Ġreq":4170,"Ġge":4171,"Ġostr":4172,"Ġzipper":4173,"Ġany":4174,"Ġrtn":4175,"14159265358979323846264338327950288":4176,"Ġmatch":4177,"------------------------":4178,"Ġscore":4179,"Ġcols":4180,"Ġsfll":4181,"200001":4182,"147483":4183,"Ġmodinv":4184,"ĠCH":4185,"36":4186,"TN":4187,"func":4188,"Ġistringstream":4189,"Ġpal":4190,"llint":4191,"//~":4192,"Ġforit":4193,"ĠFT":4194,"ĠNL":4195,"field":4196,"area":4197,"Ġgi":4198,"Ġnumeric":4199,"leftChild":4200,"Ġcases":4201,"OU":4202,"Ġrel":4203,"Ġways":4204,"minus":4205,"10000000":4206,"1000000000":4207,"InputIterator":4208,"CD":4209,"code":4210,"taken":4211,"Ġft":4212,"Ġbal":4213,"!='":4214,"]);}":4215,"_____":4216,"ents":4217,"'));":4218,"Arg":4219,"cu":4220,"td":4221,"stk":4222,"Ġlps":4223,"segment":4224,"dbl":4225,"Ġ****************":4226,"reserve":4227,"Ġ(&":4228,"Ġpe":4229,"Ġbet":4230,"Ġ-(":4231,"__<<\":":4232,"ĠFind":4233,"load":4234,"Ġlbnd":4235,"uclide":4236,"imp":4237,"ose":4238,"*****/":4239,"Ġuid":4240,"Ġuti":4241,"Ġubnd":4242,"42":4243,";)":4244,"]&":4245,"Ġsrt":4246,"Ġ')';":4247,"+\"":4248,"Ġpob":4249,"ĠTimer":4250,"Ġpossible":4251,"à¦¿":4252,"ĠRAIter":4253,"?-":4254,"FI":4255,"Ġ**/":4256,"Ġbind":4257,"<<\",\"<<":4258,"Ġrepr":4259,"<<\"(\"<<":4260,"Ġconnect":4261,"Ġfastio":4262,"NNNN":4263,"Ġallocate":4264,"?\"":4265,"Op":4266,"Sz":4267,"The":4268,"Vs":4269,"bi":4270,"Ġ[]":4271,"Ġcd":4272,"ĠLB":4273,"âłī":4274,"14159265":4275,"Ġmodulo":4276,"buffer":4277,"147483647":4278,",'":4279,"Div":4280,"Ġsll":4281,"Ġtb":4282,"Ġtrav":4283,"Ġ',',":4284,"Ġdigit":4285,",:.":4286,"500005":4287,"â£¤":4288,"ĠRREP":4289,"============":4290,"ahman":4291,"ÐĲÐ":4292,":/":4293,"_)":4294,"dr":4295,"ĠTN":4296,"Ġvisit":4297,"Ġdefined":4298,"[]={-":4299,"âĸĴâĸĴâĸĴâĸĴâĸĴâĸĴâĸĴâĸĴ":4300,")++":4301,"hen":4302,"Ġpairt":4303,"â£¶":4304,"Ġldb":4305,")+'":4306,"\"\"\"\"":4307,"plicit":4308,"ĠTESTS":4309,"52":4310,"source":4311,"tar":4312,"Ġold":4313,"ĠIs":4314,"ĠFORN":4315,"Ġheight":4316,"ja":4317,"ki":4318,"rnd":4319,"reated":4320,"..........":4321,"counter":4322,"Ġ42":4323,"upid":4324,"Ġmsg":4325,"afe":4326,"www":4327,"Ġproblem":4328,"âķĲâķ¦âķĲâķ©âķĲâķ¦âķĲâķ©":4329,"IC":4330,"ject":4331,"ords":4332,"Ġla":4333,"Ġda":4334,"ert":4335,".\\":4336,"Ġax":4337,"Ġha":4338,"ĠRest":4339,"Ġ\";__":4340,"ĠOf":4341,"Ġoptimization":4342,"SET":4343,"Ġends":4344,"â¡ĩ":4345,"Ġperm":4346,"\">":4347,"DFS":4348,"Table":4349,"cn":4350,"Ġapp":4351,"()<":4352,"##########":4353,"Ġsci":4354,"MaxN":4355,")|":4356,"jt":4357,"ÙĲ":4358,"DDDDD":4359,"]]){":4360,"ï¿½ï¿½ï¿½ï¿½ï¿½ï¿½ï¿½ï¿½":4361,"MACRO":4362,"rx":4363,"Ġ------":4364,"//.":4365,"Ġti":4366,"Ġ20000":4367,"])){":4368,"103":4369,"({{":4370,"sive":4371,"Ġspecial":4372,"gram":4373,"123456789":4374,":\",":4375,"Sh":4376,"equal":4377,"got":4378,"ktop":4379,"Ġanc":4380,"itch":4381,"ĉĉĉĊ":4382,"())-":4383,"999":4384,"cccc":4385,"Desktop":4386,"First":4387,"aux":4388,"ni":4389,"qry":4390,"Ġminn":4391,"ï¼ģ":4392,"Gi":4393,"bx":4394,"lz":4395,"ug":4396,"Ġjud":4397,"000000000000000000":4398,"BIT":4399,"GNU":4400,"way":4401,"Ġafter":4402,"Ġfb":4403,"ĠRes":4404,"fh":4405,"alk":4406,"pped":4407,"ĠOut":4408,"andard":4409,"Ġ.,":4410,"Ġlead":4411,"Ġsha":4412,"Ġunion":4413,"fix":4414,"pf":4415,"rope":4416,"Ġmode":4417,"],&":4418,"Ġhow":4419,"ACH":4420,"Ġ'.'":4421,"Monoid":4422,"wik":4423,"|=":4424,"Ġml":4425,"Ġ22":4426,"maxl":4427,"ĠDist":4428,"âł»":4429,"ĠHOME":4430,"Ġdivs":4431,"7772":4432,"Ġ(~(":4433,"uv":4434,"Ġvld":4435,"itf":4436,"Ġ&...":4437,"])*":4438,"Ġmemcpy":4439,"Ġheap":4440,"digits":4441,")&&(":4442,"TIME":4443,"cut":4444,"ÙĴ":4445,"Ġï¿½ï¿½ï¿½":4446,"Ġlz":4447,"KKWWWW":4448,"Ġllinf":4449,"GGDDDDDDDDDDD":4450,"Ġ100001":4451,"WWWWWWWWWWWWWWWW":4452,"âł¿":4453,"Ġunique":4454,"Ġ.:,:":4455,"71":4456,"Flow":4457,"dg":4458,"modul":4459,"0001":4460,"ĠGcd":4461,"]+(":4462,"iev":4463,"à¦°":4464,"Ð¾Ð":4465,"FT":4466,"Rep":4467,"Ġnb":4468,"Ġprob":4469,"ĠprintSingle":4470,"Ġ'.';":4471,"Ġwhen":4472,"3456789":4473,"RR":4474,"ell":4475,"fd":4476,"gen":4477,"Ġ13":4478,"poss":4479,"visit":4480,"978":4481,"Ġrows":4482,"Users":4483,"ĠRD":4484,"remove":4485,"Ġpwr":4486,"Ġmkp":4487,"âłĢâłĢâłĢâłĢ":4488,"']=":4489,"Ġendif":4490,"oupper":4491,"Ġbot":4492,"Ġyear":4493,"lip":4494,"ANG":4495,"jkstra":4496,"dle":4497,"Ġimag":4498,"Ġevery":4499,"Ġremaining":4500,"tices":4501,"ĠMD":4502,"ĠVs":4503,"ĠVVI":4504,"<<\"[\";":4505,"ĠCONT":4506,"777216":4507,":%":4508,"PRO":4509,"Query":4510,"_.":4511,"fail":4512,"ones":4513,"()&&":4514,".............":4515,"_______":4516,"ĠCP":4517,"getline":4518,"Ġclk":4519,"('-');":4520,"ãĢĲ":4521,"ãĢĳ":4522,"GNUC":4523,"=__":4524,"Ġcb":4525,"itive":4526,">>{":4527,"Ġ63":4528,"quare":4529,"short":4530,"Ġimie":4531,"Get":4532,"]<<\"\\":4533,"ius":4534,"year":4535,"ĠJUDGE":4536,"Ġav":4537,"Ġ111":4538,"Ġ21":4539,"igh":4540,"Ġstupid":4541,"ï¼Į":4542,"82":4543,"rom":4544,"Ġca":4545,"eros":4546,"Ġresize":4547,"ĠPower":4548,"ĠBS":4549,"'].":4550,"HT":4551,"ham":4552,"ky":4553,"xb":4554,"zi":4555,"Ġ<>":4556,"Ġass":4557,"ence":4558,"fori":4559,"]]+":4560,"sf":4561,"Ġ));":4562,"Ġpointer":4563,"â£¿â£·":4564,"arning":4565,"isp":4566,"111000":4567,"Ġseen":4568,"]=='*":4569,"Ġextended":4570,"Ġsuffix":4571,"Ġoverflow":4572,"æķ":4573,"Ġlt":4574,"Ġlarge":4575,"Ġdj":4576,"Ġunite":4577,"Ġ\":\"":4578,"Ġspeed":4579,"ĠSHOW":4580,"(--":4581,",*":4582,"133":4583,"ee":4584,"iable":4585,"mitr":4586,"seen":4587,"Ġpart":4588,"ache":4589,"optim":4590,"ĠTo":4591,"Ġys":4592,"Ġ105":4593,"aze":4594,"Ġscc":4595,"5001":4596,"»¿":4597,"ï»¿":4598,"Ġstre":4599,"Ġseq":4600,"TEST":4601,"binary":4602,"ĠOutput":4603,"QUE":4604,"oun":4605,"urs":4606,"Ġdon":4607,"ĠAN":4608,"ĠAc":4609,"indx":4610,"Ġelements":4611,"Ġ****************************************************************":4612,"Ġfloor":4613,"ough":4614,"ĠRI":4615,"shift":4616,"]<='":4617,"Ġï¿½ï¿½ï¿½ï¿½ï¿½ï¿½ï¿½ï¿½ï¿½":4618,"lx":4619,"{{":4620,"ĠOF":4621,"__________":4622,"info":4623,"Ġfinish":4624,"Ġcycle":4625,"Ġ'*')":4626,"Ġgenerated":4627,"bte":4628,"rp":4629,"toupper":4630,"Ġ'+":4631,"agate":4632,"Ġcompare":4633,"ĠCompare":4634,"uclid":4635,"OM":4636,"dj":4637,"vx":4638,"standard":4639,"Ġsrc":4640,"ĠTr":4641,"Ġwa":4642,"ĠMore":4643,"ĠPOW":4644,"cket":4645,"æķ°":4646,"94":4647,":...":4648,"eam":4649,"Ãł":4650,"Ġphi":4651,"tern":4652,"5477":4653,")>::":4654,"81":4655,"All":4656,"Alex":4657,"sw":4658,"Ġvr":4659,"Ġwarning":4660,"Ġqueries":4661,"Ġstm":4662,"};//":4663,"ĠAccepted":4664,".\"":4665,"73":4666,"DEP":4667,"Graph":4668,"TO":4669,"pat":4670,"xa":4671,"Ġson":4672,"Ġturn":4673,"ĠCheck":4674,"5807":4675,"âĸĪâĸĪâĸĪâĸĪâĸĪ":4676,"ucky":4677,"product":4678,"Exponentiation":4679,"499":4680,"BLE":4681,"tK":4682,"templ":4683,"æľ":4684,"Ġ'_":4685,"omet":4686,"âĸĴâĸĦ":4687,"22337":4688,"141592653589793":4689,"685477":4690,"203685477":4691,"22337203685477":4692,"Dmitr":4693,"JHelper":4694,"TH":4695,"vt":4696,"word":4697,"eni":4698,"tii":4699,"Ġ24":4700,"Ġbitset":4701,"ĠJHelper":4702,"eyDmitr":4703,"AlexeyDmitr":4704,"AlexeyDmitriev":4705,"turn":4706,"Ġmsi":4707,"Ġxr":4708,"Ġrrep":4709,"Ġ'(')":4710,"])/":4711,"ĠSize":4712,";;;;;":4713,"à¦¨":4714,"rows":4715,"ahidul":4716,"disable":4717,"expo":4718,"]>='":4719,"Than":4720,"cat":4721,"jd":4722,"tv":4723,"Ġlinf":4724,"Ġ}*/":4725,"tient":4726,"Ġway":4727,"ĠSum":4728,"fff":4729,"Ġlook":4730,"Ġ1005":4731,"ĠInputIterator":4732,"cycle":4733,"4197":4734,"DBG":4735,"ĠskipWhitespace":4736,"Word":4737,"Ġ************************":4738,"Ġpfl":4739,"Ġdump":4740,"ĠFR":4741,"iss":4742,"Ġgetint":4743,"aves":4744,"SH":4745,"wick":4746,"Ġ))":4747,"isWhitespace":4748,"ĠSeg":4749,"Ġitn":4750,"!!!":4751,"141592653589793238462643383279502884197":4752,"223372036854775807":4753,")^":4754,"ian":4755,"ken":4756,"Ġfe":4757,"Ġjoin":4758,"Ġ28":4759,"Ġ|\\":4760,"Ġrepi":4761,"Ġ\\/":4762,"FFER":4763,"ITE":4764,")<=(":4765,"vy":4766,"Ġnc":4767,"ous":4768,"uler":4769,"ĠINFLL":4770,"MMMMM":4771,"ĠOp":4772,"DataEnd":4773,"bc":4774,"cstd":4775,"tk":4776,"forward":4777,"------------------------------":4778,"Ġinitial":4779,"iiiiiiii":4780,"LONG":4781,"Ġumap":4782,"Ġspace":4783,"brur":4784,"Ġhello":4785,"slope":4786,"ĠCommon":4787,"&(-":4788,"PR":4789,"Root":4790,"han":4791,"half":4792,"Ġ<(":4793,"atan":4794,"ĠmodPow":4795,"180":4796,"Ġ1000001":4797,"Ġpoww":4798,"solver":4799,"Ġside":4800,"Dice":4801,"bg":4802,"qs":4803,"Ġumax":4804,"ĠĠĠĠĠĊ":4805,"Ġstore":4806,"ĠĠĠĠĠĠĠĠĠĠĠĠĠĠĠĠĠĠĠĠĠĠĠĠĠĠĠĠĠĠĠĠĉ":4807,"âĸĳâĸĳâĸĮ":4808,"pdd":4809,"Ġ100000000000000000":4810,"////////////":4811,"ayer":4812,"ants":4813,"Impl":4814,"ðŁĴ©ðŁĴ©ðŁĴ©ðŁĴ©":4815,"PRE":4816,"sCount":4817,"è¿":4818,"Ġ.....":4819,"Ġ*****":4820,"reader":4821,"ĠnC":4822,"ather":4823,"aaa":4824,"Ġdoes":4825,"initial":4826,"..................................":4827,"Ġweight":4828,"Ġhttp":4829,"ï»¿#":4830,":.....":4831,"KWWWWWW":4832,"LGGGDDDDDDDDDDDD":4833,"POW":4834,"()%":4835,"Ġ\"?":4836,"WWKKKK":4837,"Ġwatch":4838,"LLGGDDDDDDDDDDD":4839,"Ġocc":4840,"EEEED":4841,"0000000000000000":4842,"DDDDDD":4843,"KKKKKKKKKKK":4844,"ĠVL":4845,"ĠreadArray":4846,"2010":4847,";;;;;;;;;;;;;;;;":4848,"WWWWWWWKKKKK":4849,"hat":4850,"vowel":4851,"ĠUB":4852,"..........................":4853,"versity":4854,"SA":4855,"Ġfp":4856,"Ġrv":4857,"===":4858,"Ġyn":4859,"Ġgl":4860,"Ġunz":4861,"ĉĠĉĉ":4862,"ANS":4863,"eight":4864,"oll":4865,"den":4866,"Ġ{\"":4867,"Ġfil":4868,"Ġbi":4869,"****/":4870,"Ġumin":4871,"Ġqry":4872,"Ġ#\"":4873,"unused":4874,"ĠLS":4875,"LIB":4876,"PPL":4877,"sdbg":4878,"Ġlin":4879,"amp":4880,"iful":4881,"ĠDi":4882,"Ġexplicit":4883,"----------------------------------------------------------------":4884,"******/":4885,"Ġnothing":4886,"Ġrelax":4887,"Circle":4888,"nv":4889,"pnt":4890,"Ġmu":4891,"Ġpnt":4892,"Ġrit":4893,"Ġ200010":4894,"thing":4895,"ĠFORR":4896,"ERE":4897,"Ġpowm":4898,"Ġorig":4899,"hoge":4900,"ored":4901,"pv":4902,"Ġpu":4903,"Ġdf":4904,"tiTest":4905,"ĠStr":4906,"ĠRead":4907,"ĠLG":4908,"timer":4909,"ĠreadImpl":4910,"ĠArr":4911,"(_,":4912,"ĠinitArrays":4913,"Ġsubm":4914,"numbers":4915,"ĠSegmentTree":4916,"GCD":4917,"Ġtx":4918,"Ġllu":4919,"Ġgg":4920,"ĠAR":4921,"Ġ5000":4922,"ĠXXX":4923,"Ġvvii":4924,"cyc":4925,"$$$$":4926,"ĠEndl":4927,"Ġpoly":4928,";_":4929,"EOF":4930,"so":4931,"}]":4932,"ĠĠĠĠĠĠĠĠĠčĊ":4933,"ĠtStart":4934,"idth":4935,"\"<<__":4936,"Inv":4937,"Ġfactd":4938,"IGHT":4939,"\"+":4940,"Stop":4941,"each":4942,"fc":4943,"Ġcos":4944,"clr":4945,"ita":4946,"ings":4947,"Ġ201":4948,"ĠDL":4949,"ĠData":4950,"ĠMXN":4951,"raw":4952,"à§į":4953,"Ġdigits":4954,"AK":4955,"Fraction":4956,"fre":4957,"cand":4958,"Ġtry":4959,"valarray":4960,"vertex":4961,"123456":4962,"33333333":4963,"Search":4964,"ĠCOMP":4965,")]);":4966,"Bits":4967,"DS":4968,"Team":4969,"lin":4970,"dev":4971,"++]);":4972,"Ġ33":4973,"ĠLcm":4974,"Ġdeep":4975,"divs":4976,"Ġbitmaxl":4977,"ĠUni":4978,"83":4979,"={":4980,"gon":4981,"nValue":4982,"Â¦":4983,"Ġ##":4984,"Ġign":4985,"Ġlcp":4986,"Ġfio":4987,"leaf":4988,"Ġ&);":4989,"buw":4990,"ilon":4991,"â£¿â£¿â£¿":4992,"MMMMMM":4993,"ĠInit":4994,"%%%%%%%%":4995,"At":4996,"fvalc":4997,"ream":4998,"])*(":4999,"chain":5000,">=_":5001,"Ġepsilon":5002,"Ġ(\".":5003,"Ġextgcd":5004,"decay":5005,"hull":5006,"sv":5007,"rection":5008,"000001":5009,"ĠApp":5010,"ĠPL":5011,"getnum":5012,"\"){":5013,")>(":5014,"OK":5015,"Timer":5016,"ib":5017,"ĉĉĠ":5018,"Ġputi":5019,"Ġvt":5020,"Ġbx":5021,"spl":5022,"ĠĠĠĠĠĠĠĠĠĠĠĠĠĠĠĠĠĠĠĠĠĠĠĠĠĠĠĠĠĠĠĠĠĠĠĠĠĠĠĠĠĠĠĠčĊ":5023,"Ġlowbit":5024,"shuffle":5025,"ä»":5026,"detail":5027,"Ġ\"+":5028,"ĠTEMPORARY":5029,"Ġ'||":5030,"Ġuli":5031,"ĠPRO":5032,"Ġitem":5033,"âĸĪâĸĪâĸĪâĸĪâĸĪâĸĪâĸĪ":5034,"Ġmaximum":5035,"Ġsmallest":5036,"Ġbuffer":5037,"npos":5038,"wb":5039,"Ø±":5040,"Ġmore":5041,"Ġrx":5042,"him":5043,"ĠtoInt":5044,"ĠLLD":5045,"IOS":5046,"values":5047,"ĠUniversity":5048,"Debug":5049,"Ki":5050,"OS":5051,"self":5052,"Ġfun":5053,"Ġpv":5054,"Ġ2147483647":5055,"ism":5056,"102":5057,"ĠDA":5058,"ModInt":5059,"ikaze":5060,"ĠPrints":5061,"ä¸Ģ":5062,"95":5063,":;":5064,"bute":5065,"fb":5066,"kikaze":5067,"tsc":5068,"uniform":5069,"Ġinfll":5070,"321":5071,"Ġcompute":5072,"Ġcoef":5073,"ï¼ģï¼ģ":5074,"');}":5075,")--)":5076,":\\\\":5077,";,":5078,"Part":5079,"denom":5080,"Ġrn":5081,"condition":5082,"Ġprin":5083,"Ġposition":5084,"divis":5085,"ĠscanI":5086,"ĠscanL":5087,"REC":5088,"Ġpts":5089,"......:":5090,"jkl":5091,"Ġ{{{":5092,"writer":5093,"ismillah":5094,"'re":5095,"GD":5096,"cas":5097,"mr":5098,"å°":5099,"Ġort":5100,"Ġsit":5101,"Ġ\"=":5102,"erc":5103,"ids":5104,"sets":5105,"ĠFA":5106,"---------":5107,"...(":5108,"tra":5109,"ĠVV":5110,"Ġnegative":5111,"#.":5112,"300000":5113,"Seg":5114,"target":5115,"osite":5116,"<<\"{":5117,"Ġcontainer":5118,"ĠPA":5119,"sorted":5120,"âłĻ":5121,"ĠHash":5122,"elp":5123,"policies":5124,"\"))":5125,"åĪ":5126,"Ġuf":5127,"ĠFJ":5128,"Ġroots":5129,"'ll":5130,")>>(":5131,"3000":5132,"Vowel":5133,"ding":5134,"ired":5135,"wy":5136,"ï¹":5137,"ĠĠĉĉĉ":5138,"Ġcu":5139,"Ġpairs":5140,"ĠPER":5141,"Ġstderr":5142,"ĠCh":5143,"Ġtoo":5144,"Ġmulmod":5145,"ngine":5146,"Ext":5147,"Or":5148,"dst":5149,"fen":5150,"jump":5151,"ses":5152,"ODE":5153,"Ġdelete":5154,"Ġclz":5155,"\"<<#":5156,"oney":5157,"addEdge":5158,"1111111111111111":5159,"overflow":5160,"/=(":5161,"/************************":5162,"Taken":5163,"nex":5164,"Ð¡":5165,"åĲ":5166,"Ġpss":5167,"cles":5168,"eractive":5169,"ĠTC":5170,"asdf":5171,"Ġzip":5172,"150":5173,"â¡Ħ":5174,"âĸĮâĸĮ":5175,"___(":5176,"]++,":5177,"_[":5178,"nTime":5179,"Ġinteger":5180,"Ġ*_":5181,"anges":5182,"forgeeks":5183,"imum":5184,"1011":5185,"Ġ_.":5186,"trace":5187,"estor":5188,"#########":5189,"pts":5190,"ĠMAIN":5191,"ĠApply":5192,"Gcd":5193,"On":5194,"TY":5195,"WIN":5196,"}),":5197,"001":5198,"()];":5199,"Ġtab":5200,"Ġ'{":5201,"ĠMDL":5202,"ĠLCM":5203,"Ġgets":5204,"++--++":5205,"Ġthere":5206,"OUTC":5207,"++--++--++--++--++--++--++--++--++--++--++--++--++--++--++--++--++--++--++--++--++--++--++--++--++--++--++--++--++--++--++--++--":5208,"geeksforgeeks":5209,")||(":5210,"CL":5211,"ule":5212,"Ġmust":5213,"Ġnu":5214,"uration":5215,"Ġdl":5216,"Ġrotate":5217,"Ġyyy":5218,"Ġwant":5219,"ĠMove":5220,"])==":5221,"minn":5222,"Ġviii":5223,"points":5224,"___/":5225,"Ġ'\"'":5226,"erciful":5227,"FR":5228,"ze":5229,"ĠDD":5230,"Ġcub":5231,"Ġmag":5232,"))-":5233,"prim":5234,"<=_":5235,"eratorMonoid":5236,"ĠLONG":5237,"\"<<(":5238,"ĠEx":5239,"Ġmapa":5240,"âĸĳâĸĳâĸĳâĸĳâĸĳâĸĳâĸĳ":5241,"â¡Ī":5242,"ĠwriteChar":5243,"LIM":5244,"Ġdecrease":5245,"Ġreflect":5246,"tribute":5247,"DEPREC":5248,"kv":5249,"Ġpot":5250,"attribute":5251,"Ġrmq":5252,"Ġword":5253,"Ġ|__":5254,"Ġ300005":5255,"Ġldouble":5256,"times":5257,"present":5258,"Ġnums":5259,"ĠQuery":5260,"ĠUnique":5261,"ĠSPEED":5262,"LOCAL":5263,"With":5264,"bakh":5265,"Ġmrand":5266,"Ġconvert":5267,"ĠFord":5268,"ĠABC":5269,"quest":5270,"100500":5271,"ĠaddEdge":5272,"....................":5273,"poly":5274,";;;;;;;;;":5275,"ĠĠĠĠĠĠĠĠĠĠĠĠĠĠĠĠĠĠĠĠĠĠĠĠĠĠĠĠĠĠĠĠĠĠĠĠĠĠĠĠĠĠĠĠĠĠĠĠĉĉ":5276,"Ġangle":5277,"255":5278,"Map":5279,"large":5280,"rat":5281,"inic":5282,"--.":5283,"Ġrf":5284,"Ġprocess":5285,"trans":5286,"ĠstdinBuffer":5287,"occ":5288,"205":5289,"stdinBuffer":5290,"111111":5291,"UTION":5292,"Output":5293,"ĠFIX":5294,"ĠUnion":5295,"bot":5296,"fup":5297,"ko":5298,"nmax":5299,"Ùĳ":5300,"ĉĠĠĠĠĠĠĠĠĠĠĠ":5301,"ĠEE":5302,"Ġsome":5303,"Ġifstream":5304,"Ġhelp":5305,"ĠIF":5306,"âłĪ":5307,"Ġsubtree":5308,"sieve":5309,"inary":5310,"Ġsmax":5311,"Ġintersection":5312,"Ġvit":5313,"ĠMN":5314,"ĠNN":5315,"pointer":5316,"Cost":5317,"Par":5318,"Square":5319,"lcm":5320,"nep":5321,"dent":5322,"seed":5323,"Ġsr":5324,"osition":5325,"ntime":5326,"ĠMul":5327,"ODO":5328,"Ġhh":5329,"Ġuniform":5330,"yyo":5331,"Ġalpha":5332,"Project":5333,"ĠANS":5334,"WEE":5335,"ox":5336,"sha":5337,"za":5338,"Ùħ":5339,"Ġdays":5340,"__<<\"":5341,"))&":5342,"ĠDF":5343,"ĠOI":5344,"Ġneeded":5345,"Ġlike":5346,"Ei":5347,"EKE":5348,"END":5349,"GEE":5350,"KD":5351,"WKKKKKKKKKKKKKKKK":5352,"dat":5353,"work":5354,"delim":5355,"Ġmf":5356,"ĠfDEEEE":5357,"Ġintersect":5358,"..;":5359,"cont":5360,"ends":5361,"KKWWW":5362,"DDf":5363,"ING":5364,"WWWWWKK":5365,"ĠCount":5366,"KKKKKKKKKKKK":5367,"EEEEEEEEE":5368,"flg":5369,"WWWWWWWWKKKKK":5370,"DDDDDDDDDDDDDDDD":5371,"âłģ":5372,"KKKKKWWKKKKK":5373,"Ġinvfact":5374,"jjt":5375,"KKKKKKKWKK":5376,"WWWWWWWKKKKKK":5377,"EEEEEEEEEEEEEEE":5378,"Ġelif":5379,"ween":5380,"Ġï¿½ï¿½ï¿½ï¿½ï¿½ï¿½ï¿½ï¿½ï¿½ï¿½":5381,"WWWWWKKKKK":5382,"LGGDDDDDDDDDDDD":5383,",,,,,,,;;;;":5384,"Ġ....::::":5385,"tjLLGGDDDDDDDDDDD":5386,"ĠProblem":5387,"Be":5388,"Two":5389,"qrt":5390,"sn":5391,"tw":5392,");//":5393,"Ġlson":5394,"--(":5395,"Ġba":5396,"Ġrson":5397,"...........":5398,"nums":5399,"ĠMEMS":5400,"<<\")\";":5401,"_##":5402,"cluding":5403,"eration":5404,"forr":5405,"Ġ////":5406,"Ġhs":5407,"ĠINFL":5408,"âķĲâķĿ":5409,"ĠLOGN":5410,"Ġmaximize":5411,"+\".":5412,"Buf":5413,"Gen":5414,"Mat":5415,"UM":5416,"ZERO":5417,"full":5418,"ĉĠĠĠĠĠ":5419,"item":5420,"Ġqpow":5421,"----------":5422,"Ġsteps":5423,"ART":5424,"ĠVP":5425,"...................":5426,"ostm":5427,"avy":5428,",{":5429,"Un":5430,"foo":5431,"jud":5432,"lr":5433,"lcp":5434,"align":5435,"ĠMat":5436,"ĠFL":5437,"Ġqs":5438,"modify":5439,"ĠCASE":5440,"]={};":5441,"ĠIncluding":5442,"200100":5443,"writeChar":5444,"Ġ'#')":5445,")],":5446,"MA":5447,"Sort":5448,"ault":5449,"xr":5450,"§ÙĦ":5451,"Ã¥":5452,"Ġvx":5453,"Ġrad":5454,"ĠTODO":5455,"ĠLCA":5456,"Ġisin":5457,"2020":5458,"Ġvertices":5459,"ĠUNI":5460,"ĠØ§ÙĦ":5461,"[-":5462,"ph":5463,"scc":5464,"wd":5465,"Ġnax":5466,"ird":5467,"Ġrecur":5468,"Ġrepp":5469,"utu":5470,"))==":5471,"eta":5472,"modint":5473,"Ġseeing":5474,"]=='#":5475,"ĠENDL":5476,"zipped":5477,"'])":5478,"<>":5479,"FAST":5480,"IS":5481,"List":5482,"ci":5483,"ele":5484,"lag":5485,"stdex":5486,"Ġbas":5487,"__),":5488,"opcr":5489,"Ġgive":5490,"Ġprnt":5491,"Ġprln":5492,"Ġldbl":5493,"Ġshahidul":5494,"Ġmoves":5495,"Ġcombine":5496,"ĠIterator":5497,"stdexcept":5498,"opcrof":5499,"577":5500,"EX":5501,"Fact":5502,"Li":5503,"Name":5504,"aei":5505,"fmt":5506,"oice":5507,"ĠmodInt":5508,"Ġallr":5509,"Ġleaf":5510,"âķļ":5511,"âĸĢâĸĴ":5512,":.:.":5513,"multiprecision":5514,"Ġ'\"';":5515,"Ġmagic":5516,"-';":5517,"~(":5518,"inside":5519,"Ġato":5520,"Ġ}}}":5521,"oups":5522,"Ġbc":5523,"Ġ==>":5524,"Ġ27":5525,"Ġuset":5526,"Ġgetbit":5527,"andom":5528,".................":5529,"à¦Ł":5530,"tical":5531,"Ġminimize":5532,"ĠĠĠĠĠĠĠĠĠĠĠĠĠĠĠĠĠĠĠĠĠĠĠĠĠĠĠĠĠĠĠĠĠĠĠĠĠĠĠĠĠĠĠĠĠĠĠĠĠĠĠĠĠĠĠĠĠĠĠĠĠĠĠĠĠĠĠĠĠĠĠĠĠĠĠĠĠĠĠĠĠĠĠĠĠĠĠĠĠĠĠĠĠĠĠĠĠĠĠĠĠĠĠĠĠĠĠĠĠĠĠĠĠĠĠĠĠĠĠĠĠĠĠĠĠĠĠĠĠĠĠĠĠĠĠĠĠĠĠĠĠĠĠĠĠĠĠĠĠĠĠĠĠĠĠĠĠĠĠĠĠĠĠĠĠĠĠĠĠĠĠĠĠĠĠĠĠĠĠĠĠĠĠĠĠĠĠĠĠĠĠĠĠĠĠĠĠĠĠĠĠĠĠĠĠĠĠĠĠĠĠĠĠĠĠĠĠĠĠĠĠĠĠĠĠĠĠĠĠĠĠĠĠĠĠĠĠĠĠĠĠĠĠĠĠĠĠĠĠĠĠĠĠĠĠĠĠĠĠĠĠĠĠĠĠĠĠĠĠĠĠĠĠĠĠĠĠĠĠĠĠĠĠĠĠĠĠĠĠĠĠĠĠĠĠĠĠĠĠĠĠĠĠĠĠĠĠĠĠĠĠĠĠĠĠĠĠĠĠĠĠĠĠĠĠĠĠĠĠĠĠĠĠĠĠĠĠĠĠĠĠĠĠĠĠĠĠĠĠĠĠĠĠĠĠĠĠĠĠĠĠĠĠĠĠĠĠĠĠĠĠĠĠĠĠĠĠĠĠĠĠĠĠĠĠĠĠĠĠĠĠĠĠĠĠĠĠĠĠĠĠĠĠĠĠĠĠĠĠĠĠĠĠĠĠĠĠĠĠĠĠĠĠĠĠĠĠĠĠĠĠĠĠĠĠĠĠĠĠĠĠĠĠĠĠĠĠĠĠĠĠĠĠĠĠĠĠĠĠĠĠĠĠĠĠĠĠĠĠĠĠĠĠĠĠĠĠĠĠĠĠĠĠĠĠĠĠĠĠĠĠĠĠĠĠĠĠĠĠĠĠĠĠĠĠĠĠĠĠĠĠĠ":5533,"Ġshared":5534,"ĠArray":5535,";*/":5536,"]};":5537,"cos":5538,"iq":5539,"pot":5540,"tb":5541,"task":5542,"xD":5543,"Ġ],":5544,"Ġent":5545,"Ġten":5546,"(),::":5547,"â¡·":5548,"ĠInputIter":5549,"ĠcrossOper":5550,"floatfield":5551,"ĠStart":5552,"basic":5553,"ByOne":5554,"traits":5555,"#.#.":5556,"ĠdecreaseByOne":5557,"\"};":5558,"500000":5559,"??":5560,"NC":5561,"fu":5562,"sb":5563,"tem":5564,"Ðº":5565,"Ġprl":5566,"//////":5567,"ĠBit":5568,"ESS":5569,"Ġiss":5570,"/****************************************":5571,"Ġdivisor":5572,"Ġignored":5573,"Lower":5574,"`.":5575,"ful":5576,"rary":5577,"Ġsay":5578,"Ġ&,":5579,"che":5580,"};///":5581,"aki":5582,"Ġsearch":5583,"]=='?":5584,"('-'":5585,"Ġpopcnt":5586,"Replace":5587,"75":5588,"Dig":5589,"Lazy":5590,"where":5591,"yk":5592,"Ġpass":5593,"Ġvy":5594,"(),\"":5595,"ĠNot":5596,"Ġseive":5597,"ĠgcdExt":5598,"rgt":5599,"Ġshortest":5600,"Operation":5601,"('-'),":5602,"459":5603,"ause":5604,"dump":5605,"Ġpull":5606,"Ġrfile":5607,"Ġwfile":5608,"âĸĳâĸĲ":5609,"_________,":5610,"â¡Ģ":5611,"ĠcountBits":5612,"Ġgroup":5613,"ahmanir":5614,"ĠOperatorMonoid":5615,")||":5616,"Code":5617,"fLL":5618,"rv":5619,"sr":5620,"Ġfread":5621,"Ġsmin":5622,"Ġjump":5623,"Ġred":5624,"Ġmems":5625,"Ġrepe":5626,"ĠLLINF":5627,"ĠreadDouble":5628,"....................................":5629,"clzll":5630,"âĸĳâĸĳâĸĳâĸĳâĸĳâĸĳâĸĳâĸĳâĸĳâĸĳâĸĳâĸĳâĸĳâĸĳâĸĳâĸĳ":5631,"btempl":5632,"4996":5633,"sCounter":5634,"96":5635,"ake":5636,"jan":5637,"Ġnex":5638,"Ġknow":5639,"abel":5640,"501":5641,"readInt":5642,"ASH":5643,"AAAA":5644,"AY":5645,"rotate":5646,"uy":5647,"inator":5648,"Ġbut":5649,"__,_":5650,"ĠMM":5651,"ĠSC":5652,"ĠOK":5653,"Ġgoal":5654,"5010":5655,"198":5656,"iiiiii":5657,"âĸĲâĸĳâĸĳâĸĳ":5658,"weight":5659,"256000000":5660,")<<(":5661,"centroid":5662,"ĠYES":5663,"Ġfre":5664,"Ġph":5665,"007":5666,"__|":5667,"Ġww":5668,"ĠFargs":5669,"Ġfib":5670,"ccc":5671,"Ġstarts":5672,"READ":5673,"TTY":5674,"ThxD":5675,"ĠNumberIterator":5676,"@@@@@@@@@@@@@@@@@@@@@@@@@@@@@@@@":5677,"################################################################################################################":5678,"PRETTY":5679,"ThxDem":5680,"033":5681,"udge":5682,"Ġmost":5683,"Ġsfi":5684,"Ġ<<'\\":5685,"//++--++--++--++--++--++--++--++--++--++--++--++--++--++--++--++--++--++--++--++--++--++--++--++--++--++--++--++--++--++--++--++--":5686,"Ġboth":5687,"ched":5688,"INPUT":5689,"ĠSF":5690,"ĠPow":5691,"lose":5692,"Ġsee":5693,"++--++--++--++":5694,"Ġ\",\"":5695,"++--++--++--++--++--++--++--++":5696,"++--++--++--++--++--++--++--++--++--++--++--++--++--++--++--++":5697,"msg":5698,"âĸĪâĸĪâķĹ":5699,"ismillahir":5700,"ĠFIXED":5701,"//++--++--++--++--++--++--++--++--++--++--++--++--++--++--++--++--++--++--++--++--++--++--++--++--++--++--++--++--++--++--++--++--++--++--++--++--++--++--++--++--++--++--++--++--++--++--++--++":5702,"'),":5703,"91":5704,"wh":5705,"yb":5706,"ÐĶ":5707,"Ġdst":5708,"Ġinside":5709,"prop":5710,"ĠAbs":5711,"â£§":5712,"Ġhull":5713,"Ġmpow":5714,"Ġaddmod":5715,"1000010":5716,"Ġlef":5717,"compute":5718,"Ġdirection":5719,"Ġbefore":5720,"Ġdisc":5721,"team":5722,")])":5723,"71828":5724,"Ġafor":5725,"pri":5726,"ĠNo":5727,"ĠSOL":5728,"Ġpbds":5729,"Ġisdigit":5730,"Ġvvvi":5731,"2001":5732,"***************":5733,"Ġblack":5734,"Ã¥Ã":5735,"duration":5736,"uc":5737,"Ġod":5738,"Ġil":5739,"Ġfpow":5740,"Ġbt":5741,"lease":5742,"ĠĠĠĠĠĠĠĠĠĠĠĠĠĠĠĠĉĉ":5743,"ĠTASK":5744,"ates":5745,"Ġgt":5746,"Ġindist":5747,"ĠAkikaze":5748,"Ġits":5749,"ĠIS":5750,"Ġposs":5751,"ĠOM":5752,"Ġdbgs":5753,"Ġprintarray":5754,"IIII":5755,"Ġextra":5756,"efine":5757,"<<\"]\";":5758,"ANDOM":5759,"ĠBUFFER":5760,"'-'":5761,"Sp":5762,"_^":5763,"mb":5764,"Ġiend":5765,"ife":5766,"Ġ|/":5767,"()):":5768,"ĠgetF":5769,"Ġprints":5770,"+=((":5771,"âĸĴâĸĴâĸĴâĸĴâĸĴ":5772,"izations":5773,"Ġreference":5774,"ĠFastRead":5775,")>=(":5776,"rig":5777,"ual":5778,"xc":5779,"ãĤ":5780,"rege":5781,"Ġai":5782,"Ġ},":5783,"Ġtd":5784,"Ġjust":5785,"â£¦":5786,"127":5787,"Ġ1000010":5788,"ĠĠĠĠĠĠĠĠĠĠĠĠĠĠčĊ":5789,"dddd":5790,"Ġindexed":5791,"Ġscll":5792,"problemset":5793,"MSC":5794,"modulo":5795,"regex":5796,")]=":5797,"Cy":5798,"De":5799,"tut":5800,"uild":5801,"ĠâĢ":5802,"()!=":5803,"izer":5804,"______":5805,"ĠĠĠĠĠĠĠĠĠĠĠĠĠĠĠĠĠĠĠĠĠĠĠĠĠĠĠĠĠĠĠĠĠĠĠĠĠĠĠĠ":5806,"___________":5807,"Ġexist":5808,"Ġcommon":5809,"Ġbitcount":5810,"555":5811,"__,__":5812,"totalCount":5813,"UR":5814,"Upper":5815,"bur":5816,"queries":5817,"Ġnm":5818,"Ġ110":5819,"Ġsafe":5820,"Ġes":5821,"vex":5822,"imie":5823,"counts":5824,"1415926536":5825,"Ġevents":5826,"âĸĳâĸĳâĸĳâĸĳâĸĳâĸĲ":5827,"'-":5828,"LANG":5829,"intersect":5830,"Ġifndef":5831,"__((":5832,"ĠNum":5833,"]-(":5834,"ĠsetIn":5835,"ĠsetOut":5836,"Ġbitnum":5837,"FFFFFFFF":5838,"wardIterator":5839,"Ġdivisors":5840,"DEPRECATE":5841,"CO":5842,"RITE":5843,"`,,":5844,"Ġpsum":5845,"Ġpsi":5846,"()/":5847,"Ġtv":5848,"possible":5849,"]]]":5850,"Ġ1010":5851,"Ġsetbit":5852,"â¢¾":5853,"Ġindx":5854,"ä¸ª":5855,"âĸĪâĸĪâķĶ":5856,"Ġdivide":5857,"//*//*//*//*":5858,"abcdef":5859,"__,_|":5860,"'m":5861,"AZ":5862,"Less":5863,"]||":5864,"cal":5865,"è¡":5866,"Ġsg":5867,"ĠĠĠĠĠĠĠĠĠĠĠčĊ":5868,"Ġtar":5869,"Ġ\";}":5870,"ane":5871,"Ġanss":5872,"edg":5873,"ĠFW":5874,"ĠAND":5875,"...,":5876,"Ġhor":5877,"ĠIf":5878,"ĠreadN":5879,"-'){":5880,"Ġonbit":5881,"Ch":5882,"Row":5883,"ghi":5884,"save":5885,"Ð£":5886,"åı":5887,"inite":5888,"Ġlr":5889,"Ġmis":5890,"Ġfree":5891,"Ġpqueue":5892,"Ġvout":5893,"Ġtask":5894,"Ġrll":5895,"ĠDS":5896,"Ġ101":5897,"ĠVEC":5898,"201":5899,"functions":5900,"program":5901,"Ġchildren":5902,"1024000000":5903,"xyz":5904,"Ġ'{';":5905,")->":5906,"LES":5907,"SN":5908,"lv":5909,"part":5910,"Ã®":5911,"å¤":5912,"Ġreturns":5913,"ĠTask":5914,"Ġ227":5915,"ĠFRE":5916,"Ġmodpow":5917,"Ġot":5918,"ĠRa":5919,"ĠRed":5920,"werty":5921,"ĠReversedIntegerRange":5922,"plusplus":5923,"ĠIntegerRange":5924,"device":5925,"Rest":5926,"rl":5927,"Ġ(_|":5928,"Ġplace":5929,"()).":5930,"lef":5931,"ĠMp":5932,"ĠGNU":5933,"ĠBinary":5934,"Ġ10000000000000000":5935,"except":5936,"ostate":5937,"MEM":5938,"ĠÐ¿":5939,"Ġ\"{\"":5940,"Ġoffset":5941,"qrst":5942,"uvw":5943,"Ġ'+')":5944,"\":":5945,"Greater":5946,"Nmax":5947,"ji":5948,"äº":5949,"åĩ":5950,"Ġiceil":5951,"Ġtw":5952,"opqrst":5953,"]=++":5954,"eturn":5955,"...>":5956,"Ġ_`":5957,"Ġ((*":5958,"ĠtoString":5959,"mnopqrst":5960,"Ġnoexcept":5961,"ReversedIntegerRange":5962,"âĸĦâĸĢâĸĴâĸĴ":5963,"jklmnopqrst":5964,"Ð¡Ð":5965,"abcdefghi":5966,"abcdefghijklmnopqrst":5967,"76":5968,"85":5969,"BG":5970,"iG":5971,"pe":5972,"rad":5973,"---'":5974,"<<((":5975,"Ġxb":5976,"Ġeuclide":5977,"Ġul":5978,"))+":5979,")),(":5980,"ĠADD":5981,"â£ł":5982,"ĠLe":5983,"ĠstdinPos":5984,"ĠstdinDataEnd":5985,"ĠON":5986,")){}};":5987,"finish":5988,"Ġteam":5989,"ittle":5990,"ÙİÙĳ":5991,"Ġpropagate":5992,"ĠTimerStart":5993,"uvwxyz":5994,"!(":5995,"Diff":5996,"Mask":5997,"dedge":5998,"Ġcpp":5999,"llow":6000,"mail":6001,"Ġremax":6002,"Ġ':":6003,"ĠDSU":6004,"allah":6005,"Ġfrr":6006,"leftCount":6007,"Ġexpo":6008,"Stack":6009,"============================================":6010,"Ġ<<\"\\":6011,"tKarp":6012,"opcroftKarp":6013,"#################################################################################################################":6014,"abcdefghijklmnopqrstuvwxyz":6015,")};":6016,"215":6017,"sg":6018,"llong":6019,"Ġbar":6020,"acity":6021,"irl":6022,"Ġrsz":6023,"------------":6024,"Ġ____;":6025,"Ġminus":6026,"Ġ77":6027,"({-":6028,"Ġalgorithm":6029,"Ġalways":6030,"black":6031,"pleTest":6032,"Ġthrust":6033,"!\\":6034,"File":6035,"NT":6036,"pn":6037,"und":6038,"vf":6039,"åĽ":6040,"Ġya":6041,"....,":6042,"DDi":6043,"ĠBR":6044,"Ġmxs":6045,"ĠreadLong":6046,"Ġofstream":6047,"Ġfaster":6048,"200200":6049,"ĠFASTIO":6050,"Force":6051,"Ġabc":6052,"[_]":6053,"':'":6054,"initializer":6055,":,":6056,"BU":6057,"DEEEEEEEEEEEE":6058,"GWWWKK":6059,"KG":6060,"KWW":6061,"KEEEEEEEE":6062,"LGGGG":6063,"PE":6064,"WEEEEEEEE":6065,"WEEE":6066,"WKKK":6067,"WKKKKKKK":6068,"mix":6069,"tor":6070,"tGG":6071,"xf":6072,"infile":6073,"Ġ180":6074,"outfile":6075,"Ġtie":6076,"KKG":6077,"KKi":6078,"WWEEEEEEEEEEE":6079,"EEL":6080,"EEf":6081,"odo":6082,"Ġko":6083,"Ġwor":6084,"blems":6085,"DDWWKK":6086,"EEEEED":6087,"...*/":6088,"WWWWK":6089,"Ġchain":6090,"trol":6091,"/*...":6092,"EEEEEEEEEK":6093,",,,,,;":6094,"DGf":6095,"EEEWEEEEEEEEEEEE":6096,"KKKWWW":6097,"KKKKKWWWWWWWWW":6098,"KKKKKWKKKKK":6099,"Ġ...,:":6100,"[]={+":6101,"KKKKKKKKKKKKKKKKKKKKKKKKKK":6102,"KKKKKKKKKKKKKKKKKKKKKKKKKKKKKKK":6103,"beki":6104,".................................":6105,"DDDDDDDDDDDDDDD":6106,"WWWWWWWKKKK":6107,"WWWWWWKKKKK":6108,":::..":6109,"Ġ.:,;":6110,"DEEEEE":6111,"DEEEEKKKKKKKKKK":6112,",,,:.":6113,"EEEEEEEEEEEEEEEEE":6114,"ijLGGGDDDDDDDDDDDD":6115,"rdv":6116,"GGGGGGGGGGGGGGGGGGGGGGGG":6117,"EEEEEEDDf":6118,"DEEEKKKKKKKK":6119,"Ġ.:.,:":6120,"itfGGGDDDDDDDDDDDD":6121,"Ġ.....:::..":6122,"ĠMultiTest":6123,"ĠOImode":6124,"Down":6125,"rmq":6126,"det":6127,"Ġlx":6128,"setfill":6129,"ĠSFL":6130,"ĠPFL":6131,"Ġitos":6132,"ĠHeap":6133,"Ġcomponent":6134,"Ġ987":6135,"1693":6136,"......................................":6137,"300010":6138,"MI":6139,"VE":6140,"fll":6141,"ood":6142,"Ġ'/":6143,">>&":6144,"ulation":6145,"Ġ#%":6146,"unite":6147,"mapa":6148,"(-(":6149,"place":6150,"Ġ1001":6151,"ĠdoReplace":6152,"negative":6153,".............................":6154,"Short":6155,"pleTestMode":6156,"Author":6157,"If":6158,"ade":6159,"dul":6160,"host":6161,"Ġinclu":6162,"Ġfwrite":6163,"Ġele":6164,"asd":6165,"pairs":6166,"ĠSort":6167,"ĠĠĠĠĠĠĠĠĠĠĠĠĠĠĠĠĠĠĠĠĠĠĠĠĠĠĠĠĠĠĠĠĠ":6168,"ĠBe":6169,"]]-":6170,"Ġsubmod":6171,"ĠREAD":6172,"Ġfunctions":6173,"Ġbetween":6174,"hamdul":6175,"1415926535897932384626433832795028841971693":6176,"hamdulillah":6177,"141592653589793238462643383279502884197169399":6178,"84":6179,"BR":6180,"eve":6181,"ftree":6182,"falign":6183,"qx":6184,"sDEB":6185,"Ã²":6186,"Ùı":6187,"rea":6188,"Ġsave":6189,"Ġban":6190,"ali":6191,"Ġrp":6192,"Ġrnk":6193,"ĠABS":6194,"â£Ģ":6195,"Ġ36":6196,"fsched":6197,"());}":6198,"]]>":6199,"Ġzz":6200,")(__":6201,"==========":6202,"bbb":6203,"PowerOf":6204,"______________":6205,"PowerOfTwo":6206,"fe":6207,"ks":6208,"merciful":6209,"xpo":6210,"Ġ****************************************":6211,"Ġ997":6212,"()*":6213,"ople":6214,"ĠSp":6215,"ignore":6216,"mxN":6217,"Ġpowermat":6218,"Ġmyrand":6219,"ModMatrix":6220,"Ġfinal":6221,"ĠZERO":6222,"âĸĵâĸĵâĸĵâĸĵ":6223,"âķ¬âķ¬âķ¬âķ¬âķ¬âķ¬âķ¬âķ¬":6224,"divider":6225,"\").":6226,"'==":6227,"2000000":6228,"Ġfort":6229,"connect":6230,"(\"{":6231,"Ġrot":6232,"ĠDOU":6233,"ĠCreated":6234,"âĸĳâĸĳâĸĪ":6235,"]+=(":6236,"ï¿½ï¿½ï¿½ï¿½ï¿½ï¿½ï¿½":6237,"tab":6238,"Ġscf":6239,"ĠMaxn":6240,"55555555":6241,"DBN":6242,"TASKNAME":6243,"Ġamount":6244,"ĠDOUBLE":6245,"]--,":6246,"after":6247,"copy":6248,"fout":6249,"istringstream":6250,"nik":6251,"inal":6252,"Ġwalk":6253,"isalpha":6254,"Ġhalf":6255,"uli":6256,"Ġstop":6257,"Ġ(\"-":6258,"ĠnextInt":6259,"cale":6260,"Ġthrough":6261,"AP":6262,"Not":6263,"Tt":6264,"fma":6265,"mv":6266,"rnk":6267,"Ġcreate":6268,"Ġrl":6269,"opt":6270,"ĠĠĠĠĠĠĠĠĠĠĠĠĠĠĠčĊ":6271,"LLL":6272,"ices":6273,"position":6274,"locale":6275,"ĠBy":6276,"â£¿â£¿â£·":6277,"&&!":6278,"ĠisSquare":6279,"Ġ47":6280,"Ġ400":6281,"Ġfraction":6282,"uper":6283,"â¢¯":6284,"MMMMMMMMM":6285,"Ġ\"]:\",":6286,"ECT":6287,"â£¿â£½":6288,"â£¿â£Ĩ":6289,"(\"\");}":6290,"âĸĳâĸĳâĸĳâĸĢ":6291,"Second":6292,"]]]]]]]]":6293,"â£Ĩâł¹":6294,"âłīâłī":6295,"wiki":6296,"LowerCase":6297,"Pref":6298,"_\\":6299,"wise":6300,"Ġlife":6301,"enwick":6302,"Ġtut":6303,"eral":6304,"arth":6305,"ĠType":6306,"oss":6307,"Ġremin":6308,"Ġyb":6309,"etch":6310,"/*!":6311,"333":6312,"InOut":6313,"goal":6314,"])));":6315,"group":6316,"ĠMaxN":6317,"Ġlines":6318,"/********************************************************":6319,"ĠForwardIterator":6320,"Ġboard":6321,"Ġnormalize":6322,"Ġckmax":6323,"Ġimplement":6324,"ĠrandomInteger":6325,"split":6326,"718281828":6327,"._":6328,"74":6329,"Vec":6330,"YNC":6331,"brr":6332,"cplusplus":6333,"dh":6334,"dt":6335,"dim":6336,"fopen":6337,"rall":6338,"srt":6339,"ĠĉčĊ":6340,"Ġcm":6341,"Ġmst":6342,"retty":6343,"ats":6344,"Ġmay":6345,"Ġga":6346,"ĠLE":6347,"fft":6348,"ĠsetIO":6349,"Ġmxn":6350,"Ġassum":6351,"Ġ9223372036854775807":6352,"Ġ'#';":6353,"ĠBigmod":6354,"ĠPowerMod":6355,"UpperCase":6356,"}\");":6357,"ĉĠĠĠĠĉ":6358,"steps":6359,"orig":6360,"Ġly":6361,"Ġflip":6362,"Ġnj":6363,"Ġdv":6364,"Ġrequ":6365,"Ġgp":6366,"...));":6367,"Ġhand":6368,"/////////":6369,"ĠFORd":6370,"âĸĴâĸĲ":6371,"Ġfru":6372,"ĠreadInteger":6373,"ĠEQ":6374,"STR":6375,"37510":6376,"Ġprintv":6377,"OUTPUT":6378,"Ġioi":6379,"Ġrgt":6380,"ĠmultiplyMod":6381,"Ġminimum":6382,"Ġgoto":6383,"12345":6384,"ĠFTB":6385,"questions":6386,"14159265358979323846264338327950288419716939937510":6387,"Ahead":6388,"Heap":6389,"TR":6390,"text":6391,"tnm":6392,"Ñĩ":6393,"çĤ":6394,"ĠâĸĪâĸĪâķĳ":6395,");*/":6396,"Ġlv":6397,"Ġmstream":6398,"Ġvli":6399,"Ġtk":6400,"Ġbf":6401,"Ġyo":6402,"ĠMap":6403,"process":6404,"isPrime":6405,"109":6406,"ofile":6407,"gets":6408,"than":6409,"parator":6410,"Ġcounts":6411,"degree":6412,"Ġ123456789":6413,"ĠFOREACH":6414,"ĠFAIL":6415,"çĤ¹":6416,".)":6417,"GLI":6418,"Update":6419,"ÑĮ":6420,"Ġ99999999":6421,"Ġctr":6422,"Ġnv":6423,"***/":6424,"Ġvpl":6425,"Ġuu":6426,"ĠLast":6427,"resh":6428,"Ġmiddle":6429,"888888888":6430,"Ġzeroes":6431,"children":6432,"==================================":6433,"Ġoffbit":6434,"Complex":6435,"blocks":6436,"ĠFastIO":6437,"ĠBigMod":6438,"ÑģÑĤ":6439,"Ġ|_|\\":6440,"]=='*')":6441,")]++;":6442,"/****************":6443,"Bl":6444,"Up":6445,"oy":6446,"xi":6447,"|=(":6448,"Ñĥ":6449,"stants":6450,"][__":6451,"leyk":6452,"Ġ*)":6453,"ueue":6454,"â£Ħ":6455,"...............":6456,"aster":6457,"ĠĠĠĠĠĠĠĠĠĠĠĠĠĠĠĠĠĠĠĠĠĠĠĠĠĠĠĠĠĠĠĠĠĠĠĠĠĠĠĠĠĠčĊ":6458,"ĠBFS":6459,")%(":6460,"',');":6461,"ĠMAXK":6462,"10005":6463,"âĸĳâĸĳâĸĳâĸĳâĸĲ":6464,"14159265358979323":6465,"ĠwriteWord":6466,"2353":6467,"Ġctz":6468,"eedForce":6469,"Ġckmin":6470,"Ġhaleyk":6471,"03":6472,"210":6473,"Next":6474,"PS":6475,"_);":6476,"ua":6477,"Ġ97":6478,"sta":6479,"rement":6480,"Ġ(){":6481,"acent":6482,"ctr":6483,"ĠĠĠĠĠĠĠĠĠĠĠĠĠĠĠĠĠĠĠĠĉ":6484,"Ġregister":6485,"Ġgre":6486,"ethod":6487,"Ġden":6488,"Ġfastpower":6489,"@@@@@@":6490,"Ġmarked":6491,"Ġfactorize":6492,"BCXX":6493,"omething":6494,"GLIBCXX":6495,"664":6496,"TEMPORARY":6497,"Yn":6498,"]}":6499,"bX":6500,"gi":6501,"land":6502,"rin":6503,"round":6504,"ķÐ":6505,"Ġccc":6506,"Ġmed":6507,"Ġfather":6508,"Ġsink":6509,"Ġxor":6510,"Ġmaxt":6511,"ĠCC":6512,"extra":6513,"ĠĠĠĠĠĠĠĠĠĠĠĠĊ":6514,"ĠVal":6515,"ĠreadAhead":6516,"hah":6517,"Ġwriteln":6518,"-------":6519,"},{-":6520,"ÐµÐ½":6521,"Ġtakemod":6522,"âłĽâłĽ":6523,"Ġlocalhost":6524,"SegmentTree":6525,"++++++++++++++++":6526,"ĠIntegerIterator":6527,"Ġeverything":6528,"iables":6529,"eturns":6530,"420":6531,"654":6532,"FIN":6533,"Function":6534,"My":6535,"eff":6536,"lop":6537,"vpii":6538,"white":6539,"xor":6540,"Ġ********************************":6541,"inity":6542,"Ġnil":6543,"Ġsig":6544,"()<=":6545,"ample":6546,"mple":6547,"Ġry":6548,"Ġrig":6549,"Ġekv":6550,"Ġ'[":6551,"],-":6552,"))!=":6553,"Ġ&&...":6554,"Ġ/:/":6555,"ĠAIM":6556,"107":6557,"ĠPos":6558,"Ġ_____":6559,"ĠDC":6560,"Ġzet":6561,"Ġ\\__":6562,"Ġthen":6563,"Ġfactors":6564,"âĸĢâĸĢâĸĢ":6565,"*******/":6566,"Ġstructure":6567,"poz":6568,"final":6569,"_______________":6570,"Ġ'#'":6571,"Ġstackoverflow":6572,"Ġconnections":6573,"isprime":6574,"Zero":6575,"free":6576,"join":6577,"oz":6578,"single":6579,"only":6580,"Ġcnk":6581,"Ġbra":6582,"Ġ\"=\"":6583,"();(":6584,"ĠisPowerOfTwo":6585,"<<(#":6586,"âłĩ":6587,"1415926535":6588,"aryanc":6589,"reference":6590,"Ġbacks":6591,"/*************************************************/":6592,"ĠEXIT":6593,"Ġprimos":6594,"TYPE":6595,"Ġinclusive":6596,"Eof":6597,"ELE":6598,"MQ":6599,"jf":6600,"oa":6601,"Ðĵ":6602,"ØŃ":6603,"Ġamax":6604,"Ġamin":6605,"Ġfnd":6606,"Ġfup":6607,"..,":6608,"ido":6609,"000000001":6610,"Ġzeros":6611,"]=='(')":6612,"Ġbox":6613,"////////////////////////////////////////////////////////////////////////////////////////////////":6614,"Ġ'*'":6615,"ĠTHE":6616,"__<<\":\"<<__":6617,"Ġassign":6618,"360":6619,"EQ":6620,"blog":6621,"gain":6622,"med":6623,"Ġ());":6624,"onal":6625,"Ġamt":6626,"Ġsomething":6627,"Ġtint":6628,"Ġman":6629,":::.":6630,"Ġkill":6631,"setw":6632,"ĠMMM":6633,"ĠMAT":6634,"ĠMain":6635,"asg":6636,"...:":6637,"______,":6638,",,;":6639,"ĠBG":6640,"summ":6641,"1415926535898":6642,"6666":6643,"...............................":6644,"00000001":6645,",,,,,,,,,,,,,,,,,,,,,,,,":6646,".........:":6647,"<<\"{\";":6648,"30000":6649,":-":6650,">)":6651,"CK":6652,"CON":6653,"CPPL":6654,"SOL":6655,"ban":6656,"cst":6657,"chi":6658,"lat":6659,"zet":6660,"Ġplld":6661,"Ġsii":6662,"Ġrk":6663,"ĠNX":6664,"Ġ____":6665,"')*":6666,"Ġtoken":6667,"Ġinfi":6668,"@@@":6669,"xxx":6670,"Ġcompress":6671,"<<\":\"":6672,"Ġcountbit":6673,"quence":6674,"ĠSPCPPL":6675,"Ġ1000000021":6676,"åĽŀ":6677,"0123456789":6678,"GET":6679,"JK":6680,"]^=":6681,"_/":6682,"}\"<<":6683,"Ġ88":6684,"ĠĠĠĠĠĠĠĠĠĠĠĠĠĠĠĠĠĠĠĠčĊ":6685,"constant":6686,"Ġee":6687,"Ġelem":6688,"Ġkb":6689,"Ġcontain":6690,"ĠAL":6691,"-------------":6692,"Ġstar":6693,"cntr":6694,"ĠgetSum":6695,"]]!=":6696,"ĠINFINT":6697,"ĠVAR":6698,"10010":6699,"cell":6700,"â¢¹":6701,"Ġsegtree":6702,"rightCount":6703,"ĠwriteInt":6704,"Ġdegree":6705,"âĢĻ":6706,",',');":6707,"/|":6708,"214":6709,"MDL":6710,"^^":6711,"lucky":6712,"()>=":6713,"Ġvil":6714,"//{":6715,"erm":6716,"Ġxl":6717,"Ġreach":6718,"isy":6719,"ĠPr":6720,"ARE":6721,"Ġplll":6722,"2097":6723,"dict":6724,"16777216":6725,"readN":6726,"Ġnormmod":6727,"Ġtaj":6728,"efines":6729,"&)":6730,"<>,":6731,"xl":6732,"åħ":6733,"Ġ9999":6734,"Ġ\"'":6735,"tial":6736,"Ġ'>":6737,"(\"%\"":6738,"ĠMY":6739,"Ġhare":6740,"Ġmakeit":6741,"ĠLang":6742,"totient":6743,"viky":6744,"Ġcome":6745,"composite":6746,"Ġvvb":6747,"Ġedg":6748,"1415926535897932384626":6749,"271":6750,"/******************************************************/":6751,"è¿Ķ":6752,"ĠnCr":6753,"]=='?')":6754,"*=-":6755,"600":6756,"GR":6757,"core":6758,"tom":6759,"Ø³":6760,"dem":6761,"Ġ=>":6762,"Ġslld":6763,"Ġbec":6764,"Ġbrr":6765,"aca":6766,"ypot":6767,"Ġmany":6768,"olog":6769,"spf":6770,"DDE":6771,"Ġmaxc":6772,"ĠSI":6773,"ĠRES":6774,"ĠCSE":6775,"Ġsorta":6776,"Ġpositive":6777,"ĠreadString":6778,"Ġleast":6779,"Ġvvpii":6780,"Possible":6781,"Ġcoll":6782,"Ġdifference":6783,"cases":6784,"Ġproblems":6785,"'},{'.','.','.','.','.','.','.','.','.'},{'.','.','.','.','.','.','.','.','.'},{'.','.','.','.','.','.','.','.','.'},{'.','.','.','.','.','.','.','.','.":6786,"Ã®Ã":6787,",``":6788,">\"":6789,"cf":6790,"fname":6791,"gmail":6792,"jl":6793,"pal":6794,"pli":6795,"ssert":6796,"vd":6797,"vr":6798,"stop":6799,"ites":6800,"Ġdad":6801,"endido":6802,"]=\"":6803,"Ġ)\\":6804,"ĠLIE":6805,"Ġsums":6806,"Ġ55":6807,"â¢·":6808,"START":6809,"powmod":6810,"roots":6811,"2002":6812,"before":6813,"itten":6814,"â£»â£¿â£¿":6815,"ENT":6816,"suffix":6817,"eighted":6818,"â¡Īâ¢¿":6819,"ĠgcdExtendido":6820,"ĠBinaryOperation":6821,")!=(":6822,"08":6823,"GIC":6824,"YY":6825,"You":6826,"iN":6827,"las":6828,"nj":6829,"ption":6830,"xff":6831,"}));":6832,"ĉĠĠĉ":6833,"reap":6834,"Ġcps":6835,"Ġali":6836,"Ġaug":6837,"Ġmb":6838,"Ġnt":6839,"()<<\"\\":6840,"--'":6841,"///*":6842,"Ġround":6843,"hip":6844,"))){":6845,"Ġgll":6846,"])//":6847,"answ":6848,"help":6849,"alloc":6850,"Ġclone":6851,"ception":6852,"ĠInteractive":6853,"Ġwhite":6854,"ĠForE":6855,"board":6856,"Ġ`\"":6857,":::::::::":6858,"Ġgenerate":6859,"ĠARY":6860,"aeiou":6861,".:":6862,"En":6863,"Parent":6864,"cv":6865,"Ġci":6866,"Ġcar":6867,"Ġsv":6868,"Ġsff":6869,"--->":6870,"Ġey":6871,"ĠyLast":6872,"seconds":6873,"lines":6874,"ĠSA":6875,"ĠSolution":6876,"Ġ_|":6877,"64000000":6878,"ĠBang":6879,"Ġarri":6880,"atri":6881,"à¦²":6882,"Ġ9000000000000000000":6883,"ĠWRITE":6884,"ĠPRId":6885,"â¡¿âł":6886,"ULO":6887,"(==":6888,"?(":6889,"AV":6890,"Dis":6891,"TOR":6892,"fil":6893,"gap":6894,"rsz":6895,"sgn":6896,"vot":6897,"Ġcentroid":6898,"Ġcpresent":6899,"Ġintt":6900,"-->":6901,"Ġtu":6902,"Ġdat":6903,"ering":6904,"idge":6905,"__))":6906,"Ġllint":6907,"Ġeuler":6908,"))<":6909,"ĠNUM":6910,"based":6911,"Ġht":6912,"Ġham":6913,"ĠĠĠĠĠĠĠĠĠĠĠĠĠĠĠĠĠĠĠĠĠĠĠĠĠĠĠĠĠĠĠĠĠĠĠĠĠĠĠĠĠĠĠĠĠĠĠĠĠĠĠĠĠĠĠ":6914,"ĠDE":6915,"1100":6916,"ĉĉĉĉĉčĊ":6917,"ĠHERE":6918,"lice":6919,"------------------------------------":6920,"ĠtotalCount":6921,"dfn":6922,"Ġ5005":6923,"Digit":6924,"(==)":6925,"&=":6926,"OP":6927,"Rd":6928,"Write":6929,"cess":6930,"vir":6931,"Ġformat":6932,"era":6933,"Ġrw":6934,"asing":6935,"Ġconv":6936,"edia":6937,"ĠRALL":6938,"ipedia":6939,"977":6940,"aba":6941,"à¦®":6942,"Ġ((((":6943,"3005":6944,"!='-')":6945,"Ġ-------":6946,"denominator":6947,"Ġtajir":6948,"è¿ĶåĽŀ":6949,"']--;":6950,"Cur":6951,"Is":6952,"_-":6953,"etic":6954,"vect":6955,"vpll":6956,"zx":6957,"Ø¨":6958,"Ġtour":6959,"Ġtolower":6960,"Ġ\"}":6961,"umn":6962,"ĠPll":6963,"Ġtra":6964,"Ġhar":6965,"Ġcntr":6966,"union":6967,"ĠBUG":6968,"ithmetic":6969,"ĠOFF":6970,"Ġ1000111000":6971,"âĸĳâĸĳâĸĳâĸĳâĸĮ":6972,"Ġvvpll":6973,"hsh":6974,"389":6975,"Ġppf":6976,"Ġ'?'":6977,"divide":6978,"wikipedia":6979,"optimizations":6980,"Ġpolygon":6981,"asdfasdf":6982,"Cycle":6983,"(!=":6984,"500010":6985,"Fr":6986,"LCA":6987,"May":6988,"])))":6989,"king":6990,"knight":6991,"xp":6992,"¦Ĭ":6993,"ĉĉĠĠ":6994,"Ġclose":6995,"()<<\"":6996,"//--------------------------------":6997,"Ġlongest":6998,"ĠTL":6999,"Ġ//~":7000,"Ġ).":7001,"ĠVPII":7002,"Ġsetw":7003,"1003":7004,"','.','":7005,"posed":7006,"Ġcyc":7007,"ðŁ¦Ĭ":7008,"ĠAlhamdulillah":7009,"Ġcorrect":7010,"uclidean":7011,"(!=)":7012,"Var":7013,"cW":7014,"hy":7015,"tI":7016,"Ġcut":7017,"Ġbg":7018,"ĠĠĠĠĠĠĠĠĠĠĠĠĠĠĠĠĠĠĠĠĠĠĠĠčĊ":7019,"ances":7020,"ĠSc":7021,"Ġ300000":7022,"uni":7023,"Ġdeq":7024,"ĠMAXM":7025,"Ġ.'":7026,"305":7027,"Ġorg":7028,"293":7029,"Ġlsb":7030,"<<\",\";":7031,"fffffff":7032,"interval":7033,"OOP":7034,"##~~##~~##~~##~~":7035,"Ð£Ð¡Ð":7036,"Break":7037,"GT":7038,"New":7039,"_<":7040,"fG":7041,"æĹ":7042,"Ġour":7043,"Ġâķļ":7044,"Ġpn":7045,"Ġkhod":7046,"asu":7047,"]).":7048,"Ġcond":7049,"ĠAA":7050,"ĠĠĠĠĠĠĠĠĠĠĠĠĠĠĠĠĠĠĠĠĠĠĠĠĠĠĠĠĠĠĠĠĠĠĠĠĠĠĠĠĠĠ":7051,"ĠCU":7052,"ĠCODE":7053,"âĸĪâĸĮ":7054,"88888888888":7055,"à§ĭ":7056,"~~~~~~~~":7057,"dau":7058,"045":7059,"Dec":7060,"Gf":7061,"SP":7062,"ZZ":7063,"ea":7064,"elem":7065,"pas":7066,"æĺ":7067,"Ġcas":7068,"Ġcache":7069,"Ġfetch":7070,"(\"?":7071,"Ġrch":7072,"Ġ']":7073,"unk":7074,"âĸĳâĸĦâĸĢ":7075,"bucket":7076,"ĠDFOR":7077,"ĠCac":7078,"ĠgetMax":7079,"iln":7080,"Ġsortd":7081,"Ġ409":7082,"ĠEngine":7083,"âĸĴâĸĴâĸĴâĸĦ":7084,"library":7085,"//////////////////////":7086,"ĠfastInOut":7087,"222":7088,"Ġbeli":7089,"&(~(":7090,"!!!!":7091,"ĠTimerStop":7092,"jumps":7093,"trolIO":7094,"ĠEngineering":7095,"&>::":7096,")\\":7097,"_];":7098,"lh":7099,"Ð¼":7100,"Ġ=================":7101,"Ġlop":7102,"Ġscd":7103,"ĠtG":7104,"::..":7105,"Ġequ":7106,"WWEE":7107,"LLAH":7108,"â£¼":7109,";}};":7110,"Ġcntbit":7111,"ĠCalc":7112,"love":7113,"Ġsorting":7114,"ĠisLe":7115,"Ġ\\_|":7116,"vious":7117,"582097":7118,"â¢ł":7119,"ĠWA":7120,"Ġï¿½ï¿½ï¿½ï¿½ï¿½ï¿½ï¿½ï¿½ï¿½ï¿½ï¿½ï¿½":7121,"â£¿â¡ĩ":7122,"Ġfdto":7123,"Ġimpl":7124,"moves":7125,"BufSize":7126,"Ġcppstr":7127,"14159265358979323846264338327950288419716939937510582097":7128,"'ve":7129,"(...);":7130,".;":7131,"Df":7132,"GB":7133,"bar":7134,"cor":7135,"car":7136,"her":7137,"whitespace":7138,"ĉĠĠĠĠ":7139,"Ġblo":7140,"les":7141,"Ġ'<":7142,"Ġ'-';":7143,"Ġ200001":7144,"Ġ++(":7145,"...;":7146,"Ġ30000":7147,"Ġstay":7148,"Ġstuff":7149,"Ġmpp":7150,"Ġgetnum":7151,"Ġdes":7152,"Ġsizes":7153,"vertical":7154,"Ġreps":7155,")('":7156,"=========":7157,".....,":7158,"ATCH":7159,"ĠbufSize":7160,"KEK":7161,"Ġà¦Ĩ":7162,"4944":7163,"ĠbinarySearch":7164,"reflect":7165,"sdk":7166,"Ġunzipper":7167,"141592653589793238462643383279502884197169399375105820974944":7168,"*((":7169,"50000":7170,":.............":7171,":.................................":7172,";................................":7173,";,.":7174,"DKK":7175,"DEEEEEEEEEEE":7176,"GDDD":7177,"KEEE":7178,"KDEEE":7179,"NAN":7180,"UU":7181,"WKKKKKK":7182,"fD":7183,"iDD":7184,"kl":7185,"qe":7186,"Ðŀ":7187,"çĽ":7188,"stan":7189,"ĠfRead":7190,"ĠfWrite":7191,"cloc":7192,"Ġvint":7193,"Ġbst":7194,"ĉĉĉĠ":7195,"KKEK":7196,"::,":7197,"::,,,,,,,;;;;":7198,"ĠĠĠĠĠĠĠĠĠĠĠĠĠĠĠĠĠčĊ":7199,"WWKKKKKKKKKKKKKKKK":7200,"WWKE":7201,"WWEEEEEEE":7202,"EEKK":7203,"EEDDDD":7204,"EEKKWWWW":7205,"DDL":7206,"DDDG":7207,"Ġ:,;;":7208,"ĠPO":7209,"EEEEEED":7210,"WWWWKKKKKKKWKK":7211,"=(__":7212,"Ġhsh":7213,"ĠCont":7214,"ĠCTr":7215,"DDDDDDD":7216,"Ġisvowel":7217,"ĠOP":7218,"Ġ\",++":7219,"Ġ.;":7220,"Ġ.:::":7221,"WWWWWWWWWWWWWW":7222,"WWWWWWWWWWK":7223,"GGGGDDDDDDDDDDD":7224,"GGGGGL":7225,"DDDDDDDDD":7226,"WWWKKKKKKKKKK":7227,"WWWKKKKKKKKKKKKKKK":7228,"///////////////////":7229,"KKKWWWWWWWW":7230,"KKKWWK":7231,"invfact":7232,"KKKKKKKKKKKKKKKKW":7233,"KKKKKKKKKKKKKKKKWKKKKKKKK":7234,"DEi":7235,"WKE":7236,"ivo":7237,"tfGGGGDDDDDDDDDDD":7238,"Stamp":7239,"WWWWWWKKKKKK":7240,"EEEEEEEEEEEEE":7241,",\"/":7242,"WKKWK":7243,"WWWWWWWWWGWWWKK":7244,"......,":7245,"......;":7246,"EDi":7247,"KWEK":7248,"ijLG":7249,"'},{'":7250,"WKKKKKi":7251,"Ġpattern":7252,"ĠEXP":7253,"DEEKKK":7254,"Ġactive":7255,"Pairs":7256,"111000111":7257,"æľī":7258,"ĠfDEEEEEE":7259,"WWWWWWWWKKKKKi":7260,"WWWWWKKKKKWWWWWWWWWWWW":7261,"Ġ....::::..":7262,"SortComp":7263,"è¡¨":7264,"GGGGGGGGGGGGGGGGGGGGGGGGGG":7265,"Shortest":7266,"Ġ.:::;:":7267,"02":7268,"Field":7269,"Inc":7270,"Mx":7271,"Returns":7272,"gl":7273,"Ġ####":7274,"resp":7275,"Ġ(&...":7276,"ĠrFOR":7277,"Ġever":7278,"Ġ'}":7279,"asy":7280,"imal":7281,"Ġminheap":7282,"Ġsumm":7283,"hest":7284,"Ġfront":7285,"ecution":7286,"ĠYou":7287,"vvl":7288,"Ġ1000003":7289,"................................................................":7290,"calculate":7291,"VECTOR":7292,"'},{'.','":7293,"âĸĳâĸĳâĸĳâĸĳâĸĳâĸĮ":7294,"459045":7295,"718281828459045":7296,"Ġ1000111000111000111":7297,"7182818284590452353":7298,",--":7299,";,,":7300,"BO":7301,"Check":7302,"Ins":7303,"Queue":7304,"TC":7305,"tam":7306,"Ġ****":7307,"deep":7308,"Ġ0123456789":7309,"Ġvect":7310,"Ġvull":7311,"Ġforup":7312,"Ġxa":7313,"Ġ200000000":7314,"Ġ,&":7315,"Ġ|_":7316,"ĠPref":7317,"ĠRand":7318,"ĠCan":7319,"pport":7320,"VAL":7321,"100011":7322,"âĸĢâĸĪâĸĪâĸĪâĸĪâĸĪ":7323,")*((":7324,"Ġasd":7325,"ccess":7326,"âĸĪâĸĪâĸĪâĸĪâĸĮ":7327,"factors":7328,"âĸĢâĸĢâĸĳâĸĳâĸĮ":7329,"marked":7330,"âĸĦâĸĦâĸĳâĸĳâĸĮ":7331,",\"%":7332,"Ġsdk":7333,"Ġ200100":7334,"âĸĪâĸĪâĸĪâĸĮ":7335,"itting":7336,"ticulation":7337,"âĸĢâĸĢâĸĢâĸĢâĸĢâĸĦ":7338,"Ġcorner":7339,"âķĲâķ¦âķĲâķ©âķĲâķ¦âķĲâķ©âķĲâķ¦âķĲâķ©âķĲâķ¦âķĲâķ©":7340,"jdflg":7341,"577215":7342,"âĸĲâĸĳâĸĳâĸĳâĸĦâĸĦâĸĳâĸĳâĸĮ":7343,"ÐĶÐ":7344,"âĸĢâĸĢâĸĢâĸĴâĸĴâĸĴâĸĴâĸĴâĸĴ":7345,"allocator":7346,"Ġ4096":7347,"577215664":7348,"Even":7349,"MY":7350,"bst":7351,"fig":7352,"kt":7353,"pur":7354,"vent":7355,"Ġ(--":7356,"Ġagain":7357,"Ġfc":7358,"Ġnmax":7359,"ĠFix":7360,"Ġ37":7361,"ĠGen":7362,"Ġsetfill":7363,"Ġmxm":7364,"120":7365,"1000100":7366,"abb":7367,"ĠHopcroftKarp":7368,"Ġvvv":7369,"307":7370,"infuck":7371,"MinVal":7372,"Ġbsr":7373,"box":7374,"Ġ')')":7375,"Ġ(_)":7376,"served":7377,"rdtsc":7378,"optimize":7379,"Ġunzip":7380,"==================================+":7381,"Ġbrainfuck":7382,".,":7383,">())":7384,"CE":7385,"CP":7386,"[\";":7387,"coun":7388,"kth":7389,"rht":7390,"witch":7391,"åº":7392,"Ĳ¹":7393,"delete":7394,"Ġpred":7395,"//'":7396,"Ġbel":7397,"Ġrai":7398,"til":7399,"<<\"?":7400,"ĠSLL":7401,"Ġmpii":7402,"omin":7403,"')';":7404,"Ġboolalpha":7405,"Ġ\",\";":7406,")<<\",\"<<":7407,"xxxx":7408,"ITY":7409,"Ġpause":7410,"ðŁĲ¹":7411,"<<\"]\\":7412,"Ġutility":7413,"ðŁ¦ĬðŁ¦Ĭ":7414,"æĺ¯":7415,"GN":7416,"Print":7417,"aut":7418,"bp":7419,"cz":7420,"rn":7421,"rim":7422,"Ġao":7423,"Ġforl":7424,"Ġran":7425,"Ġwon":7426,"Ġinstead":7427,"choose":7428,"iiiii":7429,"Ġqe":7430,"Ġseconds":7431,"sums":7432,"Ġinfl":7433,"Ġmnm":7434,"Ġasdf":7435,"229":7436,"11111":7437,"comb":7438,"âĸĪâĸĪâĸĪâĸĪâĸĪâĸĪ":7439,"ĉĠĉĉĉ":7440,"Ġfollow":7441,"Execution":7442,"strict":7443,"Ġtell":7444,"ABC":7445,"Ġutils":7446,"Ġstree":7447,"ĠSegTree":7448,"131":7449,":`":7450,"Cout":7451,"Ok":7452,"When":7453,"[!":7454,"]/=":7455,"bes":7456,"cen":7457,"cbegin":7458,"mu":7459,"nYES":7460,"âĺ":7461,"å®":7462,"Ġistr":7463,"Ġids":7464,"reach":7465,"Ġcircle":7466,"ameter":7467,"ĠFr":7468,"ĠNext":7469,"ĠSwitch":7470,"â£ŀ":7471,"Ġary":7472,"Ġ_=":7473,"â£¿â¢Ģ":7474,"minx":7475,"ĠDO":7476,"MAXL":7477,"alla":7478,"Ġsetmax":7479,"Ġmxx":7480,"ocal":7481,"Ġscs":7482,"â¡Ĩ":7483,"349":7484,"Ġà¦ķ":7485,"book":7486,"opeTimer":7487,"â£¯â¢¿":7488,"Ġslope":7489,"â£½â£»":7490,"MMMMMMMMMMMMMMMMMMMMMMMMMMMMMMMMMMMMMMMMMMMMMMMM":7491,"â¢Ģâ¢Ģâ¢Ģâ¢Ģ":7492,"â£¶â£¶":7493,"Ġavail":7494,"Ġsubmitting":7495,"divisors":7496,"ĠPAIR":7497,"â£§âłĺ":7498,"Ġ227420":7499,"ĠScopeTimer":7500,"Ġ227420978":7501,"CR":7502,"GE":7503,"QQ":7504,"cid":7505,"ient":7506,"miss":7507,"nNO":7508,"rot":7509,"ship":7510,"dest":7511,"Ġlw":7512,"Ġfw":7513,"Ġtxt":7514,"types":7515,"ĠTry":7516,"Ġcini":7517,"Ġrect":7518,"])!=":7519,"prob":7520,"),-":7521,"Ġqy":7522,"())*":7523,"ĠCost":7524,"Ġdet":7525,"ĠBuild":7526,")%=":7527,"fib":7528,"*************************************":7529,"STL":7530,"Ġeni":7531,"1000006":7532,"287":7533,"Ġnega":7534,"ĠMAGIC":7535,"æľĢ":7536,"ethods":7537,"']);":7538,"179":7539,"526":7540,"VL":7541,"circle":7542,"dges":7543,"je":7544,"zeros":7545,"æŀ":7546,"<<=":7547,"ĠFo":7548,"ĠCircle":7549,"ĠID":7550,"ĠIL":7551,"ĠOL":7552,"Ġ[\"":7553,"///--------------------------------":7554,"Ġ^_^":7555,"MaxVal":7556,"ĠKnight":7557,"Ġbef":7558,"Ġrights":7559,"haha":7560,"uffix":7561,"ĠmodularExponentiation":7562,"}}}":7563,"XXXX":7564,"ĠFFT":7565,"Ġlargest":7566,"switch":7567,"497":7568,":\";":7569,"BB":7570,"XZ":7571,"_=":7572,"date":7573,"how":7574,"pass":7575,"pretty":7576,"reset":7577,"Ġ(),":7578,"Ġmil":7579,"Ġmoney":7580,"Ġpof":7581,"Ġdust":7582,"Ġreserved":7583,"Ġwl":7584,"ĠMem":7585,"chu":7586,"ĠmodAdd":7587,"ico":7588,"Ġ72":7589,"Ġ\\:\\":7590,"à¦ķ":7591,"Ġmultimap":7592,"ATION":7593,"elements":7594,"Ġsuma":7595,"ters":7596,"Ġplus":7597,"Ġ\"{}\";":7598,"ancestor":7599,"ĠNOT":7600,"å°ı":7601,"dividend":7602,"Move":7603,"Main":7604,"lm":7605,"pull":7606,"ron":7607,"rit":7608,"ran":7609,"tms":7610,"yo":7611,"ĠĠĠĠĉčĊ":7612,"Ġmom":7613,"Ġvir":7614,"acb":7615,"contest":7616,"__)(__":7617,"speed":7618,"ĠMx":7619,"<<\"}\";":7620,"Ġmaxheap":7621,"ĠPDD":7622,"100002":7623,"ready":7624,"ĠWH":7625,"1999":7626,"Ġdoing":7627,"Ġtopolog":7628,"Ġ2005":7629,"âĸĢâĸĦâĸĳâĸĳâĸĳâĸĳ":7630,"ĠBigInt":7631,"ĠDebugger":7632,"Ġbetter":7633,"PROG":7634,"ĠPROGR":7635,"]=='#')":7636,"âĸĳâĸĳâĸĳâĸĳâĸĳâĸĲâĸĳâĸĳâĸĳâĸĳâĸĳâĸĳâĸĳ":7637,"Let":7638,"OI":7639,"Tp":7640,"dn":7641,"mst":7642,"rge":7643,"viz":7644,"Ðł":7645,"ĉĉĠĉ":7646,"--;}":7647,"Ġbte":7648,"ĠTemplate":7649,"ĠFlag":7650,"ĠSh":7651,"Ġoc":7652,"Ġoi":7653,"ĠCase":7654,"ĠCopy":7655,"ĠELE":7656,"Ġnep":7657,"STD":7658,"-='":7659,"ĠmultipleTestMode":7660,"suma":7661,"ATOR":7662,"ECK":7663,"Ġdebarr":7664,"Ġpoz":7665,"ĠRAH":7666,"FFFFFF":7667,"Debugger":7668,"Cont":7669,"WE":7670,"WI":7671,"¦ģ":7672,"Ð´":7673,"æĦ":7674,"Ħï¹":7675,"ĠĠĠĉĉĉĉ":7676,"Ġ={":7677,"star":7678,"Ġisz":7679,"Ġcreated":7680,"//*/":7681,"ating":7682,"Ġinq":7683,"Ġmodinverse":7684,"maxv":7685,"Ġ_______":7686,"Ġhrs":7687,"Ġstt":7688,"ĠGr":7689,"geti":7690,"Ġ555":7691,"Ġ--){":7692,"Ġadjlist":7693,"Ġ61":7694,"ĠcheckMod":7695,"Ġonline":7696,"Ġcanh":7697,"2907":7698,"ordin":7699,"Ġcoords":7700,"1010101":7701,"lso":7702,"Ġdebpr":7703,"Ġgenerator":7704,"ĠDirections":7705,"8888888888888888888888888":7706,"cuoi":7707,"â£¤â£¤":7708,"Ġstress":7709,"{{{":7710,"Ġfilename":7711,"ï¹Ħï¹":7712,"Ġcube":7713,"YnB":7714,"Inside":7715,"æĦı":7716,"ï¹Ħï¹ĥ":7717,"*>":7718,"230":7719,"400000":7720,"Watch":7721,"_((":7722,"fx":7723,"phi":7724,"rate":7725,"|!":7726,"Ã¨":7727,"Ġol":7728,"Ġmex":7729,"Ġninf":7730,"Ġpfs":7731,"//_":7732,"Ġforward":7733,"ops":7734,"Ġem":7735,"oly":7736,"Ġren":7737,"stread":7738,"ĠFIO":7739,"ncr":7740,"Ġ|.":7741,"Ġstable":7742,"âĸĳâĸĪ":7743,"Ġdenom":7744,"Ġ798":7745,"Ġsetbase":7746,"Ġprecompute":7747,"nown":7748,"Ġoptimiz":7749,"ĠXOR":7750,"Ġbucket":7751,"10001":7752,"sider":7753,"ĠKMP":7754,"LEN":7755,"Ġheart":7756,"mula":7757,"Ġ\"]\"":7758,"Ġà¦ı":7759,"200002":7760,"anced":7761,"intercept":7762,"RIX":7763,"/***************************":7764,"ĠisLeap":7765,"Base":7766,"Cor":7767,"Del":7768,"Wall":7769,"euclid":7770,"rahman":7771,"sink":7772,"uary":7773,"xcross":7774,"Ġ{},":7775,"Ġmish":7776,"Ġfpi":7777,"Ġnpq":7778,"stdint":7779,"stdata":7780,"Ġbip":7781,"Ġform":7782,"Ġfordo":7783,"ized":7784,"Ġrm":7785,"ĠTO":7786,"();*":7787,"\";}}":7788,"ĠFunction":7789,"isspace":7790,"ĠmodDiv":7791,"10198":7792,"ĠPDE":7793,"putnb":7794,"Ġ360":7795,"ĠLazy":7796,"ĠDfs":7797,"]==')":7798,"ĠIR":7799,"Ġ???":7800,"Ġ1000000005":7801,"Ġ1000000000000":7802,"Ġ1011111111":7803,"Ġreadin":7804,"azfast":7805,"atron":7806,"Ġvvld":7807,"Ġbiton":7808,"Ġbitoff":7809,"Ġempb":7810,"grade":7811,"Ġsfd":7812,"testdata":7813,"lnb":7814,"Stream":7815,"à§ģ":7816,"Ġ~/":7817,")((((*":7818,"cslnb":7819,"delrahman":7820,"Ġobject":7821,"Ġquit":7822,"ĠxyLine":7823,"SSI":7824,"oved":7825,"actice":7826,"ĠContainer":7827,"normfac":7828,"lzy":7829,"ĠSHOWVECTOR":7830,"SOLUTION":7831,"ssertsCounter":7832,"Ġaugment":7833,"14159265358979323846264338327950288419716939937510582097494459":7834,"Ġoptimiza":7835,"Ġmishatron":7836,"250":7837,"?'\\":7838,"Adj":7839,"HI":7840,"HERE":7841,"XY":7842,"little":7843,"ral":7844,"width":7845,"Ġix":7846,"Ġcst":7847,"Ġcop":7848,"Ġnth":7849,"Ġinto":7850,"Ġ\"[]":7851,"Ġdw":7852,"ĠTh":7853,"nton":7854,">>,":7855,"Ġkth":7856,"ĠFenwick":7857,"iswhitespace":7858,"ĠmodSub":7859,"00000000000":7860,"ĠLIM":7861,"Ġtostr":7862,"frac":7863,"MMMMMMM":7864,"Ġlena":7865,"'.';":7866,"431":7867,"STAN":7868,"els":7869,"Ġgraf":7870,"1000000000000000000":7871,"show":7872,"Ġfinp":7873,"Ġsure":7874,"888888888888888888":7875,"Ġ`.":7876,"Ġtopr":7877,"ĠÐ·":7878,"Ġ505":7879,"Ġallocator":7880,"vari":7881,"çļĦå":7882,"Trie":7883,"Ġgeti":7884,"dblcmp":7885,"!!!\"":7886,"ĠSpeedForce":7887,"ðŁĲ¹ðŁĲ¹":7888,"Ġaryanc":7889,"\"\\":7890,"+--":7891,"+\",":7892,">((":7893,"Area":7894,"Red":7895,"SQ":7896,"Targs":7897,"cent":7898,"dv":7899,"ĉĠĠĠĠčĊ":7900,"ĠÂ":7901,"ĠĠĠĠĠĠĠĠĉĉ":7902,"Ġlas":7903,"itor":7904,"Ġtre":7905,"Ġbakh":7906,"::_":7907,"Ġef":7908,"))][":7909,"Ġwidth":7910,"setbase":7911,"])]":7912,"cant":7913,"Ġ//////":7914,"Ġ///////////":7915,"etree":7916,"Ġqi":7917,"Ġov":7918,"ĠPRE":7919,"Ġarticulation":7920,"agetree":7921,"ĠCo":7922,"ĠCnt":7923,"Ġ500000":7924,"ĠinfLL":7925,"mxm":7926,"Ġstra":7927,"Ġ!!":7928,"Ġthree":7929,"Ġvvd":7930,"player":7931,"ONE":7932,"belong":7933,"ĠtimeStamp":7934,"/**************************************":7935,"Ġrdtsc":7936,"irect":7937,"Ġpdqueue":7938,"Ġcell":7939,"access":7940,"ĠIteratorType":7941,"CONSTAN":7942,"Ġcanhazfast":7943,"512":7944,"Crt":7945,"Dbg":7946,"Knight":7947,"Year":7948,"dl":7949,"fprintf":7950,"iy":7951,"qwerty":7952,"rm":7953,"ä¼":7954,"deq":7955,"Ġia":7956,"Ġcare":7957,"Ġauthor":7958,"Ġfopen":7959,"Ġpas":7960,"ency":7961,"():":7962,"Ġrloop":7963,"ĠThis":7964,"ĠTIE":7965,"ano":7966,"spot":7967,"Ġgu":7968,"ĠMASK":7969,"ĠSW":7970,"ĠPair":7971,"ĠLog":7972,"*********************":7973,"Ġseed":7974,"Ġ78":7975,"skip":7976,"8888888888":7977,"Ġpows":7978,"III":7979,"Ġ'.');":7980,"printLine":7981,"Ġ------------------------------------------------":7982,"11111111111":7983,"runtime":7984,"Ġprecision":7985,"Ġgeomet":7986,"Ġ'||*":7987,"Black":7988,"CrtDbg":7989,"CrtDbgBreak":7990,"+((":7991,"709":7992,"IK":7993,"NMAX":7994,"Ptr":7995,"Ra":7996,"SPC":7997,"UONG":7998,"euclidean":7999,"fnd":8000,"qt":8001,"sat":8002,"unt":8003,"{'":8004,"ÙĨ":8005,"Ġcat":8006,"Ġcoun":8007,"Ġ114":8008,"Ġsn":8009,"Ġsmain":8010,"arithmetic":8011,"typecast":8012,"spar":8013,"Ġ3000":8014,"ĠRANDOM":8015,"ems":8016,"ĠINFF":8017,"ĠVS":8018,"Ġ--++--":8019,"1002":8020,"Ġtmpv":8021,"Ġaccepted":8022,"Ġshuffle":8023,"ĠtestCase":8024,"ĠJew":8025,"monostate":8026,"******************************************":8027,"000000000000000000000000000":8028,"111111111111111111111111111":8029,"ĠØ§ÙĦØ±":8030,"ĠSOLUONG":8031,"ĠCopyright":8032,"ĠJewel":8033,"Jun":8034,"Lf":8035,"SYNC":8036,"Task":8037,"}]=":8038,"};}":8039,"Ñĭ":8040,"ÙĬ":8041,"Ġ######":8042,"Ġ---------":8043,"Ġ\"\");":8044,"__);}":8045,"ĠTp":8046,"Ġreunique":8047,"special":8048,"Ġ239":8049,"ĠFX":8050,"881":8051,"ĠNAME":8052,"ĠPPII":8053,"Ġtrail":8054,"Ġ320":8055,";;)":8056,"orth":8057,"ĠDate":8058,"ĠCF":8059,"ĠCMP":8060,"ĠreadLine":8061,"Ġpie":8062,"Ġulli":8063,"ĠHASH":8064,"temporaryNode":8065,"à¦¤":8066,"à¦Ľ":8067,"limN":8068,"ĠModInverse":8069,"ĠALLAH":8070,"Ġ',')":8071,"ĠPRS":8072,"ĠPrintV":8073,"ĠÐ½":8074,"Ġsplay":8075,"________________________________________________":8076,"/__/":8077,"<<\")\";}":8078,"Ġ*****************************************************************************************************":8079,"fcse":8080,"radius":8081,"Ġ'[';":8082,"æĹ¶":8083,"ĠPROGRAM":8084,"137":8085,"9223372036854775807":8086,":......:":8087,";:.":8088,"Dan":8089,"From":8090,"bel":8091,"ä½":8092,"Ġ])":8093,"ĳÐŀ":8094,"Ġident":8095,"rel":8096,"Ġcans":8097,"Ġcsum":8098,"Ġnok":8099,"Ġplease":8100,"Ġ1123456":8101,"Ġbid":8102,"algo":8103,"ĠĠĠĠĠĠĠĠĠĠĠĠĠĠĠĠĠĠčĊ":8104,"Ġ228":8105,"Ġ)%":8106,"ĠFOUT":8107,"ĠNE":8108,"ĠSync":8109,"â£´":8110,"Ġcnts":8111,"ĠĠĠĠĠĠĠĠĠĠĠĠĠĠĠĠĠĠĠĠĠĠĠĠĠĠĠĠĠĠĠĠĠĠĠĠĠĠĠĠĉ":8112,"Ġgetv":8113,"third":8114,"Ġ777":8115,"ĠFORIT":8116,"Ġstri":8117,"ĠĠĠĠĠĠĠĠĠĠĠĠĠčĊ":8118,"100009":8119,"::::.":8120,"âł¸":8121,"('<<":8122,"à§Ł":8123,"********************************************************************************************************************************":8124,"bbbbbbbb":8125,"bbbbbbb":8126,"cstdint":8127,"Ġ|_|\\__,_|":8128,"blogspot":8129,"SPCPPL":8130,"#';":8131,"400005":8132,"Euclid":8133,"LS":8134,"TION":8135,"We":8136,"qwe":8137,"ĠOR":8138,"reg":8139,"Ġatr":8140,"Ġmit":8141,"Ġndp":8142,"Ġ>&":8143,"ypow":8144,"Ġxi":8145,"ĠxLast":8146,"Ġwar":8147,"ĠMB":8148,"owed":8149,"Ġmaxv":8150,"ĠSe":8151,"agic":8152,"=(*":8153,"ĠĠĠĠĠĠĠĠĠĠĠĠĠĠĠĠĠĠĠĠĠĠĠĠĠĠĠĠĠĠĠĠĠĠĠĠĠĠĠĠĠĠĠĠĠĠĠĠĠĠĠ":8154,"ĠgetMin":8155,"ĠsetBit":8156,"Ġ---":8157,"ĠreadTable":8158,"ĠUS":8159,"Ġneigh":8160,"<<'('<<":8161,"////////////////////////////":8162,"ALT":8163,"parity":8164,"anged":8165,"âĸĵâĸĪ":8166,"ĠComput":8167,"ãĢĤ":8168,"Ġsmaller":8169,"Ġngy":8170,"Ġdefault":8171,"Ġraand":8172,"Ġbottom":8173,"âĸĮâĸĮâĸĳâĸĳâĸĳâĸĳâĸĳ":8174,"Ġatoi":8175,"intersected":8176,"ĠLeft":8177,"'};":8178,"*)&":8179,"06":8180,"Free":8181,"HOME":8182,"Il":8183,"]<<(":8184,"fy":8185,"lis":8186,"Ñı":8187,"Ġ=================================":8188,"default":8189,"Ġ{//":8190,"Ġmv":8191,"Ġfull":8192,"Ġfuck":8193,"clk":8194,"Ġdout":8195,"ected":8196,"ĠĠĠĠĠĉ":8197,"ĠMO":8198,"ĠFill":8199,"ota":8200,"ĠLet":8201,"_________":8202,"Ġ.'.":8203,"Ġputnum":8204,"Intersect":8205,"Ġmnx":8206,"]={-":8207,"readth":8208,"Ġprimelist":8209,"ĠbufAt":8210,"\\\\\\\\":8211,"ĠComplex":8212,"ÐµÑĤ":8213,"DEFINE":8214,"Distance":8215,"VERS":8216,"balance":8217,"ÑĢÐ¾":8218,"Algo":8219,"tarun":8220,"ðŁĴ©ðŁĴ©ðŁĴ©ðŁĴ©ðŁĴ©ðŁĴ©ðŁĴ©ðŁĴ©":8221,"ĠDijkstra":8222,"Order":8223,"Union":8224,"Ġimplementation":8225,"654321":8226,"Ġfetcher":8227,"#$":8228,"'],":8229,"(';":8230,")[(":8231,"9000":8232,"Block":8233,"bk":8234,"floor":8235,"hf":8236,"hour":8237,"Ø§":8238,");;":8239,"Ġles":8240,"Ġant":8241,"../":8242,"ities":8243,"usk":8244,"strchr":8245,"ĠTA":8246,"uess":8247,"Ġesp":8248,"Ġrecalc":8249,"Ġwind":8250,"Ġ:)":8251,"Ġoperation":8252,"Ġminx":8253,"modinv":8254,"Ġsze":8255,"ĠDX":8256,"Ġallrev":8257,"extended":8258,"Ġsegs":8259,"frq":8260,"ocol":8261,"8888888888888":8262,"compress":8263,"parse":8264,"âĸĦâĸĴâĸĴâĸĴâĸĴ":8265,"Ġdisp":8266,"fastio":8267,"Ġkeep":8268,"Ġ\")\\":8269,"Ġsuch":8270,"Ġextr":8271,"Ġorderset":8272,"âĢĶ":8273,"DIA":8274,"aaaaaaaa":8275,"ĠextendedEuclid":8276,"Ġ1000000000000000007":8277,"ĠUNIVERS":8278,"Ġbelieve":8279,"SSIBLE":8280,"Ġaugmenting":8281,"ĠUNIVERSITY":8282,"2000000000":8283,"DC":8284,"Fargs":8285,"Odd":8286,"TOC":8287,"]<<'\\":8288,"flip":8289,"sion":8290,"sfl":8291,"tout":8292,"~!":8293,"ÐĹ":8294,"ļÐĲÐ":8295,"Ġaut":8296,"sep":8297,"++/":8298,"Ġ\"<":8299,"::...":8300,"foru":8301,"Ġwy":8302,"ĠMint":8303,"price":8304,"vecin":8305,"ĠFlow":8306,"ĠPH":8307,"â£Į":8308,"unsetf":8309,"ĠBi":8310,"MAXM":8311,"Ġ1024":8312,"Ġexgcd":8313,"MMMMMMMMMM":8314,"avg":8315,"â¡Į":8316,"segtree":8317,"Ġ(*__":8318,"cover":8319,"â£¿â£§":8320,"â£¿â£¾":8321,"â£¿â£Ł":8322,"â£¯â£Ł":8323,"â£Łâ£¾":8324,"â£¿â¡½":8325,"SUCC":8326,"EMPL":8327,"/************************************************/":8328,">>>>>>":8329,"222222":8330,"!='-'":8331,"Ġconnected":8332,"â¡ĩâ¢¸":8333,"Ġputii":8334,"ĠPROTOC":8335,"ofileIdx":8336,"ĠRESET":8337,"ï¹Ħï¹ĥï¹Ħï¹ĥ":8338,"SUCCESS":8339,"ĠPROTOCOL":8340,"BASE":8341,"CN":8342,"OSSIBLE":8343,"PQ":8344,"lans":8345,"ning":8346,"ook":8347,"Ð²":8348,"éĩ":8349,"Ġiq":8350,"Ġ(::":8351,"Ġae":8352,"Ġpm":8353,"Ġpls":8354,"Ġpuu":8355,"();)":8356,"Ġ250":8357,"Ġkmp":8358,"Ġprf":8359,"chool":8360,"887":8361,"())!=":8362,"agonal":8363,"Ġhope":8364,"ĠLi":8365,"ĠĠĠĠĠĠĠĠĠĠĠĠĠĠĠĠĠĠĠĠĠĠĠĠĠĠĠĠĠĠĠĠĠĠĠĠĠĠĠĠĠĠĠĠĠĠĠĠĠĠĠĠĠ":8366,"ĠDinic":8367,"try":8368,"ĠĠĠĠĠĠĉ":8369,"\");}":8370,"ORY":8371,"sss":8372,"Ġprevious":8373,"ĠUL":8374,"'.')":8375,"336":8376,"Ġthey":8377,"Ġlove":8378,"Ġdistances":8379,"()))))":8380,"ĠDIS":8381,"Ġabdelrahman":8382,"Ġdecimal":8383,"slam":8384,"ctzll":8385,"osen":8386,"cccccccc":8387,"Ġinitialize":8388,"ĠARG":8389,"Ġ2019":8390,"ķÐľ":8391,"Ġtokens":8392,"filename":8393,"Ġstrict":8394,"401":8395,"AMP":8396,"Emr":8397,"NQ":8398,"most":8399,"å¯":8400,"ŁÐ£Ð¡Ð":8401,"inct":8402,"Ġnpair":8403,"Ġnom":8404,"()].":8405,"lll":8406,"<<_":8407,"Ġdm":8408,"ific":8409,"idges":8410,"__<<":8411,"spec":8412,"Ġuc":8413,"backs":8414,"Ġgod":8415,"ĠFile":8416,"Ġoset":8417,"ĠĠĠĠĠĠĠĠĠĠĠĠĠĠĠĠĠĠĠĠĠĠĠĠĠĠĠĠĠĠĠĠĠĠĠĠĠ":8418,"ĠDefines":8419,"ĠĠĠĠĠĠĊ":8420,"ĠBL":8421,"Ġ50000":8422,"/*#":8423,"ĠOn":8424,"151":8425,"Ġleaves":8426,"iel":8427,"ĠcheckBit":8428,"simple":8429,"ĠWe":8430,"Ġgroups":8431,"791":8432,"Ġgcdex":8433,"myCout":8434,"Ð¾Ðµ":8435,"ĠresetBit":8436,"ĠReset":8437,"EGIN":8438,"ĠConstants":8439,"/__\\":8440,"reatest":8441,"ÐĲÐŁÐ£Ð¡Ð":8442,"ĠUnionFind":8443,"Projects":8444,"shared":8445,"Ġworld":8446,"Ġbecause":8447,"ļÐĲÐķÐľ":8448,"Emrul":8449,"ÐĲÐŁÐ£Ð¡ÐļÐĲÐķÐľ":8450,"\"(":8451,"\"));":8452,"Engine":8453,"Off":8454,"Template":8455,"UI":8456,"VEN":8457,"Wr":8458,"csc":8459,"cache":8460,"eof":8461,"gy":8462,"money":8463,"tps":8464,"vol":8465,"{\\":8466,"Ġ99":8467,"Ġ}}":8468,"Ġ\">":8469,"Ġreally":8470,"Ġupp":8471,"Ġuax":8472,"ega":8473,"))*(":8474,"ĉĉĉĉĉĉĉĉĉ":8475,"ĉĉĉĉĉĉĉĉĉĉ":8476,"Ġ//__":8477,"INIT":8478,"Ġchunk":8479,"............":8480,"emz":8481,"ionProjects":8482,"')+":8483,"ĠDR":8484,"lobal":8485,"ĠBINF":8486,"ĠBIG":8487,"Ġoutdist":8488,"327":8489,"https":8490,"187":8491,"âķĹ":8492,"Ġlogn":8493,"Ġcomps":8494,"ava":8495,"Ġwritep":8496,"Ġ1000006":8497,"horse":8498,"ALLOC":8499,"8888888888888888888":8500,"=\"\",":8501,"Ġà¦¸":8502,"Ġ1900":8503,"smaller":8504,"]=='.'){":8505,"âĸĪâĸĪâĸĪâĸĢ":8506,"IMPOSSIBLE":8507,"Ġ'-'){":8508,"ĠĠĠĠĠĠĠĠĠĠĠĠĠĠĠĠĠĠĠĠĠĠĠĠĠĠĠĠĠĠĠĠĠĠĠĠĠĠĠĠĠĠĠĠĠĠĠĠĠĠĠĠĠĠĠĠĠĠĠĠĠĠĠĠĠĠĠĠĠĠĠĠĠĠĠĠĠĠĠĠĠĠĠĠĠĠĠĠĠĠĠĠĠĠĠĠĠĠĠĠĠĠĠĠĠĠĠĠĠĠĠĠĠĠĠĠĠĠĠĠĠĠĠĠĠĠĠĠĠĠĠĠĠĠĠĠĠĠĠĠĠĠĠĠĠĠĠĠĠĠĠĠĠĠĠĠĠĠĠĠĠĠĠĠĠĠĠĠĠĠĠĠĠĠĠĠĠĠĠĠĠĠĠĠĠĠĠĠĠĠĠĠĠĠĠĠĠĠĠĠĠĠĠĠĠĠĠĠĠĠĠĠĠĠĠĠĠĠĠĠĠĠĠĠĠĠĠĠĠĠĠĠĠĠĠĠĠĠĠĠĠĠĠĠĠĠĠĠĠĠĠĠĠĠĠĠĠĠĠĠĠĠĠĠĠĠĠĠĠĠĠĠĠĠĠĠĠĠĠĠĠĠĠĠĠĠĠĠĠĠĠĠĠĠĠĠĠĠĠĠĠĠĠĠĠĠĠĠĠĠĠĠĠĠĠĠĠĠĠĠĠĠĠĠĠĠĠĠĠĠĠĠĠĠĠĠĠĠĠĠĠĠĠĠĠĠĠĠĠĠĠĠĠĠĠĠĠĠĠĠĠĠĠĠĠĠĠĠĠĠĠĠĠĠĠĠĠĠĠĠĠĠĠĠĠĠĠĠĠĠĠĠĠĠĠĠĠĠĠĠĠĠĠĠĠĠĠĠĠĠĠĠĠĠĠĠĠĠĠĠĠĠĠĠĠĠĠĠĠĠĠĠĠĠĠĠĠĠĠĠĠĠĠĠĠĠĠĠĠĠĠĠĠĠĠĠĠĠĠĠĠĠĠĠĠĠĠĠĠĠĠĠĠĠĠĠĠĠĠĠĠĠĠĠĠĠĠĠĠĠĠĠĠĠĠĠĠĠĠĠĠĠĠĠĠĠĠĠĠĠĠĠĠĠĠĠĠĠĠĠĠĠĠĠĠĠĠĠĠĠĠĠĠĠĠĠĠĠĠĠĠĠĠĠĠĠĠĠĠĠĠĠĠĠĠĠĠĠĠĠĠĠĠĠĠĠĠĠĠĠĠĠĠĠĠĠĠĠĠĠĠĠĠĠĠĠĠĠĠĠĠĠĠĠĠĠĠĠĠĠĠĠĠĠĠĠĠĠĠĠĠĠĠĠĠĠĠĠĠĠĠĠĠĠĠĠĠĠĠĠĠĠĠĠĠĠĠĠĠĠĠĠĠĠĠĠĠĠĠĠĠĠĠĠĠĠĠĠĠĠĠĠĠĠĠĠĠĠĠĠĠĠĠĠĠĠĠĠĠĠĠĠĠĠĠĠĠĠĠĠĠĠĠĠĠĠĠĠĠĠĠĠĠĠĠĠĠĠĠĠĠĠĠĠĠĠĠĠĠĠĠĠĠĠĠĠĠĠĠĠĠĠĠĠĠĠĠĠĠĠĠĠĠĠĠĠĠĠĠĠĠĠĠĠĠĠĠĠĠĠĠĠĠĠĠĠĠĠĠĠĠĠĠĠĠĠĠĠĠĠĠĠĠĠĠĠĠĠĠĠĠĠĠĠĠĠĠĠĠĠĠĠĠĠĠĠĠĠĠĠĠĠĠĠĠĠĠĠĠĠĠĠĠĠĠĠĠĠĠĠĠĠĠĠĠĠĠĠĠĠĠĠĠĠĠĠĠĠĠĠĠĠĠĠĠĠĠĠĠĠĠĠĠĠĠĠĠĠĠĠĠĠĠĠĠĠĠĠĠĠĠĠĠĠĠĠĠĠĠĠĠĠĠĠĠĠĠĠĠĠĠĠĠĠĠĠĠĠĠĠĠĠĠĠĠĠĠĠĠĠĠĠĠĠĠĠĠĠĠĠĠĠĠĠĠĠĠĠĠĠĠĠĠĠĠĠĠĠĠĠĠĠĠĠĠĠĠĠĠĠĠĠĠĠĠĠĠĠĠĠĠĠĠĠĠĠĠĠĠĠĠĠĠĠĠĠĠĠĠĠĠĠĠĠĠĠĠĠĠĠĠĠĠĠĠĠĠĠĠĠĠĠĠĠĠĠĠĠĠĠĠĠĠĠ":8509,"ĠRahim":8510,"Ġbelow":8511,"ÐĹÐĲÐŁÐ£Ð¡ÐļÐĲÐķÐľ":8512,")});":8513,"04":8514,"443":8515,"CEP":8516,"cse":8517,"fas":8518,"ght":8519,"hp":8520,"decl":8521,"ster":8522,"sel":8523,"Ġfvalc":8524,"ĠpDD":8525,"Ġtext":8526,"Ġbk":8527,"Ġbsh":8528,"ifi":8529,"(\"!":8530,"ala":8531,"ĠTemp":8532,"Ġepr":8533,"],(":8534,"anss":8535,"Ġhv":8536,"otal":8537,"ĠLINE":8538,"ĠChi":8539,"NOT":8540,"ĠisArr":8541,"ĠisInside":8542,"149":8543,"ĠEACH":8544,"227":8545,"Ġvvs":8546,"Ġprinta":8547,"othing":8548,"ĠĠĠĠĠĠĠĠĠĠĠĠĠĠĠĠĠĠĠĠĠĠĠĠĠčĊ":8549,"ĠDIC":8550,"]=='.'":8551,"ĠMAJK":8552,"2000005":8553,"Length":8554,"plicative":8555,"appy":8556,"1331":8557,"ĠExit":8558,"ĠIFD":8559,"General":8560,"ĠgetFaster":8561,")<<'\\":8562,"05":8563,"211":8564,"MAST":8565,"[%":8566,"bW":8567,"both":8568,"dc":8569,"face":8570,"kan":8571,"mf":8572,"ores":8573,"ris":8574,"ting":8575,"watch":8576,"yi":8577,"Ġoup":8578,"Ġcent":8579,"Ġlis":8580,"()%(":8581,"--;}}":8582,"ĠtMod":8583,"attern":8584,"ingh":8585,"ĠMy":8586,"asi":8587,"Ġmaxa":8588,"ĠSol":8589,"Ġoper":8590,"Ġ350":8591,"ĠRight":8592,"ĠRIGHT":8593,"Ġdecl":8594,"ĠBEGIN":8595,"Ġ1000000000000000":8596,"Ġretif":8597,"exist":8598,"537":8599,"Ġfive":8600,"189":8601,"Ġnumerator":8602,"Ġflg":8603,"Ġvvc":8604,"ngy":8605,"ĠWor":8606,"ROLS":8607,"Ġpci":8608,"ĠFora":8609,"673":8610,"month":8611,"Ġevent":8612,"<<\"[\"<<":8613,"Ġoverload":8614,"offset":8615,"Ġdefinite":8616,"Ġproduct":8617,"Ġpeople":8618,"ĠCONTROLS":8619,"ĠâĢĵ":8620,"/*********************************************************/":8621,"cWEj":8622,"ĠÂ©":8623,"ĠPHASE":8624,"MASTER":8625,"Ġdefinitely":8626,"*()":8627,">-":8628,"BE":8629,"US":8630,"]|=":8631,"aw":8632,"bd":8633,"gjdflg":8634,"jo":8635,"lapsed":8636,"pu":8637,"ted":8638,"vo":8639,"ãĥ":8640,"æī":8641,"integ":8642,"Ġmpr":8643,"Ġface":8644,"Ġfld":8645,"ĠfMin":8646,"Ġ179":8647,"Ġsarth":8648,"Ġtem":8649,"Ġragetree":8650,"Ġgs":8651,"ĠMr":8652,"Ġprs":8653,"Ġprice":8654,"imit":8655,"addedge":8656,"Ġsti":8657,"ĠCPP":8658,"Ġgetsum":8659,"Ġseparator":8660,"Ġisn":8661,"omposition":8662,"181":8663,"abbr":8664,"Ġcheckmax":8665,"Ġgoing":8666,"âĸĳâĸĳâĸĳâĸĳâĸĳâĸĳ":8667,"ccw":8668,"ĠlessThan":8669,"Ġmyland":8670,"1000000009":8671,"bef":8672,"***************/":8673,"Ġgenrate":8674,"671":8675,"âĸĳâĸĳâĸĳâĸĳâĸĳâĸĳâĸĳâĸĳâĸĳâĸĳâĸĳ":8676,"Ġaccess":8677,"Ġcycles":8678,"CAKE":8679,"ĠTrie":8680,"ĠUNIQUE":8681,"âĺģ":8682,"ĠMemory":8683,"ĠComputer":8684,"EMPLATE":8685,"Ġsarthak":8686,"&!":8687,"234":8688,"4000":8689,"?\"\"":8690,"HEL":8691,"Ind":8692,"ale":8693,"eu":8694,"nC":8695,"qy":8696,"è¯":8697,"éĹ":8698,"Ġĉĉĉĉĉ":8699,"Ġimax":8700,"Ġfan":8701,"ĠpLL":8702,"Ġtodo":8703,"amb":8704,"ues":8705,"Ġyr":8706,"Ġyalla":8707,"Ġ2000000000000000000":8708,"Ġuin":8709,"Ġwords":8710,"ĠALI":8711,"ĠAdj":8712,"ĠmaxL":8713,"Ġoor":8714,"((__":8715,"ĠĠĠĠĠĠĠĠĠĠĠĠĠĠĠĠĠĠĠĠĠĠĠĠĠĠĠĠĠĠĠĠĠĠĠĠĠĠ":8716,"EST":8717,"-------------------":8718,"Ġdebuga":8719,"upgrade":8720,"Ġbases":8721,"Ġprintln":8722,"3482":8723,"Ġ:::":8724,"Modular":8725,"139":8726,"Ġtakes":8727,"```":8728,"triangle":8729,"Ġwait":8730,"-------------------------------":8731,"divisor":8732,"CONSTANTS":8733,"\"^":8734,"(%":8735,")^(":8736,"300001":8737,"411":8738,"?),":8739,"Big":8740,"GW":8741,"IF":8742,"IAB":8743,"Mid":8744,"WN":8745,"hfj":8746,"label":8747,"seive":8748,"Ġppp":8749,"Ġforab":8750,"<<')';":8751,"arc":8752,"Ġrez":8753,"Ġ++]":8754,"Ġprsp":8755,"<<\"!":8756,"ĠFS":8757,"ĠFac":8758,"rth":8759,";;..":8760,"ĠMODULO":8761,"ĠBB":8762,"numerator":8763,"Ġ500005":8764,"ĠisVowel":8765,"ĠVII":8766,"157":8767,"121":8768,"973":8769,"status":8770,"ĠĠĠĠĠĠĠĠĠĠĠĠĠĠĠĠĠĠĠĠĠĠĠĠĠĠĠĠĠĠĠĠĠĠĠĠĠĠĠĠĠĠĠĠĉĉčĊ":8771,"Ġpowerk":8772,"ĠWIN":8773,"scn":8774,"Ġverdict":8775,";;;;;;;;;;":8776,";;;;;;;;;;;":8777,"()),((":8778,"events":8779,"ĠCLown":8780,"Ġblocks":8781,"ĠEXCEP":8782,"DIRE":8783,"Ġprepare":8784,"Color":8785,"ICPC":8786,"Ġradius":8787,"ĠFREIN":8788,"IABLES":8789,"ĠEXCEPTION":8790,"*\";":8791,"-()":8792,"697":8793,":\"<<":8794,"DIM":8795,"Edges":8796,"Me":8797,"NG":8798,"Pi":8799,"border":8800,"dad":8801,"æĪ":8802,"ĉĠĠĠĠĠĠĠĠĠĠĠĠĠĠĠ":8803,"Ġcz":8804,"Ġmypow":8805,"Ġntt":8806,"Ġppl":8807,"++(":8808,"Ġball":8809,"Ġforget":8810,"Ġru":8811,"==///":8812,"ĠPattern":8813,"Ġdpp":8814,"Ġ35":8815,"dsh":8816,"three":8817,"Ġ52":8818,"ĠEps":8819,"///================================":8820,"Ġfastpow":8821,"ĠHere":8822,"component":8823,"Infin":8824,"ĠfindSet":8825,"ĠKAZ":8826,"infinity":8827,"------------------------------------------":8828,"RTIME":8829,"017":8830,"ITNO":8831,"_____________________":8832,"OWN":8833,"ĠCompress":8834,"ĠINPUT":8835,"Ġscln":8836,"ĠNoisy":8837,"âĸĪâĸĪâķĶâķĲâķĲ":8838,"ĠLEFT":8839,"//------------------------------------------------":8840,"ĠCURTIME":8841,"ĠFixPoint":8842,"ĠFunctions":8843,"ĠCodeforces":8844,"sparse":8845,"HELPER":8846,"DIRECTION":8847,"424":8848,"CAT":8849,"Centroid":8850,"Mon":8851,"Solution":8852,"ever":8853,"gk":8854,"judge":8855,"lad":8856,"lps":8857,"want":8858,"ĠÑģ":8859,"Ġimap":8860,"Ġ(%":8861,"Ġchi":8862,"Ġnon":8863,"Ġ128":8864,"Ġtos":8865,"Ġbag":8866,"Ġdraw":8867,"__\\":8868,"ĠTTT":8869,"Ġerep":8870,"any":8871,"hik":8872,"))^":8873,"ĠAre":8874,"ĠSE":8875,"ĠPb":8876,"Ġchocol":8877,"Ġstod":8878,"ĠBY":8879,"âĸĪâĸĢ":8880,"thread":8881,"ĠisLeft":8882,"ĠĠĠĠĠĠĠĠĠĠĠĠĉ":8883,"###########":8884,"Ġ41":8885,"cev":8886,"Ġpary":8887,"Ġdijkstra":8888,"ACM":8889,"9983":8890,"Ġheavy":8891,"ĠinvGeneral":8892,"ĠÐ´":8893,"**************************":8894,"ÐµÑĢ":8895,"irectional":8896,"Ġyourself":8897,"version":8898,"Ġcapacity":8899,"Ġroad":8900,"xyLine":8901,"ĠResult":8902,"ä»£":8903,"Ġitems":8904,"ĠPERF":8905,"ĠNote":8906,"FFFFFFFFFFFFFF":8907,"irling":8908,"ĠContest":8909,"Ġchocolate":8910,".);":8911,"253":8912,":(":8913,"=\"<<":8914,"LOOP":8915,"NTS":8916,"Pre":8917,"UP":8918,"Walk":8919,"]|":8920,"bid":8921,"otient":8922,"pm":8923,"pOut":8924,"Ġ***":8925,"intt":8926,"Ġlaz":8927,"Ġaft":8928,"Ġsong":8929,"Ġshe":8930,"Ġvowel":8931,"Ġtst":8932,"(\"\")":8933,"Ġ;.":8934,"Ġops":8935,"Ġhai":8936,"indrom":8937,"Ġpiiii":8938,"Ġisspace":8939,"ĠisEof":8940,"Ġ]++;":8941,"ĠEB":8942,"epic":8943,"ĠHH":8944,"colors":8945,"777":8946,"ĠtestNum":8947,"Ġindexing":8948,"101010":8949,"pwr":8950,"Ġlogf":8951,"Const":8952,"tual":8953,"Ġsince":8954,"binpow":8955,"---\\":8956,"cuts":8957,"modulus":8958,"ï¼ģï¼ģï¼ģï¼ģ":8959,"åĪĨ":8960,"Ġ'}';":8961,"ĠisLeapYear":8962,",++":8963,"358":8964,"92":8965,"]++":8966,"Ã¡":8967,"è¾":8968,"Ġiota":8969,"orn":8970,"Ġmix":8971,"Ġsingle":8972,"()][":8973,"Ġvcd":8974,"iti":8975,"strcmp":8976,"uel":8977,"Ġ'!":8978,"edy":8979,"ĠFrom":8980,"Ġ|___/":8981,"ĠSub":8982,"...){":8983,"omial":8984,"âĸĳâĸĦ":8985,"ĠDo":8986,"]==...":8987,"indr":8988,"ĠreadVector":8989,"stdinDataEnd":8990,"GGGGGG":8991,"à¦¶":8992,"cols":8993,"ĠInv":8994,"ĠIndex":8995,"Ġstarting":8996,"Ġparents":8997,"Ġsolv":8998,"193":8999,"Ġccw":9000,"]='#';":9001,"findp":9002,"Answer":9003,"MINGW":9004,"ĠTimeStart":9005,"ĠTimeEnd":9006,"ĠControlIO":9007,"ĠUpdateMax":9008,"22222":9009,"Ġleading":9010,"Ġmodexpo":9011,"cstddef":9012,"ANSI":9013,"TimerStop":9014,"ĠVARIABLES":9015,"Ġalive":9016,"Ġ===========================":9017,"besme":9018,"STDIO":9019,"Ġidentity":9020,"lapsedTime":9021,"ä»£è¡¨":9022,"'?":9023,",%":9024,"<!":9025,"HASH":9026,"bet":9027,"oSet":9028,"pil":9029,"sit":9030,"ÑĪ":9031,"âĬ":9032,"è¦ģ":9033,"desh":9034,"ĉĉĠĠĠĠĠĠĠ":9035,"Ġ=(":9036,"Ġ{'":9037,"Ġpin":9038,"Ġscin":9039,"Ġifac":9040,"){//":9041,"Ġrat":9042,"ande":9043,"anized":9044,"till":9045,"ĠMerge":9046,"Ġ:;":9047,"Ġ|\";":9048,"Ġqx":9049,"maxm":9050,"keep":9051,"Ġ_##":9052,"ĠDe":9053,"ĠDEG":9054,"ĠIslam":9055,"]]].":9056,"ESH":9057,"ĠOne":9058,"__________,":9059,"azakh":9060,"Interactive":9061,"mnm":9062,"à¦ĩ":9063,"ĠpowerWith":9064,"2767":9065,"607":9066,"âķĲâķĲâķĿ":9067,"Ġdebmat":9068,"Ġelm":9069,"ĠSTR":9070,"Ġ'*';":9071,"GGGGGGGGGGGGGGGGGGGG":9072,"ladesh":9073,"ĠUpdateMin":9074,"34567891":9075,"ĠFREOUT":9076,"ĠBangladesh":9077,"Ġorganized":9078,"57721566490":9079,"âĬĻ":9080,"ĠpowerWithMod":9081,"'}":9082,",..":9083,"2147483647":9084,":................":9085,";........................":9086,"?\",":9087,"DW":9088,"DGG":9089,"DGGGG":9090,"DEEK":9091,"Eti":9092,"Eii":9093,"Eiii":9094,"EDDD":9095,"EKKKKKWWKKKKK":9096,"GEEE":9097,"GEEEEEEEEEEEEEEEE":9098,"Kii":9099,"KWWWWWWWW":9100,"KWKK":9101,"KWWKK":9102,"KEEEK":9103,"Lj":9104,"Link":9105,"Liii":9106,"LGGG":9107,"PH":9108,"Rotate":9109,"Slow":9110,"WEEEEEEEEEEEEEEEE":9111,"WKKKKKKKKKK":9112,"WEEEEEEEEEEE":9113,"WEEEEE":9114,"WEEEED":9115,"bm":9116,"don":9117,"fK":9118,"fEEE":9119,"fWK":9120,"fLGGDDDDDDDDDDDD":9121,"iD":9122,"iDEEEE":9123,"iWWWWWK":9124,"iKDEEE":9125,"jD":9126,"jLGGGDDDDDDDDDDDD":9127,"tWK":9128,"tEL":9129,"vw":9130,"van":9131,"Ø¹":9132,"Ġcv":9133,"Ġlucky":9134,"Ġ{(":9135,"ĠfDEEEKKKKKKKK":9136,"Ġsat":9137,"llf":9138,"Ġtic":9139,"Ġdid":9140,"KKEEEEEEEE":9141,"KKWWWWWWW":9142,"KKEEEEEEE":9143,"::,,":9144,"::,,,,":9145,"::;:":9146,"::..........................":9147,"ĠTest":9148,"WWD":9149,"WWEEE":9150,"WWEEEEEEEEEEEE":9151,"WWEEEEEEEEEEEEEEEE":9152,"WWKW":9153,"WWKKKKW":9154,"EEDD":9155,"EEKKKK":9156,"EEKKKKKKKKKKKKKKKK":9157,"EEGEEEEEEEEEEEEEEEE":9158,"ego":9159,"LLGGGG":9160,"LLGGG":9161,"Ġ,::,,,,,,,;;;;":9162,"DDGG":9163,"DDDE":9164,"DDEEEWEEEEEEEEEEEE":9165,"Ġconvex":9166,"KKKKWWWWWWWW":9167,"KKKKEEE":9168,"Ġ:,":9169,"Ġ:,:.":9170,"ĠFact":9171,"ets":9172,"EEEEDDDD":9173,"EEEEEK":9174,"EEEEWEEEEEEEEEEEE":9175,"WWWWKK":9176,"WWWWEEEEE":9177,"WWWWKKW":9178,"Ġstoi":9179,"ĠLDEEEE":9180,",,,:":9181,"ĠDig":9182,"ĠGDEE":9183,"ĠGDEEEKKKKKKKK":9184,"Ġtypes":9185,"cmf":9186,"KKKKKKKKKKKKK":9187,"view":9188,"269":9189,"ĠreadWord":9190,"....................:":9191,";;;;,":9192,"Ġ.::::::::":9193,"Ġ.:::::::":9194,"Ġ.::;:":9195,",,,,;":9196,",,,,,:.":9197,"WWWWWWWWKKKK":9198,"WWWWWWWWWWWWWWW":9199,"DDDDDDDDEEE":9200,"DDDDDDDDDDDDDDDDDDDD":9201,"DDDDDDDDDEEEE":9202,"DDDDDDDDEEEEEE":9203,"WWWKKKKKKKK":9204,"WWWEEEEEEEEEEEE":9205,"]={{":9206,"Ġadjacent":9207,"abab":9208,"EEEWW":9209,"EEEKE":9210,"EEEKKWWWW":9211,"EEEKKWWW":9212,"EEEKKKWWW":9213,"KKKEK":9214,"KKKWWWWW":9215,"KKKWWKK":9216,"Ġasche":9217,":.::::::::":9218,"â¡Ł":9219,"KKKKKWWWWWWWWWWW":9220,"KKKKKWKKKKKK":9221,"Ġbeep":9222,"ĠWr":9223,"MENT":9224,"KKKKKKKKKKKKKKKKKKKKKKK":9225,"Ġ:::.":9226,"bear":9227,"DEK":9228,"WKEEEEEEEEEE":9229,"WKWKKWK":9230,"239":9231,"KKKKKKKWKKKKK":9232,"KKKKKKKEL":9233,";.:":9234,"tfLG":9235,"tfLGGGG":9236,"tfLGGG":9237,"/****************************************************************":9238,"DDDK":9239,"GGGK":9240,"âĶĢâĸĪ":9241,"KEKKK":9242,"KEKKKKKKKKKKKKKKKKKKKKKKKK":9243,"KEKKW":9244,"EEEEEEEEEEEEKKKKKKKKKKKKKKKKKKKKKKKK":9245,"KKKKKKWWWWWWWWW":9246,"fji":9247,"fjti":9248,"Ġ.:,":9249,"Ġ.:,,,":9250,"Ġ.:,;;":9251,"DEEEEKKKKKKKKKKKKKKKK":9252,"WWWWWWWWWE":9253,"WWWWWWWWWKKKWWK":9254,"CTy":9255,"::::::::::::::::":9256,":::::::::..":9257,"EKEEEEE":9258,"foreach":9259,";:..":9260,"EEDf":9261,"KWKKK":9262,"Ġincrease":9263,"EEKWWWWWWWW":9264,"WKKKKKEE":9265,"ĠxyCircle":9266,"WWKKWWWW":9267,"KKKKWKKKKKKKKKKKKKKKK":9268,"''''":9269,"GGGGGGGGGGGGGGGGGGG":9270,"KKKKKKKKKKKKKKKWKKKKKKKK":9271,"EEEKWWWWW":9272,"EEEKWWWWWWKKKKKK":9273,"EEEEEEDEi":9274,",,,,,,;":9275,",,,,,,,;":9276,"DKWWWWWWKKKKK":9277,"DKiWWWWWK":9278,"WWWWWKWKKKK":9279,",,,,,,,;;":9280,",,,,,,,;;;":9281,"ĠĠĠĠĠĠĠĠĠĠĠĠĠĠĠĠĠĠĠĠĠĠĠĠĠĠĠĠĠĠĠĠĠĠĠĉĉĉĉ":9282,"::::::,":9283,"::::::,,,,,,,;;":9284,":::::::,,,,,;":9285,":::::::,,,,,,,;":9286,"Ġ.:.,.":9287,"Ġ.:.;:":9288,"tfLGGDDDDDDDD":9289,"tfLGGDDDDDDDDDD":9290,"tfLGGDDDDDD":9291,"normal":9292,"ĠCHECK":9293,"itfLGGDDDDDDDDDDDD":9294,"KKWWWWKEEEEEEEE":9295,"WWWWWWWWWWWWWWWWWWWWWW":9296,"PRINT":9297,"WWKKKKWWWWWWWWWWW":9298,";;;;;;;;;;;;;;;;;;;;;;;;;":9299,"WWWWWWWKKKKKi":9300,"WWWWWWWKKKKKt":9301,";,.....":9302,"ratio":9303,"GEEKKKKKWKKKKK":9304,"KKKKKWWKKKKKWWWWWWWWW":9305,"EEEEEEEEEEEEEEEKKKKKKKKKKKKKKKK":9306,"WKKKWK":9307,"WKKKKKKKWWWWWWW":9308,"WWEEEEEEEEEEEWWWWEEEEE":9309,"DDWWKKDDDDD":9310,"EEEEEEEEEKEEEEEEEEEEEEEEEEE":9311,"ĠMATRIX":9312,"...............................:":9313,",,,,,,,,,,,,,,,,,,,,,,,,,":9314,"unistd":9315,"iDDEEEEWEEEEEEEEEEEE":9316,"WWKKKKKKKKKKKKKKKKK":9317,"WWEEEEEEEDD":9318,"DDDGL":9319,"WWWKKKKKKKKKKW":9320,"WWWKKKKKKKKKKKKKKKWKK":9321,"WWWWWWWWWGWWWKKGGGG":9322,"ijLGDDDDDDDDEEEEEE":9323,"ĠPrefix":9324,"integral":9325,"EEKKKKKKKKKKKKKKKKKKKKKKKKKKKKKKKKW":9326,"LLGGGGL":9327,"LLGGGDDDDDDDDDD":9328,"WWWWKKWKKKEK":9329,"tfLGGGGDDDDDDDDDD":9330,"tfLGGGDDDDDDDDDDD":9331,"='\\":9332,"Dp":9333,"Four":9334,"Pal":9335,"RAND":9336,"XR":9337,"ye":9338,"Ġ(++":9339,"Ġlab":9340,"Ġvpp":9341,"Ġdcmp":9342,"++))":9343,"alt":9344,"formula":9345,"Ġkase":9346,"ĠĠĠĠĠĉĠĉ":9347,"ĠAP":9348,"ado":9349,"adr":9350,"ĠStop":9351,"ĠRO":9352,"ical":9353,"Ġstill":9354,"Ġszz":9355,"minv":9356,"gest":9357,"sumi":9358,"Ġ1000000001":9359,"prep":9360,"Ġ109":9361,"Ġ50000000":9362,"Ġfield":9363,"Ġfrac":9364,"piii":9365,"ĠXor":9366,"2018":9367,"2048":9368,"Ġdebugv":9369,"assertsCounter":9370,"many":9371,"Ġtemporary":9372,"Ġ(\"\\":9373,"Ġhibit":9374,"509":9375,"MENTS":9376,"ĠĠĠĠĠĠĠĠĠĠĠĠĠĠĠĠĠĠĠĠĠĠĠĠĠĠĠĠĠĠĠĠĠĠĠĠĠĠĠĠĠĠĠĠĠĠĠĠĠĠĠĠĠĠĠĠĠĠĠĠĠĠĠĠĠĠĠĠĠĠĠĠĠĠĠĠĠĠĠĠĠĠĠĠĠĠĠĠčĊ":9377,"Ġinvd":9378,"groups":9379,"/**/":9380,"flusher":9381,"Ġweak":9382,"Ġlogg":9383,"Ġ----------------------":9384,"636":9385,"Ġranks":9386,"PTIM":9387,"Optim":9388,"âĸĴâĸĴâĸĴâĸĴâĸĴâĸĴâĸĴâĸĴâĸĴâĸĴâĸĴâĸĴâĸĴâĸĴâĸĴâĸĴ":9389,"PROJ":9390,"THE":9391,"PRS":9392,"FASTIO":9393,"Ġ1000000000000000001":9394,"MEMORY":9395,"ordinate":9396,"ALLOCATOR":9397,"azakhstan":9398,"ĠStopWatch":9399,"\"!":9400,".\";":9401,".:.":9402,"/********":9403,"216":9404,"579":9405,"CASE":9406,"ELL":9407,"Need":9408,"Pll":9409,"eprintf":9410,"fgc":9411,"father":9412,"fstrict":9413,"nam":9414,"inlin":9415,"deb":9416,");};":9417,"Ġfv":9418,"//-":9419,"..:":9420,"itDEB":9421,"ĠdX":9422,"Ġdfn":9423,"Ġdream":9424,"ending":9425,"(\"#":9426,"WWE":9427,"Ġwedge":9428,"Ġgreatest":9429,"Ġ//................................................................":9430,"Ġob":9431,"ĠPLI":9432,"Ġ34":9433,"Ġhelper":9434,"Ġhlp":9435,"ĠRET":9436,"Ġstirling":9437,"ĠLin":9438,"ĠLEN":9439,"ĠDin":9440,"116":9441,"]]];":9442,"heavy":9443,"Ġ53":9444,"ĠOr":9445,"ssDEB":9446,"Ġ44":9447,"Ġ46":9448,"2019":9449,"Ġbuy":9450,"]=='-'){":9451,"Ġcheckmin":9452,"Ġpartial":9453,":.:":9454,"317":9455,"IICT":9456,"bek":9457,"/***":9458,"Ġyyo":9459,"Ġfileio":9460,"Ġforever":9461,"Ġà¦ª":9462,"Ġctif":9463,"********************************************************************":9464,"541":9465,"Tests":9466,"cbrt":9467,"âĸĦâĸĦâĸĦâĸĦâĸĦâĸĦâĸĦâĸĦ":9468,"factorial":9469,"insns":9470,"freorder":9471,"fully":9472,"propagate":9473,"fschedule":9474,"Ġhandle":9475,"Ġwyn":9476,"indrome":9477,"fgcse":9478,"inlining":9479,"/*****":9480,"Bound":9481,"DSU":9482,"LINF":9483,"Ver":9484,"What":9485,"XOR":9486,"lds":9487,"nf":9488,"ners":9489,"vm":9490,"vance":9491,"Ġmrg":9492,"Ġnq":9493,"Ġpcl":9494,"Ġ146":9495,"//(":9496,"Ġbus":9497,"Ġ\"...":9498,"led":9499,"ĉĉĉĠĠĠ":9500,"ani":9501,"ately":9502,"Ġgap":9503,"ĠMagic":9504,"ĉĉĉĉĊ":9505,"]=((":9506,"Ġook":9507,"maxim":9508,"Ġ300010":9509,"ĠRound":9510,"ulik":9511,"under":9512,"track":9513,"pping":9514,"MAXK":9515,"getc":9516,"toR":9517,"155":9518,"Ġ100009":9519,"Ġ1000100":9520,"Ġvvpi":9521,"301":9522,"LET":9523,"383":9524,"Ġcolors":9525,"ĠpowerMod":9526,"Ġrbe":9527,"Ġcosts":9528,"paint":9529,"paired":9530,"Ġvert":9531,"ĠFILES":9532,"]<<\",":9533,"kkkk":9534,"ĠFILENAME":9535,"Ġsplitmix":9536,"Real":9537,"ĠOUTPUT":9538,"impossible":9539,"-----------------------------------------------------------------------------":9540,"ĠTASKNAME":9541,"âĸĳâĸĳâĸĳâĸĳâĸĲâĸĳâĸĳâĸĳâĸĳâĸĳâĸĲâĸĳâĸĳâĸĳâĸĳâĸĳâĸĳâĸĳ":9542,"Ġbloom":9543,"Ġbidirectional":9544,"336777216":9545,"ulikov":9546,")>&":9547,"*)(":9548,";`":9549,"=!":9550,"Mar":9551,"NMM":9552,"RANDOM":9553,"ffs":9554,"hn":9555,"ped":9556,"uish":9557,"uage":9558,"ws":9559,"æį":9560,"çº":9561,"é¢":9562,"Ġcf":9563,"Ġmen":9564,"ĠpSz":9565,"itb":9566,"Ġter":9567,"Ġ\"->":9568,"inguish":9569,"least":9570,"(\"}\");":9571,"Ġrang":9572,"Ġ'---'":9573,"Ġ222222":9574,"))));":9575,"ĠME":9576,"profileIdx":9577,"Ġ&&_":9578,"Ġconsider":9579,"isVowel":9580,"imin":9581,"106":9582,"ĠPre":9583,"ĠPUU":9584,"â£³":9585,"Ġhypot":9586,"ĠRank":9587,",,`":9588,"â£¿â¢¿":9589,"â£¿â¢¾":9590,"')%":9591,"minim":9592,"Ġ||__|":9593,"ĠDep":9594,"logn":9595,"Ġsend":9596,"ĠrepA":9597,"token":9598,"/*}}":9599,"exagonal":9600,");}};":9601,"Ġfrq":9602,"ĠREPSZ":9603,"Ġbuil":9604,"Ġexpr":9605,"Ġload":9606,"Ġdistinguish":9607,"ĠHoss":9608,"439":9609,"MMMMMMMMMMMMMM":9610,"poww":9611,"â¡½":9612,"â¡Ļ":9613,"elif":9614,"ĠWhen":9615,"ĠWeighted":9616,"Ġpopb":9617,"]))%":9618,"Ġcalculate":9619,"â£¿â£¿â£¿â£¿â£¿â£¿â£¿â£¿â£¿â£¿":9620,"â£¿â£»":9621,"251":9622,"476":9623,"ĠgreaterThan":9624,"ĠĠĠĠĠĠĠĠĠĠĠĠĠĠĠĠĠĠĠĠĠĠĠĠĠĠĠĠĠĠĠĠĠĠĠĠĠĠĠĠĠĠĠĠĠĠĠĠčĊ":9625,"XXX":9626,"20000000":9627,"â£¯â£¿â£¿":9628,"â£Łâ¡¿":9629,"â£Łâ£¯":9630,"â£Łâ£·":9631,"â£¿â¡Ħ":9632,"â£¿â¡Ĩ":9633,":..:":9634,"__);\\":9635,"ĠØ£":9636,"whole":9637,"Ġ**********************":9638,"\">\"":9639,"Shift":9640,"Ġancestor":9641,"PROFILE":9642,"ĠCPY":9643,"ä¸Ģä¸Ģ":9644,"#.#.#.#.":9645,"ÐºÐ¾Ð":9646,"'-.":9647,"//*//*//*//*//*//*//*//*":9648,"(\"{\");":9649,"]]]]]]]]]]]]":9650,"giatri":9651,"_-_-":9652,"â£¿â¡ĩâ¢¸":9653,"â£ŀâ¡¿":9654,"Ġ|.--.":9655,"'}},{":9656,"Ġ500000004":9657,"/*}}}*/":9658,",\",":9659,"049":9660,"@%":9661,"Eight":9662,"HAV":9663,"Just":9664,"Random":9665,"So":9666,"SALT":9667,"Us":9668,"White":9669,"\\_\\":9670,"aid":9671,"lw":9672,"vpi":9673,"Ð¹":9674,"Ġiy":9675,"Ġiostream":9676,"ĠiOS":9677,"reasing":9678,"Ġcac":9679,"Ġpool":9680,"Ġpln":9681,"Ġ\"|":9682,"ifac":9683,"oper":9684,"operation":9685,"umns":9686,"ĠMAD":9687,"ansa":9688,"ĠFD":9689,"immint":9690,"ada":9691,"Ġite":9692,"cnta":9693,"modnum":9694,"orta":9695,"ĠLET":9696,"ĠLOO":9697,"641":9698,"ĠĠĠĠĠĠĠĠĠĠĠĠĠĠĠĠĠĠĠĠĠĠĠĠĠĠĠĠĠĠĠĠĠĠĠĠĠĠĠĠĠĠĠĠĠ":9699,"ĠDp":9700,"tract":9701,"ĠCUT":9702,"ĠIFN":9703,"Ġaddedge":9704,"Ġ57":9705,"Ġ70":9706,"toU":9707,"mxx":9708,"5050":9709,"Ġdirect":9710,"Ġpowers":9711,"567":9712,"593":9713,"Ġstatus":9714,"ustom":9715,"Ġpaths":9716,"Ġfastread":9717,"ĠĠĠĠĠĠĠĠĠĠĠĠĠĠĠĠĠĠĠĠĠĠĠĠĠĠĠĠĠĠĠĠĠĠĠĠĠĠĠčĊ":9718,"Ġcandid":9719,"ĠMAP":9720,"ĠTEST":9721,"ÑĢÐ°":9722,"Ġutil":9723,"fdn":9724,"$$$$$$$$":9725,"Ġsayed":9726,"connected":9727,"Ġassumed":9728,"Ġgeometry":9729,"éĹ´":9730,"ĠMADHAV":9731,"immintrin":9732,"311":9733,">*":9734,"Dep":9735,"FA":9736,"Go":9737,"Jia":9738,"OT":9739,"OPTIM":9740,"RST":9741,"Su":9742,"Small":9743,"[&]":9744,"ebr":9745,"fwd":9746,"hack":9747,"kbear":9748,"nag":9749,"sI":9750,"Ġide":9751,"rez":9752,"Ġlans":9753,"Ġflo":9754,"Ġ1997":9755,"Ġsdbg":9756,"ĠvLL":9757,"Ġ\"***":9758,"Ġdum":9759,"Ġdie":9760,"Ġxmax":9761,"typeinfo":9762,"Ġansa":9763,"))<<":9764,"Ġconj":9765,"ĠFcd":9766,"ĠNA":9767,"ĠNs":9768,"ĠSG":9769,"104":9770,"ĠRAND":9771,"cnts":9772,"ressed":9773,"ĠĠĠĠĠĠĠĠĠĠĠĠĠĠĠĠĠĠĠĠĠĠĠĠĠĠĠĠĠĠĠĠĠĠĠĠčĊ":9774,"trim":9775,"Ġdem":9776,"Ġ?!":9777,"Ġoutfile":9778,"Ġinfile":9779,"ĠVPLL":9780,"âĸĴâĸĢ":9781,"replace":9782,"Ġlose":9783,"Ġdefines":9784,"ĠWrite":9785,"mulmod":9786,"Nodes":9787,"angJia":9788,"8888888888888888888888":9789,"difference":9790,"NNN":9791,"Ġplc":9792,"Ġprogram":9793,"MultiTest":9794,"ÑģÐ»":9795,"accumulate":9796,"ĠFINAL":9797,"âł¿âł¿":9798,"Ġbotl":9799,"Ġcbrt":9800,"wyn":9801,"taskname":9802,"ĠLiangJia":9803,"ä»£è¡¨è¿ĶåĽŀ":9804,"Ġ199711":9805,"ĠFcdkbear":9806,"ĠLiangJiaJun":9807,"+.":9808,"727":9809,"Band":9810,"Element":9811,"Oct":9812,"Rev":9813,"ball":9814,"breadth":9815,"cw":9816,"eep":9817,"fwrite":9818,"men":9819,"nothing":9820,"sout":9821,"sof":9822,"uce":9823,"yl":9824,"åľ":9825,"ining":9826,"rey":9827,"Ġcen":9828,"Ġmr":9829,"()),(":9830,"llu":9831,"ĠforI":9832,"Ġ\"\",":9833,"(\"\",\"":9834,"amed":9835,"Ġ'+'":9836,"Ġ255":9837,"Ġuk":9838,"Ġkx":9839,"Ġkch":9840,"Ġgol":9841,"ĠMUL":9842,"LLONG":9843,"ĠAS":9844,"ĠART":9845,"ndp":9846,"Ġtrick":9847,"Ġhp":9848,"ulty":9849,"ĠLess":9850,"trick":9851,"ĠCy":9852,"Ġdelim":9853,"Ġzx":9854,"Ġser":9855,"getMin":9856,"ffi":9857,"ffect":9858,"toL":9859,"counting":9860,"ĠObj":9861,"ĠUse":9862,"areru":9863,"orderset":9864,"ĠREPE":9865,"202":9866,"absv":9867,"Ġasc":9868,"14159265356":9869,"needed":9870,"167":9871,"569":9872,"*******":9873,"Valid":9874,"jjj":9875,"1000003":9876,"/************************************************************************":9877,"mday":9878,",\"}\");":9879,"âĸĳâĸĳâĸĳâĸĲ":9880,"Ġï¿½ï¿½ï¿½ï¿½ï¿½ï¿½ï¿½ï¿½ï¿½ï¿½ï¿½":9881,"ĠSQRT":9882,"UNT":9883,"102400000":9884,"Ġtriangle":9885,"ĠAlpha":9886,"#####################################################":9887,"978978":9888,"Ġ\":\"\",":9889,"THING":9890,"===///":9891,"EXAMP":9892,"(\"{\",":9893,"Ã¨Ã":9894,"PROJECT":9895,"Bandme":9896,"EXAMPLE":9897,"#~~":9898,")--":9899,"257":9900,"511":9901,"APP":9902,"Jw":9903,"MW":9904,"Now":9905,"Sqr":9906,"UB":9907,"Ym":9908,"YSN":9909,"_],":9910,"bSN":9911,"Ġlive":9912,"Ġpost":9913,"Ġ}};":9914,"Ġsst":9915,"ĠvI":9916,"Ġvu":9917,"//================================":9918,"Ġtmin":9919,"Ġbd":9920,"ĠdY":9921,"Ġrbegin":9922,"iota":9923,"ĠuLL":9924,"Ġguess":9925,"ĠACM":9926,"ĠSieve":9927,"Ġchance":9928,"Ġchanges":9929,"Ġ32767":9930,"Ġstl":9931,"Ġdest":9932,"Ġpiipi":9933,"ĠBLOCK":9934,"Ġzer":9935,"Ġsetmin":9936,"http":9937,"ĠreadArrays":9938,"'.');":9939,"Ġdebugger":9940,"Ġacosl":9941,"Ġasm":9942,"piv":9943,"powers":9944,"Ġsupport":9945,"ECUTION":9946,"oldans":9947,"ĠĠĠĠĠĠĠĠĠĠĠĠĠĠĠĠĠĠĠĠĠĠĠĠĠĠĠĠĠĠĠĠĠĠĠĠĠĠĠĠĠĠĠĠĠĠĠĠĠĠĠĠĠĠĠĠĠ":9948,"Ġbrute":9949,"Ġfake":9950,"Ġcrivo":9951,"ĠEXECUTION":9952,"ĠState":9953,"Ġamen":9954,"Ġshaft":9955,"Ð¾Ð²":9956,"âłĢâłĢâłĢâłĢâłĢâłĢ":9957,"ĠCOMPARE":9958,"Ġ\"=>\"":9959,"@@@@@@@@@@@@@@@@@@@@@@@@@@@@@@@@@@@@@@@@@@@@@@@@@@@@@@@@@@@@@@@@":9960,"Ġrequire":9961,"ĠPositive":9962,"Current":9963,"XZv":9964,"ĠÐ·Ð°":9965,"Ġtrailing":9966,"ĠFaculty":9967,"Ġkchay":9968,"164":9969,"197":9970,"353":9971,"653":9972,"Bal":9973,"Com":9974,"Low":9975,"Scanf":9976,"_));":9977,"ae":9978,"baki":9979,"dan":9980,"eeded":9981,"hare":9982,"yr":9983,"{}":9984,"âĪ":9985,"Ġclog":9986,"Ġaz":9987,"Ġavoid":9988,"Ġfak":9989,"Ġfbo":9990,"Ġnbase":9991,"Ġnpos":9992,"Ġsor":9993,"Ġsil":9994,"Ġvstr":9995,"Ġvow":9996,"Ġbld":9997,"Ġrht":9998,"Ġrule":9999,"strcpy":10000,"Ġetc":10001,"Ġ'|":10002,"setbit":10003,"asic":10004,"])>":10005,"prio":10006,"Ġmaxk":10007,"ĠmaxValue":10008,"ĠSqrt":10009,"Ġhack":10010,"ĠRS":10011,"ember":10012,"apa":10013,"MAXV":10014,"]]+=":10015,"Ġrepn":10016,"Ġclp":10017,"Ġposi":10018,"1532":10019,")+((":10020,"ĠvvI":10021,"557":10022,"aved":10023,"347":10024,"segnum":10025,"disc":10026,"Ġ2020":10027,"coef":10028,"multiplicative":10029,"Ġextend":10030,"ĠbinaryExponentiation":10031,"$$$":10032,"ĠPRINTV":10033,"hane":10034,"Ġorta":10035,"BUFFER":10036,"/*******************************":10037,"ELEVEN":10038,"Ġ']';":10039,"71828182845904523536":10040,"ĠCPPELEVEN":10041,"ĠObject":10042,"ĠUseful":10043,"*,":10044,"._________,":10045,"233":10046,"310":10047,";){":10048,"BA":10049,"Fast":10050,"MO":10051,"cou":10052,"dup":10053,"days":10054,"hok":10055,"nq":10056,"uid":10057,"yan":10058,"²âĬĻ":10059,"½æķ°":10060,"æł":10061,"ĉĉĠĠĠĠĉ":10062,"++()":10063,"Ġsiii":10064,"Ġttt":10065,"Ġdn":10066,"irag":10067,"leep":10068,"mass":10069,"Ġreg":10070,"Ġky":10071,"Ġking":10072,"âĸ²âĬĻ":10073,"!=\"\"":10074,"]='.';":10075,"<<\"}\"<<":10076,"),\"":10077,"ĠFUNCTION":10078,"Ġmods":10079,"Ġ_(){":10080,"Ġpushed":10081,"Ġ399":10082,"ung":10083,"ĠĠĠĠĠĠĠĠĠĠĠĠĠĠĠĠĠĠĠĠĠĠĠĠĠĠĠĠĠĠĠĠĠĠĠĠ":10084,"ĠIoSet":10085,"]]]++;":10086,"Ġ102":10087,"toString":10088,"###############":10089,"âĸĴâĸĮ":10090,"artite":10091,"143":10092,"SEG":10093,"331":10094,"precomp":10095,"Ġokay":10096,"ĠfastScan":10097,"ĠHA":10098,"comps":10099,"composition":10100,"Ġpara":10101,"plane":10102,"Ġshit":10103,"Ġunpaired":10104,"<<\":\"<<":10105,"adjlist":10106,"Ġeng":10107,"3829":10108,"âĸĮâĸĴ":10109,"/***********************************************":10110,"â¢Ģâ£Ģ":10111,"monic":10112,"magic":10113,"UNI":10114,"nodo":10115,"event":10116,"////////////////////////////////////////////////////////////////////////////////":10117,"ĠReverse":10118,"entry":10119,"modexpo":10120,"ranks":10121,"ĠIsLess":10122,"%%%%%%%%%%%%%%%%":10123,"DebugStream":10124,"largest":10125,"åĩ½æķ°":10126,"///////////////////////////////////////////////////////////////////////////////////////////////////":10127,"Ġharmonic":10128,"Friend":10129,"Variables":10130,"åº¦":10131,"Ġemz":10132,"Ġ--------------------------------------------------":10133,"577215664901532":10134,"Success":10135,"ĠIoSetup":10136,"57721566490153286":10137,"&);":10138,"+')":10139,"1389":10140,"479":10141,"419":10142,"599":10143,"620":10144,"AssertsCounter":10145,"Good":10146,"MB":10147,"Mn":10148,"This":10149,"bf":10150,"cate":10151,"hang":10152,"ious":10153,"lab":10154,"rw":10155,"tol":10156,"vld":10157,"åĮ":10158,"Ġ----":10159,"Ģ¼":10160,"remain":10161,"Ġmns":10162,"Ġfclose":10163,"Ġnk":10164,"Ġpj":10165,"Ġpcnt":10166,"Ġppi":10167,"Ġ+--":10168,"Ġbm":10169,"atMe":10170,"Ġdu":10171,"(\"+":10172,"ĠĠĠĠĠĠĠĠĠĠĠĠĠĠĠĠĠĠĠĠĠĠĠĠĠĠĠĠčĊ":10173,"Ġyi":10174,"))&(":10175,"ume":10176,"Ġgam":10177,"chan":10178,"choice":10179,"ete":10180,"ĠPtest":10181,"Ġaround":10182,"Ġ_;":10183,"Ġhero":10184,"extgcd":10185,"Ġadvance":10186,"vertices":10187,"ĠisConst":10188,"329":10189,");}}":10190,"ĠOper":10191,"152":10192,"1009":10193,"Ġpipii":10194,"Ġlea":10195,"âķĿ":10196,"Ġfastexp":10197,"223":10198,"507":10199,"<<\":\\":10200,"ĠInpOut":10201,"ĠWATCH":10202,"Ġspf":10203,"ILED":10204,"Ġupmin":10205,"191":10206,"Ġvertical":10207,"1000007":10208,"Ġ\"]\\":10209,"FSIZE":10210,"lson":10211,"rson":10212,"---------------":10213,"ÐµÐ»":10214,"Ġwinner":10215,"ãģ®":10216,"Requ":10217,"Ġsegments":10218,"Ġgiven":10219,"OUR":10220,"import":10221,"ĠIsGreater":10222,"splay":10223,"iqul":10224,"Ġpopcntll":10225,"Ġraise":10226,"Ġvirus":10227,"ambda":10228,"namic":10229,"é¢ĺ":10230,"[&](":10231,"ĠFUNCTIONS":10232,"13893829":10233,"!\"":10234,":\"<<__":10235,"CPC":10236,"LR":10237,"NL":10238,"RPr":10239,"Same":10240,"gf":10241,"ially":10242,"jp":10243,"more":10244,"psum":10245,"qri":10246,"æĿ":10247,"Ġì":10248,"Ġ-----":10249,"Ġimin":10250,"ond":10251,"Ġleg":10252,"Ġ{\"<<(":10253,"Ġnem":10254,"Ġ168":10255,"Ġ})":10256,"Ġ}\";":10257,"Ġsset":10258,"Ġswe":10259,"Ġviz":10260,"//__":10261,"leaves":10262,"maz":10263,"Ġansx":10264,"Ġkr":10265,"])<<":10266,"Ġindeg":10267,"<<\"<":10268,"Ġconfig":10269,"ĠFun":10270,"etr":10271,"...\\":10272,"...))":10273,"Ġchem":10274,"Ġminpq":10275,"Ġhang":10276,"ĠRP":10277,"ĠRMQ":10278,"_____|":10279,"unj":10280,"modfast":10281,"ĠLuck":10282,"ĠĠĠĠĠĠĠĠĠĠĠĠĠĠĠĠĠĠĠĠĠĠĠĠĠĠĠĠĠĠĠĠĠĠĠĠĠĠĠĠĠĠĠĠĠĠĠĠĠ":10283,"ĠCur":10284,"ĠClear":10285,"ilar":10286,"Ġsummodfast":10287,"119":10288,"ĠICPC":10289,"hel":10290,"Ġ'\\''":10291,"Ġviky":10292,"1007":10293,"263":10294,"100004":10295,"888888888888888":10296,"Ġ65":10297,"âĸĦâĸĪâĸĪâĸĪâĸĪâĸĪâĸĪâĸĪâĸĪ":10298,"à¦¬":10299,"Ġshl":10300,"Ġshok":10301,"ĠsegTree":10302,"ĠĠĠĠĠĠĠĠĠĠĠĠĠĠĠĠĠĠĠĠĠĠĠĠĠĠĠĠĠĠĠĠĠĠĠĠĠĠĠĠĠĠĠĠĠĠĠĠĠĠĠĠĠĠĠĠĠĠĠĠĠĠĠĠĠĠĠĠĠĠĠĠĠĠĠĠĠĠĠ":10303,"Ġsubstr":10304,"Ġsqrtn":10305,"Ġupmax":10306,"173":10307,"','.','.','.','.','.','.":10308,"Ġbigger":10309,"Stud":10310,"Ġloops":10311,")<<\"}\"<<":10312,"ĠJust":10313,"Ġvariable":10314,"Ġvariables":10315,"300300":10316,"ĠAnswer":10317,"Ġdownrange":10318,"Ġusage":10319,"ÑĤÐ¸":10320,"âĸĢâĸĢâĸĢâĸĢâĸĢâĸĢ":10321,"Ġfactorial":10322,"4005":10323,"----------------------------":10324,"Ġgiua":10325,"\"\"\"\"\"\"\"\"":10326,"Ġavg":10327,";_<":10328,"ĠDataIn":10329,"ĠFAILED":10330,"SegTree":10331,"ĉĠĠĠĠĠĉ":10332,"ĠValue":10333,"GETA":10334,"Ġextract":10335,"éĩı":10336,"Ġstrictly":10337,"APPLE":10338,"asicInteger":10339,"Ġchemthan":10340,"*_":10341,"427":10342,"GC":10343,"High":10344,"Rem":10345,"Rand":10346,"RIGHT":10347,"UCK":10348,"Util":10349,"Wextra":10350,"^=(":10351,"dm":10352,"eo":10353,"easy":10354,"mex":10355,"pid":10356,"tn":10357,"tre":10358,"words":10359,"å¹":10360,"åĨ":10361,"intersection":10362,"intrin":10363,"Ġlabel":10364,"Ġaway":10365,"Ġmtr":10366,"Ġpid":10367,"Ġpff":10368,"Ġ122":10369,"Ġsprintf":10370,"Ġtou":10371,"Ġted":10372,"atal":10373,"Ġdinic":10374,"nsafe":10375,"Ġmass":10376,"))/(":10377,"Ġwtf":10378,"Ġ;)":10379,"ĠMid":10380,"])].":10381,"ansx":10382,"Ġinvert":10383,"ows":10384,"ques":10385,"0005":10386,"]]>=":10387,"toread":10388,"Ġpreprocess":10389,"Ġfrab":10390,"ĠUs":10391,"ĠUpd":10392,"ĠENG":10393,"âĸĴâĸĴâĸĦ":10394,"Ġleave":10395,"///#":10396,"]={},":10397,"about":10398,"ĠHi":10399,"Ġvvvvi":10400,"neigh":10401,"pows":10402,"hsf":10403,"PERF":10404,"vvvi":10405,"Ġ\"/\"":10406,"âĸĦâĸĦâĸĦ":10407,"cycles":10408,"Ġfriends":10409,"Ġplayer":10410,"<<\"]\";}":10411,"Divis":10412,"Ġtimmax":10413,"called":10414,"Ġbalanced":10415,"ĠDistType":10416,"_______|":10417,"sole":10418,"äºĨ":10419,"Ġmedian":10420,"Enable":10421,"ĠâķļâķĲâķĲ":10422,"region":10423,"ĠALIGN":10424,"è¾¹":10425,"'>":10426,"(+":10427,"629":10428,"Aug":10429,"POS":10430,"Sqrt":10431,"TE":10432,"]\";":10433,"cj":10434,"faltu":10435,"gasg":10436,"ghest":10437,"hur":10438,"kind":10439,"rans":10440,"tst":10441,"xaaaaaaaa":10442,"xcccccccc":10443,"ymd":10444,"zub":10445,"Ð¢":10446,"Ġé":10447,"Ġur":10448,"Ġ#####":10449,"remaining":10450,"Ġfinv":10451,"eng":10452,"()]=":10453,"Ġvm":10454,"//________________________________":10455,"itv":10456,"Ġtf":10457,"anit":10458,"Ġremain":10459,"Ġufo":10460,"Ġws":10461,"Ġgao":10462,"])<=":10463,"Ġpriln":10464,"chmax":10465,"Ġ//\\\\":10466,"ĠmaxK":10467,"maxa":10468,"Ġconstants":10469,"Ġhb":10470,"ĠRec":10471,"Ġcnta":10472,"Ġmpos":10473,"â£¿âł":10474,"â£¿âłĩ":10475,"âĸĳâĸĮâĸĮâĸĳâĸĳâĸĳâĸĳâĸĳ":10476,"ĠgetPow":10477,"ĠBismillahir":10478,"ĠMAXV":10479,"[]{":10480,"129":10481,"Ġdistinct":10482,"487":10483,"harnik":10484,"1000002":10485,"IteratorType":10486,"ĠMaxC":10487,"coeff":10488,"Ġ'.'){":10489,"Ġà¦¤":10490,"498":10491,"paths":10492,"300100":10493,"Ġostm":10494,"Ġtransposed":10495,"Ġmonostate":10496,"mkp":10497,"ULAR":10498,"<<\"-\"<<":10499,"âĸĴâĸĴâĸĴâĸĴâĸĴâĸĴâĸĢâĸĦ":10500,"Ġsimilar":10501,"âĸĦâĸĢâĸĴâĸĮ":10502,"######################################################":10503,"OUND":10504,"1000000097":10505,"Ġ**************************/":10506,"Ġ****************************/":10507,"ĠnCk":10508,"âĸĮâĸĮâĸĳâĸĮâĸĮâĸĳâĸĳâĸĳâĸĳâĸĳ":10509,"âĸĢâĸĴâĸĮ":10510,"uced":10511,"dddddddd":10512,"tututu":10513,"å¤§":10514,"Downrange":10515,"Ġtututu":10516,"ĠinclusiveRange":10517,"ĠinclusiveDownrange":10518,"â¡¿âłĭ":10519,"Ġnokol":10520,"Ġ//__\\\\":10521,"âĸĳâĸĳâĸĳâĸĳâĸĳâĸĳâĸĳâĸĳâĸĳâĸĳâĸĳâĸĮâĸĮâĸĳâĸĮâĸĮâĸĳâĸĳâĸĳâĸĳâĸĳ":10522,"hfjke":10523,"ĠKAZAR":10524,"âĸĳâĸĳâĸĳâĸĲâĸĳâĸĳâĸĳâĸĳâĸĲ":10525,"hokharnik":10526,"hokharnikunj":10527,"-((":10528,"/%":10529,"624":10530,"837":10531,"Bi":10532,"DU":10533,"Mp":10534,"Pe":10535,"Qry":10536,"bli":10537,"hg":10538,"hr":10539,"xF":10540,"yf":10541,"Ġenter":10542,"Ġipair":10543,"Ġcir":10544,"Ġcnd":10545,"Ġlarg":10546,"seud":10547,"Ġvoice":10548,"Ġforsn":10549,"conversion":10550,"Ġmail":10551,"Ġreb":10552,"Ġyl":10553,"Ġ2000000":10554,"Ġkv":10555,"Ġwlen":10556,"Ġgmin":10557,"ĠMo":10558,"ĠMon":10559,"Ġinfs":10560,"Ġ/(":10561,"Ġqwerty":10562,"ĠmaxV":10563,"ĠSource":10564,"ĠSSTR":10565,"ĠPOS":10566,"rtn":10567,"Ġchosen":10568,"ĠRandom":10569,"ĠRahmanir":10570,"cntb":10571,"((!":10572,"erride":10573,"akt":10574,"ĠDon":10575,"ĠCl":10576,"Ġzn":10577,"Ġrepv":10578,"Ġ10000000000000":10579,"thon":10580,"Ġ400005":10581,"ï¿½ï¿½ï¿½ï¿½ï¿½":10582,"ĠREPN":10583,"ĠREPP":10584,"587":10585,"Ġthink":10586,"503":10587,"column":10588,"Ġdima":10589,"=='-'){":10590,"467":10591,"--------------------------------------":10592,"common":10593,"ITH":10594,"283":10595,"Ġ',';":10596,"ĠÐ±":10597,"ĠÐ²":10598,"Ġuseful":10599,"ä¸į":10600,"_____________":10601,"Ġ*(--":10602,"]&&!":10603,"<<\"[\"<<(":10604,"rule":10605,"Ġonesll":10606,"Ġintercept":10607,"Ġmoder":10608,"Â¦Â¦":10609,"ĠBeatMe":10610,"Ġoverride":10611,"ĠWritten":10612,"277":10613,"547":10614,"Bismillahir":10615,"Jump":10616,"Phi":10617,"Prev":10618,"Win":10619,"\\:\\":10620,"eil":10621,"ming":10622,"todo":10623,"ukk":10624,"æ³":10625,"Ġut":10626,"Ġ]=":10627,"inde":10628,"Ġ<__":10629,"Ġnal":10630,"Ġ<<#":10631,"Ġtek":10632,"Ġbmm":10633,"Ġ\"_":10634,"irnag":10635,"ifact":10636,"sizes":10637,"Ġ');}":10638,"Ġki":10639,"Ġkp":10640,"Ġkt":10641,"ĠMSET":10642,"ĠNUI":10643,"isi":10644,"Ġqt":10645,"INP":10646,"MMENT":10647,"Ġ__|":10648,"bases":10649,"Ġstorm":10650,"ĠĠĠĠĠĠĠĠĠĠĠĠĠĠĠĠĠĠĠĠĠĠĠĠĠĠĠĠĠĠĠĠĠĠĠĠĠĠĠĠĠ":10651,"Ġdelet":10652,"ĠGood":10653,"ĠBlock":10654,"popc":10655,"Ġ59":10656,"ĠVD":10657,"ĠtreeSize":10658,"Ġ450":10659,"ights":10660,"artment":10661,"100007":10662,"ĠUI":10663,"ĠUSU":10664,"Ġ]\"":10665,"(-)":10666,"Ġ!(*":10667,"âĸĴâĸĴâĸĲ":10668,"207":10669,"339":10670,"100050":10671,"abba":10672,"Ġthird":10673,"379":10674,"Ġdiam":10675,"ĠĉĠĠĠ":10676,"1111111":10677,"Ġmymap":10678,"1999999":10679,"Ġinvf":10680,"obius":10681,"Ġsoln":10682,"ahang":10683,"Ġpqi":10684,"Ġ205":10685,"ills":10686,"57636":10687,"weh":10688,"809":10689,"Ġimpro":10690,"________________________________________________________________":10691,"Ġwrf":10692,"Ġgetii":10693,"Ġapply":10694,"Ġmuch":10695,"AKH":10696,"LIMIT":10697,"fuweh":10698,"COMMENT":10699,"âĸĪâĸĪâķĶâķĿ":10700,"Ġ98765":10701,"ĠALPH":10702,"Ġ'>')":10703,"Ġtravers":10704,"âĸĴâĸĴâĸĴâĸĦâĸĴâĸĴâĸĴâĸĴâĸĴâĸĴ":10705,"3482791":10706,"]==...==":10707,"ĠDepartment":10708,"ĠâķļâķĲâķĲâķĲâķĲ":10709,"irnagar":10710,"ĠNUIP":10711,"ĠUSUAL":10712,"ahangirnagar":10713,"576363482791":10714,"(\",":10715,"('.');":10716,"-.":10717,"/\\":10718,"367":10719,"677":10720,"679":10721,"700":10722,"Can":10723,"Draw":10724,"Kn":10725,"NX":10726,"Pd":10727,"RY":10728,"Ro":10729,"Sa":10730,"UV":10731,"]&(":10732,"_]":10733,"asp":10734,"dgs":10735,"fect":10736,"ga":10737,"gp":10738,"hero":10739,"lu":10740,"mar":10741,"nbase":10742,"pet":10743,"}];":10744,"Ġlmax":10745,"Ġmc":10746,"segs":10747,"Ġnec":10748,"Ġpip":10749,"Ġ150":10750,"clone":10751,"Ġ}//":10752,"outs":10753,"itcalc":10754,"Ġifdef":10755,"conv":10756,"uss":10757,"Ġ>>(":10758,"Ġrer":10759,"asdg":10760,"Ġ++,":10761,"proc":10762,"ĠFl":10763,"nces":10764,"isa":10765,"ĠAnd":10766,"ads":10767,"Ġmaxl":10768,"Ġooo":10769,";}}}":10770,"Ġ__/|":10771,"())->":10772,"Ġ>='":10773,"Ġhm":10774,"Ġhome":10775,"ula":10776,"ĠCIN":10777,"Ġdev":10778,"Ġcury":10779,"ARS":10780,"sze":10781,"Ġ\\.":10782,"iption":10783,"ĠED":10784,"oko":10785,"Ġthem":10786,"373":10787,"diag":10788,"direct":10789,"avail":10790,"ĠQry":10791,"ROM":10792,"Ġ\"]:":10793,"mij":10794,"Ġfindp":10795,")?\"":10796,"Ġà¦¬":10797,"ireInput":10798,"0000000007":10799,"bling":10800,"Ġbrif":10801,"prog":10802,"âĸĳâĸĳâĸĳâĸĳâĸĳâĸĳâĸĳâĸĳâĸĳ":10803,"Ġ200200":10804,"Ġ5010":10805,"Ġsky":10806,"Expo":10807,"Ġworks":10808,"ToString":10809,"ggle":10810,"Ġcpy":10811,"Ġuniq":10812,"Ġrock":10813,"ĠAlgorithm":10814,"Ġfenwick":10815,"Ġmatching":10816,"ĠCHR":10817,"ĠCASET":10818,"ISMI":10819,"ĠCalculate":10820,"Ġtopological":10821,"ĠELEMENTS":10822,"Depth":10823,"sofar":10824,"RequireInput":10825,"ukkha":10826,"ISMILLAH":10827,"RequireInputIter":10828,")|(":10829,"433":10830,";*":10831,"Br":10832,"Build":10833,"IWI":10834,"Mac":10835,"OB":10836,"Source":10837,"`'":10838,"fwhole":10839,"puti":10840,"vst":10841,"wqri":10842,"±Ã²":10843,"stt":10844,"Ġ(;;)":10845,"Ġcard":10846,"Ġaasdfasdf":10847,"Ġalso":10848,"sequence":10849,"Ġpnn":10850,"++]=(":10851,"ĠvS":10852,"--()":10853,"Ġtn":10854,"acency":10855,"amir":10856,"irVector":10857,"Ġjjj":10858,"Ġrh":10859,"Ġrii":10860,"ante":10861,"Ġansy":10862,"Ġcinv":10863,"Ġunt":10864,"))-(":10865,"Ġwi":10866,"asfh":10867,"asses":10868,"bitrary":10869,"Ġinff":10870,"vectors":10871,"************":10872,"pril":10873,"edron":10874,"ĠAlex":10875,"ĠAnton":10876,"ĠSu":10877,"ĠSEG":10878,"ĠPerm":10879,"rty":10880,"agak":10881,"Ġmind":10882,"ĠRC":10883,"643":10884,"â£¿â¡¿":10885,"ĠDis":10886,"ĠDAR":10887,"Ġgetans":10888,"117":10889,"lena":10890,"gether":10891,"Ġoutl":10892,"Ġisqrt":10893,"ldk":10894,"ldjk":10895,"Ġ\\_______":10896,"explicit":10897,"ski":10898,"âĸĪâĸĪâĸĦâĸĦâĸĦâĸĦ":10899,"viv":10900,"[]){":10901,";++_)":10902,"209":10903,"]=='('":10904,"]=='-')":10905,"Ġexec":10906,")+=(":10907,"memcpy":10908,"Ġadjacency":10909,"ERS":10910,"ĠHe":10911,"ĠHexagonal":10912,"rror":10913,"Ġasgasg":10914,"3779":10915,"Ġbitcnt":10916,"169":10917,"Ġbeki":10918,"lliseconds":10919,"limite":10920,"lfasfh":10921,"ahedron":10922,"ahlfasfh":10923,"200500":10924,"vvs":10925,"randomEngine":10926,"lsldk":10927,"â£¿â£¶":10928,"ikldjk":10929,"fjahlfasfh":10930,"ĠZn":10931,"Ġà¦«":10932,"bigint":10933,"âĸĳâĸĳâĸĳâĸĦâĸĢâĸĴâĸĴ":10934,"Ġplay":10935,"ĠÐµ":10936,"681":10937,"cppstr":10938,"Ġsdfjahlfasfh":10939,"Ġ-------------------\\":10940,"ĠINIT":10941,"âĸĪâĸĪâĸĪâĸĢâĸĢ":10942,"ÑĤÐ¾":10943,"Ġaskfh":10944,"basis":10945,"lected":10946,"Result":10947,"Ġinterval":10948,"Ġ\\|_______|":10949,"âĶĢâĶĢâĶĢâĶĢâĶĢâĶĢâĶĢâĶĢ":10950,"ÐĲÐĿ":10951,"Ġdau":10952,"dgasg":10953,"Ġassdgs":10954,"âłĻâ¢¿":10955,"transposed":10956,"funsafe":10957,"åıĺ":10958,"uperikldjk":10959,"Ġ\\__\\\\":10960,"2144":10961,"lhagak":10962,"Ġ\\_|\\":10963,"Ġsdkfas":10964,"rimirVector":10965,"âĺģâĺģ":10966,"ĠLOOK":10967,"Ġengine":10968,"wqriuperikldjk":10969,"Ġaasdfasdfasdf":10970,"Ġasgasgash":10971,"Ġaskfhwqriuperikldjk":10972,"dgasghsf":10973,"Ġassdgsdgasghsf":10974,"lhagaklsldk":10975,"Ġsdkfaslhagaklsldk":10976,"&,":10977,"'`":10978,"*\\":10979,"659":10980,"877":10981,"857":10982,"BY":10983,"But":10984,"Center":10985,"Finite":10986,"Gr":10987,"HAM":10988,"Local":10989,"MASK":10990,"Pf":10991,"](":10992,"`--'":10993,"alex":10994,"eul":10995,"gre":10996,"hd":10997,"pak":10998,"rink":10999,"tour":11000,"wow":11001,"zn":11002,"{};":11003,"Ñİ":11004,"Ġ888":11005,"ino":11006,"Ġamaz":11007,"Ġmethods":11008,"Ġpus":11009,"Ġshik":11010,"()])":11011,"outl":11012,"Ġtit":11013,"Ġtans":11014,"Ġtap":11015,"Ġbfor":11016,"Ġ\"):":11017,"amt":11018,"(\";":11019,"(\"*****":11020,"Ġrprintf":11021,"Ġrsort":11022,"made":11023,"Ġ//#":11024,"Ġconstruct":11025,"Ġqll":11026,"Ġhast":11027,"Ġhold":11028,"oto":11029,"unlli":11030,"uniq":11031,"mapi":11032,"';)":11033,"Ġmpi":11034,"âĸĳâĸĢâĸĦ":11035,"posit":11036,"]==\"":11037,"]]<":11038,"]+'":11039,"Ġviv":11040,"ldbl":11041,"############":11042,"ĠOVER":11043,"Ġmxv":11044,"Ġ./":11045,"ĠEd":11046,"Ġnei":11047,"topt":11048,"ĠHLD":11049,"3010":11050,"Ġprintarr":11051,"ĠArgSortComp":11052,"Ġpowr":11053,"Ġmymul":11054,"started":11055,"graf":11056,"Ġmsl":11057,"âĸĦâĸĦâĸĳâĸĳâĸĳâĸĳâĸĳ":11058,"Ġpsl":11059,"multiply":11060,"405":11061,"ĠJan":11062,"LILLAH":11063,"Ġ--------------------------------------------------------":11064,"ÐµÐ¼":11065,"ĠINIter":11066,"ident":11067,"Ġwinners":11068,"ĠIterSortComp":11069,"Ð½Ð°":11070,"Ġ1001001001":11071,"LOGN":11072,"Ġtimmin":11073,"---------------------------":11074,"-----------------------------":11075,"Ġ*****\\":11076,"Ġsubmit":11077,"Ġbasic":11078,"âĸĳâĸĳâĸĳâĸĳâĸĳâĸĲâĸĦâĸĦâĸĳâĸĳâĸĳâĸĳâĸĳ":11079,"Ġ9973":11080,"âĸĳâĸĳâĸĳâĸĳâĸĮâĸĳâĸĳâĸĳâĸĳâĸĳâĸĲâĸĦâĸĦâĸĳâĸĳâĸĳâĸĳâĸĳ":11081,"çĽ¸":11082,"ĠRandInt":11083,"çº¿":11084,"ĠOperations":11085,"Enabled":11086,"(+)":11087,"Ġ98765431":11088,"OBAL":11089,"Ġamazing":11090,"%_":11091,"449":11092,"514":11093,"800":11094,"853":11095,":.......":11096,":....:":11097,"?-(":11098,"Cl":11099,"Hi":11100,"LM":11101,"Roll":11102,"bor":11103,"dod":11104,"dic":11105,"fio":11106,"fans":11107,"jahidul":11108,"lish":11109,"mc":11110,"¯ÐĶÐ":11111,"ÐĳÐŀ":11112,"Ùĩ":11113,"ĠGG":11114,"ĠĠĉĉĉĉ":11115,"Ġip":11116,"reps":11117,"ori":11118,"orz":11119,"Ġ(-(":11120,"Ġcmax":11121,"Ġcloc":11122,"Ġlpr":11123,"Ġlpd":11124,"Ġaint":11125,"separator":11126,"Ġnai":11127,"Ġsab":11128,"llah":11129,"ĠvL":11130,"--]":11131,"Ġ+(":11132,"Ġ\"(":11133,"];//":11134,"alive":11135,"olo":11136,"ĠMU":11137,"ĠMINF":11138,"Ġinl":11139,"***********/":11140,"<<\"-->":11141,"Ġ)(":11142,"ĠSuffix":11143,"...*****":11144,"Ġchoice":11145,"Ġ330":11146,"(){};":11147,"âĸĳâĸĪâĸĪâĸĪâĸĢ":11148,"âĸĳâĸĮâĸĴ":11149,"curL":11150,"1110":11151,"]]*":11152,"Ġ'\\\"":11153,"allel":11154,"ARSH":11155,"ĠisF":11156,"Ġ\\________":11157,"ĠMAXLL":11158,"âĸĴâĸĢâĸĢâĸĢâĸĢ":11159,"âĸĴâĸĢâĸĴ":11160,"âĸĴâĸĪâĸĪâĸĪâĸĪâĸĮ":11161,"Ġ\",__":11162,"100003":11163,"................:":11164,"..................":11165,"971":11166,"///................................":11167,"///---":11168,"Ġscans":11169,"Ġdba":11170,"Ġcheckbit":11171,"âĸĦâĸĪâĸĪâĸĪâĸĪâĸĪâĸĪâĸĪ":11172,"âĸĳâĸĳâĸĳâĸĳâĸĦâĸĪâĸĪâĸĪâĸĪâĸĪâĸĪâĸĪâĸĪ":11173,"Ġparity":11174,"Ġvvvl":11175,"dia":11176,"fastIO":11177,"ĠstartTime":11178,"hai":11179,"Ġ/*!":11180,"âĸĪâĸĪâĸĪâĸĪâĸĢâĸĴ":11181,"âĸĪâĸĪâĸĪâĸĪâĸĢâĸĪâĸĪâĸĪâĸĪâĸĪ":11182,"âĸĪâĸĪâĸĪâĸĪâĸĦâĸĴâĸĴâĸĴâĸĴ":11183,"âĸĪâĸĪâĸĪâĸĪâĸĪâĸĪâķĶâķĿ":11184,"Ġpql":11185,"______________________":11186,"âĸĴâĸĴâĸĴâĸĴâĸĢâĸĢâĸĢâĸĴâĸĴâĸĴâĸĴâĸĴâĸĴ":11187,"100000000000":11188,"Ġvery":11189,"shir":11190,"Ġanswers":11191,"âĸĮâĸĳâĸĳâĸĳ":11192,"âĸĮâĸĴâĸĦ":11193,"âķĲâĸĪ":11194,".................................................":11195,"ĠDBGG":11196,",,,,,,,,,,":11197,"âĸĲâĸĪâĸĪâĸĪâĸĮ":11198,"âĸĲâĸĴâĸĢâĸĢâĸĢâĸĢ":11199,"Ġ.:--.":11200,"âĸĳâĸĳâĸĳâĸĲâĸĳâĸĳâĸĳâĸĦâĸĦâĸĳâĸĳâĸĮ":11201,"LIE":11202,"Ġ')'":11203,"Ð¾Ð»":11204,"ĠTRY":11205,"ä¸º":11206,"ĠTails":11207,"ĠMINUS":11208,"_,\\":11209,"Multi":11210,"---///":11211,"âĸĢâĸĦâĸĳâĸĳâĸĳâĸĦâĸĢâĸĴâĸĴ":11212,"''|":11213,"âĸĴâĸĴâĸĴâĸĴâĸĴâĸĴâĸĢâĸĪâĸĪâĸĪâĸĪâĸĪ":11214,"âĸĴâĸĴâĸĴâĸĴâĸĴâĸĴâĸĢâĸĢâĸĢâĸĴâĸĴâĸĴâĸĴâĸĴâĸĴ":11215,"Ġceiling":11216,"Resource":11217,"Ġ\\|__|":11218,"goto":11219,"âĸĴâĸĦâĸĢâĸĢâĸĢâĸĢâĸĢâĸĦ":11220,"ĠLSOne":11221,"âĸĪâĸĪâĸĪâĸĪâĸĪâĸĪâĸĪâĸĦ":11222,"wdIter":11223,"âĸĳâĸĲâĸĪâĸĪ":11224,"âĸĳâĸĲâĸĪâĸĮ":11225,"âĸĳâĸĲâĸĪâĸĪâĸĪâĸĪâĸĢâĸĴ":11226,"âĸĲâĸĳâĸĳâĸĳâĸĢâĸĢâĸĳâĸĳâĸĮ":11227,"ÐĶÐĲÐĿ":11228,"âĸĴâĸĴâĸĴâĸĴâĸĴâĸĪâĸĪâĸĪâĸĪâĸĮ":11229,"âĸĦâĸĢâĸĴâĸĴâĸĢâĸĦâĸĳâĸĳâĸĳâĸĦâĸĢâĸĴâĸĴ":11230,"people":11231,"âĸĳâĸĳâĸĪâĸĴâĸĦâĸĢâĸĢâĸĢâĸĢâĸĢâĸĦ":11232,"âĸĳâĸĳâĸĳâĸĢâĸĪâĸĪâĸĪâĸĢâĸĢ":11233,"âĸĳâĸĳâĸĳâĸĢâĸĮâĸĴâĸĦ":11234,"âĸĴâĸĲâĸĪâĸĪâĸĪâĸĮ":11235,"Ġ999999999999":11236,"ÐĵÐĶÐĲÐĿ":11237,"Ġ\"'\"":11238,"Ġ\"}\"":11239,"âĸĳâĸĦâĸĢâĸĮâĸĳâĸĳâĸĳ":11240,"âĸĴâĸĴâĸĴâĸĦâĸĴâĸĴâĸĴâĸĦâĸĴâĸĴâĸĴâĸĴâĸĴâĸĴ":11241,"âĸĳâĸĳâĸĳâĸĳâĸĳâĸĮâĸĴâĸĴâĸĴâĸĴâĸĢâĸĢâĸĢâĸĴâĸĴâĸĴâĸĴâĸĴâĸĴ":11242,"âĸĳâĸĳâĸĳâĸĳâĸĳâĸĮâĸĴâĸĴâĸĴâĸĦâĸĴâĸĴâĸĴâĸĦâĸĴâĸĴâĸĴâĸĴâĸĴâĸĴ":11243,"âĸĢâĸĢâĸĳâĸĳâĸĮâĸĲâĸĳâĸĳâĸĳâĸĢâĸĢâĸĳâĸĳâĸĮ":11244,"âĸĢâĸĢâĸĢâĸĢâĸĢâĸĦâĸĴâĸĲâĸĪâĸĪâĸĪâĸĮ":11245,"âķĲâķ¦âķĲâķ©âķĲâķ¦âķĲâķ©âķĲâķ¦âķĲâķ©âķĲâķ¦âķĲâķ©âķĲâķ¦âķĲâķ©âķĲâķ¦âķĲâķ©":11246,"âĸĲâĸĳâĸĳâĸĳâĸĦâĸĦâĸĳâĸĳâĸĮâĸĲâĸĪâĸĪâĸĪâĸĮ":11247,"ÐĶÐ¯ÐĶÐ":11248,"âĸĪâĸĪâĸĪâĸĪâĸĪâĸĪâĸĦ":11249,"âĸĢâĸĦâĸĳâĸĳâĸĳâĸĳâĸĦâĸĢâĸĴâĸĴâĸĢâĸĦâĸĳâĸĳâĸĳâĸĦâĸĢâĸĴâĸĴ":11250,"Letter":11251,"Ġ.'.''|":11252,"Ġfldgjdflg":11253,"ITNOA":11254,"âĸĪâĸĪâķĶâķĲâķĲâĸĪâĸĪâķĹ":11255,"andero":11256,"âĸĴâĸĴâĸĴâĸĴâĸĴâĸĴâĸĴâĸĴâĸĴâĸĴâĸĴâĸĴâĸĴâĸĴâĸĴâĸĴâĸĴâĸĪâĸĪâĸĪâĸĪâĸĮ":11257,"âĸĴâĸĢâĸĪâĸĪâĸĪâĸĪâĸĪâĸĪâĸĦ":11258,"ĠObjectType":11259,"âĸĢâĸĢâĸĢâĸĢâĸĢâĸĢâĸĪâĸĪâĸĪâĸĪâĸĪâĸĪâĸĪâĸĦ":11260,"âĸĴâĸĴâĸĦâĸĢâĸĢâĸĢâĸĢâĸĢâĸĦâĸĴâĸĲâĸĪâĸĪâĸĪâĸĮ":11261,"âĸĴâĸĴâĸĲâĸĮ":11262,"Ġimprove":11263,"Ġ\\._,\\":11264,"âĸĪâĸĪâĸĦâĸĦâĸĦâĸĦâĸĪâĸĪâĸĪâĸĪâĸĦâĸĴâĸĴâĸĴâĸĴ":11265,"alexandero":11266,"âĸĳâĸĢâĸĦâĸĲâĸĴâĸĢâĸĢâĸĢâĸĢ":11267,"ÐĳÐŀÐĵÐĶÐĲÐĿ":11268,"<<\"-->\"<<":11269,"...*****.................................................":11270,"âĸĳâĸĪâĸĪâĸĪâĸĢâĸĴâĸĴâĸĴâĸĴâĸĴ":11271,"âĸĳâĸĮâĸĴâĸĢâĸĦâĸĳâĸĳâĸĳâĸĳâĸĦâĸĢâĸĴâĸĴâĸĢâĸĦâĸĳâĸĳâĸĳâĸĦâĸĢâĸĴâĸĴ":11272,"âĸĴâĸĢâĸĴâĸĪâĸĮ":11273,"///...................................*****.................................................":11274,"âĸĦâĸĪâĸĪâĸĪâĸĪâĸĪâĸĪâĸĪâĸĢâĸĢâĸĢâĸĢâĸĢâĸĢâĸĪâĸĪâĸĪâĸĪâĸĪâĸĪâĸĪâĸĦ":11275,"âĸĪâĸĪâĸĪâĸĪâĸĢâĸĪâĸĪâĸĪâĸĪâĸĪâĸĢâĸĴâĸĮ":11276,"Ġ.:--.'.":11277,"âĸĳâĸĳâĸĳâĸĲâĸĳâĸĳâĸĳâĸĦâĸĦâĸĳâĸĳâĸĮâĸĲâĸĳâĸĳâĸĳâĸĦâĸĦâĸĳâĸĳâĸĮâĸĲâĸĪâĸĪâĸĪâĸĮ":11278,"âĸĴâĸĴâĸĴâĸĴâĸĴâĸĴâĸĢâĸĢâĸĢâĸĴâĸĴâĸĴâĸĴâĸĴâĸĴâĸĪ":11279,"âĸĳâĸĲâĸĪâĸĮâĸĴâĸĴâĸĴâĸĴâĸĴâĸĴâĸĴâĸĴâĸĴâĸĴâĸĴâĸĴâĸĴâĸĴâĸĴâĸĴâĸĴâĸĪâĸĪâĸĪâĸĪâĸĮ":11280,"âĸĳâĸĳâĸĪâĸĴâĸĦâĸĢâĸĢâĸĢâĸĢâĸĢâĸĦâĸĴâĸĴâĸĦâĸĢâĸĢâĸĢâĸĢâĸĢâĸĦâĸĴâĸĲâĸĪâĸĪâĸĪâĸĮ":11281,"âĸĳâĸĳâĸĳâĸĢâĸĪâĸĪâĸĪâĸĢâĸĢâĸĪâĸĪâĸĪâĸĪâĸĢâĸĪâĸĪâĸĪâĸĪâĸĪâĸĢâĸĴâĸĮ":11282,"âĸĳâĸĳâĸĳâĸĢâĸĮâĸĴâĸĦâĸĪâĸĪâĸĦâĸĦâĸĦâĸĦâĸĪâĸĪâĸĪâĸĪâĸĦâĸĴâĸĴâĸĴâĸĴ":11283,"âĸĳâĸĦâĸĢâĸĮâĸĳâĸĳâĸĳâĸĢâĸĢâĸĳâĸĳâĸĮâĸĲâĸĳâĸĳâĸĳâĸĢâĸĢâĸĳâĸĳâĸĮ":11284,"âĸĳâĸĳâĸĳâĸĳâĸĳâĸĮâĸĴâĸĴâĸĴâĸĴâĸĢâĸĢâĸĢâĸĴâĸĴâĸĴâĸĴâĸĴâĸĴâĸĴâĸĲ":11285,"âĸĳâĸĳâĸĳâĸĳâĸĳâĸĮâĸĴâĸĴâĸĴâĸĦâĸĴâĸĴâĸĴâĸĦâĸĴâĸĴâĸĴâĸĴâĸĴâĸĴâĸĲ":11286,"ÐĶÐ¯ÐĶÐ®":11287,"âĸĳâĸĢâĸĦâĸĲâĸĴâĸĢâĸĢâĸĢâĸĢâĸĴâĸĴâĸĴâĸĴâĸĴâĸĴâĸĢâĸĢâĸĢâĸĴâĸĴâĸĴâĸĴâĸĴâĸĴâĸĪ":11288,"ÐĳÐŀÐĵÐĶÐĲÐĿÐĲ":11289,"âĸĳâĸĮâĸĴâĸĢâĸĦâĸĳâĸĳâĸĳâĸĳâĸĦâĸĢâĸĴâĸĴâĸĢâĸĦâĸĳâĸĳâĸĳâĸĦâĸĢâĸĴâĸĴâĸĦâĸĢâĸĴâĸĮ":11290,"///...................................*****.................................................///":11291,"âĸĳâĸĳâĸĳâĸĢâĸĮâĸĴâĸĦâĸĪâĸĪâĸĦâĸĦâĸĦâĸĦâĸĪâĸĪâĸĪâĸĪâĸĦâĸĴâĸĴâĸĴâĸĴâĸĪâĸĢ":11292,"âĸĳâĸĦâĸĢâĸĮâĸĳâĸĳâĸĳâĸĢâĸĢâĸĳâĸĳâĸĮâĸĲâĸĳâĸĳâĸĳâĸĢâĸĢâĸĳâĸĳâĸĮâĸĴâĸĢâĸĴâĸĪâĸĮ":11293,")<<'":11294,".________________":11295,"523":11296,"619":11297,"=++":11298,">&&":11299,"Alice":11300,"CODE":11301,"Jul":11302,"Log":11303,"Pl":11304,"Ts":11305,"_>":11306,"eval":11307,"erent":11308,"gao":11309,"hot":11310,"hypot":11311,"lum":11312,"sor":11313,"»Ħ":11314,"âĹ":11315,"ç¬":11316,"Ġicbrt":11317,"Ġlch":11318,"Ġfar":11319,"Ġvin":11320,"Ġvst":11321,"iting":11322,"Ġbac":11323,"\",++":11324,"Ġmapii":11325,"izont":11326,"::\\":11327,"Ġrint":11328,"osh":11329,"Ġei":11330,"Ġ'['":11331,"Ġ'(';":11332,"))+\"":11333,"Ġgame":11334,"ĠMult":11335,"Ġprie":11336,"Ġpractice":11337,"]=[\";":11338,"<<\"]=[\";":11339,"ĠFGB":11340,"Ġendln":11341,"Ġ/::\\":11342,"Ġobuf":11343,"ĠRR":11344,"ulal":11345,"ĠĠĠĠĠĠĠĠĠĠĠĠĠĠĠĠĠĠĠčĊ":11346,"curx":11347,"ĠĠĠĠĠĠĠĠĠĠĠĠĠĠĠĠĠĠĠĠĠĠĠĠĠĠĠĠĠĠĠĠčĊ":11348,"ĠDGC":11349,"ĠgetRoot":11350,"Ġsumr":11351,"113":11352,"Ġtoint":11353,"Ġadded":11354,"numb":11355,"Ġrepde":11356,"Ġinfint":11357,"ldb":11358,"Ġ\\/__/":11359,"ĠreadU":11360,"Ġacum":11361,"Ġsqu":11362,"Ġscii":11363,"abl":11364,"ĠHARSH":11365,"masks":11366,"Ġtypeof":11367,"Ġasdg":11368,"Ġcomplete":11369,"nglish":11370,"<<\"=[\";":11371,"461":11372,"463":11373,"313":11374,"773":11375,"Ġsubtract":11376,"Ġsqrtl":11377,"ONENT":11378,"1900":11379,"coordinate":11380,"tfj":11381,"bridge":11382,"\"\"\"":11383,"PBR":11384,"Ġà¦¦":11385,"Ġsmth":11386,"ĠLDB":11387,"200009":11388,"Ġblah":11389,"Ġstates":11390,"AddEdge":11391,"FLOW":11392,"Ġpartition":11393,"QUEUE":11394,"Ġdoesn":11395,"Ġ1234567890":11396,"Delta":11397,"irected":11398,"Ġoverloading":11399,"Middle":11400,"æĪĳ":11401,"âĸ²âĬĻâĸ²âĬĻ":11402,"UNIQUE":11403,"Ġlarger":11404,"ĠMonth":11405,"izontal":11406,"ĠHARSHAD":11407,"$%":11408,"'<<":11409,"*}":11410,"-',":11411,"010":11412,"134":11413,"40000":11414,"457":11415,":,;":11416,";`,,":11417,">!":11418,"Bob":11419,"FW":11420,"KM":11421,"Sep":11422,"Weighted":11423,"YMMMMMMMMMMMMMMMM":11424,"`..":11425,"bind":11426,"domin":11427,"mine":11428,"mber":11429,"nano":11430,"qi":11431,"rid":11432,"which":11433,"what":11434,"yd":11435,"}@":11436,"èĬ":11437,"Ġown":11438,"ons":11439,"Ġcart":11440,"Ġlout":11441,"Ġlxt":11442,"Ġlmt":11443,"Ġlscn":11444,"Ġlambda":11445,"Ġmight":11446,"++].":11447,"Ġ120":11448,"Ġ1111":11449,"Ġsparse":11450,"Ġvet":11451,"//****************************************************************":11452,"Ġtill":11453,"Ġterm":11454,"Ġborder":11455,"Ġxn":11456,"ĉĉĉĠĠ":11457,"Ġ*--":11458,"mpty":11459,"__<<\"\\":11460,"Ġjudge":11461,"Ġrlong":11462,"Ġrmin":11463,"ĠTE":11464,"Ġansl":11465,"Ġansr":11466,"Ġgmax":11467,"asm":11468,"])+(":11469,"<<\">":11470,"ĠFOr":11471,"ĠNmax":11472,"ĠmodInv":11473,"ĠScan":11474,"ĠSGD":11475,"ĠSchool":11476,"ĠPd":11477,"ĠPRT":11478,"â£ĩ":11479,"MMMN":11480,"Ġ333":11481,"emy":11482,"esian":11483,"ĠLO":11484,"Ġmpsi":11485,"minimum":11486,"ĠĠĠĠĠĠĠĠĠĠĠĠĠĠĠĠĠĠĠĠĠĠĠĠĠĠĠĠĠĠĠĠĠĠĠĠĠĠĠĠĠĠĠĠĠĠĠĠĠĠĠĠĠĠĠĠĠĠĠ":11487,"ĠDouble":11488,"ĠDukkha":11489,"]]))":11490,"hep":11491,"â£¿â£¿â£Ĩ":11492,"991":11493,"throw":11494,"Ġ567":11495,"ĠinfValue":11496,"Ġinfinity":11497,"ĠFORall":11498,"ĠFORSZ":11499,"room":11500,"ĠArbitrary":11501,"repe":11502,"<<(*":11503,"âłĦ":11504,"âłı":11505,"58476":11506,"ĠHMOD":11507,"Ġchecked":11508,"MMMMMMMMMMMMM":11509,"559":11510,"adjacent":11511,"LEFT":11512,"â¡¾":11513,"â¡ĺ":11514,"Ġbek":11515,"ĉĠĠĠĉ":11516,",;`":11517,"ovember":11518,"Ġ2010":11519,"indexed":11520,"anks":11521,"Ġubd":11522,"â£¿â£¿â£¿â£¿â£¿â£¿â£¿â£¿â£¿â£¿â£¿â£¿":11523,"â£¿â£¿â£¿â£¿â£¿â£¿â£¿â£¿â£¿â£¿â£¿â£¿â£¿â£¿":11524,"â£¿â£ŀ":11525,"âķ¬âķ¬âķ¬":11526,"Ġwell":11527,"wei":11528,"Ġmean":11529,"Ġ\"]\";}":11530,"ekChar":11531,"â¢¿â£·":11532,"200003":11533,"Ġ----------------------------------------":11534,"sertion":11535,"Ġï¿½ï¿½ï¿½ï¿½ï¿½,":11536,"â£¯â¡¿":11537,"Ġftoa":11538,"Ġbpm":11539,"ĠITR":11540,"ĠFIND":11541,"Ġswitch":11542,"â¢»â£¿â£¿â£¿â£¿â£¿â£¿â£¿â£¿â£¿â£¿â£¿â£¿â£¿â£¿â£¿â£¿":11543,"Ġproper":11544,"888888888888888888888888888":11545,"ĠpeekChar":11546,"â¡ĩâ¢¹":11547,"ï¿½ï¿½ï¿½ï¿½ï¿½ï¿½ï¿½ï¿½ï¿½ï¿½ï¿½":11548,"âł»â£½":11549,"ello":11550,"general":11551,"133111":11552,"âłģâ£¾":11553,"Ġbasis":11554,"aeiai":11555,":.:.:":11556,"ĠBitCnt":11557,"ĠĠĠĠĠĠĠĠĠĠĠĠĠĠĠĠĠĠĠĠĠĠĠĠĠĠĠĠĠĠĠĠĠĠĠĠĠĠĠĠĉĉ":11558,"undy":11559,"Ġcomponents":11560,"positions":11561,"âłīâłīâłīâłī":11562,"ĠâĸĪâĸĪâķĳâĸĪâĸĪâķĳ":11563,"Ġmaxty":11564,"stopwatch":11565,"ificant":11566,"ĠFromStr":11567,"à¦¶à¦¨":11568,"â¡Ļâł":11569,"Ġrequirement":11570,"precompute":11571,"Friendship":11572,"nanoseconds":11573,"Ġcartesian":11574,"'<=":11575,"217":11576,"843":11577,"919":11578,"=*(":11579,"Do":11580,"Key":11581,"MAN":11582,"Over":11583,"TX":11584,"]\\":11585,"aint":11586,"een":11587,"euler":11588,"fv":11589,"fpo":11590,"hamed":11591,"kx":11592,"mns":11593,"nmask":11594,"¦Ĥ":11595,"¯Ã":11596,"Ð¿":11597,"Ðĺ":11598,"å¦Ĥ":11599,"indeg":11600,"stit":11601,"reb":11602,"Ġcustom":11603,"Ġlm":11604,"Ġlmap":11605,"Ġaf":11606,"Ġmir":11607,"Ġmcmf":11608,"Ġfuel":11609,"Ġpub":11610,"Ġptt":11611,"Ġ134":11612,"Ġints":11613,"--]);":11614,"//-----------------------------------------------------------------------------":11615,"outp":11616,"Ġforq":11617,"accc":11618,"Ġrst":11619,"Ġrepb":11620,"hill":11621,"Ġymin":11622,"Ġum":11623,"Ġwn":11624,"ĠMC":11625,"ĠMark":11626,"Ġ:\";":11627,"883":11628,"isLowerCase":11629,"isUpperCase":11630,"ĠSOUT":11631,"ĠPP":11632,"Ġmina":11633,"ĠRF":11634,"Ġsta":11635,"modpow":11636,"ĠLZ":11637,"*******************":11638,"+='\\":11639,"mina":11640,"ĠChar":11641,"Ġgetp":11642,"Ġgetting":11643,"]]<<\"":11644,"996":11645,"Ġ1000000006":11646,"getMax":11647,"Ġ512":11648,"Ġcln":11649,"toa":11650,"ĠVLL":11651,"Ġ);}":11652,"exe":11653,"Ġ430":11654,"539":11655,"middle":11656,"1004":11657,"five":11658,"SEND":11659,"ĠER":11660,"Ġputn":11661,")+\"":11662,"Intersection":11663,"Ġgoes":11664,"Ġhighest":11665,"Ġdynamic":11666,"Ġunlocked":11667,"Ġenl":11668,"Ġ100500":11669,"Ġ861":11670,"Ġ2018":11671,"OND":11672,"powerMod":11673,"407":11674,"Ġrandoperation":11675,"444":11676,"]-='":11677,"winner":11678,"ĠSHIK":11679,"Ġletter":11680,"coder":11681,"Ġprobab":11682,"xbf":11683,"ĠPOWER":11684,"Ġspaces":11685,"/|_|":11686,"Ġ99990001":11687,"plier":11688,"ĠEXPECT":11689,"Ġcells":11690,"ĠROAD":11691,"ĠPOSL":11692,"èĬĤ":11693,"¯Ã°":11694,"-*":11695,"2100":11696,"527":11697,"Jan":11698,"Jahangirnagar":11699,"NE":11700,"[]);":11701,"^)":11702,"du":11703,"draw":11704,"fpar":11705,"kase":11706,"lap":11707,"pC":11708,"qb":11709,"sig":11710,"tap":11711,"tsz":11712,"}))":11713,"éĢ":11714,"integer":11715,"Ġ())":11716,"Ġlii":11717,"Ġlpri":11718,"Ġlittle":11719,"Ġfans":11720,"Ġ}\\":11721,"()||":11722,"Ġvol":11723,"amount":11724,"Ġdop":11725,"Ġja":11726,"Ġrap":11727,"==')":11728,"ĠTreap":11729,"Ġrevv":11730,"Ġ'^":11731,"Ġyj":11732,"Ġ219":11733,"Ġ2101":11734,"Ġupb":11735,"Ġgd":11736,"Ġgy":11737,"])];":11738,"ansl":11739,"ansy":11740,"ĠpairT":11741,"Ġpairsort":11742,"<<\"----------------":11743,"Ġconn":11744,"editor":11745,"ĠFROM":11746,"ĠND":11747,"Ġresz":11748,"Ġmaxm":11749,"ĠShah":11750,"ĠPush":11751,"())=='":11752,"Ġminv":11753,"Ġhu":11754,"ĠRotate":11755,"Ġcntb":11756,"Ġsto":11757,"Ġ#\"<<":11758,"')){":11759,"ckx":11760,"buy":11761,"ĠCA":11762,"ĠgetId":11763,"ĠGOD":11764,"Ġcurx":11765,"cmd":11766,"Ġoutarr":11767,"ube":11768,"aya":11769,"Ġtreemax":11770,"exception":11771,"Ġfrd":11772,"Ġreadll":11773,".......................":11774,"ĠERR":11775,"ĠEGCD":11776,"epega":11777,"///===":11778,"Ġscope":11779,"oken":11780,"Ġendc":11781,"Ġ660":11782,"Ġcompile":11783,"]*=":11784,"Ġungetc":11785,"ttt":11786,"ĠprintNew":11787,"563":11788,"ĠĠĠĠĠĠĠĠĠĠĠĠĠĠĠĠĠĠĠĠĠĠĠĠĠĠĠĠĠĠĠĠĠĠĠĠĠĠĠĠĠĠĠĠĠĠĠĠĠĠĠĠĠĠĠĠĠĠĠĠĠĠĠĠĠĠĠĠĠĠĠĠĠĠĠ":11789,"ĠmyComplex":11790,"quotient":11791,"Ġdoit":11792,"Ġats":11793,"141592653589793238463":11794,"Ġpaired":11795,"281":11796,"ĠIntMaxVal":11797,"files":11798,"solution":11799,"/***********************************************/":11800,"409":11801,"491":11802,"cessed":11803,"rght":11804,"ĠĠĠĠĠĠĠĠĠĠĠĠĠĠĠĠĠĠĠĠĠĠĠĠĠĠĠĠĠĠĠĠĠĠĠĠĠĠĠĠĠĠĠĠĠĠĠĠĠĠĠĠĠĠĠĠĠĠĠĠĠĠĠĠĠĠĠĠĠĠĠĠĠĠĠĠĠĠĠĠĠĠĠĠĠĠĠĠĠĠĠĠĠĠĠĠĠĠĠĠĠĠĠĠĠĠĠĠĠĠĠĠĠĠĠĠĠĠĠĠĠĠĠĠĠĠĠĠĠĠĠĠĠĠĠĠĠĠĠĠĠĠĠĠĠĠĠĠĠĠĠĠĠĠĠĠĠĠĠĠĠĠĠĠĠĠĠĠĠĠĠĠĠĠĠĠĠĠĠĠĠĠĠĠĠĠĠĠĠĠĠĠĠĠĠĠĠĠĠĠĠĠĠĠĠĠĠ":11805,"uncom":11806,"ĠLongMaxVal":11807,"Ġ------------------------------":11808,"Ġrght":11809,"Processed":11810,"~~~~~~":11811,"Ġ\"#\"":11812,"ĠGETM":11813,"ĠMSI":11814,"Ġroom":11815,"Ġ404":11816,"minusone":11817,"ĠIsEqual":11818,"ANGE":11819,"Ġ10000019":11820,"ä»¬":11821,"Ġpositions":11822,"Ġcuoi":11823,"ĠFordE":11824,"MAIN":11825,"Factors":11826,"Ġaddmodfast":11827,"åı¯":11828,"ĠÐ¿ÑĢÐ¾":11829,"===============================================":11830,"Ġgreat":11831,"missing":11832,"ĠRAHMAN":11833,"{{{*/":11834,"ĠPREF":11835,"Ġ|_|\\__,_|_|":11836,"ĠComplexity":11837,"Infinite":11838,"//-------------------------------------------------------":11839,"]<<\",\";}":11840,"ĠMohamed":11841,"æĪĳä»¬":11842,"ĠprintNewLine":11843,"ĠRAHMANIR":11844,"\"]=":11845,"1307":11846,"400010":11847,"701":11848,"811":11849,"827":11850,">_":11851,"?'":11852,"An":11853,"Jwb":11854,"Ly":11855,"PF":11856,"RA":11857,"TU":11858,"There":11859,"USH":11860,"WXY":11861,"Xor":11862,"YiN":11863,"\\*":11864,"bab":11865,"cXZv":11866,"hv":11867,"jV":11868,"jYnB":11869,"lmt":11870,"rf":11871,"rh":11872,"rang":11873,"ten":11874,"yc":11875,"zeg":11876,"çķ":11877,"invert":11878,"Ġ(@":11879,"online":11880,"Ġmer":11881,"Ġfname":11882,"Ġfpo":11883,"Ġfresh":11884,"Ġpz":11885,"Ġsch":11886,"()]);":11887,"Ġvsz":11888,"Ġtol":11889,"Ġbaki":11890,"Ġ\"-------":11891,"Ġ&___":11892,"arations":11893,"Ġrout":11894,"Ġrans":11895,"Ġray":11896,"ĠTAB":11897,"may":11898,"Ġund":11899,")):":11900,"Ġka":11901,"Ġgya":11902,"])]++;":11903,"Ġ%%":11904,"Ġinputs":11905,"Ġpairl":11906,"Ġ//(":11907,"Ġ)/":11908,"Ġ)>>":11909,"ĠFB":11910,"ĠAsk":11911,"ĠAcc":11912,"imid":11913,"Ġmaxs":11914,"ĠPS":11915,"Ġtrim":11916,"Ġ300000000":11917,"ĠRev":11918,"Ġstp":11919,"aste":11920,"ĠLimit":11921,"curR":11922,"ĠCam":11923,"ĠzAlgo":11924,"Ġ51":11925,"Ġ597":11926,"Ġ557":11927,"Ġ55555":11928,"toInt":11929,"ĠFORX":11930,"ĠVi":11931,"ĠMAXINT":11932,"Ġreadi":11933,"Ġlearn":11934,"Ġ10005":11935,"Ġvvvs":11936,"504":11937,"Ġbelong":11938,"Ġindices":11939,"Ġpopf":11940,"FFT":11941,"Ġsubstring":11942,"Ġmasks":11943,"Ġlowb":11944,"ITS":11945,"Ġ830":11946,"Ġcoord":11947,"ĠfileInput":11948,"571":11949,"Ġ~((":11950,"4729":11951,"Ġï¿½ï¿½ï¿½ï¿½ï¿½ï¿½.":11952,"oldr":11953,"hole":11954,"Ġlengths":11955,"Ġ[&]()":11956,"Ġftoit":11957,"ÑĤÑĮ":11958,"rund":11959,"Ġwriting":11960,"))*((":11961,"/*****************************************************/":11962,"Dijkstra":11963,"ĠBUFF":11964,"Ġanything":11965,"ĠCHMAX":11966,"ĠCHMIN":11967,"ĠToString":11968,"linux":11969,"#########~~":11970,"ĠABCD":11971,"ĠABCDE":11972,"ãĤĴ":11973,"median":11974,"ĠCanh":11975,"ĠRAHIM":11976,"ĠSWAP":11977,"NQcWEj":11978,"nCr":11979,"!=\"\"?":11980,"åĮĸ":11981,"<<\"<\"<<":11982,"UVWXY":11983,"<<\"----------------\"<<":11984,"JwbX":11985,"#__":11986,"/_":11987,"/:/":11988,"601":11989,"@ï¿½ï¿½":11990,"AG":11991,"AJU":11992,"IATION":11993,"NW":11994,"Pham":11995,"ared":11996,"bus":11997,"dol":11998,"ered":11999,"fw":12000,"fli":12001,"game":12002,"hb":12003,"hol":12004,"joint":12005,"korn":12006,"methods":12007,"ober":12008,"pz":12009,"puu":12010,"qing":12011,"rbe":12012,"rach":12013,"sample":12014,"zer":12015,"zhang":12016,"ä¹":12017,"æ²":12018,"ĩåĩ":12019,"insertion":12020,"Ġiout":12021,"Ġcou":12022,"Ġcid":12023,"Ġcmd":12024,"Ġlpair":12025,"Ġapt":12026,"Ġfprio":12027,"Ġnz":12028,"Ġpout":12029,"Ġpfr":12030,"++<<\":":12031,"Ġ143":12032,"Ġ061":12033,"Ġssync":12034,"Ġvdbl":12035,"Ġ+-":12036,"ongkorn":12037,"Ġtmax":12038,"Ġttake":12039,"Ġbsize":12040,"Ġbpow":12041,"achi":12042,"Ġ\">>":12043,"Ġ\">>>>>>":12044,"conn":12045,"Ġmaps":12046,"ection":12047,"__<<'":12048,"ĠTaken":12049,"ĠTutu":12050,"consts":12051,"uez":12052,"osri":12053,"ntt":12054,"Ġreserve":12055,"Ġymax":12056,"odrig":12057,"Ġkar":12058,"Ġgstr":12059,"LLA":12060,"<<\"}":12061,"ĠFG":12062,"ĠFoo":12063,"ĠNow":12064,"Ġ/|":12065,"Ġ/*********************":12066,"ĠAn":12067,"Ġmaxpq":12068,"Ġoll":12069,"Ġostat":12070,"///////":12071,"Ġtrll":12072,"ĠRodrig":12073,"Ġpbc":12074,"ĠLen":12075,"ĠMODP":12076,"ĠĠĠĠĠĠĠĠĠĠĠĠĠĠĠĠĠĠĠĠĠĠĠĠĠĠĠĠĠĠĠĠĠĠĠĠĠĠĠĠĠĠĠĠĠĠĠĠĠĠ":12077,"ĠDont":12078,"ĠGA":12079,"ĠGarc":12080,"ili":12081,"ĠBATCH":12082,"ĠBosri":12083,"Ġsell":12084,"allt":12085,"ĠrepD":12086,"Ġ107":12087,"ĠLLL":12088,"ĠVd":12089,"ĠVll":12090,"ĠViii":12091,"ĠVLLL":12092,"ĠsetDP":12093,"/*{{{*/":12094,")({\\":12095,"ĠmxN":12096,"1000000010":12097,"Ġreadc":12098,"ĠUP":12099,"Ġpllpl":12100,"({(":12101,"ĠmapT":12102,"********************************/":12103,"204":12104,"Ġputnb":12105,"Ġsciii":12106,")-=(":12107,"ĠHuu":12108,"ĠHachi":12109,"compare":12110,"ACT":12111,"Ġentry":12112,"Ġbeen":12113,"Ġpowmulmod":12114,"Ġfacts":12115,"])),":12116,"Ġwritei":12117,"Ġwritell":12118,"Ġpai":12119,"lys":12120,"sudo":12121,"Ġppfr":12122,"Ġ1000001000":12123,"Ġ\")\"":12124,"Ġttme":12125,"brary":12126,"ders":12127,"raja":12128,"ikung":12129,"Ġqueuel":12130,"ries":12131,"mond":12132,"14159265358979323846264338327":12133,"Ġ---------------------------------":12134,"Constants":12135,"ĠLongMinVal":12136,"ĠGetAns":12137,"ĠREAY":12138,"ĠREAJU":12139,"Ġabcd":12140,"Ġ-------------------------":12141,"Ġvpull":12142,"Ġvpuu":12143,"Ġfdn":12144,"Ġvaild":12145,"Ġwrites":12146,"Reader":12147,"ĠUNDEF":12148,"ĠUNSYNC":12149,"âĸĢâĸĢâĸĢâĸĢâĸĦ":12150,"writes":12151,"local":12152,"Ġert":12153,"Ġï¿½@ï¿½ï¿½":12154,"âĸĪâĸĪâĸĪâĸĪâĸĪâĸĪâĸĪâĸĪâĸĪâĸĪâĸĪâĸĪâĸĪâĸĪâĸĪâĸĪ":12155,"Ġcalls":12156,"Desmond":12157,"factorize":12158,"141592653593":12159,"ĠCOMI":12160,"Ġappend":12161,"Ġvldbl":12162,"Ġ2134567891":12163,"ĠSHOWQUEUE":12164,"ĠFRW":12165,"Ġinitialise":12166,"ĠDiego":12167,"ĠChulal":12168,"Ġclzll":12169,"ĠVPd":12170,"ĠVPi":12171,"ĠVPll":12172,"ĠFLUSH":12173,"teams":12174,"ĠgetFoo":12175,"Ġabcde":12176,"Ġworst":12177,"Ġ******************************************/":12178,"Ġctzll":12179,"Ġkhoda":12180,"ĠEXPONENT":12181,"Increment":12182,"tama":12183,"Ġbsrll":12184,"ðŁ¦ĬðŁ¦ĬðŁ¦ĬðŁ¦Ĭ":12185,"å®ĩåĩ":12186,"ĠPAIRLL":12187,"æŀľ":12188,"chuan":12189,"Ġnpqi":12190,"Ġnpql":12191,"Ġwarukazu":12192,"Writer":12193,"Ġoperations":12194,"ĠWorrach":12195,"indromic":12196,"Ã¡ly":12197,"/*******************************\\":12198,"ĠHAQUE":12199,"Ġé»Ħ":12200,"1999999973":12201,"peted":12202,"Ġpushi":12203,"Ġlpriln":12204,"Ġ99999999999973":12205,"ĠreadUInt":12206,"Ġsquare":12207,"Ġ\"-------\"":12208,"ĠAccpeted":12209,"ĠCampo":12210,"qingchuan":12211,"zhangqingchuan":12212,"Ġostatok":12213,"ĠRodriguez":12214,"ĠGarcia":12215,"ĠHachiikung":12216,"ĠREAYZ":12217,"ĠREAJUL":12218,"Ġï¿½@ï¿½ï¿½:":12219,"ĠCOMILLA":12220,"ĠChulalongkorn":12221,"ĠEXPONENTIATION":12222,"å®ĩåĩ¡":12223,"ĠWorrachate":12224,"Ġé»Ħå®ĩåĩ¡":12225,"11010":12226,"829":12227,"839":12228,":-(":12229,"Dot":12230,"Dfs":12231,"Im":12232,"RL":12233,"Rank":12234,"Rahmanir":12235,"TA":12236,"VV":12237,"]]));":12238,"ares":12239,"bismillahir":12240,"gui":12241,"hand":12242,"hidul":12243,"hvf":12244,"ible":12245,"jay":12246,"kr":12247,"kill":12248,"mii":12249,"matr":12250,"non":12251,"nine":12252,"ness":12253,"ruffle":12254,"rlimit":12255,"sir":12256,"vasu":12257,"xk":12258,"yaki":12259,"~//":12260,"»å":12261,"Î±":12262,"ÏĢ":12263,"Ġ********":12264,"ĠÏĢ":12265,"ĠĠĠĠĠĠĠĠĉĉĉ":12266,"Ġ=:":12267,"orial":12268,"onment":12269,"Ġcle":12270,"Ġast":12271,"Ġ{_":12272,"Ġmath":12273,"Ġfg":12274,"009":12275,"clare":12276,"Ġsfff":12277,"Ġvasu":12278,"--);":12279,"--];":12280,"//--------":12281,"Ġtempl":12282,"Ġtii":12283,"Ġtang":12284,"Ġbend":12285,"Ġrtr":12286,"Ġrvi":12287,"ĠrREP":12288,"Ġrahmanir":12289,"osz":12290,"Ġcins":12291,"Ġ'-');":12292,"Ġye":12293,"ĠMd":12294,"asya":12295,"ansr":12296,"Ġ)*/":12297,"eds":12298,"ĠNCR":12299,"ĠAux":12300,"adox":12301,"ĠSame":12302,"ĠSho":12303,"ĠPSET":12304,"putsi":12305,"Ġcha":12306,"Ġminy":12307,"Ġhvf":12308,"ĠRang":12309,"ĠLN":12310,"ĠLP":12311,"+=\",":12312,"ĠCV":12313,"ĠBase":12314,"ĠBlog":12315,"Ġtoc":12316,"ĠtoDouble":12317,"Ġza":12318,"algorithms":12319,"Ġself":12320,"ther":12321,"Ġsortf":12322,"ĠisEx":12323,"ĠisDigit":12324,"ffloat":12325,"Ġmxy":12326,"vijay":12327,"ï¿½ï¿½ï¿½ï¿½ï¿½ï¿½":12328,"ĠPIL":12329,"ĠUT":12330,"ĠUser":12331,"OCD":12332,"precalc":12333,"589":12334,"ĠHNO":12335,"ĠHappy":12336,"paradox":12337,"Ġthings":12338,"à¦¥":12339,"3794":12340,"309":12341,"Ġshandom":12342,"Ġunq":12343,"ĠKazakhstan":12344,"ĠprintLine":12345,"ĠprintAns":12346,"Ġenvir":12347,"Ġ1003":12348,"Ġpowermod":12349,"readin":12350,"============================":12351,"ularFunction":12352,"digu":12353,"_________________":12354,"exponentiation":12355,"10000000000000000":12356,"Ġ(((_":12357,"ĠIntMinVal":12358,"maton":12359,"msa":12360,"Ġexpressed":12361,"Ġhashset":12362,"Ġhashmap":12363,";--(":12364,"sons":12365,"capacity":12366,"Container":12367,"icks":12368,"ĠSTll":12369,"Compile":12370,"ĠSPACE":12371,"Ġ\"}\";}":12372,"Process":12373,"999999999":12374,"offline":12375,"Ġdefining":12376,"Ġrahim":12377,"1024000":12378,"takemod":12379,"hodox":12380,"Ġonlyunique":12381,"Ġ2000006":12382,"88888888888888888888888888":12383,"zzzz":12384,"Ġ2311":12385,"shortest":12386,"ission":12387,"è¿Ļ":12388,"Ġsubmission":12389,"Ġ5000321":12390,"Ġ201103":12391,"ä»¥":12392,"Ġorthodox":12393,"shahidul":12394,"ĠStarts":12395,"Declare":12396,"Ġtarjan":12397,"ĠBRUR":12398,"2000000100":12399,"artha":12400,"Ġmaybe":12401,"Ġfastpowermod":12402,"ĠLanguage":12403,"Ġeulertotient":12404,"Ġtraverse":12405,"Ġ300009":12406,"Ġoiint":12407,"Ġquitters":12408,"Rahim":12409,"satyaki":12410,"æĹ¶éĹ´":12411,"'}},{{'":12412,"é¢ĺæĦı":12413,"åıĺéĩı":12414,"eulers":12415,"Ġtitose":12416,"ĠJanartha":12417,"ĠShahidul":12418,"ĠÏĢÎ±":12419,"ĠRangpur":12420,"Ġenvironment":12421,"Ġorthodoxparadox":12422,"!\";":12423,"-+":12424,"397":12425,"868":12426,"LN":12427,"OON":12428,"Po":12429,"Suf":12430,"SORT":12431,"TAK":12432,"Treap":12433,"Wunused":12434,"Wmissing":12435,"]'":12436,"_){":12437,"bag":12438,"cod":12439,"esp":12440,"equ":12441,"erest":12442,"hm":12443,"hld":12444,"kp":12445,"ksd":12446,"lpos":12447,"qC":12448,"ranges":12449,"tqu":12450,"udent":12451,"xFFFFFFFFFFFFFF":12452,"±Ã":12453,"å¿":12454,"æŃ":12455,"Ġ@@@":12456,"Ġirep":12457,"ĠĠĠĠĠĠĠĊ":12458,"Ġ(^":12459,"Ġcgh":12460,"Ġmci":12461,"Ġ112":12462,"Ġ<<'":12463,"Ġbpp":12464,"Ġifact":12465,"att":12466,"Ġdar":12467,"izza":12468,"ĠTLE":12469,"masu":12470,"Ġ==(":12471,"Ġeof":12472,"Ġeval":12473,"forl":12474,"Ġks":12475,"Ġgn":12476,"ĠMMS":12477,"ither":12478,"Ġprof":12479,"<=___":12480,"),__":12481,"ĠNDEBUG":12482,"adur":12483,"maxc":12484,"maximum":12485,"ĠminHeap":12486,"Ġhate":12487,"ĠRs":12488,"ĠRange":12489,"ĠLs":12490,"ĠLow":12491,"649":12492,"curTime":12493,"ĠDY":12494,"ĠDiv":12495,"triple":12496,"ĠColl":12497,"indices":12498,"ĠIII":12499,"ĠBir":12500,"]]<<":12501,"Ġzwr":12502,"ĠFORS":12503,"inputs":12504,"Ġ--+":12505,"Ġmxe":12506,"ĠMAXI":12507,"**********************************************************":12508,"tmpv":12509,"5863":12510,"abin":12511,"ALAM":12512,"Ġ67":12513,"Inf":12514,"Ġunk":12515,"ĠKh":12516,"ĠKings":12517,"ĠKALAM":12518,"Ġprintii":12519,"Ġ1007":12520,"Ġnextp":12521,"163":12522,"387":12523,"elm":12524,"Ġnewnode":12525,"ĠnewNode":12526,"lowbit":12527,"]>'":12528,"Ġpaint":12529,"vvb":12530,"100000000000000":12531,"costs":12532,"shit":12533,"Ġppap":12534,"592":12535,"270":12536,"solved":12537,"Ġ(;(":12538,"ETCH":12539,"Ġbsl":12540,"4713":12541,"ĠPRIME":12542,"Ġsml":12543,"EMESH":12544,"Ġ\")\";}":12545,"Level":12546,"691":12547,"ĠREVI":12548,"Ġlnf":12549,"0000000100":12550,"ĠimprimirVector":12551,"/**************************************************************":12552,"DataIn":12553,"DataOut":12554,"IGMA":12555,"Ġwhole":12556,"ĠGETB":12557,"ĠREVS":12558,"ĠREVII":12559,"Ġactual":12560,"Ġanyway":12561,"Ġpeat":12562,"_.__":12563,"_______,":12564,"1333":12565,"ĠToStr":12566,"Ġ'+';":12567,"Ġ1000000000000000005":12568,"nvj":12569,"åĲĮ":12570,"ĠØ§ÙĦÙĦ":12571,"tember":12572,"ĠTaskA":12573,"ĠÐ¿ÐµÑĢ":12574,"DiffPf":12575,"Ġ987654321":12576,"Ġrequired":12577,"Complexity":12578,"Ġ'>';":12579,"Ġ'<';":12580,"=========////":12581,"BOEB":12582,"ĠOLBOEB":12583,"ĠKnights":12584,"Ġbipartite":12585,"ĠLazySegmentTree":12586,"]==')')":12587,"Ġ\"[]\"":12588,"ÙĬÙħ":12589,"ĠPrintVl":12590,"Ġ==========================================////":12591,"ĠBiEdge":12592,"declarations":12593,"Ġsatis":12594,"Ġcandidates":12595,"âłĢâłĢâłĢâłĢâłĢâłĢâłĢ":12596,"Ġnemat":12597,"Ġhastam":12598,"å¦Ĥæŀľ":12599,"ĠPREFETCH":12600,"Ġ555557":12601,"æ²¡":12602,"iliary":12603,"msawy":12604,"eresting":12605,"xFFFFFFFFFFFFFFFL":12606,"Ġcghf":12607,"Ġzwraca":12608,"EMESHOON":12609,"\"},":12610,"']==":12611,")...);":12612,"477":12613,"863":12614,"April":12615,"DA":12616,"Febr":12617,"HH":12618,"Mint":12619,"March":12620,"MUL":12621,"Nah":12622,"NIT":12623,"PA":12624,"Score":12625,"]/(":12626,"affect":12627,"blocked":12628,"fread":12629,"global":12630,"istr":12631,"kir":12632,"ned":12633,"|)":12634,"}]++;":12635,"ĠâĸĪâĸĪâķĹ":12636,"intd":12637,"ĠĠĠĠĠĠĠĉĉ":12638,"Ġcev":12639,"Ġlnd":12640,"Ġmatr":12641,"Ġpque":12642,"ury":12643,"//!":12644,"Ġtll":12645,"Ġtip":12646,"amps":12647,"convex":12648,"iro":12649,"Ġxf":12650,"Ġmade":12651,"Ġ'-',":12652,"))>":12653,"))]);":12654,"ĠMou":12655,"Ġ<=(":12656,"pairt":12657,"ĠFK":12658,"ĠFFOR":12659,"isupper":12660,"added":12661,"opencv":12662,"ĠSYNC":12663,"ĠSingh":12664,"ĠSPBR":12665,"Ġoh":12666,"ĠLocal":12667,"(){__":12668,"ĠĠĠĠĠĠĠĠĠĠĠĠĠĠĠĠĠĠĠĠĠĠĠĠĠĠĠĠĠĠĠĠĠčĊ":12669,"ĠDsu":12670,"ĠCT":12671,"Ġstrings":12672,"Ġldd":12673,"ĠBah":12674,"Ġtostring":12675,"Ġsequence":12676,"allowed":12677,"ĠisWhitespace":12678,"exhausted":12679,"Ġstrip":12680,"arthest":12681,"1228":12682,"ĠEgor":12683,"ĠEnglish":12684,"2017":12685,"330":12686,"///**********************************************************":12687,"Ġadjust":12688,"aban":12689,"abbb":12690,"nei":12691,"Ġdiameter":12692,"ĠKulikov":12693,"ĠupdateRange":12694,"Ġcounting":12695,"Ġstarted":12696,"ghjkl":12697,"]+='":12698,"Ġpopcount":12699,"77216":12700,"1415926535897932385":12701,"141592653589793238510":12702,"Ġdisco":12703,"Ġmsb":12704,"Ġ2012":12705,"iller":12706,"Ġ'<<__":12707,"Ġtmd":12708,"Ġlbd":12709,"Ġindexes":12710,"Ġsimple":12711,"Ġ','":12712,"/************************************/":12713,"multipleTestMode":12714,"Ġ');\\":12715,"Ġ`--'":12716,"3001":12717,"ĠMININT":12718,"ĠreadIntArray":12719,"Ġ1000000033":12720,"Ġwritten":12721,"ffffffff":12722,"ĉĉĉĉĉĉĉĉĉĉĉĉĉĉĉĉ":12723,"Ġscnll":12724,"Ġraj":12725,"ĠDEBA":12726,"ĠPRINTM":12727,"Algorithm":12728,"Ġfeel":12729,"ĠrelaxMin":12730,"Ġorth":12731,"CLionProjects":12732,"Ġcubic":12733,"ĠIFDEB":12734,"/*****************************************/":12735,"è¡Į":12736,"ĠRaj":12737,"Ġ********************************************/":12738,"ĠBanga":12739,"SPEED":12740,"Ġ'<')":12741,"Ġà¦Ĩà¦Ľ":12742,"Ġrectangle":12743,"å°ıçļĦ":12744,"Ġ????":12745,"14159265358979323846264338327950288419716939937510582097494459230":12746,"Ġ\"[]\";":12747,"ä¼ĺ":12748,"bbbbbbbbbbbbbbb":12749,"ĠSolved":12750,"ĠInvMod":12751,"besmellah":12752,"Ġbusy":12753,"ĠHossain":12754,"åľ¨":12755,"Ġdeleted":12756,"Ġtraversal":12757,"TXT":12758,"January":12759,"Ġ**********/":12760,"ĠKhatri":12761,"February":12762,"Nahid":12763,"ĠBahadur":12764,"///**********************************************************//":12765,"bbbbbbbbbbbbbbbll":12766,"\"[]":12767,"&((":12768,")]==":12769,"130":12770,"500001":12771,"628":12772,"Dim":12773,"DtoU":12774,"Found":12775,"June":12776,"LtoR":12777,"November":12778,"RtoL":12779,"SW":12780,"Suffix":12781,"WH":12782,"]--)":12783,"aN":12784,"aX":12785,"aft":12786,"cbase":12787,"csum":12788,"iit":12789,"jat":12790,"umap":12791,"yw":12792,"¨æĦı":12793,"å½":12794,"çĶ":12795,"dered":12796,"stp":12797,"Ġib":12798,"inear":12799,"send":12800,"Ġnf":12801,"Ġpaa":12802,"Ġppll":12803,"++=":12804,"Ġ1500":12805,"oudh":12806,"()?":12807,"Ġvot":12808,"//____":12809,"Ġbro":12810,"atsub":12811,"][\"":12812,"Ġdabl":12813,"Ġxm":12814,"Ġxwb":12815,"mpow":12816,"Ġrj":12817,"ĠĠĠĠĠĠĠĠĠĠĠĠĠĠĠĠĊ":12818,"ĠTCase":12819,"uev":12820,"Ġep":12821,"Ġreu":12822,"Ġyc":12823,"##=":12824,"*************":12825,"Ġprm":12826,"chs":12827,"<<\"#":12828,"Ġconti":12829,"));++":12830,"isok":12831,"Ġmodr":12832,"ĠAC":12833,"--------//":12834,"maxy":12835,"ĠPar":12836,"/////":12837,"Ġ324":12838,"Ġhit":12839,"eso":12840,"Ġmpdi":12841,"')>(":12842,"minj":12843,"ĠĠĠĠĠĠĠĠĠĠĠĠĠĠĠĠĠĠĠĠĠĠĠĠĠĠĠĠĠĠĠĠĠĠ":12844,"ĠĠĠĠĠĠĠĠĠĠĠĠĠĠĠĠĠĠĠĠĠĠĠĠĠĠĠĠĠĠĠĠĠĠĠĠĉ":12845,"Ġsumb":12846,"1129":12847,"\")<<":12848,"Ġtogether":12849,"âĸĳâĸĳâĸĢ":12850,"Ġ'\\'":12851,"pred":12852,"ARK":12853,"Ġ5100000":12854,"toD":12855,"fraid":12856,"ĠAryan":12857,"ocument":12858,"ecut":12859,"Ġmapi":12860,"Ġ100007":12861,"Ġdebugp":12862,"<<'='":12863,"findSet":12864,"1415926358":12865,"parareru":12866,"à¦ľ":12867,"Ġdij":12868,"ĠKey":12869,"Ġcolumn":12870,"ĠnewBuf":12871,"ĠnewBufSize":12872,"sci":12873,"1992":12874,"goa":12875,"primelist":12876,"Points":12877,"hard":12878,"sure":12879,"inition":12880,"60287":12881,"newBufSize":12882,"bufRead":12883,"ĠbufRead":12884,"Ġlibrary":12885,"ĠĠĠĠĠĠĠĠĠĠĠĠĠĠĠĠĠĠĠĠĠčĊ":12886,"Ġcover":12887,"IZATION":12888,"]<<((":12889,"Ġdifferent":12890,"State":12891,"Ġalone":12892,"Ġboy":12893,"Ġrdv":12894,"ĠJHELPER":12895,"negat":12896,"****************************************************************/":12897,")((*":12898,"blk":12899,"Ġbridge":12900,"661":12901,"ĠÐ¼":12902,"Ġkeymod":12903,"ewski":12904,"Ġ1548":12905,"ä¸²":12906,"Ġ---------------------":12907,"ĠMINLL":12908,"]=='.'&&":12909,"200020":12910,"ĠRepd":12911,"Ġnaame":12912,"ova":12913,"Ġsoma":12914,"[_]<<\"":12915,");--(":12916,"ĠceilDiv":12917,"Ġdefinition":12918,"99709":12919,"Ġappro":12920,"Ġbalance":12921,"Ġ200009":12922,"ĠBSBandme":12923,"ĠToNumber":12924,"hanad":12925,"ĠVVL":12926,"ĠChoudh":12927,"åĲİ":12928,"ĠStartPoint":12929,"ĠSOLVE":12930,"COUNT":12931,"_______________\\":12932,"ELEM":12933,"Ġclosest":12934,"December":12935,"718281828459045235360287":12936,"ĠGrzeg":12937,"ĠCompressor":12938,"Optimizations":12939,"FAIL":12940,"October":12941,"Ġgamma":12942,"August":12943,"Ð¢Ð":12944,"æ³¨æĦı":12945,"ISMILLAHIR":12946,"ÐµÐ¼ÐµÐ½":12947,"orzewski":12948,"July":12949,"September":12950,"//*************************************************************************************":12951,"èĬĤçĤ¹":12952,"sirjan":12953,"ĠAuxiliary":12954,"ĠMouhanad":12955,"\"[]:":12956,"DimDice":12957,"atsuba":12958,"ĠChoudhary":12959,"7182818284590452353602874713":12960,"ĠGrzegorzewski":12961,",};":12962,",[](":12963,".*":12964,"224":12965,"453":12966,"631":12967,"=;":12968,"Bach":12969,"Cell":12970,"Document":12971,"GEND":12972,"RARY":12973,"RMQ":12974,"Sl":12975,"Vi":12976,"but":12977,"gar":12978,"hit":12979,"imax":12980,"ling":12981,"vtr":12982,"when":12983,"zip":12984,"{\";":12985,"}])":12986,"~((":12987,"¥¤":12988,"à¥¤":12989,"ç±":12990,"ĉĠĠĠĠĠĠĠĠĠĠĠĠčĊ":12991,"ĠWW":12992,"Ġ$$":12993,"ĠÙĬ":12994,"įæĿ":12995,"inq":12996,"Ġlos":12997,"Ġlwb":12998,"Ġafraid":12999,"Ġmol":13000,"Ġppow":13001,"Ġ04":13002,"ought":13003,"()[":13004,"()});":13005,"Ġvpdd":13006,"//**":13007,"amos":13008,"aman":13009,"];++":13010,"atile":13011,"Ġdg":13012,"Ġdin":13013,"lett":13014,"Ġrval":13015,"ĠĠĠĠĠĠĠĠĠĠĠĠĠĠĠĠĠĠĠĠĉĉ":13016,"ĠTer":13017,"ĠTEMPLATE":13018,"Ġrelease":13019,"Ġ'<<#":13020,"Ġuns":13021,"ĠkStack":13022,"),(-(":13023,"ĠFit":13024,"ĠNMAX":13025,"Ġqwe":13026,"Ġqtd":13027,"ĠAT":13028,"ĠSY":13029,"())){":13030,"=(_":13031,"Ġpushup":13032,"Ġhur":13033,"ots":13034,"cursum":13035,"ĠDMAX":13036,"ĠDuy":13037,"ĠCUR":13038,"Ġgetheight":13039,"ĠGPP":13040,"Ġcurans":13041,"posite":13042,"Ġpiip":13043,"ĠBasicInteger":13044,"ĠBeng":13045,"sumB":13046,"getm":13047,"Ġclf":13048,"ĠLLMAX":13049,"mxi":13050,"320":13051,"323":13052,"html":13053,"ĠOS":13054,"like":13055,"cel":13056,"ceed":13057,"ĠEvent":13058,"ecomposition":13059,"Ġ1000000010":13060,"Ġmny":13061,"âĸĢâĸĦâĸĦâĸĦâĸĦ":13062,"Ġ664":13063,"à¦¸":13064,"]!='.')":13065,"371":13066,"3759":13067,"LEGEND":13068,"ĠInverse":13069,"ĠpowMM":13070,"expect":13071,"5002":13072,"Ġversion":13073,"__,#__":13074,"Ġmts":13075,"Ġupdmax":13076,"Ġexpect":13077,"/****************************************************************************************************************************************************************":13078,"=\"{\";":13079,"parents":13080,"ĠZL":13081,"ailed":13082,"revpro":13083,"blue":13084,"mymap":13085,"Ġ1299709":13086,"ĠĠĠĠĠĠĠĠĠĠĠĠĠĠĠĠĠĠĠĠĠĠĠĠĠĠĠĠĠčĊ":13087,"Exception":13088,"ĠSTARK":13089,"---.":13090,"Ġblue":13091,"ĠRepr":13092,"FUNCTIONS":13093,"+=\"}\";":13094,"GLOBAL":13095,"]=='*'":13096,"141592653589793116":13097,"LIBRARY":13098,"ĠrelaxMax":13099,"ĠExecut":13100,"Ġatoz":13101,"Space":13102,"_^)":13103,"~~~~~~~~~~~~~~~~":13104,"BOY":13105,"ABCDEF":13106,"æŀĲ":13107,"Ġtopology":13108,"ĠFlagship":13109,"ĠCaseT":13110,"Ġdenominator":13111,">((_":13112,"ĠChief":13113,"Ġruntime":13114,"åĪĨæŀĲ":13115,"ĠOrdered":13116,"OPTIMIZATION":13117,"Ġdummy":13118,"WeightedEdge":13119,"Ġ(^_^)":13120,"æ²¡æľī":13121,"ä¼ĺåĮĸ":13122,"Ġ15485863":13123,"Documents":13124,"ĠkStackSize":13125,"ĠBengali":13126,"LEGENDS":13127,"ĠExecutor":13128,"\"<<\"":13129,"DX":13130,"Elem":13131,"Event":13132,"Fenwick":13133,"GH":13134,"GHI":13135,"HopcroftKarp":13136,"PL":13137,"Poly":13138,"catch":13139,"dz":13140,"erep":13141,"msi":13142,"qc":13143,"saved":13144,"tll":13145,"wz":13146,"xhalf":13147,"âļ":13148,"å¾":13149,"Ġ)),":13150,"Ġ......":13151,"ĠâĪ":13152,"ĠĠĠĠĠĠĠĠĉĉĉĉ":13153,"Ġivector":13154,"Ġcmin":13155,"defines":13156,"Ġlat":13157,"Ġlvector":13158,"Ġatt":13159,"Ġaka":13160,"Ġmms":13161,"sell":13162,"Ġfii":13163,"Ġpic":13164,"Ġpick":13165,"Ġsot":13166,"Ġssum":13167,"Ġsbt":13168,"Ġsnu":13169,"()<<'\\":13170,"..;;":13171,"Ġ\"!!!\"":13172,"Ġxhalf":13173,"usz":13174,"Ġ&__":13175,"Ġ*&":13176,"Ġrain":13177,"Ġranges":13178,"Ġrforeach":13179,"ĠTZ":13180,"tik":13181,"Ġ210":13182,"],*":13183,")));}":13184,"Ġkl":13185,"ĠMake":13186,"ĠMMMMMMMM":13187,"ashe":13188,"])&&":13189,"prs":13190,"Ġ//_":13191,"(),_":13192,"Ġqv":13193,"INOUT":13194,"ĠACC":13195,"ĠmaxVal":13196,"ĠSCC":13197,"1010000":13198,"ĠPPC":13199,"Ġarcy":13200,"Ġ__________":13201,"Ġ_________":13202,"Ġmins":13203,"Ġhapp":13204,"____,":13205,"fsum":13206,"ĠDeb":13207,"ĠgetC":13208,"ĠGold":13209,"EPB":13210,"â£¿â£¿â£¿â£·":13211,"Ġses":13212,"ESP":13213,"NOPQ":13214,"ĠoutV":13215,"Ġ1057":13216,"Ġclasses":13217,"Ġison":13218,"mxy":13219,"/*---------------------------":13220,"Ġ--(":13221,"Ġmxi":13222,"267":13223,"________,":13224,"ĠUF":13225,"ĠUSET":13226,"ĠEven":13227,"');\\":13228,"]=='<":13229,")+\"]":13230,"Ġmne":13231,"Ġmnn":13232,"âłĭ":13233,"ĠHamir":13234,"223456":13235,"Ġunions":13236,"direction":13237,"Ġbitch":13238,"ngle":13239,"elapsed":13240,"reading":13241,"ĠreverseEdge":13242,"Ġsubsize":13243,"Ġsqrts":13244,"Ġpqll":13245,"____________________":13246,"yyy":13247,"5003":13248,"Ġtms":13249,")==\"":13250,"milliseconds":13251,"soln":13252,"Ġmatmul":13253,"Ġbrut":13254,"ĠFASTREAD":13255,"ĠFASTINOUT":13256,"myostream":13257,"Ġ1234567":13258,"Ġlogceil":13259,"+++++":13260,"Ġabout":13261,"Ġquick":13262,"ĠINDIA":13263,"______________,":13264,"Ġ100000009":13265,"Ġ'*'){":13266,"ĠFastInv":13267,"Ġbegtime":13268,"à¦¾à¦":13269,"Problem":13270,"*****************************************/":13271,"Ġfactorization":13272,"Ġbugc":13273,"Ġ2000005":13274,"Alpha":13275,"ĠBUFSIZE":13276,"Ġ(#_":13277,"Ġ(#_)":13278,"Ġ(&__":13279,"=============":13280,"tariqul":13281,"FlowEdge":13282,"Ġ********************************************************************************":13283,"__________.":13284,"SHAL":13285,"ĠStruct":13286,"Ġvtll":13287,"Before":13288,"Ġsetbitc":13289,"Ġmismatch":13290,"å¤įæĿ":13291,"Ġsubmodfast":13292,"Ġ*********************************************/":13293,"Prefix":13294,"ĠNXPOW":13295,"JKLM":13296,"Ġcontains":13297,"Ġmakeitnumber":13298,"------------------------------------*/":13299,"ĠâķļâķĲâķĿ":13300,"Ġraichu":13301,"///------------------------------------------------------------":13302,"ĠShort":13303,"ðŁĲ¹ðŁĲ¹ðŁĲ¹ðŁĲ¹":13304,"ĠSWS":13305,"ĠUSEPB":13306,"Ġ=================================================================":13307,"?\"\":\"":13308,"ĠDigvijay":13309,"ĠAPUtil":13310,"Ġdreams":13311,"RSTUVWXY":13312,"ÑģÐ»Ð¸":13313,"ĠBeatMeScanf":13314,"Ġoverrides":13315,"Road":13316,"ĠÐµÑģÐ»Ð¸":13317,"positif":13318,"ĠHLDecomposition":13319,"Ġ23111992":13320,"negatif":13321,"ABCDEFGHI":13322,"âļ¡":13323,"ĠâĪª":13324,"Ġsnuke":13325,"NOPQRSTUVWXY":13326,"ĠUSETR":13327,"ĠHamirpur":13328,"ĠFastInvSqrt":13329,"å¤įæĿĤ":13330,"JKLMNOPQRSTUVWXY":13331,"ABCDEFGHIJKLMNOPQRSTUVWXY":13332,"ABCDEFGHIJKLMNOPQRSTUVWXYZ":13333,"-__":13334,"?')":13335,"As":13336,"Bear":13337,"FLL":13338,"Hello":13339,"Norm":13340,"RD":13341,"RAD":13342,"Sol":13343,"cir":13344,"dw":13345,"dom":13346,"fgh":13347,"fold":13348,"jmp":13349,"kN":13350,"lk":13351,"pld":13352,"ras":13353,"tL":13354,"ually":13355,"vus":13356,"ych":13357,"{*":13358,"·¦":13359,"Øª":13360,"åŃ":13361,"ĠÑ":13362,"Ġ------------":13363,"Ĳæ":13364,"Ġcarr":13365,"Ġcould":13366,"Ġaprime":13367,"Ġmac":13368,"Ġnfor":13369,"Ġpfi":13370,"oul":13371,"Ġsss":13372,"Ġslow":13373,"Ġtis":13374,"Ġ\"*\";":13375,"amin":13376,"erber":13377,"++));":13378,"Ġ&>::":13379,"){_":13380,"Ġllf":13381,"Ġrfact":13382,"ĠĠĠĠĠĠĠĠĠĠĠĠĠĠĠĠĠĠĠĠĠĠčĊ":13383,"==_":13384,"ands":13385,"Ġ'$":13386,"uture":13387,"setup":13388,"Ġmainstream":13389,"Ġinst":13390,"Ġproc":13391,"changed":13392,"ĠAx":13393,"ĠAlso":13394,"Ġoj":13395,"Ġpushdown":13396,"Ġhy":13397,"Ġhepic":13398,"ĠRem":13399,"ĠRAD":13400,"Ġstold":13401,"ressive":13402,"ĠDAS":13403,"ĠDCD":13404,"ĠDCL":13405,"ĠCpC":13406,"Ġgetm":13407,"Ġgetar":13408,"ĠGY":13409,"ĠGo":13410,"Ġallcomp":13411,"--;)":13412,"Ġmemn":13413,"Ġmemmove":13414,"Ġtoadd":13415,"Ġzxc":13416,"ĠoutN":13417,"ĠoutAN":13418,"precd":13419,"ARR":13420,"Ġvip":13421,"ayed":13422,"/*#################################################################################################################":13423,"inserter":13424,"rock":13425,"ĠPIPII":13426,"Ġ100003":13427,"structure":13428,"','.'},{'":13429,"88888888888888":13430,"Ġabso":13431,"Ġdbputs":13432,"ĠfastP":13433,"âĸĦâĸĪ":13434,"Ġdibs":13435,"pls":13436,"faster":13437,"__)<<\"\\":13438,"ĠnewP":13439,"Ġmytype":13440,"ĠALLOC":13441,"Ġmultiplier":13442,"DED":13443,"Ġcalcul":13444,"289":13445,"...............................................":13446,"ording":13447,"88888888888888888888":13448,"prints":13449,"ika":13450,"ĠZI":13451,"ĠZP":13452,"ĠZS":13453,"Ġà¦¨":13454,"0000001":13455,"Ġloopr":13456,"ĠPrintA":13457,"ĠPrintAl":13458,"Ġbridges":13459,"UNSYNC":13460,"683":13461,"ĠMEMSET":13462,"ÐµÑģ":13463,"Ġ15000000":13464,"servers":13465,"Ġpdl":13466,"Composite":13467,"Ġbacking":13468,"ĠvpDD":13469,"ÑĤÐ°":13470,"cbc":13471,"Ġsoclose":13472,"Ġopenin":13473,"Ġopenout":13474,"Ġlinks":13475,"intervals":13476,"Ġtried":13477,"141592653589793238462643383279502884":13478,"loads":13479,"ĠTESTSI":13480,"jdk":13481,"Ġ****************************":13482,"ĠDLS":13483,"ĠDLX":13484,"âĸĪâĸĪâĸĪâĸĪâĸĪâĸĪâĸĪâķĹ":13485,"Unique":13486,"ĠDSL":13487,"#################################################################################################################*/":13488,"///*....":13489,"Ġcards":13490,"Ġkhodaa":13491,"ĠELEM":13492,"Corvus":13493,"Ġcoprime":13494,"ĠPPIIPII":13495,"Ġallrevcomp":13496,"labels":13497,"/***********************************************************************/":13498,"ĠClass":13499,"Ġkaratsuba":13500,"Ġ105727":13501,"ĠStructure":13502,"ĠShortcut":13503,"Ġ==========================================================================":13504,"å¤įæĿĤåº¦":13505,"Ġtisic":13506,"erberus":13507,"ĠCpCm":13508,"\"[++":13509,"+\");":13510,"126":13511,"450":13512,"529":13513,"617":13514,"<-":13515,"Bis":13516,"CX":13517,"Day":13518,"Dell":13519,"Hull":13520,"LPS":13521,"Man":13522,"Mind":13523,"Match":13524,"OFF":13525,"Pa":13526,"\\__,":13527,"]},":13528,"blo":13529,"cans":13530,"cary":13531,"gu":13532,"ging":13533,"hdsh":13534,"jK":13535,"jb":13536,"kmp":13537,"lnum":13538,"lcs":13539,"obuf":13540,"pj":13541,"pk":13542,"post":13543,"pNode":13544,"rj":13545,"snk":13546,"xo":13547,"yFree":13548,"zai":13549,"ĉĠĠĠĠĉĉ":13550,"Ġë":13551,"ŀĭ":13552,"ŃÃł":13553,"dext":13554,"Ġcool":13555,"Ġcot":13556,"Ġlh":13557,"Ġlu":13558,"Ġlag":13559,"Ġfour":13560,"Ġnet":13561,"ouse":13562,"Ġsnum":13563,"Ġsark":13564,"Ġsample":13565,"()*(":13566,"Ġ<<<<":13567,"returns":13568,"Ġtg":13569,"Ġbor":13570,"Ġforrr":13571,"acaba":13572,"Ġ\")<<":13573,"irtual":13574,"Ġrsum":13575,"ĠTwo":13576,"ĠTra":13577,"ĠTotal":13578,"Ġcinai":13579,"....*/":13580,"seta":13581,"ĠMF":13582,"ĠMerciful":13583,"Ġ|((":13584,"ĠmodIn":13585,"ĠmodExpo":13586,"ĠAli":13587,"imi":13588,"maxk":13589,"ĠPal":13590,"Ġchmod":13591,"Ġchrs":13592,";}///":13593,"Ġdpt":13594,"Ġ_,":13595,"Ġ316":13596,"Ġhav":13597,"ĠROO":13598,"ically":13599,"0000000001":13600,"')&&":13601,"curNode":13602,"miny":13603,"ĠCor":13604,"ĠGO":13605,"ĠcurL":13606,"Ġcurt":13607,"Ġseems":13608,"alll":13609,"ĠrepR":13610,"getv":13611,"Ġ501":13612,"Ġisch":13613,"Ġisalpha":13614,"(!)":13615,"Ġ\\_____":13616,"mxn":13617,"inputf":13618,"Ġ4996":13619,">&,":13620,"ĠREPI":13621,"MODULO":13622,"///******************************************":13623,"oktama":13624,"mnx":13625,"Ġoka":13626,"abcc":13627,"5095":13628,"ĠYa":13629,"Ġunder":13630,"Ġ10010":13631,"chrs":13632,"465":13633,"ĠWill":13634,"Ġmylittle":13635,"combin":13636,"Ġorient":13637,"1000000000000":13638,"178":13639,"avel":13640,"Ġ1000007":13641,"Ġneeds":13642,"Ġupdmin":13643,"Ġrevpr":13644,"ANC":13645,")?-(":13646,"raft":13647,"raand":13648,"Ġperform":13649,"âĶĢâĶĢâĸĪ":13650,"ĠPrintWriter":13651,"myistream":13652,"Ġ1234":13653,"ĠDIVI":13654,"Ġabove":13655,"Ġproject":13656,"ä¸ĭ":13657,"verso":13658,"Ġshortcuts":13659,"âĢĿ":13660,"Ġlolo":13661,"ãģ«":13662,"ĠNumberToString":13663,"Ġpatkan":13664,"Ġ\"!(!":13665,"ĠÃŃÃł":13666,"DIS":13667,"Ġfailure":13668,"loadyFree":13669,"Ġvrit":13670,"Ġsons":13671,"cstdarg":13672,"ĠLSB":13673,"gonal":13674,"ĠPLPLL":13675,"Ġortho":13676,"transform":13677,"botl":13678,"Ġtenp":13679,"Ã¥ÃŃ":13680,"Ġ':'":13681,"feof":13682,"goals":13683,"------------------------------------->":13684,"!!!!!!!!":13685,"ĠGenerator":13686,"æī¾":13687,"Ġratoz":13688,"Multiply":13689,"ĠScanReader":13690,"Ġbekid":13691,"ĠCAKE":13692,"»åŀĭ":13693,"Ġclean":13694,"ĠSameh":13695,"ĠisExhausted":13696,"æĹ¶éĹ´å¤įæĿĤåº¦":13697,"ĠÐ¿ÐµÑĢÐµÐ¼ÐµÐ½":13698,"Ġ'\\'';":13699,"ç±»åŀĭ":13700,"Ġ------------>":13701,"Bisnu":13702,"Ġsarkar":13703,"Ġ\")<<*":13704,"ĠmodInverso":13705,"ĠÐ¿ÐµÑĢÐµÐ¼ÐµÐ½Ð½":13706,",!":13707,",#":13708,"633":13709,"859":13710,"943":13711,"937":13712,">().":13713,"Akikaze":13714,"Anton":13715,"Done":13716,"Defines":13717,"ISHAL":13718,"KAZ":13719,"Mur":13720,"Py":13721,"Temp":13722,"Tour":13723,"Total":13724,"Will":13725,"[(*":13726,"aj":13727,"au":13728,"dk":13729,"djk":13730,"fg":13731,"jh":13732,"kil":13733,"pool":13734,"tG":13735,"ton":13736,"tos":13737,"xmax":13738,"}},":13739,"ÐĴ":13740,"ĉĠčĊ":13741,"Ġ]);":13742,"ĠÑĤÐ¾":13743,"Ġir":13744,"Ġcast":13745,"Ġcour":13746,"Ġlight":13747,"Ġamid":13748,"Ġfailed":13749,"Ġnor":13750,"++);}":13751,"Ġ01":13752,"oud":13753,"Ġsdp":13754,"Ġsnow":13755,"Ġvw":13756,"Ġtle":13757,"Ġbh":13758,"acy":13759,"acbb":13760,"Ġdob":13761,"Ġrmax":13762,"==*\\":13763,"typedefs":13764,"hij":13765,"Ġ'=":13766,"Ġ'='":13767,"))+(":13768,"Ġwould":13769,"Ġgold":13770,"ĠMARS":13771,"Ġ,-":13772,"]=!":13773,"Ġmaxy":13774,"ĠSUB":13775,"Ġarsi":13776,"())=='\\":13777,"emies":13778,"undefined":13779,"Ġmakev":13780,"ĠDOWN":13781,"ĠDESP":13782,"ĠCmp":13783,"Ġsumx":13784,"ĠInc":13785,"ĠBx":13786,"ĠBar":13787,"Ġtomax":13788,"Ġtoggle":13789,"Ġrepst":13790,"that":13791,"Ġ79":13792,"ĠVB":13793,"Ġ\\_\\":13794,"iosfwd":13795,"Ġtreemin":13796,"100111":13797,"ĠreadS":13798,"occur":13799,"2015":13800,"Ġ66666":13801,"Inline":13802,"Info":13803,"park":13804,"Ġdia":13805,"ACIT":13806,"ĠĠĠĠĠĠĠĠĠĠĠĠĠĠĠĠĠĠĠĠĠĠĠĠĠĠĠĠĠĠĠĠĠĠĠĠĠĠĠĠĠĠĠĠĉĉĉ":13807,"Ġspan":13808,"invf":13809,"-'+":13810,"testcase":13811,"Noisy":13812,"Ġvln":13813,"teja":13814,"Ġcoins":13815,"Ġtaala":13816,"Ġalgo":13817,"âĸĵâĸĪâĸĪ":13818,"............................":13819,"LeMur":13820,"ĠDIM":13821,"4444":13822,"ĠINV":13823,"states":13824,"='-'+":13825,"999999999999":13826,"Ġï¿½ï¿½ï¿½ï¿½ï¿½ï¿½ï¿½,":13827,"ĠĠĠĠĠĠĠĠĠĠĠĠĠĠĠĠĠĠĠĠĠĠĠĠĠĠĠĠĠĠĠĠĠĠĠĉĉĉ":13828,"Ġpldld":13829,"ĠØ¨":13830,"append":13831,"Ġpolar":13832,"calls":13833,"Ġ200002":13834,"Ġmodexp":13835,"æķ°æį":13836,"Ġ|\\__,_|":13837,"ĠOptim":13838,"iball":13839,"EXT":13840,"Coded":13841,"äºİ":13842,"ÑĥÑİ":13843,"ĠARYANC":13844,"WISE":13845,"512000000":13846,"ĠĠĠĠĠĠĠĠĠĠĠĠĠĠĠĠĠĠĠĠĠĠĠĠĠĠĠĠĠĠĠĠĠĠĠĠĠĠĠĠĠĠĠĠĠĠĠĠĠĠĠĠĠĠĠĠĠĠĠĠĠĠĠĠĠĠĠĠĠĠĠĠĠĠĠĠĠĠĠĠĠĠĠĠĠĠĠĠĠĠĠĠĠĠĠĠĠĠĠĠĠĠĠĠĠĠĠĠĠĠĠĠĠĠĠĠĠĠĠĠĠĠĠĠĠĠĠĠĠĠĠĠĠĠĠĠĠĠĠĠĠĠĠĠĠĠĠĠĠĠĠĠĠĠĠĠĠĠĠĠĠĠĠĠĠĠĠĠĠĠĠĠĠĠĠĠĠĠĠĠĠĠĠĠĠĠĠĠĠĠĠĠĠĠĠĠĠĠĠĠĠĠĠĠĠĠĠĠĠĠĠĠĠĠĠĠĠĠĠĠĠĠĠĠĠĠĠĠĠĠĠĠĠĠĠĠĠĠĠĠĠĠĠĠĠĠĠĠĠĠĠĠĠĠĠĠĠĠĠĠĠĠĠĠĠĠĠĠĠĠĠĠĠĠĠĠĠĠĠĠĠĠĠĠĠĠĠĠĠĠĠĠĠĠĠĠĠĠĠĠĠĠĠĠĠĠĠĠĠĠĠĠĠĠĠĠĠĠĠĠĠĠĠĠĠĠĠĠĠĠĠĠĠĠĠĠĠĠĠĠĠĠĠĠĠĠĠĠĠĠĠĠĠĠĠĠĠĠĠĠĠĠĠĠĠĠĠĠĠĠĠĠĠĠĠĠĠĠĠĠĠĠĠĠĠĠĠĠĠĠĠĠĠĠĠĠĠĠĠĠĠĠĠĠĠĠĠĠĠĠĠĠĠĠĠĠĠĠĠĠĠĠĠĠĠĠĠĠĠĠĠĠĠĠĠĠĠĠĠĠĠĠĠĠĠĠĠĠĠĠĠĠĠĠĠĠĠĠĠĠĠĠĠĠĠĠĠĠĠĠĠĠĠĠĠĠĠĠĠĠĠĠĠĠĠĠĠĠĠĠĠĠĠĠĠĠĠĠĠĠĠĠĠĠĠĠĠĠĠĠĠĠĠĠĠĠĠĠĠĠĠĠĠĠĠĠĠĠĠĠĠĠĠĠĠĠĠĠĠĠĠĠĠĠĠĠĠĠĠĠĠĠĠĠĠĠĠĠĠĠĠĠĠĠĠĠĠĠĠĠĠĠĠĠĠĠĠĠĠĠĠĠĠĠĠĠĠĠĠĠĠĠĠĠĠĠĠĠĠĠĠĠĠĠĠĠĠĠĠĠĠĠĠĠĠĠĠĠĠĠĠĠĠĠĠĠĠĠĠĠĠĠĠĠĠĠĠĠĠĠĠĠĠĠĠĠĠĠĠĠĠĠĠĠĠĠĠĠĠĠĠĠĠĠĠĠĠĠĠĠĠĠĠĠĠĠĠĠĠĠĠĠĠĠĠĠĠĠĠĠĠĠĠĠĠĠĠĠĠĠĠĠĠĠĠĠĠĠĠĠĠĠĠĠĠĠĠĠĠĠĠĠĠĠĠĠĠĠĠĠĠĠĠĠĠĠĠĠĠĠĠĠĠĠĠĠĠĠĠĠĠĠĠĠĠĠĠĠĠĠĠĠĠĠĠĠĠĠĠĠĠĠĠĠĠĠĠĠĠĠĠĠĠĠĠĠĠĠĠĠĠĠĠĠĠĠĠĠĠĠĠĠĠĠĠĠĠĠĠĠĠĠĠĠĠĠĠĠĠĠĠĠĠĠĠĠĠĠĠĠĠĠĠĠĠĠĠĠĠĠĠĠĠĠĠĠĠĠĠĠĠĠĠĠĠĠĠĠĠĠĠĠĠĠĠĠĠĠĠĠĠĠĠĠĠĠĠĠĠĠĠĠĠĠĠĠĠĠĠĠĠĠĠĠĠĠĠĠĠĠĠĠĠĠĠĠĠĠĠĠĠĠĠĠĠĠĠĠĠĠĠĠĠĠĠĠĠĠĠĠĠĠĠĠĠĠĠĠĠĠĠĠĠĠĠĠĠĠĠĠĠĠĠĠĠĠĠĠĠĠĠĠĠĠĠĠĠĠĠĠĠĠĠĠĠĠĠĠĠĠĠĠĠĠĠĠĠĠĠĠĠĠĠĠĠĠĠĠĠĠĠĠĠĠĠĠĠĠĠĠĠĠĠĠĠĠĠĠĠĠĠĠĠĠĠĠĠĠĠĠĠĠĠĠĠĠĠĠĠĠĠĠĠĠĠĠĠĠĠĠĠĠĠĠĠĠĠĠĠĠĠĠĠĠĠĠĠĠĠĠĠĠĠĠĠĠĠĠĠĠĠĠĠĠĠĠĠĠĠĠĠĠĠĠĠĠĠĠĠĠĠĠĠĠĠĠĠĠĠĠĠĠĠĠĠĠĠĠĠĠĠĠĠĠĠĠĠĠĠĠĠĠĠĠĠĠĠĠĠĠĠĠĠĠĠĠĠĠĠĠĠĠĠĠĠĠĠĠĠĠĠĠĠĠĠĠĠĠĠĠĠĠĠĠĠĠĠĠĠĠĠĠĠĠĠĠĠĠĠĠĠĠĠĠĠĠĠĠĠĠĠĠĠĠĠĠĠĠĠĠĠĠĠĠĠĠĠĠĠĠĠĠĠĠĠĠĠĠĠĠĠĠĠĠĠĠĠĠĠĠĠĠĠĠĠĠĠĠĠĠĠĠĠĠĠĠĠĠĠĠĠĠĠĠĠĠĠĠĠĠĠĠĠĠĠĠĠĠĠĠĠĠĠĠĠĠĠĠĠĠĠĠĠĠĠĠĠĠĠĠĠĠĠĠĠĠĠĠĠĠĠĠĠĠĠĠĠĠĠĠĠĠĠĠĠĠĠĠĠĠĠĠĠĠĠĠĠĠĠĠĠĠĠĠĠĠĠĠĠĠĠĠĠĠĠĠĠĠĠĠĠĠĠĠĠĠĠĠĠĠĠĠĠĠĠĠĠĠĠĠĠĠĠĠĠĠĠĠĠĠĠĠĠĠĠĠĠĠĠĠĠĠĠĠĠĠĠĠĠĠĠĠĠĠĠĠĠĠĠĠĠĠĠĠĠĠĠĠĠĠĠĠĠĠĠĠĠĠĠĠĠĠĠĠĠĠĠĠĠĠĠĠĠĠĠĠĠĠĠĠĠĠĠĠĠĠĠĠĠĠĠĠĠĠĠĠĠĠĠĠĠĠĠĠĠĠĠĠĠĠĠĠĠĠĠĠĠĠĠĠĠĠĠĠĠĠĠĠĠĠĠĠĠĠĠĠĠĠĠĠĠĠĠĠĠĠĠĠĠĠĠĠĠĠĠĠĠĠĠĠĠĠĠĠĠĠĠĠĠĠĠĠĠĠĠĠĠĠĠĠĠĠĠĠĠĠĠĠĠĠĠĠĠĠĠĠĠĠĠĠĠĠĠĠĠĠĠĠĠĠĠĠĠĠĠĠĠĠĠĠĠĠĠĠĠĠĠĠĠĠĠĠĠĠĠĠĠĠĠĠĠĠĠĠĠĠĠĠĠĠĠĠĠĠĠĠĠĠĠĠĠĠĠĠĠĠĠĠĠĠĠĠĠĠĠĠĠĠĠĠĠĠĠĠĠĠĠĠĠĠĠĠĠĠĠĠĠĠĠĠĠĠĠĠĠĠĠĠĠĠĠĠĠĠĠĠĠĠĠĠĠĠĠĠĠĠĠĠĠĠĠĠĠĠĠĠĠĠĠĠĠĠĠĠĠĠĠĠĠĠĠĠĠĠĠĠĠĠĠĠĠĠĠĠĠĠĠĠĠĠĠĠĠĠĠĠĠĠĠĠĠĠĠĠĠĠĠĠĠĠĠĠĠĠĠĠĠĠĠĠĠĠĠĠĠĠĠĠĠĠĠĠĠĠĠĠĠĠĠĠĠĠĠĠĠĠĠĠĠĠĠĠĠĠĠĠĠĠĠĠĠĠĠĠĠĠĠĠĠĠĠĠĠĠĠĠĠĠĠĠĠĠĠĠĠĠĠĠĠĠĠĠĠĠĠĠĠĠĠĠĠĠĠĠĠĠĠĠĠĠĠĠĠĠĠĠĠĠĠĠĠĠĠĠĠĠĠĠĠĠĠĠĠĠĠĠĠĠĠĠĠĠĠĠĠĠĠĠĠĠĠĠĠĠĠĠĠĠĠĠĠĠĠĠĠĠĠĠĠĠĠĠĠĠĠĠĠĠĠĠĠĠĠĠĠĠĠĠĠĠĠĠĠĠĠĠĠĠĠĠĠĠĠĠĠĠĠĠĠĠĠĠĠĠĠĠĠĠĠĠĠĠĠĠĠĠĠĠĠĠĠĠĠĠĠĠĠĠĠĠĠĠĠĠĠĠĠĠĠĠĠĠĠĠĠĠĠĠĠĠĠĠĠĠĠĠĠĠĠĠĠĠĠĠĠĠĠĠĠĠĠĠĠĠĠĠĠĠ":13847,"ĠCHECKTIME":13848,"ĠĠĠĠĠĉĠĉĠ":13849,"ÐºÐ¾Ð¼":13850,"Ġsupported":13851,"ĠSqrtM":13852,"seudo":13853,"dodge":13854,
[...]
